#version: 0.2
Ġ e
e r
Ġ s
Ġ i
u m
q u
t i
Ġ a
u s
Ġ p
i s
i t
Ġ c
e n
Ġ d
o n
Ġ u
Ġ qu
o r
a t
e m
e s
Ġ n
a m
Ġi n
a n
Ġ m
l i
Ġe t
a e
u r
i n
o s
Ġ t
i c
Ġ f
r e
u n
o m
Ġ h
Ġp r
a r
Ġd e
i m
e t
s t
a ti
u l
e c
i d
a s
en t
qu e
o d
Ġe st
Ġc on
u t
Ġa d
Ġ l
b us
a c
Ġqu i
Ġs u
o c
un t
Ġn on
Ġ re
o l
a l
e l
Ġs e
an t
u d
o p
er e
a b
r i
Ġe x
Ġp er
en ti
Ġd i
Ġu t
Ġ g
t er
or um
i us
s e
t a
c i
Ġ r
t r
u er
en s
u it
Ġs i
Ġ b
om in
i r
en d
Ġqu od
g n
Ġ .
Ġa n
p er
ti s
i l
o b
Ġi l
i a
om n
Ġc um
Ġd ic
i bus
Ġse d
Ġ omn
ati on
at ur
Ġu er
o t
Ġa ut
b i
d i
it ur
i li
Ġil l
Ġm e
Ġa li
u c
Ġqu ae
u i
r a
Ġa b
Ġu n
Ġp os
li c
t e
Ġa c
p s
Ġe s
Ġe r
t um
d e
Ġpr ae
r is
a re
Ġn os
a p
Ġpr o
an d
ar i
Ġd omin
t us
Ġi m
c e
ati s
ti on
f ic
e g
an c
e b
Ġa p
Ġe n
Ġf ac
it at
is s
Ġm a
Ġqui a
Ġc h
Ġu el
Ġc om
Ġs p
Ġcon s
Ġh ab
t o
Ġc or
Ġen im
Ġs unt
im us
Ġc o
Ġi ps
es t
i um
es s
ti n
Ġaut em
g o
un d
Ġh oc
ci p
Ġqu am
Ġqu id
Ġpr op
is c
Ġt u
Ġ Î
Ġp ar
i o
Ġn ec
or e
ti am
i am
c l
Ġs ic
un c
Ġ op
Ġqu o
em p
Ġs anc
Ġe ius
Ġ li
Ġes se
Ġn e
Ġsu b
Ġu id
ti t
Ġa r
Ġu i
Ġi d
Ġ or
Ġp at
d ic
i on
Ġa t
in e
Ġe c
el l
Ġa m
Ġp l
tr a
Ġch ris
i i
Ġt er
ar um
it er
Ġf ili
ae c
Ġ ob
u is
Î ±
Ġa l
Ġs c
Ġin ter
Ġqu a
Î ¹
at us
Ġs ol
et ur
ti m
h i
Ġu ir
en i
Î ¿
Ġp ot
Ġe tiam
at a
Ġc a
qu am
Ġde i
li g
Ġm or
uer s
Î ½
ent es
Ġt am
Ġr es
Ġsu per
cl es
an s
Ġe p
Ï Ħ
Ġec cles
Ġs ec
Ġs er
f er
Ġf r
at um
u b
Ġpr a
ob is
Ġi ta
t or
Ġt r
Ġh omin
Ġf or
Ġt emp
Ġi ud
u ius
Ġre g
Ġan im
Ġp ec
t u
ation e
ant ur
d it
Ġs it
a li
Ġd es
Ġli b
Ġf id
a u
Ġc ar
Ġu ol
Ġg r
er i
Ġ oc
Î µ
Ġc re
Ġm an
Ġin t
a uit
a d
u e
Ġs t
enti a
Ġm ul
at e
Ġpos s
an ti
u p
Ġim p
itat e
Ġt e
t ur
it us
er it
Ġl eg
u in
u g
isc op
t em
Ġb on
Ġuer o
l a
Ġat que
or is
i ae
Ġi us
ce p
Ġer go
er n
os t
Ġd is
Ġ ,
Ġl oc
Ġcom m
Ġsp ir
od o
ti o
Ġali qu
Ġs al
Ġs ac
Ġsic ut
Ġp o
er unt
ati o
Ġs im
ri p
f ec
Ġe um
Ġu es
is i
en e
er et
Ġnos tr
Ġa s
Ġpos t
or em
Ġ o
u li
Ġin c
in t
Ġpec c
Ġn o
Ġcor p
it as
Ġm on
Ġde us
Ġan n
Ġs um
Ġh aec
Ġc ap
Ġu it
in is
Ġd u
Ġep iscop
e li
Ġg en
a g
l e
Ġdi x
Ġqui bus
Ï ħ
itat em
p r
enti s
ation em
Ġin u
Ġde c
Ġtam en
Ġu en
Ġpra es
r um
and o
Ġsec und
Ġpr im
Ġin s
a ud
unt ur
Ġcon f
ent ur
an g
it um
Ġpot est
Ġa ud
Ġn ul
Ġa g
uer it
Ġi p
Ġqu em
h il
Ġm i
Ġe o
Ġs ci
am us
Ġn obis
Ġi am
r o
Ġs em
e d
Ġc l
Ġip se
Ġm al
Ġ us
Ġn am
Ġu oc
p on
or es
Ġde b
Ġuer b
Ġqu as
tion e
er is
Ġiud ic
it atis
Ġf i
ent e
ri b
Ġt ant
Ġchris ti
gn i
Ġin f
Ġn isi
u a
u x
Ġn i
Ġh is
Ġil li
Ġdomin us
Ġre c
Ġm ar
Ġ ti
Ï Ĥ
Ġc ur
enti am
p e
tion em
l ec
enti bus
is t
lic et
Ġh um
end um
Ġde o
qu i
Ġi st
al is
Ġqu is
f f
in em
Ġomn es
Ġcom p
Ġ x
Ġc ol
ti a
Ġfr at
Ġomn ia
Ġter r
e at
Ġm is
iss im
Ġc r
Ġs us
Ġe orum
Ġi s
as s
Ï ģ
ti c
Ġu bi
or t
d em
l or
Ġb ene
uer unt
ul o
Ġc i
ir m
Ġp op
Ï ĥ
ent em
at em
Ġsi bi
ic i
er a
em us
ul um
ul is
ti bus
er at
Ġsecund um
Ġgr ati
Ġdi uin
ation is
Ġfac i
Ġdic it
Ġd oc
Ġes s
Î ·
s im
d am
Ġdomin i
g itur
Ġp a
Ġan te
g is
ti us
g it
er um
Ġap p
l o
Ġun de
Ġn omin
Ġe go
Ġti bi
e x
Ġsc rip
Ġe u
Ġmi hi
Ġse p
Ġe os
Ġf ec
an i
f fic
in i
Ġe i
ent um
Ġer at
or ibus
Ġp on
om o
Ġoc c
Ġdi e
Ġe a
Ï Ģ
eb at
e p
Ġne que
Ġca us
es c
Ġcon tra
Ġni hil
ab il
Ġquid em
Ġomn ibus
t am
Ġm in
Ġa et
it a
Ġcre d
g r
c h
Ï ī
Ġs ine
s i
Ġn atur
Ġn unc
Ġper s
od i
ul a
Ġma gn
Ġn um
in g
Ġm em
c um
Ġu ic
or a
an n
Ġill e
Ġre d
Ġc uius
Ġr em
Ġprae dic
Ġco el
Ġm o
Ġh ic
Ġt en
e i
it e
Ġquo que
Ġpr in
cip i
Ġor d
Ġ ÏĦ
in c
Ġr om
Ġill a
Ġc ae
Ġ :
ul us
Ġqu on
Ġim m
it u
in a
Ġde um
p os
en it
Ġab s
ion e
Ġim per
qu id
Ġp et
Ġsu a
Ġu os
Ġquas i
Ġm at
Ġi gn
Ġi gitur
Ġsu p
Ġus que
Ġu l
li n
el lig
t ae
is se
Ġuid e
Ġg lor
Ġcar n
at o
Ġc ir
Ġh uius
l um
Ġma gis
Ġdic itur
Ġd um
Ġe is
Ġap ost
Ġsu is
ti um
Ġint ellig
Ġqu os
Ġprop ter
iss et
i is
Ġtr ans
u o
Ġcon c
x im
end o
Ġu al
ant es
Ġa e
Ġeccles iae
Ġapost ol
Ġm un
Ġsanc ti
Ġues tr
qu it
Ġt h
Ġc er
u um
tion is
at or
o li
Ġsp ec
Ġqu ant
o g
Ġan g
st r
end i
re c
Ġu obis
Ġt ot
Ġn eg
Ġm odo
Ġa it
s um
Ġquon iam
de o
Ġap ud
Ġh on
Ġex c
Ġill ud
enti ae
Ġh omo
ion em
Ġe am
ce d
Ġal ter
Ġprin cip
m a
Ġprop ri
r ae
Ġf er
Ġun i
ent a
Ġaud i
al em
p h
Ġb e
ens is
Ġsi ue
re t
Ġmis er
Ġdomin o
Ġdi gn
i b
Ġl o
os c
Ġre p
Ġl uc
Ġomn i
uis se
Ġs ap
r em
Ġt ra
Ġre gn
Ġac c
Ġsem per
Ġd on
r es
Ġco gn
Ġsu o
Ġdix it
Ġi deo
ent er
it ud
Ġt unc
Ġtant um
Ġde f
Ġqu ando
Ġius ti
Ġips a
Ġf uit
li us
t ri
t orum
- -
Ġu ul
Ġu r
Ġprop h
Ġi es
Ġd om
Ġuol unt
ĠÎ µ
Ġser u
Ġpr oc
Ġc ui
Ġin i
Ġi o
Ġess et
Ġa uc
g re
Ġse qu
ur a
al iter
Ġu eni
a st
Ġg ra
Ġf l
at u
Ġlib er
Ġspir itus
Ġl e
os to
it t
Ġu ti
Ġop er
Ġex s
are t
Ġma i
enti um
m on
u id
Ġap osto
i as
Ġaet ern
at h
Î »
i os
Ġun um
Ġfili us
Ġin d
Ġl ab
Ġci uit
Ġp ut
Ġu is
gni fic
al e
Î¿ Ïħ
and um
er c
end a
p ec
Ġ ost
Ġa ur
Ġm od
Ġs aec
ar is
Ġl aud
Ġd isc
or d
Ġ tim
Ġips um
Ġsim il
Ġsap i
ri g
Ġh os
t ut
Ġh a
s us
u ere
id er
tis sim
Ġsu um
Ġqu in
it o
Ġsu am
Ġcon tin
Ġcon u
f fer
Î ¼
Ġhab et
end it
Ġres pon
Ġpr i
Ġ ;
qu a
Ġtemp ore
Ġs ens
Ġs y
hi b
Ġpat er
Ġin quit
ĠÎ ±
Ġsu i
Ġob s
ant e
Ġm und
or i
Ġeccles ia
er d
r ic
it ter
u ti
an us
i g
t os
Ġf uer
Ġauc tor
Ġcon t
Ġill um
er ent
Ġill is
Ġl on
Ġuni uers
Ġuir tut
ac h
Ġd uc
x it
Ġt ur
x x
om en
an a
Ġh ac
Ġsac erd
Ġad uers
Ġtu a
Ġp ub
c on
Ġcomm un
Ġsol um
Ġi bi
Ġsu ae
p lic
Ġeu ang
ri bus
Ġc an
Ġma xim
Ġuer um
Ġdi lig
r am
Î± Î¹
il e
m o
Ġf uerit
er etur
Ġproph et
Ġp ac
Ġsal u
Ġer it
Ġch ar
Ġs ing
Ġlo qu
id it
ation es
Ġomn ium
Ġpr om
se qu
ion is
Ġnec ess
er u
Ġomn is
om odo
m is
ul os
in de
us t
e o
an o
qu is
i tis
Ġcons tit
Ġspir itu
ur g
Ġid em
Ġp au
i et
Ġsi gnific
Ġp ass
an di
Ġf am
Ġt rib
in o
Ġm ir
Ġa ug
Ġsim ul
an e
Ġh anc
Ġc al
n e
Ġur b
Î º
er o
c a
al es
Ġme di
l is
Ġnomin e
Ġpr ob
Ġaliqu id
Ġdomin um
Ġad h
Ġm il
Ġchris tus
Ġab b
Ġter ra
Ġn omen
Ġpl ur
Ġl a
Ġc el
Ġqu omodo
Ġloc o
Ġm and
Ġh i
Ġe m
li b
Ġf ut
Ġun a
Ġita que
es se
on is
ab at
t as
ti ae
en a
Ġt o
Ġf al
Ġi u
ĠÎ º
Ġcon st
Ġs int
Ġd em
Ġann o
d um
Ġp re
Ġl itter
Ġi ac
Ġt um
Ġcaus a
t h
eb ant
Ġar g
Ġali ud
Ġint ell
Ġips i
Ġips o
Ġfili i
Ġn oc
Ġiud ae
as c
d uc
Ġet c
Ġchris to
Ġcae ter
Ġnos tra
Ġs ent
Ġp h
c c
Ġspec i
Ġnos tri
Ġcorp us
p ic
ti fic
ent o
Ġill o
Ġp or
l eg
c ap
ad em
Ġst ud
Î¿ Î½
Ġi ur
Ġsci licet
Ġas s
an um
is ti
ab it
Ġme a
Ġaposto lic
Ġuit ae
Ġmem or
Ġac cep
Ġd ol
Ġpl ac
Ġlon g
Ġali a
en us
Ġuit a
m i
Ġdic ens
Ġdu o
Ġdis cip
n a
t es
Ġn un
Ġ ÏĢ
Ġfili um
Ġsal ut
Ġar c
ta re
Ġips ius
Ġb ap
ar ia
Ġprae cep
Ġsi gn
Ġd am
Ġdi es
Ġuir g
Ġc ul
Ġilli us
Ġa u
em o
Ġp e
on e
ux ta
Ġun us
Ġin de
Ġepiscop us
Ġp ati
p et
Å ¿
Ġgrati a
Ġper fec
an is
es tim
Ġist a
Ġar b
Ġali is
Ġi uxta
li a
Ġpat ri
Ġper tin
Ġm et
Ġc unc
Ġnul l
ist ol
Ġi r
tit ud
ens i
u et
anti a
s a
f fec
Ġre x
Ġqu orum
Ġi ter
y s
Ġp al
Ġfec it
t ere
Ġmiser ic
ol l
Ġsup ra
Ġs ae
Ġs ang
Ġre li
Ġhab ere
Ġchris tum
u ic
il l
ut us
i ti
il is
ation ibus
Ġmon ast
s al
u ci
Ġord in
Ġpro f
y p
ari um
Ġfor m
an ae
Ġm ens
Ġadh uc
Ġg aud
Ġgen er
i f
Ġhomin es
Ġt est
Ġe adem
Ġu et
Ġeccles iam
Ġhomin um
u am
Ġper m
Ġin n
e di
Ġd im
Ġterr am
Ġpr ius
Ġapp ell
er em
od em
Ġuerb um
Ġp ul
Ġdic tum
Ġcons ili
id em
Ġfut ur
y m
Ġl at
Ġbene dic
Ġfi eri
Ġdi uers
Ġscrip tur
m in
Ġin di
Ġquant um
i gn
Ġcir cum
Ġcon tr
Ġa per
Ġdomin e
ur r
eb r
Ġeuang eli
u gn
Ġpo ter
Ġex p
Ġpr es
Ġam p
er es
Ġis rae
r im
Ġfid em
Ġui u
Ġc ath
Ġdi lec
Ġdes c
anti bus
ab ili
Ġan ti
Ġsub st
Ġuit am
es ti
Ġn ol
Ġex erc
Ġco git
Ġhomin em
Ġfid ei
Ġprim um
Ġex emp
ati bus
u eni
u en
Ġprae ter
Ġs oc
Ġpers on
ra g
ali a
Ġm inis
Ġp sal
ul it
Ġse x
Ġin g
ut a
Ġmonast er
li ci
Ġo ffic
Ġin fer
Ġae qu
um que
Ġec ce
Ġl ac
Ġf ug
od um
re h
ali bus
Ġui g
at es
Ġm uli
Îµ Î¹
or di
Ġpar te
Ġa eg
Ġs en
Ġbon a
Ġe odem
Ġno u
Ġbon um
Ġanim a
Ġio ann
id i
Ïī Î½
d is
n i
Ġ licet
ari o
Ġam b
Ġc ust
c us
Ġisrae l
ĠÎ ¿
Ġre lig
Ġde p
Ġ k
e ant
Ġqua es
Ġpos se
Î ¸
Ġpat ris
Ġl ae
gre g
Ġapostol us
Ġr erum
and a
Ġf uisse
Ã ¾
re p
ic a
Ġang el
Ġmul ti
Ġha ere
e lic
Ġh unc
er us
Ġuen er
Ġhomin is
uer at
on i
Ġnul la
Ġpr os
Ġb ell
Ġfac ta
Ġa qu
p pe
Ġer ant
Ġas c
p ar
um b
ati m
Ġer r
Ġn im
Ġuerb a
at orum
Ġtu um
Ġep istol
Ġtemp us
Ġpo enit
Ġli n
Ġm er
Ġad j
ur i
Ġuid etur
u oc
Ġfrat res
on em
Ġa ff
c o
Ġcorp ore
at am
Ġl ati
Ġin tr
Î ³
gr ess
d us
t y
Ġdam n
Ġost end
Ġcorp oris
Ġser ui
Ġat t
Ġi tem
Ġser mon
Ġposs it
Ġpub lic
Ġad m
Ġu in
Ġqui ppe
Ġfac tum
Ġmun di
Ġc as
Ġbe ati
o lic
ci li
Ġmul ta
or m
ti g
Ġs atis
Ġm iss
s it
d a
lib et
ant em
Ġfac ere
Ġm ut
fic i
Ġc up
i p
Ġt ri
Ġsub j
Ġprop os
Ġinu eni
Ġ lic
tion es
Ġpres b
Ġu x
li m
Ġf irm
u es
in ta
Ġfor te
Ġh inc
Ġmal e
Ġuide licet
b at
Ġuen it
Ġper pet
un que
ar ius
Ġt an
le x
Ġquid am
Ġca st
Ġsu cc
Ġsanc tus
Ġman if
n on
Ġinf irm
Ġtu am
Ġe lec
Ġcogn osc
Ġaug us
u per
Ġnatur a
Ġop us
Ġme um
Ġ od
ari i
â Ģ
Ġsc rib
l et
Ġg er
Ġred d
Ġscrip tum
abil is
um us
Ġ os
Ġp ap
Ġpon tific
Ġre uer
Ġp ed
Ġg al
Ġloc um
e tis
Ġqua er
Ġcan on
Ġsanc tae
Ġdic ere
Ġmor tu
Ġdi ab
Ġcon uers
Î¿ ÏĤ
Ġse u
p ot
Ġin im
Ġfid e
Ġmar ty
cip it
Ġre fer
n am
ul t
Ġde inde
Ġtu ae
Ġin dic
ic us
Ġomn e
te a
Ġl um
ri ps
Ġpo tius
Ġu inc
Ġre bus
Ġm erit
Ġman us
Ġdes ider
Ġfr uc
y ter
Ġnostr um
at os
es tis
Ġprim o
tit ur
at ores
ul orum
Ġpr od
Ġpat re
Ġh or
Ġsac ri
Ġi i
Ġreg is
Ġpat rem
Ġeius dem
u imus
ic is
Ġsum us
Ġintell ec
tere a
Ġmin us
Ġn emo
Ġsanc torum
Ġui ri
un ti
Ġma li
Ġnostr ae
Ġfili o
Ġde dit
ess it
Ġ z
ab itur
qu ir
r up
Ġcath olic
Ġali i
Ġill am
Ġuer s
Ġfac it
Ġi ub
Ġsub s
Ġp en
Ġpri u
Ġt ui
Ġf ur
b er
Ġpos tea
pr ob
ot h
ul g
Ġsu os
Îµ Î½
Ġomn em
u isset
Ġspir itum
Ġqu e
Ġa gn
end am
Ġdoc tr
at ae
Ġp uer
Ġut rum
Ġun o
Ġtra d
Ġgrati am
Ġl ec
Ġmor tem
m odi
Ġarb it
Ġlin g
Ġinter p
. ,
Ġiter um
a ui
Ġnostr is
ro g
er int
Ġeccles ias
ili a
Ġregn um
Ġc la
ab ant
Ġs oli
Ġpresb yter
Ġini qu
Ġ -
f ac
eb atur
Ġali o
i x
Ġu o
Ġn ob
ab o
Ġconf irm
Ġd au
Ġies u
Ġac cipi
Ġuti que
Ġmem b
u ae
Ġf und
Ġm ari
Ġt estim
op h
Î± Î½
ion es
Ġn ot
Ġomn ino
Ġpau per
Ġcon j
Ġme i
Ġpra em
Ġs or
Ġop ort
Ġterr ae
ĠÎº Î±Î¹
Ġtu o
Ġfid el
Ġres ur
Ġcl am
ic um
Ġnos ter
Ġre i
r os
Ġqua d
Ġtestim on
Ġpecc atum
Ġop era
Ġd iss
ĠÎ ´
am ur
Ġfi g
Ġsac ram
Ġtan quam
es ci
Ġdis p
at oris
i re
Ġconf ess
Ġcap ut
Ġsanc tum
Ġ ?
Ġth e
Ġpro fec
Ġman u
cap ut
as se
Ġdau id
Ġsequ itur
Ġf it
Ġnostr o
ud o
Ġsanc to
se d
Ġcor de
Ġd a
Ġcons ul
Ġhum il
d ec
are tur
Ġqu at
in am
Ġepiscop i
m us
Ġquam uis
Ġuerb is
Ġr a
Ġposs unt
Ġt em
Ġmat er
Ġist e
Ġsi l
Ġmaxim e
tin us
Ġhomin ibus
Ġsacerd ot
r us
Ġins tit
Ġtur b
Ġe ff
Ġs enti
Î ´
n o
in um
Ġill os
Ġues tra
Ġe l
Ġsp on
Ġdiuin a
Ġl ap
iss ent
Ġre f
Ġ w
Ġies us
e ti
Ġips is
Ġn esci
u el
ar ent
Ġr atione
Ġmagn a
Ġin j
Ġign or
Ġnull us
Ġtot um
m odum
Ġnam que
Ġqu are
in ae
u ent
Ġp hil
ar g
Ġanim am
Ġdeb et
Ġme am
ti is
Î± ÏĦ
Ġp iet
Ġb re
in us
Ġanim ae
Ġr ap
Ġmul tis
Ġglor ia
Ġplur im
Ġco ep
Ġhab ent
un g
Ġfac tus
Ġc op
uin ci
re g
end ere
es tin
an tis
Ġaduers us
ut um
Ġor b
Ġs per
u at
Ġgen us
tion ibus
Ġdi em
er ant
ce per
Ġme us
Ġr ur
Ï ĩ
as ti
di fic
Ġdi ffer
Ġuic tor
ul am
Ġpro xim
Ġin st
Ġsus cep
Ġde d
Ġinu en
Ġe d
Ġmor t
Ġca es
ul c
el li
Ġk al
Ġcarn is
Ġp ort
itud inem
Ġcon cili
. .
Ġdi u
Ġcir ca
Ġt ab
Ġquae dam
Ġpl us
Ġhab it
Ġc am
Ġper ic
Ġdem on
eni que
Ġarc hi
Ġiudic ium
cip ere
it ati
an orum
Ġm ol
pr im
Ġd en
Ġt ac
eb it
Ġprim a
in es
Ġcr im
i u
Ġde x
ac on
Ġdie bus
Ġc et
Ġb r
Ġtr es
Ġleg e
ii i
Ġf o
uer int
Ġor i
Ġuer a
Ġrespon d
Ġprae f
ĠÏĦ Î·
Ġsy n
Ġm ot
Ġf re
Ġex tr
a uerunt
Ġx x
Ġobs eru
om m
Ġu ere
Ġcl er
Ġr og
Ġinterp ret
Ġleg is
Ġpop uli
Ġnec esse
Ġsep tem
ce ps
Ġin te
lec t
Ġe ffic
Ġpro uinci
h a
Ġfid eli
Ġpop ulo
Ġbap ti
en is
Ġaeg yp
Ġsu bi
ic o
Ġcap it
Ġuir tu
Î¿ Î¹
Ïĥ ÏĦ
ul ar
Ï Ĩ
a ur
Ġmin im
Ġg em
Ġquo ti
an tiam
Ġqu atu
Ġepiscop o
ĠÎ ¼
Ġquid quid
Ġn ar
end is
Ġqu ar
Ġdom us
Ġcon uer
Ġaliqu a
Ġrec te
Ġmor i
Ġcl ar
Ġmal um
Ġm y
lo qu
us que
Ġfuer at
u as
Ġcon greg
Ġa ffec
Ġe g
Ġreg em
Ġil lic
Ġdes er
Ġs an
Ġmiseric ordi
at orem
Ġbap tis
Ġd enique
Ġd ub
Ġper d
Ġtu is
Ġmal a
Ġh eb
p l
Ġme o
Ġs a
Ġt ent
Ġa ux
âĢ Ķ
li um
Ġcr uc
Ġre per
Ġae dific
Ġpop ulus
Ġi is
Ġpar tem
Ġmanif es
ab atur
ali um
c rip
tr o
Ġcol l
ord ia
un di
am m
Ġqu ic
Ïħ ÏĦ
Ġpraes um
Ġsae pe
Ġh er
Ġsimil iter
Ġresur rec
enti us
Ġdom um
Ġa us
Ġleg em
Ġhuius modi
Ġaliqu ando
Ġas sum
un i
Ġpecc ata
quid em
Ġocc id
and em
Ġiudic io
Ġquatu or
Ġtr ac
im o
Ġprae cip
r on
it em
Ġcon i
n um
Ġapp ar
qu od
Ġsalut em
h ae
Ġh uic
Ġpr ot
Ġuel ut
Ġsanc ta
Ġcor am
Ġnatur ae
Ġad d
Ġtr an
p ici
Ġto ta
Ġp ere
Ġoport et
Ġpar s
Ġuul t
Ġg a
en um
Ġfili os
Ġ. --
ti os
g a
Ġm ac
Ïģ Î¹
Ġi ii
Ġe as
Ġop p
Ġnul lo
ari is
Ġfid es
r op
Ġdiab ol
lin qu
Ġcont emp
Ġex t
Ġ tit
ter i
Ġo ffer
Ġcer te
Ġecclesias tic
Ġsang uin
Ġst at
n is
Ġdi uis
Ġun ius
Ġcon sequ
Ġsu as
Ġdec re
Ġpop ulum
ep iscop
li bus
erus alem
Ġcar d
Ġb ar
Ġ ore
Ġcons um
Ġneg o
Ġglor iam
Ġomni pot
Ġann os
Ġauctor itate
Ġam en
Ġl un
er ibus
Ġali os
Ġmul titud
Ġips am
en o
Ġanim o
Ġcaus am
Ġu ac
Ġsacerd o
Ġf inem
Ġcons ec
Ġconu eni
in ibus
Ġ ol
Ġf on
Ġb ib
Ġre gni
Ġcre atur
Ġcomp ar
Ġdic o
i tio
Ġposs et
Ġin tra
er entur
Ġpet ri
Ġt or
Ġcul p
Ġpr ud
Ġal iter
c is
Ġtant a
Ġdec em
Ġsum m
Ġg reg
eri tis
u us
ic e
Ġcons ider
ic ae
Ġsu ffic
ci r
Ġmon ach
tin g
Ġb l
Ġpot uit
Ġlab or
Ġspir it
id a
Ġuirtut e
anti um
Ïĥ Î¹
ul as
Ġs on
Ġm ans
Ġpa st
Ġf la
p lici
en am
Ġe ffec
ec um
Ġost endit
Ġe qu
gre di
Ġprophet a
Ġp ugn
Ġquant o
Ġsuper i
Ġc od
issim e
Ġnostr am
Ġf elic
Ġim ag
Ġcir c
Ġst atim
Ġpub lius
u ia
Ġtest am
n ul
Ġs in
Ġann is
Ġiur e
Ġl ux
Ġm entis
u ol
Ġnun quam
Ġhon or
n ec
ui i
et e
Ġe le
Ġdic at
Ġbapti z
Ġpa uc
Ġmor te
Ġuestr ae
en se
Ġdu bi
Ġtant o
Ġcoel o
Ġpar tes
Ġf em
tor es
Ġsacri fic
an os
ar d
. --
Î± ÏĤ
pec t
Ġu ia
Ġdic unt
Ġi ei
Ġfuer int
Ġg entes
entis sim
Ġlong e
h em
Ġs tr
Ġcel ebr
Ġob l
Ġcust odi
Ġr atio
im ur
Ġsucc ess
Ġex is
Ġan t
Ġuir tus
cl us
ui um
i e
Ġmy st
uit ur
Ġre di
esc it
ell a
Ġuer itatis
Ġarchi episcop
ti as
en n
ul ae
and am
Ġop in
Ġp ag
Ġinter rog
ps um
Ġaux ili
er os
Ġsol lic
Ġre qui
Ġmedi o
ĠÏĦ Î¿Ïħ
Ġs ab
Ġdiscip lin
Ġdon ec
Ġfrat er
Ġf ab
Ġdu x
Ġcarn e
Ġpra est
Ġm it
Ġposs id
Ġab ra
Ġpar ti
Ġun am
Ġcomm end
Ġess ent
Ġt ribus
Ġmor tis
iss a
Ġfor t
itud ine
Ġui x
ic os
Ġcr uci
Ġex hib
Ġpul ch
ic em
Ġgr aec
ar a
Ġmo x
Ġdis t
Ġuin dic
Ġter min
i ec
Ġn asc
Ġsu orum
Ġsent entia
Ġda em
ol a
Ġposs ess
Ġiei un
Ġnul lum
Ġmund o
Ġc ant
Ġc ens
Ġsaec uli
Ġsc el
on es
Ġad ul
Ġphil os
Ġprae b
Î± Ïģ
Ġdemon str
Ġdic ta
Ġbon is
Ġr ation
Ġcons uet
Ġcust od
Ġcarn em
Ġnatur am
Ġm ur
Ġad mon
Ġmul to
Ġbene fic
i fic
Ġa qua
y r
Ġpro hib
Ġp as
Ġpost quam
tin ere
u ine
Ġill orum
Ġoc ulis
ĠÎ ·
Ġcor dis
Ġlib ro
Ġquin que
Ġsep ar
Ġpl eb
Ġinn oc
l es
Ġamp lius
Ġop tim
Ġcap ti
ens em
Ġh odi
is tis
Ġaposto li
it es
Ġhum an
pec tu
Ġme dic
it am
Ġar d
Ġpro uid
Ġfi at
Ġsol us
y l
Ġimp os
Ġi b
Ġbe atus
Ġ --
ad modum
Ġpe ti
Ġred emp
Ġindi gn
Ġacc us
ion ibus
Ġhaere tic
Ġtemp oris
Ġsanc tis
Ġcoel um
Ġt ol
Ġdic i
qu ae
la di
Ġuul n
Ġco g
Ġp rec
Ġpa ulus
ent us
Ġpar iter
Ġali us
itat es
Ġo ff
cum que
tin i
Ġmerit o
Ġper f
Ġquat enus
dit a
Ġst atu
Ġoc ulos
Ġtr in
Ġloqu itur
issim a
Ġme lius
Ġsignific at
Ġau fer
Ġc ess
Ġnum ero
Ġpost ul
Ġfre qu
Ġsapi entia
Ġal b
Ġpers ec
Ġes tis
Ġaliqu o
Ġsent entiam
Ġsens us
Ġc at
Ġex tra
Ġtot o
Ġme d
ic orum
ri um
qu o
l u
Ġsol a
Ġto tius
Ġconc up
Ġpet rus
Ġquem admodum
Ġiusti tia
Ġu iam
Ġs ur
Ġre t
i ens
uer is
Ġiac ob
Ġsim plic
Ġp ur
Ġuer itas
Ġhis tor
Ġli gn
ra re
Ġn au
Ġgen ere
il em
Ġsc rips
i orum
Ġiusti tiam
es ta
Ġfor ma
Ġminis tr
oc h
Ġman ibus
em ur
Ġcor on
Ġcar o
Ġp ol
Ġcogn o
Ġtam quam
Ġm ente
c unque
Ġmod um
anti ae
Ġuoc e
Ġr ationem
Ġepiscop um
ud inem
Ġpecc atorum
eb antur
Ġser mo
Ġfili is
Ġuerb o
Ġapostol orum
Ġioann es
Ġepistol a
Ġob edi
Ġde lect
Ġhab eat
tin c
Ġocc as
ci bus
Ġar m
it ae
i unt
Ġb as
ti tia
pr ae
Ġg ladi
Ġsubj ec
atis sim
Ġsol em
Ġre cep
Ġbon i
ag inta
uis ti
Ġ Ïĥ
ab unt
Ġabs que
Ġu e
Ġu est
Ġanim i
Ġb eat
Ġcunc tis
Ġl ex
il es
Ġeuangeli o
Ġing en
Ġabs ol
a uerit
Ġuol uit
end as
ux it
abil iter
abil e
cir co
Ġloc us
Ġd omo
Ġleg i
Ġmis it
Ġconstit u
Ġcons ci
Ġuer itatem
Ġn ati
Ġf uerunt
Ġdic untur
Ġpecc ato
Ġcl em
ere b
Ġci b
Ġdiuin ae
Ġdi ui
Ġi ug
i it
Ġt ris
Ġa bi
en im
Ġuti l
Ġu as
Ġsed is
Ġlap id
Ġapostolic ae
ar n
issim i
Ġmai or
Îµ Ïģ
Ġmyst er
Ġad or
ti i
Ġoper ibus
Ġminis ter
Ġt andem
s imus
Ġpropri a
em or
h am
Ġord ine
Ġpr imus
Ġm are
Ġmund um
en ae
Ġacc id
Ġtemp oribus
Ġde uo
s is
Ġduo bus
s u
Ġcunc ta
Ġf au
Ġcoel es
uit ate
Ġconst an
ui ii
Ġprop terea
Ġn atus
Ġul tim
Ġfig ur
t ore
Ġlitter is
Ġres tit
Ġ on
Ġtri um
u enit
Ġcon di
Ġloc is
Ġme ae
Ġg entium
at as
Ġme is
Ġm ili
Ġprae c
Ġid circo
Ġiusti tiae
Ġcon tem
Ġprae d
Ġs ane
Ġdic imus
Ġs ti
Ġper se
Ġop ere
Ġdi uid
Ġign is
us tr
Ġet si
Ġuir um
Ġaliqu is
Ġimp et
ol og
Ġciuit atem
Ġcomp os
Ġconc ess
l l
Ġuestr is
Ġman um
Ġcaeter is
Ġf ra
Ġpotest atem
Ġpac em
Ġuolunt ate
Ġuolunt atem
Ġfrat ribus
Ġi erusalem
p ir
Ġposs umus
Ġnon dum
im a
Ġies um
enti o
Ġhomin e
Ġdix imus
Ġer unt
Ġc ern
Ġad eo
Ġex per
Ġst ul
e um
cl ud
Ġmul tum
Ġfam ili
Ġme li
Ġexis tim
Ġamb ul
Ġped es
Ġm itt
ex and
Ġdub it
Ġul tra
Ġp ud
ab is
Ġtemp or
un ic
Ġsubst antia
Ġcor rup
Ġimp l
Ġdi ff
Ġis a
Ġuoc em
Ġam ore
Ġsang uine
Ġann i
u al
Ġp an
Ġhodi e
Ġl arg
Ġrur sus
et h
Ġdes ign
Ġocc ul
Ġminim e
Ġtu us
Ġs te
Ġpas ch
Ġaetern um
Ïī ÏĤ
Ġger m
Ġnoc te
Ġr ob
Ġseru us
es e
Ġuid it
Ġpecc ati
Ġa f
Ġui ol
Ġdi ffic
Ġmo ys
iam us
Ġdef ini
Ġcon gr
pr ess
Ġscriptur a
c it
tion i
Ġfl u
Ġspeci es
gress us
s ec
Ġma g
s o
Ġn ub
Ġinu icem
ar ch
el is
Ġaccep it
Ġcon str
e dit
Ġmor s
Ġdi acon
Ġb o
a us
Ġquoti di
Ġfaci em
Ġpec un
Ġsubi ec
Ġde t
Ġre l
Ġgen eris
itud o
os a
pos i
abil em
Ġuol up
Ġsuper b
Ġconcup isc
Ġp ari
d o
end us
id o
Ġurb em
Ġt alis
Ġcum que
Ġt oll
Ġarg um
Ġmemb ra
Ġuid ere
p i
Ġdix i
Ġcard in
e as
\ .
Ġre linqu
Ġmisericordi am
Ġi os
Ġd up
ep h
m odo
Ġalter um
Ġtestimon ium
Ġal exand
Ġimper ator
issim um
is it
ol is
qu in
Ġf lum
Ġreli qu
Ġfaci unt
ation i
Ġmiseric ordia
Ġsac r
Ġdu os
Ġu ari
Ġpotest ate
Ġconsili o
Ġre uoc
ti ter
and us
Ġdu od
Ġuirtut um
Ġpat r
ation um
Ġinu id
Ġcon fer
Ġquad rag
Ġre uel
qua quam
Ġten eb
Ġs omn
ass et
Ġx xx
ud ine
Ġf ine
t at
Ġ j
Ġm end
Ġcon d
Ġpa ulo
Ġor ig
Ġperson a
au imus
Ġhab uit
Ġagn osc
Ġciuit ate
Ġgrati ae
Ġin str
Ġcon ced
ar em
Ġfac ile
Ġreg e
Ġper ueni
cl ar
Ġde l
Ġn ut
ac ulum
Ġb eni
Ġquibus dam
Ġperm an
g ra
Ġis ti
Ġsecund o
il eg
c uius
Ġuir o
Ġsus tin
Ġsol is
n us
Ġa st
Ġprom iss
gn e
tra h
Ġd or
pr op
Ġc ec
u bi
and is
tur b
Ġabb as
Ġciuit atis
Ġtemp ora
reh end
ce dit
Ġord inem
it or
re x
ec im
ri o
Ġuirtut em
inis tr
ili us
Ġcons ens
Ġir r
n ae
Ġfort un
Ġmulti plic
isc um
c ur
Ġob tin
Ġdic eret
Ġuestr um
Ġuer itate
Ġali as
Ġuo x
abil es
id erunt
Ġapostolic a
Ġd ur
Ġregn o
Ġthe od
Ġe leg
Ġaff irm
Ġd ata
ist ere
Ġprae par
ant er
Ġca d
re xit
Ġual de
Ġcur r
Ġre quir
Ġg enti
Ġiu uen
Ġet enim
Ġliber t
Ġco eli
Ġe loqu
Ġproc ed
Ġarbit r
Ġfr anc
Ġasc end
Ġex pe
Ġcons ol
Ġglor ios
ent orum
tissim e
Ġconsili um
Ġius tus
e per
Ġam bi
Ġne quaquam
Ġe lig
Ġsum ma
Ġdesc end
Ġpoenit entiam
Ġmar cus
ĠÎµ Î½
Ġg entibus
e a
Ġr o
i at
uit er
Ġrelig ios
ĠÎ ¸
Ġmari ae
Ġdes tr
Ġnar r
Ġuer bi
Ġre cipi
Ġhon ore
Ġcoep it
Ġcorp ora
Ġrespon dit
Ġ umb
Ġpro fer
Ġphilos oph
Ġueni re
Ġpecc atis
an am
Ġaetern a
Ġex ig
Ġter tio
Î¼ ÎµÎ½
Ġips os
ol um
issim o
Ġcol lig
Ġtrib ul
Ġante quam
Ġe arum
id um
Ġtemp lum
Ġtrac t
Ġde lic
Ġpriu ileg
Ġprofec to
Ġpar tibus
c rips
Ġpor ro
Ġn em
tam en
Ġag ere
i or
Ġmonaster io
m um
Ġs am
Ġc aec
Ġim it
Ġhum ili
Ġscrip ta
Ġpraes id
Ġr en
Ġmagn um
Ġi uli
Ġiud a
Ġal l
Ġm enti
Ġse i
Ġconst at
Ġanim al
r ac
Ġpar u
Ġquis que
Ġob t
Ġsing ulis
an im
Ġcaeter a
Ġsep tim
Ġpoter it
Ġfaci at
Ġlum en
de b
Ġdex ter
Ġper c
Ġocc up
Ġp om
Ġmonaster ium
Ġalter ius
Ġplur es
on um
u tis
Ġrom ae
Ġdi l
Ġepiscop is
Ġiudae orum
Ġab und
Ġpap ae
Ġac cip
Ġsus cipi
Ġh orum
Ġinc er
ut o
Ġsec um
Ġreg i
Ġgr ae
Ġqu al
Ġinc on
Ġer ud
Ġfutur um
Ġnon nul
dit um
Ġocc urr
Ġha eres
Ġam ici
Ġpat rum
Ġcur a
Ġcorp or
Ġd are
Ġser uit
tor is
Ġf lor
b ile
Ġsalu tis
Ġsuper ius
Ġm erc
Ġcons eru
s ic
Ġsi quidem
Ġi an
ĠÏĢ Ïģ
tr ac
Ġpr or
Ġmai est
Ġsep ul
Ġintellig i
Ġuestr am
Ġpen itus
Ġo lim
Ġuirtu tis
Ġ Ã¾
Ġcla ud
d es
ri a
Ġurb e
e amus
Ġdisp ut
Ġm ore
Ġsc h
Ġfla g
pr o
Ġc y
Ġextr em
Ġac ced
und um
Ġabs con
Ġn up
Ġpac is
Ġling ua
Ġco gni
Ġpap a
Ġquod am
Ġprincip es
Ġform am
Î ²
Ġcla us
Ġmuli er
_ _
ti ci
ab antur
xx x
Ġfal l
ic am
Ġga ius
Ġsu ff
a x
il la
Ġdu as
Ġloc utus
Ġa estim
Ġbon o
Ġsanc tit
an ia
Ġproc ul
Ġexemp lum
Ġh om
Ġinc arn
Ġmale dic
Ġcup id
Ġmagn o
Ġlitter as
Ġsci re
it tit
Ġcontemp l
Ġbell um
Ġdeb emus
Ġten ebr
d itur
esc ere
uer ant
Ġar ch
Ġs ese
Ġuolunt as
Ġdes id
Ġtra h
Ġsign um
Ġhum ana
Ġgrati as
Ġsancti fic
Ġoc ta
ar entur
Ġa ulus
Ġor n
Ġurb is
Ġt ene
Ġmand uc
Î· ÏĤ
Ġin uit
Ġconsec r
Ġn ud
Ġad am
Ġnomin a
Ġd at
Ġali um
ec h
Ġprae terea
Ġsem eti
ir um
Ġconf it
Ġhon orem
Ġc and
Ġpr on
Ġdix erunt
en as
Ġux orem
Ġd id
Ġali am
h ann
ut e
Ġexs pect
Ġex or
tissim i
ul ari
a i
Ġsec re
Ġf in
Ġs ar
Ġnul li
Ġhomin i
Ġfideli um
Ġmortu us
Ġabra ham
Ġ Ïħ
Ġex i
eb unt
Ġui i
Ġmot us
Ġtab ern
Ġuid entur
p p
ol it
Ġim o
Ġleg itur
Ġintell eg
Ġqu an
Ġcomm emor
quis que
Ġpraes enti
Ġsec ur
Ġgreg or
Ġsapi entiae
Ġmal is
Ġi un
Ġpere gr
Ġe idem
Ġci u
end ae
Ġsup plici
Ġp urg
l us
ÏĢ Î¿
Ġali bi
Ġbon orum
Ġiusti fic
Ġuolup t
Ġgra u
Ġper cus
Ġanim um
Ġdec imus
u os
Ġspec t
Ġcons pectu
Ġsuper bi
on ia
Ġa ri
n ic
Ġb al
Ġdoctr ina
ĠÎ ³
Ġutrum que
Ġspeci e
Ġui uere
Ġpat ern
Ġdef ens
ĠÎ± ÏħÏĦ
Ġbon us
Ġp el
ell is
enti is
ort un
Ġconj ug
Ġnum quam
Ġre tin
Ġs ag
Ġuoc ab
Ġd omn
Ġg l
ac ula
Ġpat res
Ġpoter at
Ġmend ac
h o
Îµ ÏĦ
u ens
Ġ Å¿
Ġposs int
Ġe b
Ġeum dem
Ġmonaster ii
at ore
Ġneg lig
Ġex ter
Ġmal o
reh ens
Ġanti qu
Â ª
Ġut ri
Ġindi g
Ġdec im
Ġsem el
ati um
Ġf ere
Ġ âĢĶ
id us
Ġex pon
in ti
Ġnomin is
Ġad hib
Ġdic endum
Ġsal om
Ïħ Î½
Ġintellec tus
i Âª
Ġalter a
ĠÏĦÎ· ÏĤ
Ġus us
Î· Î½
iss imus
Ġoffic ium
Ġfor titud
d ere
Ġf uisset
Ġag it
Ġter tia
Ġcomp l
Ġsens um
Ġsacerdot es
ess us
Ġex cep
Ġstud io
f l
Ġuoc atur
Ġpraecep ta
Ġcap ite
am entum
Ġnon ne
Ġsp l
itt ere
Ġsecund a
at oribus
un de
ti tiam
Ġfra ud
Ġimp r
Ġsci entia
i arum
Ġsab b
Ġloc a
Ġpot entia
Ġann um
Ġpropri um
Ġparti cip
ut or
Ġabb ati
ub ern
Ġheb rae
Ġuirtut es
it atibus
Ġde clar
d ibus
Ġs emp
uit atem
Ġmul tos
is que
Ġloc i
u atur
ra uit
u tione
ar unt
Ġinf id
uer i
Ġfrat rem
Ġquant a
Ġuide atur
Ġul la
Ġt alia
Ġad i
Ġp asc
Ġubi que
Ġcam p
Ġsanguin em
Ġduod ecim
Ġio hann
Ġpertin et
end os
Ġfi unt
ĠÎµ ÏĢ
l em
Ġcoel estis
Ġconstan tin
Ġmagis tr
Ġth es
Ġi ra
Ġsermon e
Ġd ul
Ġcontra dic
Ġquon dam
Ġunus quisque
ĠÎ´ Î¹
Ġar ma
Ġser p
Ġh ora
Ġac ceper
tissim um
it os
Ġspl end
Ġui ii
Ġob li
Ġbeati t
ĠÎ± Î½
Ġpri or
Ġmund us
ĠÎµ Î¹
Ġfruc tus
Ġcor da
Ġad s
f r
Ġali orum
ti tit
Ġlac r
p end
Ġh ort
Ġuest ri
h aec
Ġaetern am
Ġib idem
ab untur
Ġnim irum
Ġm us
Ġfo ed
Ġcr ud
Ġsacerd os
Ġde in
Ġl au
Ġcruc is
Ġreg es
Ġadul ter
m en
Ġips orum
g en
Ġh as
Ġnum quid
er on
Ġproph e
Ġsaec ulo
ta uit
Ġn at
Ġcor n
Ġli g
Ġm entem
Ġh uc
Ġuel le
Ġfac ti
Ġf ulg
Ġl ud
Ġu im
Ġintr o
u tionem
ap h
Ġual et
ti f
Ġqu aliter
Ġd atur
ul aris
Ġhab ebat
Ġbar b
Ġsign a
Ġl am
Ġs urg
Ġprin ceps
Ġqu ot
Ġillum in
am que
Ġquotidi e
Ġno ui
Ġpr ol
Ġinj us
Ġconsum m
Ġs is
Ġfr on
Ġsoc iet
Ġang us
i es
Ġatt end
es tum
ar es
Ġmar ia
Ġpro fic
Ġc anti
Ġeuangeli um
Ġpos uit
Ġde ter
Ġprae pos
in qu
Ġsp em
Ġinter fec
Ġt ar
Ġre lic
Ġt ales
Ġhab ens
Ġfer re
Ġnostr orum
Ġuig il
Ġex am
Ġadm ir
Î ¾
ti or
Ġde u
Ġa ris
Ġal t
Ġu entur
Ġprae ced
Ġgal li
Ġmod is
que b
n os
Ġue hem
Ġco eper
Ġprincip io
Ġang eli
tion um
Ġoc to
Ġc ed
Ġsaec ula
Ġpa x
Ġf rig
Ġbas ili
Ġop eris
Ġpropos i
Ġass er
Ġrom ani
Ġexc us
Ġs eni
Ġglor i
Ġlegi tim
Ġpiet atis
i bi
ri x
Ġpos ter
Ġex al
Ġdeb ere
Ġaf ric
c rib
Ġde fec
Ġt ali
Ġcel eb
Ġnum erus
uit atis
tor em
Ġdic entes
c r
Ġinj ur
Ġf ul
Ġius sit
Ġt es
Ġcontem n
Ġnol ite
e u
ci per
Ġcon cep
Ġfili orum
Ġam or
Ġpo ena
Ġex aud
Ġdisp ens
Ġcar c
Ġn a
Ġx ii
Ġaqu ae
Ġsed em
Ġno x
Ġfrat rum
Ġa quam
Ġal tare
h ic
Ġg e
Ġpac e
Ġtem per
r orum
Ġsens u
Ġinter im
Ġh aud
Ġas per
l am
dit us
Ġcred ere
Ġhum anae
Ġrem o
Ġex pos
in as
Ġex ist
Ġind ulg
tur a
Ġde pos
Ġc ub
Ġioann is
on a
Ġfut ura
Ġsac ra
Ġperse uer
Ġp oll
Ġf estin
Ġac cipere
Ġius tum
omin us
Ġin uis
u entum
Ġper uen
Ġsc and
Ġsemp iter
ul erunt
Ġiudae i
Ġan ath
Ġprophet ae
Ġqua dam
Ġoffic io
omm unic
Ġin qui
Ġepiscop orum
Ġp u
Ġdec lin
Ġdeb eat
Ġaudi re
Ġhis p
Ġu ine
uit as
at que
Ġsp es
Ġmon te
ens um
Ġqu er
Ġuid et
Ġui ui
Ġign e
as ci
Ġt rig
Ġem end
Ġcruci f
a uc
di x
Ġhos p
Ġnim is
is ci
Ġfuer ant
Ġg ubern
Ġt ale
Ġexerc itu
Ġposs ib
Ġste ph
Ġex plic
Ġf rag
Ġfili a
Ġuig inti
Ġpror sus
Ġlun a
Ġrom anae
Ġbeni gn
Ġinf ra
ps it
Ġmagis ter
Ġdec ern
Ġaud it
m ar
Ġat h
Ġre de
Ġuniuers a
Ġciuit as
Ġs atur
m ina
Ġues tig
Ġs ter
Ġign em
Ġre uers
Ġglor iae
u tio
Ġqu um
Ġm eritis
Ġtrium ph
Ġfruc tum
Ġ +
Ġconf us
Ġfrat ern
Ġaqu il
Ġiudic ii
Ġsal tem
o ec
Ġcon tum
ti orum
Ġpros per
tur us
Ġues tim
Ġhab emus
Ġm ecum
Ġinterpret atur
Ġno uum
Ġter ris
e am
Ġinf in
Ġ um
Ġdic am
Ġsub lim
Ġconu enit
ari os
Ġrelig ionis
Ġnunc up
Ġim b
Ġlo qui
Ġfal s
el a
ari am
Ġsa x
as que
rop ter
Ġcontin g
ap ropter
Ġleg imus
Ġanath em
Ġan imus
Ġac tu
Ġtur p
Ġomnipot ens
Ġsup plic
Ġtot am
Ġali quam
Ġsp e
Ġexc ell
re tur
Ġmet u
Ġpl en
a h
Ġui uit
p lex
Ġinc or
Ġexc ommunic
Ġdisc re
Ġdilig enter
Ġuir go
Ġord o
Ġluc em
Ġpat et
Ġmanif est
Ġimper ium
Ġde duc
Ġpau li
ra que
Ġsol et
Ġcre dit
ĠÎµ Îº
Ġdubi o
Ġun g
Ġpraed estin
Ġuol umus
Ġb ab
Ġlic eat
Ġcons enti
Ġin tus
Ġreg um
Ġdoc et
Ġr ub
Ġcon clus
Ġs at
Ġdiabol us
tas se
u issent
Ġor atio
Ġaugus tinus
Î¹ Î½
Î± Î»
tim us
Ġiur is
ci a
Ġmater ia
Ġqu arum
Ġeam dem
h or
Ġmil lia
Ġsimil itudinem
Ġno ua
Ġsolem n
Ġios eph
tr ic
itat um
Ġangel us
Ġnun ti
Ġi ura
t ent
ad is
e atur
Ġexc el
ÎµÎ¹ Î½
Ġhab es
Ġbell o
Ġmat ris
Ġnum erum
pe ti
Ġrem iss
Ġc entum
e us
Ġd ere
Ġtu os
eri is
uer et
Ġexemp lo
li x
er am
Ġper i
tic a
u ar
eli x
Ġsep tu
Ġchar itas
Ġf inis
ur am
Ġimm ort
Ġdor mi
Ġnull am
Ġtim ore
Ġis tis
Ġl ang
ic hae
a go
Â ·
Î¹ Îº
Ġcor rig
Ġpropri e
Ġfac ult
Ġist o
Ġpatri arch
Ġuir os
Ġr h
Ġprim i
und a
Ġabs tin
ac i
ĠÎ »
dem n
us tra
qu isi
re d
Ġfor nic
e unt
ell um
Ġad uent
g er
Ġuolunt atis
Ġproc ur
Ġind uc
Ġdic atur
c am
Ġu ent
Ġpraes ens
ant um
Ġmedi um
Ġins ign
Ġint enti
Ġn il
Ġin h
ari ae
Ġrec on
as ph
Ġop t
Ġdis per
m e
Ġne f
Ġsum p
Ġquin qu
h oc
Ġde os
Ġuid eb
ens es
Ġdic ebat
Ġprop e
Ġt ang
Ġsep ulc
Ġspeci em
Ġdon a
Ġbab yl
Ġiudae is
Ġfaci e
h ort
Ġtri a
Ġprincip ium
Ġob sequ
Ġdeb ent
Ġa ci
Ġn ic
Ġ om
Ġtran se
Ġno uit
Ġuid eri
Ġtrib u
Ġcast ra
Ġsapi entiam
id e
Ġcred imus
u em
Ġimp le
Ġchar itatis
i ud
t arum
Ġdep rec
Ġep h
Ġpet ro
Ġc ic
enti as
issim is
ost es
Ġa re
Ġnecess itate
Ġaetern ae
Ġde fer
Ġh il
Ġuirg inis
Ġinfer i
Ġs id
Ġra dic
Ġui ribus
Ġmoys es
Ġuen iam
p ere
Ġe li
Ġuir is
b ris
Ġcommun ic
Ġsus pic
Ġimag inem
Ġpraes entia
Ġprof ess
Ġp ene
Ġdiuin o
Ġer ga
Ġma gnific
ae i
Ġius s
Ġcon dit
Ġd issim
Ġp ic
Ġu b
Ġprophet am
Ġn aui
j ec
Ġt yr
Ġpl ag
Ġdiuers is
Ġhab eant
Ġdiuers a
Ġuirtu tibus
Ġab l
Ġnecess aria
t ot
Ġsalu atoris
in ter
Ġeccles iis
Ġdign um
Ġapostolic am
Îµ Î»
a ut
on iam
Ġcol leg
Ġdix erit
Ġm ense
Ġli ne
Ġpl enit
Ġmemor ia
ep istol
tif ex
Ġsac ris
Ġre prob
Ġins id
Ġuel uti
Ġepiscop os
Ġdiscip ulis
Î· Ïĥ
Ġuul g
Ġgra ui
Ġabb atis
ati ua
Ġcol lec
Ġcatholic ae
an as
Ġf at
Ġseru orum
ud inis
Ġu eli
Ġad duc
Ġuol uerit
id is
Ġpraecep it
ĠÎ´ Îµ
Ġp isc
Ġintellig ere
Ġfec erit
Ġsubst antiam
Ġsed e
Ġreli qua
Ġsatis fac
Ġlib ris
si gn
Ġius te
r as
Ġcon demn
itud inis
Ġpre tios
Ġbl asph
it h
Ġad ol
Ġfidel es
Ġuestr o
Ġu a
ur us
esc at
Ġm el
Ġne qui
Ġbon ae
Ġpro uoc
Ġaliqu od
Ġqu oc
Ġut raque
Ġpar um
Ġadj u
Ġper sequ
Ġdef unc
Ġinim ici
Ġinu enit
Ġinu oc
Ġsae p
er emus
Ġexerc itus
Ġpraecep tum
n as
Ġpl ena
Ġnesci o
Ġin quam
ens a
Ġi x
Ġfor tasse
Ġrec ord
er tim
Ġpropri et
Ġt ecum
cl am
ere a
Ġconcili o
Ġf un
Ġdein ceps
Ġcom ed
ac ta
Ġfideli bus
Ġinc lin
Ġel em
Ġsu g
Ġqu alis
Ġfi eret
Ġnou em
Ġmagn us
Ġanim as
Ġdic is
Ġini tio
Ġcom es
Ġassum p
Ġa uer
Ġp i
Ġt alem
ul e
Ġex prim
und us
Ġdiab oli
Ġfac to
Ġpl ura
Ġmo u
es im
Ġsu c
Ġins uper
m ine
Ġconf id
ili um
Ġu ill
Ġman e
Ġpr em
i ri
Ġac tus
Ġdis pon
Ġauxili um
Ġdi oec
Ġsol o
Ġluc e
Ġt on
tor ibus
at enus
Ġsubst antiae
Ġb er
Ġno li
y ri
Ġdiuin is
Ġmat rem
Ġrur sum
Ġt ec
Î¿ Î»
Ġuer sus
t atur
Ġtemp orum
Ġped ibus
Ġinte gr
Ġpotest as
l ae
Ġinter i
Ġcon ui
abili a
ot e
Ġgen uit
Ġsem en
us tri
Ġu isi
Ġblasph em
ac ulo
Ġf ore
Ġfal sa
Ġun quam
Ġab st
Ġmor ta
Ġdis tinc
Ġrom am
Ġprop on
Ġsubs crips
und o
Ġfor is
Ġfec erunt
Ġasc endit
Ġper uers
Ġquis quam
c ae
Ġdi rig
Ġper g
Ġintellig itur
Ġsimil is
Ġante a
Ġobs cur
Ġorb is
Ġnostr os
Ġpropri o
Ġsyn od
Ġs tu
Ġtu orum
Ġin op
Ġpl ane
Ġcur am
Ġmemor iae
Ġist am
Ġar mis
Ġsacram entum
lib er
Ġnob il
b a
Ġma gni
Ġpre cibus
Ġuin um
Ġg u
Ġmar is
Ġt alibus
Ġimper ii
eb am
th ag
er rim
Ġu ex
p ost
Ġsanguin is
ac iter
Ġsacrific ium
Ġleg es
Ġaur es
Ġd og
Ġpan em
Ġprod uc
Ġmin or
Ġaur um
Ġcoll oc
Ġa ffer
Ġill ustr
Ġph ili
Ġdid ic
Ġculp a
ĠÎ¿ Ïħ
Ġsub ito
c or
Ġlib ri
Ġeccles iarum
Ġsci entiam
ur um
Ġconstantin op
Ġf ic
ell am
Ġui tia
Ġde di
x imus
am ini
on ium
et a
Ġme os
Ġali cuius
and ae
tr is
Ġteneb ris
os i
Ġfl uc
Ġcol umb
Ġimp iet
ar us
ell ae
Ġtrans l
Ġquis quis
Ġperpet uum
ir ent
Ġcomm iss
erum que
ell o
Ġdes per
Ġdic ente
Ġor atione
Ġtot us
Ġid us
Ġlib id
Ġcoel is
Ġdie i
Ġgen era
Ġdesc endit
Ġres urg
ĠÏĦÎ· Î½
Ġtra di
Ġco en
Ġuol o
Ġqua erit
Ġobs ec
Ġmemor iam
Ġdep ut
Ġann orum
Ġfidel is
Ġcer tam
Ġthes aur
Ġsub di
ar dus
Ġimpos si
Ġhab itat
Ġan d
Ġi re
u tionis
Ġoc uli
Ġiub et
Ġord inis
Ġtyr ann
Ġdoctr inam
Ġpa ul
Ġmand ata
Ġno ta
Ġi ob
Ġ. .
s ae
ot us
Ġper hib
Ġprae fec
Ġpraes ertim
Ġn it
Ġist ud
Ġl udo
Ġfr ustra
Ġle u
Ġcommun i
ac hi
Ġmon str
ĠÏĦ ÏīÎ½
Ġuerb orum
Ġqu apropter
Ġt eg
Ġreli qui
f i
Ġpraes entis
Ġideo que
Ġis tius
ud um
Ġdis pos
Ġeu id
and os
Ġcoel orum
ro que
Ġutri usque
Ġpet rum
Ġfid uci
el es
ÏĦ Î¹
Ġl ug
Ġpar tic
ens ium
on ius
Ġpos tr
Ġdu ae
Ġimm o
Î± Ïĥ
Ġsuff rag
Ġre ced
Ġob st
uc h
Ġman et
ill el
Ġhab eret
Ġinf l
Ġt orm
Ġter tium
Ġ Â
Ġrem an
Î¿Î¹ ÏĤ
Ġmor ibus
Ġmet rop
Ġme dit
Ġaliqu em
Ġueni ens
Ġmal orum
Ġorb em
Ġin gredi
ell us
Ġquad r
Ġsuscep it
ae us
Ġx i
Ġquadrag inta
Ġcomm o
ol o
Ġangel is
us c
Ġocc is
em os
Ġterr arum
Ġuet us
Ġmanifes tum
Ġpro ut
oc in
Ġlum ine
Ġop erum
Ġplur ibus
Ġdomin icae
Ġpropri is
Ġinn um
Ġsci entiae
Ġeuangeli i
Ġc ito
Ġmarty ris
h inc
tin um
Ġper duc
ĠÏĦ Î¿
Ġhum ani
Ġsermon em
Ġh y
Ġchar itate
Ġd ulc
Ġgen it
Ġscrips it
Ġtemp lo
Ġuir es
pr om
Ġal titud
Ġin tim
Ġprincip is
ot um
Ġtrans fer
ib ilis
Ġf ati
Ġb is
Ġfl am
Ġmaxim a
ion um
Ġuen erunt
Ġle ui
Ġe di
Ġd atum
es i
Ġin cipi
il iter
Ġu end
or te
Ġsacerdot um
Ġg est
Ġsalu ator
Ġann unti
an iae
tissim a
Ġmarty rum
Ġgaud ium
Ġper turb
c ui
Ġsum mo
Ġpr odi
Ġeis dem
Ġdiuin itatis
et us
uer o
b o
Ġf as
ĠÎ¸ Îµ
epistol a
Ġues per
Ġplac et
Ġu ast
ion i
Ġret rib
or sum
a uerat
Ġcaus as
Ġto ti
ac ia
Ġquos dam
in os
Ġposs ent
Ġangel orum
Ġdoctr inae
Ġexs ult
Ġtrib un
Ġpsal mis
Ġhab entes
s am
Ġdef end
u unt
Ġch al
Ġfaci es
Ġdes tin
Ġtrig inta
ri i
Ġpsal mo
Ġgladi o
Ġm ensis
Ġsal ub
Ġmun ere
Ġh ostes
Ġor a
Ġtu as
Ġadh a
Ġdiabol o
ec tus
Ġl up
Ġlab ore
Ġdis tric
Ġdesc rib
er im
Ġintellec tum
Ġinte g
Ġins in
Ġpost modum
Ġcap i
Ġf ini
Ġmem in
Ġita li
Ġ rig
Ġc ent
Ġpast or
id ium
is tit
Ġmai orem
Ġm ere
Ġimper io
Ġtantum modo
Ġdon um
um entum
Ġrom anorum
Ġmon tem
Ġux or
a bus
ui o
atur us
Ġcal c
esc unt
Ġanim os
Ġcomm od
Ġsoc r
Ġsoli d
Ġimp on
Ġl it
unc ta
Ġsubst anti
Ġpraecip ue
Ġperson am
Ġiudic es
di que
Ġsalut e
Ġpro inde
se qui
Ġsc r
Ġuide o
Ġmer ce
Ġ âĢ
Ġpon tifex
Ġinc end
Ġcons or
Ġcor r
Ġintellec tu
i uit
Ġle o
Ġred uc
Ġuis um
Ġnum er
Ġseptu aginta
am enta
Ġmar c
Ġfrat ri
Ġ ÏĨ
Ġfrat ris
Ġp end
Ġmo y
Ġau ari
Ġfac iam
Ġtol er
Ġr uin
eros ol
Ġor ationem
Ġaper te
Ġuel it
Ġh ae
Ġuer us
Ġeuang elic
Ġg esta
Ġten et
tic um
Ġadm inistr
Ġcardin alis
Ġaet ate
Ġresurrec tionem
Ġa em
Ġu an
Ġconi ug
Ġcreatur a
Ġscriptur arum
Ġill uc
ps o
Ġmun era
Ġlaud em
Ġmir um
emos y
Ġsanc tam
Ġt om
te x
Ġtemp est
tin o
Ġsy m
Ġali ena
ac o
Ġpel ag
Ġsci o
Ġapostol is
Ġeius que
Ġmor itur
Ġaduers um
tin am
Ġcal um
Ġpe per
Ġsang uis
h ab
Ġhi eron
¿ ½
ï ¿½
Ġanim arum
li o
Ġimm ol
Ġexpe di
dec im
Ġcaus is
Ġopp ortun
Ġdilig it
Ġinc rep
Ġadol esc
Ġapostol um
Ġun dique
Ġini tium
u f
um enta
Ġl xx
Ġres p
Ġimper atoris
Ġhab etur
ol us
Ġus ur
d atum
Ġmort uis
or us
Ġuiui fic
x i
Ġill as
h is
Ġs ati
Ġconu en
Ġm om
Ġappar uit
Ġapp are
Ġin tu
Ġfig ura
Ġsuper s
Ġus um
Ġad im
Ġacc ess
Ġx u
Î» Î·
Ġtrad idit
ti l
Ġac tum
Ġap prob
Ġfac eret
Ġpron unti
Ġper uenit
Ġmil le
Ġpo enam
Ġglor ific
Ġele emosy
ri us
Ġop pos
Ġcom pon
Ġdiscip uli
Ġtestam enti
Ġpol lic
Ġmisericordi ae
Ġ osc
Ġres pic
Ġter m
ti ce
Ġcaus ae
Ġlat ere
Ġquae que
Ġiud ex
Ġnecess arium
Ġass id
Ġpass ionis
Ġoper atur
Ġr us
Ġcontr aria
Ġuener abilis
Ġtest atur
on io
o gn
Ġpl erumque
Ġe duc
hi ae
Ġdiss ol
ere bat
Ġcircum cis
oc r
di xit
Ġprim is
Ġluc ius
Ġmun us
in s
ens us
qu em
Ġad op
Ġfal sum
Ġfranc orum
Ġcom per
ili bus
Ġplac uit
Ġcatholic a
Ġsi g
Ġgrae ci
Ġsimplic iter
Ġapostol o
Ġins er
Ġlae t
Ġsol ent
t enus
Ġquan tit
ÏĦ Îµ
Ġhab eo
Ġp anis
on ibus
ĠÎ ¹
Ġsing ula
m ur
Ġam orem
Ġprae cipi
enti i
Ġuel let
Ġt anti
Ġmil it
rum p
Ġuirg ine
Ġad uer
ti git
in sec
Ġpl ant
Ġdi erum
Ġtr em
Ġcorp orum
Ġuid emus
Ġintell ex
Ġdisc ern
Ġfam a
Ġl y
Ġcontin uo
Ġaris tot
ar on
Ġetiam si
Ġlati t
Ġant ec
Ġapp aret
Ġimm in
Ġaur o
Ġbenedic tionem
l orum
Ġs ene
Ġsed es
au g
Ġmyster ium
Ġm os
et um
Ġplurim um
ĠÎµÏĢ Î¹
Ġb elli
Ġconstit uit
Ġbre ui
Ġu ali
Ġpecc atores
u ir
n unc
iud ic
Ġs ord
Ġint end
Ġgr at
y mis
ti tis
Ġuirg in
Ġdiacon us
Ġcrucif ix
Ġre b
Ġo ues
Ġf eri
itat us
Ġinuen itur
ae que
Ġpass us
p o
it titur
ĠÎº Î±ÏĦ
Ġcred o
Ġcal am
Ġmultitud o
Ġf esti
es tus
Ġut roque
i tione
Ġper n
Ġ /
Ġt ul
Ġhor r
Ġalter o
Ġrespon s
Ġmil ites
Ġperson ae
it orum
os que
ti b
Ġa quis
Ġpos teri
s ub
Ġobs id
Ġmand atum
Ġmon tes
s er
Ġuid i
uit u
Ġput ant
Ġquic umque
Ġfrequ enter
Ġmul torum
Ġuid eretur
Ġpauc is
us a
Ġse uer
Ġmemb ris
Ġe greg
Ġlib era
di u
Ġap ri
Ġdog m
Ġcas tit
Ġabs it
Ġra di
Ġdic tus
Ġsapi ens
Ġcer ta
Ġinst rum
Ġauctor itatem
Ġcommun e
Ġpat ribus
Ġan ci
Ġmat th
uis tis
Ġnostr as
it te
Ġu isc
Ġex er
Ġdu abus
emp e
Ġad f
Ġad uentum
Ġuis it
Ġsal us
Ġuoc ant
Ġlib rum
Ġscriptur is
Ġsem in
Ġpotest atis
Ġmor es
pe tit
Ġturb a
iss em
Ġs inc
Ġpasch a
Ġn atum
Ġchristi ani
Î¿Ïħ ÏĤ
Ġcont enti
Ġuid es
Ġuer am
er imus
dec ess
Ġx iii
Ġall el
Ġfer u
ul are
Ġuol um
Ġquae cunque
Ġma ius
Ġpen et
ur ia
Ġdist rib
Ġsy l
Ġregn a
Ġlib ros
Ġrem edi
Ġform id
Ġlacr ym
Ġposs um
Ġconsci entia
Ġdem um
Ġpos ita
Ġproc ess
Ġsp oli
Ġquar ta
Ġuir orum
Ġam ar
Ġin quir
Ġpar c
Ġexemp la
e bi
Ġpar adis
Ġueni at
ĠÏĢÏģ Î¿
Ġpertin ere
Ġtemp li
Ïģ Î±
Ġaet atis
Ġauctor itas
Ġcar thag
Ġuoc at
Ġhos tis
Ġmiss us
let a
Ġchar itatem
Ġstud ium
Ġde orum
Ġperfec ta
Ġfug i
Ġanim ad
Ġlib enter
ĠÏĦ Î±
Ġmon st
Ġbell a
Ġgra d
Ġsanc tos
Ġr um
Ġer ub
Ġconf und
Ġl uci
Ġin cipit
Ġciuit ates
ac ulis
Ġun itatem
Ġfati g
Ġpuer i
Ġp ess
id erit
Ġcor dibus
Ġterr ena
Ġhos tium
Ġsacri leg
Ġsi ti
ab or
Ġmi gne
Ġcontum eli
Ġar te
Ġca u
Ġtran qu
Ġh yp
Ġi ah
ĠÏĢ Î±Ïģ
Ġfutur o
Ġsubscrips i
Ġappell atur
ar ibus
am ento
Ġtrin itatis
Ġr ot
Ġprae l
Ġepistol am
Ġadj utor
Ġmat eri
queb atur
Ġex teri
Ġuen erit
Ġde fici
Ġui tiis
Ġreg ula
Ġexal t
Ġm ach
Ġpublic a
Ġcons ue
Ġdiuin i
Ġsu pr
tissim o
Ġnob iscum
Ġspon te
c in
Ġfor tis
con s
Ġin e
Ġsc it
Ġpal m
uar ic
Ġs s
Ġr am
Ġde cep
Ġcol um
Ġi ram
Ġtrans m
Ġr os
Ġuel oc
Ġhac tenus
ri ae
Ġdi g
Ġsi on
iss is
Ġcons pic
Ġuid ens
Ġexc it
Ġi uc
Ġul lo
Ġmali gn
Ġdi rec
Ġsaec ulorum
Ġaeg r
Ġp uni
Ġfruc tu
Ġresurrec tionis
Ġur g
Ġuo ta
Ġin gressus
Ġeffec tus
Ġleg ibus
Ġfec isse
Ġali ae
Ġn ata
Ġaqu as
Ġimpr ob
ot o
Ġprae cipit
Ġiudic ia
Ġist um
Ġnihil ominus
entissim e
Ġag itur
Ġpop ulis
Ġpropos itum
Ġper di
mis it
Ġz el
â Ł
ati a
Ġcet era
Ġcred itur
Ġorb e
Ġmagn am
Ġdic tis
Ġcomm ut
Ġimm ut
Ġin ui
es imo
ar r
Ġac tibus
Ġte x
Ġconcili um
Ġm ys
Îµ Ïħ
Ġfab ric
Ġprae uaric
Ġscriptur ae
Ġid one
Ġdol ore
Ġus u
Ġsub l
p a
Ġa est
ae qu
Ġsaec ulum
Ġsaep ius
Ġpr is
Ġten ere
Ġh ec
Ġtrans i
Ġpot es
Ġdeter min
Ġfac ilius
Ġoc t
Ġaff lic
Ġu ag
Ġin gress
Ġh ere
Ġprae decess
Îµ Î³
Ġut ero
Ġcet eris
ari orum
Ġid ol
Ġs od
Ġcer tum
urr it
Ġintr od
ac um
i tionem
Ġuener abili
Ġprec es
Ġdis ting
en es
et as
Ġquic unque
Ġambi g
Ġlitter arum
Ġ Ïĩ
Ġpro iec
ac tus
Ġa str
Ġmat rim
Ġuid ebatur
Ġi c
is ter
Ġaffec tu
Ġn uper
Ġdix isse
Ġbe atissim
Ġerr ore
Ġtem ere
Ġmed ia
Ġabra hae
tur am
Ġpul s
Ġfi ant
Ġrep ugn
Ġsug g
Ġpe tit
Ġpossib ile
Ġdign itate
Ġc in
Ġdubi um
Ġinter dum
ic h
Ġhum anum
Ġsyn odo
Ġius ta
e qu
Ġiniqu itatem
Ġsol e
Ġp un
Ġreuer t
Ġred im
Ġprincip em
en os
Ġme as
Ġsuperb ia
Ġprot ec
Ġn empe
Ġs ob
Ġper ag
Ġper fic
Ġsene x
Ġnun quid
Ġeffic i
Ġnasc itur
Ġiac t
Ġprouinci ae
Ġprophet arum
Ġepistol ae
Ġbre uiter
Ġs ta
ra es
Ġtestam entum
Ġsupra dic
Ġp ens
an iam
Ġcoen ob
Ġdign a
Ġdign us
p at
Ġop orte
Ġsus p
Ġt ut
Ġprom p
tic o
os s
Ġrecon cili
Ġc ep
Ġt end
ob iscum
bi li
Ġanti och
Ġapostol os
Ġsus cit
Ġpar tim
e atis
na go
Ġper cipi
Ġr eno
Ġual eat
c ess
ÏĥÎ¹ Î½
Ġres id
Ġsae ui
Ġperueni re
Ġhom ic
Ġla ur
al itatem
Ġex hort
d om
Ġfaci et
Ġexerc itum
Ġcrud el
Ġreg ulam
Ġquae cumque
Ġuer i
Ġpers pic
Ġest o
Ġla que
Ġluc is
Ġtenebr as
Ġpass ionem
Ġr ationis
Îµ Ïĥ
Ġpertin ent
Ġa ed
Ġm ess
Ġhon ori
Ġtem er
Ġtum ul
Ġaegyp to
Ġprincip um
Ġinter dic
ub lic
Ġput o
Ġpos itum
Ġe rip
Ġuniuers is
Ġtant am
ti arum
Ġnos c
Ġsacram enta
Ġnecess itas
Ġconuer t
Ġuet eris
Ġb eth
et em
Ġbaptis mum
Ġuis us
Ġse qui
Ġues ter
b ant
Ġpon itur
insec us
Ġor ationis
Ġi ung
Ġgra dus
Ġac er
Ġam oris
Ġincer tus
Ġpiet ate
Ġprim am
Ġdix erat
Ġalter i
Ġpro tinus
Ġ ri
Ġu obiscum
Ġquar to
Ġsent entiae
issim am
Ġcommun is
Ġquid quam
Ġconsens u
Ġrec ta
Ġla ps
Ġres eru
Ġexp l
Ġbaptis m
Ġsing ular
ab imus
Ġnaui g
Ġostend itur
Ġde pon
tur i
iss um
Ġc ass
Ġdi ac
Ġpot entiam
Ġa ere
os us
uin c
al dus
ab am
itat a
Î¼ Î±ÏĦ
Ġpraem ia
Ġlib erum
Ġcae lum
Ġdis ced
Ġarbit rio
Ġconj unc
Ġgregor ius
Ġincor rup
u untur
Ġpoenit entiae
Ġpati tur
Ġpatri am
Ġph aris
Ġno uo
Ġm atur
y n
e f
Î± Î¸
Ġele u
es to
Ġt rip
am b
Ġred dit
Ġdes in
Ġaur ibus
Ġin m
Ġle onis
ell e
Ġumb ra
Ġd er
Ġan tis
Ġpraedic atur
ator i
de bat
Ġdiffer entia
Ġmultitud ine
Ġdisciplin a
sit an
Ġquaer itur
Ġcogit ationes
Ġimpossi bile
Ġprae fer
und em
Ġf ines
Ġsu arum
ĠÎ± ÏĢÎ¿
Ġpatri ae
Ġamb o
Ġill ae
or s
Ġinc omm
f us
Ġoper am
amm odo
Ġdi ues
Ġmort ui
Ġcel er
Ġstud ios
andi u
Ġsumm um
Ġap ol
Ġcor rip
Ġdesider ium
Ġminister ium
Ġnem inem
qu ia
Ġcon clud
Ġdol or
Ġphili pp
ari as
Ġsen ec
Ġdign itatem
Ġu il
Ġe z
ui am
Ġf us
Ġnim ium
Ġu ino
Ġpass ione
Ġpresbyter i
Ġcont end
Ġob iec
it ti
Ġrom ana
Ġcae lo
Ġioann em
p or
Ġuehem enter
Ġ q
Ġe gredi
ec cles
Ġpl u
Ġfidel iter
.. .
Ġuol ens
Ġrep ar
tic us
Ġp il
Ġsacerdo tibus
Ġtim or
ac es
Ġdisc rim
Ġinstr uc
uer itis
ann o
Ġfili am
ha er
Ġrem ans
Ġph o
Ġisa ac
Ġsing ulos
Ġperic ulum
Ġsed uc
ui que
Ġdiuin am
Ġsy nago
Ġperegr in
Ġfec isti
Ġquod ammodo
auc tor
Ġlong a
e is
Ġpo ti
Ġlon git
Ġcruc em
Ġarchiepiscop o
l os
Ġimp edi
Ġd abit
in n
lic em
Ġcaes ar
Ġinim icos
Ġuoc es
Ġueni et
Ġquaer ere
Ġcop ul
Ġpsal mus
Ġmultitud inem
Ġhon oris
Ġaegyp ti
m entum
on ii
Ġlati na
Ġspeci aliter
Ġde dic
eb o
olog ia
on iae
Ġdi uit
ĠÎ± Î³
Ġsuccess oribus
Ġamb ros
__ __
Ġuas a
id ia
Ġcon g
Ġdeb eant
Ġcomp ell
ar o
Ġcl ass
Ġuestig ia
Ġpoter ant
Ġgaud ia
Ġcor rec
Ġpot ens
Ġdemon st
Ġac ta
Ġnecess ario
Ġu illa
Ġmod er
Ġper cep
Ġincarn ationis
Ġdec et
Ġpsal m
al itate
Ġuoc auit
Ġrom anis
Ġsermon is
Ġpop ulos
Ġalio quin
Ġde fic
Ġcrim en
Ġalter am
Ġcons c
Ġinc ur
Ġlitter ae
os um
Ġabb atem
Ġdign atus
gre ditur
Ġu ariis
Ġui tiorum
Ġdic amus
Ġpraesum p
Î¼ Î±
Ġcontr arium
Ġsequ untur
Ġex press
Ġapp et
Ġut er
Ġmod us
Ġproxim um
Ġb el
Ġsim plici
Ġinc om
Ġcommun ione
Ġpontific is
Ġui tium
ĠÎ ²
Ġmot u
Ġsuffic it
tu or
Ġfr ug
Ġtant ae
Ġdim itt
Ġpern ici
Ġprius quam
c om
Ġep i
Ġoff end
Ġmat re
Ġx iu
Ġaudi uit
Î¿ Î³
Ġinc ho
Ġredd ere
Ġpulch r
im entum
Ġtra dit
Ġquic quid
Ġdexter a
Ïģ Ïī
ĠÎ· Î¼
Ġo u
Ġfortun a
tur um
Ġor is
od is
Ġpos itus
Ġfor sitan
Ġi erem
Ġallel uia
s anc
Ġpraes ci
er as
Ġm ass
Ġmul tas
Î· ÏĦ
ber tus
Ġex ac
Ġnul lis
Ġdexter am
Ġiudic em
Ġnatur aliter
Ġmans uet
Ġam o
Ġpublic e
Ġui as
Ġconsuet udinem
ciper et
Ġd abo
pe x
Ġinueni re
Ġlibert atem
Ġgaud io
Ġes uri
Ġsub m
Ġsem ine
h el
Ġsci ens
Ġf elix
Ġsac rae
ut h
Ġsubj un
Ġsub d
iter i
Ġsen atus
Ġfaci ant
Ġaur i
Ġhi erusalem
Ġrefer t
d ae
re di
Ġsuffic i
u etur
Ġca li
Ġmoy si
Ġmuli eres
Ġius tis
Ġac cipit
Ġpar entes
Ġpauc a
Ġt ulit
Ġsa ul
Ġpro fici
Ġp ia
Ġde g
Ġsimil e
b is
la ud
Ġquam quam
Ġob iit
Ġauc tore
Ġdi on
Ġexs ec
Ġtest es
Ġrep et
Ġap prop
Ġser uum
Ġcorp oribus
Ġm isc
Ġman ichae
ut ae
Ġpr omo
Ġterr as
Ġad uoc
al itas
Ġf oli
ar di
Ġhab itus
Ġd ari
Ġfl amm
Ġiudae os
Ġim ago
Ġpot uerunt
Ġpatri a
Ġmac ed
Ġcruc e
Ġpre tium
Ġpauper es
ui g
Ġcons id
Ġmer idi
e os
Ġdesider io
i z
Ġmerit um
e fac
es que
Ġpon it
ent u
Ġhon est
Ġde lici
Ġex inde
Ġdef in
Ġmil itum
Ġre tro
Ġb a
Ġbenedic tus
tr um
Ġscrib it
Ġperpet uo
on ensis
Ġp ing
Ġsic uti
Ġd o
u ant
Ġdoc uit
Ġpontific atus
ell as
eb is
Ġseru os
Ġcas u
Ġbon os
Ġpec tore
ar c
ps os
Ġcre b
Ġnull atenus
Ġp is
ess et
ĠÏĦ Î¿Î½
Ġdis posi
Ġues ti
Ġian u
Ġprouinci a
Ġcib um
Ġae que
Ġlaud e
b it
Ġsub dit
Ġuictor ia
ili o
Ġling uae
tic is
Ġcomp et
Ġoffic ia
Ġa aron
Ġr id
Ġh ym
al a
Ġma ii
Ġchristi anorum
Ġcath ed
Ġtran st
Ġrom ano
Ġpraes entibus
Ġcomp reh
Ġangel os
Ġun itate
Ġerr oris
Ġquaes tio
Ġecclesiastic a
Ġtrans f
u orum
Ġanim alia
Ġx ui
Ġmerit a
Ġe ri
Ġin gr
Ġnoc tis
Ġbr it
f t
Ġsim ilia
Ġcomm on
Ġduc e
Ġnonnul li
Ġor th
Ġdix isset
Î±Î½ ÏĦ
Ġmaiest atis
Ġcr esc
Ġhaeretic orum
ud it
Ġaqu arum
Ġperfec tum
Ġt y
Ġproc edit
Ġmai ores
Ġbenedic ti
Ġrespon de
Ġindi uid
u arum
Ġs tare
Ġluc ern
ym us
Ġseru are
ter ius
Ġpro eli
ent os
ar it
Ġuid ete
Ġfili ae
Ġuerum tamen
Ġbeat o
Ġnot andum
Ġmeli or
Ġmagn is
Ġnec non
Ġprincip ibus
Ġhos tibus
Ġqui que
Ġperm itt
Ġuide amus
Ġori ent
Ġfac tis
Ġuul tus
Ġsi b
Ġcom prob
Ġostend ere
Ġt et
Ġu ad
Ġla us
Ġpal am
Ġu ae
Ġsemeti psum
Ġpiet as
u are
Ġres ist
Ġrep ente
Ġrob or
Ġprophet as
al itatis
ps i
ii ae
Ġdul ced
Ġco op
Ġhaere tici
Ġsecund us
Ġrep ut
Ġamp li
Ġmoys en
Ġdiuin itus
lo gis
t emp
y th
il li
Ġpecun iam
Ġad ueni
d itatem
ul ta
il le
Ġre cipit
Ġui tio
ac ul
Ġsp atium
Ġocc idit
Ġprim ae
Ġod io
et o
Ġiu uent
Ġpati entia
u antur
Ġdesc rip
anti us
Ġas sign
Î± Îº
Ġe rig
Ġsim ili
Ġbe atum
Ġcapit ulo
Ġbon am
Ġt rep
Ġcl ari
Ġmens es
Ġfec i
ens ibus
le uit
or o
Ġpa ulum
Ġsu auit
t ul
Ġcor rep
Ġsens ibus
Ġnos se
Ġr ud
Ġcoeles tia
r ent
di um
Ġun c
Ġind ustri
Ġarbitr or
Ġreg im
Ġfrat re
Ġlign um
Ġlaud ibus
Ġar tific
Ġh ol
Ġinc id
Ġcap itis
Ġsei psum
ti tiae
Ġpac ific
Ġeffec tum
Ġmar tini
Ġb es
cap it
Ġcre di
Ġmol es
Ġun ic
Ġhab itu
Ġum quam
Ġpra en
Ġf ol
ec hi
Ï Ī
ec it
Ġr ab
Ġmuli erem
Ġref ug
Ġpar entibus
Ġquat tuor
Î ¶
Ġmis eri
Ġmaxim i
li i
Ġquod dam
Ġap r
Ġaliqu i
Ġb esti
Ġsus tent
Ġlac rim
Ġm entes
Ġf inibus
Ġquo libet
Ġprim og
Ġdon o
Ġcaeter i
Ġg entis
Ġdic ti
Ġr est
Ġres pici
Ġstu p
Ġf ate
Ġor ationibus
Ġpleb em
ess um
Ġoccas ione
Ġg ens
Ġsub sequ
Ġpoenit entia
Ġmon tis
Ġauxili o
an de
Ġt estis
Ġerr orem
Ġcup i
ic as
Ġlun ae
Ġde tr
Ġimper atorem
Ġnoc tem
Ġsermon es
Ġins pir
Ġsu ad
Ġfor as
Ġnol uit
c ar
Ġprofec tus
Ġal leg
Ġpur p
ric is
Ġop press
Ġdomin ica
Ġcoel esti
i em
Ġuer ae
Ġbe ata
Ġreli quit
Ġos sa
Ġintellig it
Ġpo enas
Ġcod ic
Ġquando que
Ġplurim a
enti arum
Ġb ac
Ġm odi
Ġquaes o
Ġl ate
Ġuic e
Ġcae l
et ate
Ġh en
no x
and as
Ġu ber
Ġreg ibus
Ġfaci ens
pec tum
Ġm orum
Ġexam in
ti es
Ġmerce dem
Ġe dic
Ġpropri am
ereb ant
Ġd udum
Ġhaere dit
Ġaugus ti
Ġconi unc
Ġmon achi
Ġconc ord
Ġmortu um
Ġi tin
Ġqu ale
Ġius to
Ġmer uit
Ġprud entia
Ġex ordi
Ġper fici
Ġiohann es
Ġdiui tias
r at
s unt
Ġst atum
ati us
Ġlaud es
Ġpau ci
esti g
Ġhumil itate
Ġusur p
Ġpraecep tis
ios a
Ġsac ros
Ġdisciplin am
Ġli qu
Ġhumil itatis
Ġg ign
ci o
Ġarg entum
Ġcreatur ae
Ġnomin ibus
Ġnut ri
Ġs imus
Ġhumil itatem
Ġperic ulo
Ġoccurr it
Ġfr ang
Ġhum anis
Ġmai ora
Ġrec us
Ġueni unt
ut ur
t ulit
Ġpers uas
Ġoffic ii
Ġpostr emo
Ġdion ys
Ġprop inqu
Ġph ara
Ġsimil es
Ġphilos op
Ġrom anos
Ġtestimon io
Ġg oth
Ġa gni
Ġp ig
Ġex clud
Ġadd idit
Ġdisciplin ae
Ġmyster ia
Ġdoc tor
Ġnul lius
Ġdeu or
Ġrom a
Ġeuang elis
Ġex im
ad ius
eg o
Ġlab orem
er s
Ġin p
Ġm asc
Ġarch idi
l at
Ġbr ach
Ġpom pe
Ġuet eri
Ġre dit
Ġarbit rium
Ġman cip
Ġdoc tores
Ġhi em
Î¿ ÏĦ
Ġconfess ione
Ġfr an
Ġaccid ens
Ġhonori fic
Ġmali tia
Ġc anc
Ġins ip
Ġelec ti
Ġhistor ia
Ġf erunt
Ġquinqu aginta
Ġcaeter um
Ġint erea
Ġcon fec
Ġsim plex
Ġfon te
Ġomnipot entis
Ġser en
Ġcognosc ere
Ġpar ua
Ġloc orum
Ġabb ate
Ġdiss er
Ġsalom on
Ġl ep
Ġr up
Ġhab uerit
Ġeuangelis ta
Ġsec t
Ġp ign
Ġnihil o
Ġperpet r
Ġi tinere
Ġm ilia
Ġcontin etur
Ġimp end
Ġu tinam
Ġm en
Ġci ues
Ġe gress
Ġae qui
Ġpecun ia
Ġmonach orum
Ġingen io
Ġa er
Ġad ip
ce bat
Ġling uam
Ġsocr ates
Ġuniuers alis
Ġresurrec tione
Ġquan quam
Ġaduent u
Ġs ul
Ġanimad uer
Ġdec imo
enti or
Ġuer aciter
Ġcor rump
Ġli m
Ġreli quis
Ġrequi em
Ġr au
Ġt rec
Ġtestimon ia
Ġtr o
Ġmor a
Ġi ord
u ari
id isse
tic h
Ġhi erosol
al um
Ġgu illel
atur a
Ġhab itum
Ġsep eli
Ġsy ll
Ġpecc are
Ġlap is
Ġreg ular
Ġhum ano
Ġeff us
il lum
Ġpublic ae
d as
Ġuide antur
Ġposs imus
Ġinfirm itate
Ġdec us
Ġtan tis
ec ti
Ġperm ans
Î± Î³
ceper unt
Î¿ Î¼ÎµÎ½
Ġdeb ita
Ġs inistr
em in
Ġsus cip
Ġmetrop olit
Ġproxim i
est em
Ġpraes entiam
Ġpers onis
Ġconcili i
Ġext end
Ġtim orem
Ġnon n
Ġcr u
oli m
Ġrelig ione
Ġuter que
Ġde leg
Ġauctor em
Ġpossess iones
Ġaccep ta
Ġno titia
Ġduc em
Ġi unc
Ġdi i
bi tis
Ġop pon
Ġsign is
Ġcontin et
Ġmor ti
Ġlae titia
Ġen s
Ġimp ud
Ġdilec tionem
Ġali eni
Ġc c
issim ae
t en
Ġips as
Ġsti p
Ġfi x
Ġmal os
is m
Ġquin tus
Ġi oc
Ġunic uique
Ġp up
Ġuig ili
Ġlapid es
Ġor nam
Ġprob atur
Ġlitter am
Ġdesid erat
g i
Ġman ere
Ġasc ens
Ġreg ione
Ġca ue
Ġine ff
Ġem in
Ġcon tig
Ġb ern
pe xit
Ġx l
Ġsc imus
Ġexemp l
Ġbenefic ium
Ġcler icis
Ġibi que
em ini
Ġp ell
Ġconstit uta
Ġrem un
Ġprae ual
Ġpar tis
Ġiudic are
Ġprin cipi
Ġchar issimi
Ġpraem ium
Ġdecre ta
Ġuni gen
Ġreuers us
tr ans
ĠÏĥ ÏħÎ½
titer it
Ġf a
ri am
Ġinn ot
Ġcas tig
Ġcec idit
Ġprop in
Ġpass io
Ġn us
bi lia
Ġconc ordi
Ġcred entes
Ġserui re
Ġcred idit
Ġquoti es
Ġcast ris
Ġintrod uc
Ġfer ro
en er
Ġpar tium
Ġdec or
Ġmaxim um
Ġduc is
Ġdiuin um
Ġsal ua
Ġhos tem
Ġden eg
Ġad uen
Ġsanc te
Ġuel l
Ġconstr uc
Ġeleg it
Ġuirg inem
Ġar ca
Ġpot uisse
am en
Ġa iunt
Ġcons ist
ic it
Ġcae li
Ġdom i
Ġdiscip ulos
Ġprop ag
Ġob lig
Ġol eum
Ġpleb is
Ġhumil iter
Ġaet as
ĠÏĦ Ïī
ic ere
Ġad dit
Ġscrip tis
d et
iss o
Ġuid erunt
Ġfer tur
Ġheb ra
Ġer is
Ġd ani
al l
Ġsyl logis
Ġfug it
Ġproph etis
Ġludo uic
Ġb i
Ġcred unt
Ġduc es
ter et
Ġmortu os
Ġtranqu ill
Ġaur eli
Ġinfid el
Ġre cipere
Ġfi et
Ġreg ina
Ġelec tus
Ġdic entem
Ġpar isi
Ġreper i
Ġmul tae
Ġtrans ire
let um
Ġpraedic ationis
Ġsimul ac
Ġfutur i
Ġsex ta
Ġpauper ibus
Ġsacram ento
Ġcrim ine
Ġsubj ac
Ġdomn i
Ġer o
Ġdiss ip
Ġcontin git
er tus
Ġbenefic ia
Ġdon ati
ĠÏĦÎ¿Ïħ ÏĦ
orum que
Ġeff ug
Ġbeat ae
Ġfon s
Ġarchiepiscop us
a z
Ġsac ro
Ġdioec es
Ġlib eri
Ġpor ta
ul arum
Ġcr as
Ġos tium
Ġop eri
pos ita
Ġput as
Ġcomm ent
Ġmiss a
s et
Ġc yp
y g
Ġre us
eb as
Ġpecc ator
ur is
tor i
Ġaet h
ut os
id ae
Ġmai oris
Ġgr atis
Ġten uit
Ġdign itatis
t unc
Ġcons crip
Ġang elic
Ġlap idem
Ġlux ur
Ġargum entum
ut am
Ġl x
Ġcas us
Ġec cl
Ġsus cipere
Ġtestam ento
Ġnec dum
Ġreg ia
Ġeius modi
Ġregn auit
s ci
Ġiniqu itate
Ġcustod ia
p es
Ġinc rem
og ra
Ġgrae ce
Ġt al
Ġchristi anae
Ġag ens
Ġdol orem
Ġsupers ti
p iam
Ġabi it
Ġteneb rae
Ġp ius
Ġfec erat
c an
Ġqu ales
Ġomn im
Ġf ebr
Ġreuer entia
et atem
im ini
Ġres ol
Ġrec ens
Ġmit tit
Ġsic que
Ġnot um
Ġref orm
Ġdic to
ĠÏĢ Îµ
Ġs op
Ġius torum
Ġno titiam
Ġaudi ens
Ġlat r
Ġinc olum
Ġdiu tius
Ġput at
Ġre prom
Ġinim icus
Ġuestr as
Ġro go
Ġdu orum
Ġchristi anis
Ġt aur
Ġol eo
Ġess entia
Ġaugus tini
b ilis
Ġual e
Ġux ore
Ġmai ore
Ġimm acul
et es
Ġdup lic
Ġ rip
Ġmir acula
Ġad ep
id am
Ġindic tione
uer imus
Ġpop ulorum
Ġredi re
Ġaper i
Ġpontific um
d omin
Ġtom us
Ġcomp rehend
Ġreg io
Ġinu entus
Ġcomm is
Ġcal li
Îµ ÏīÏĤ
Ġcomm in
Ġadm odum
ps a
Ġsuper fl
Ġcomp ut
Ġeos dem
oc c
Ġdeb itum
Ġexp lor
Ġseptim o
Ġter tius
Ġl iter
Ġinu ol
tic ae
Ġstud iis
Ġcler icorum
t ant
ut em
Ġprop er
Ġhol oc
Ġtermin os
u ad
la x
Ġpos c
Ġlign o
Ġl ar
Ġsup pon
Ġconc ub
Ġt ard
Ġc are
Ġac quir
ps erit
Ġin ex
Ġeu ad
Ġaduers a
el am
Ġfac tam
Ġgra uiter
Ġlong um
Ġmortu orum
Ġaffec tus
ac tis
en ia
Ġinu estig
Ġperson as
ul tas
Ġsum mi
Ġpraes entem
el e
Ġam at
g eni
Ġh erc
Ġaliqu ot
Ġtim ere
id es
Ġcoeles tibus
Ġcoeper unt
Ġprincip e
Ġrespond ere
Ġtermin um
Ġquem dam
u isc
Ġhum ilis
Ġuer ec
Ġculp am
Ġcogno uit
r om
Ġh ar
ac tum
Ġper p
Ġdilec tione
Ġcatholic am
Ġhuman am
Ġg ali
Ġintellig endum
Ġmil es
Ġca lig
Ġinte gra
Ġp unc
Ġinter fic
Ġcorp ori
Ġext oll
itur us
Ġpar ab
Ġmanifes ta
Ġz ach
Ġun itas
Ġir ac
s c
ol as
ĠÏħ ÏĢ
Ġcogn os
Ġlitter a
Ġexp ugn
as i
Ġprod est
Ġanim is
Ġcop ia
ĠÎ± Î»
Ġaequ alis
Î¸ Î±Î¹
Ġi uni
Ġlang u
Ġini ur
Ġbrit ann
Ġser uis
Ġtrib uit
Ġn er
Ġdic ebant
Ġsuperbi am
Ġep ist
Ġinf am
ul s
Ġsign o
Ġperpet ua
Ġcoron am
Ġb ur
Ġquin to
Ġt re
Ġinf orm
Ġalb um
Ġfac is
Ġn escit
il itatem
Ġaffec tum
ps is
Ġcoel os
Ġdilec tionis
Ġod or
Ġin an
Ġlaud is
ci am
Ġapprop inqu
Ġ odi
Ġsapi entes
Ġpuer um
Ġd c
Ġmendac ium
ti ua
er ius
Ġinu ti
Ġme orum
Ġhab ebant
Ġpon ere
Ġconcess a
Ġrec ogn
Ġconueni re
tor a
Ġlacr ymis
Ġuuln era
Ġsynod us
Ġi gni
Ġu ec
Ġre fec
Ġdilec tio
g al
Ġi rae
et ae
atur um
op ere
Ġob nox
Ġal ta
ĠÎµ Ïħ
Ġuet eres
Ġatt rib
Ġmonach us
Ġsumm am
Ġg entem
Ġsp ar
Ġcap ita
Ġcer to
Ġmanifes te
Ġdic eretur
l oc
Ġfirm a
Ġdic ant
Ġiniqu itas
Ġp ie
l uc
Ġcred iderunt
Ġua de
Ġplac ere
Ġsur sum
Ġdeuo tione
Ġdeser to
ol ae
Ġcler ici
Ġnego tio
Ġsin u
Ġimpl ere
o que
Ġtr id
Ġsti r
Ġsec utus
tin a
tur ae
Ġe quidem
Å¿ Å¿
b e
Ġe andem
tis simus
Ġnatur alis
Ġlon go
or g
Ġnus quam
Ġuoc is
Ġplen ius
Ġproxim o
Ġfem ina
Ġcre auit
Ġuis a
Ġapri lis
Ġsol am
Ġcr ass
Ġultim um
Ġconstantinop olit
Ġan us
Ġinc red
Ġdaem ones
Ġlati n
Ġsor ti
Ġdilec tissimi
Ġde trah
al y
Ġimp ed
Ġfutur is
pot e
Ġm eret
Ġdilig ere
Ġcalum n
Ġd uri
Ġcircum d
Ġmater iam
Ġuid eat
Ġpropos itio
Ġuen isse
ist ri
Ġprom is
Ġagn o
ati c
Ġdoc ere
Ġmiss i
Ġspirit alis
Ġexs pec
Ġdiabol um
Ġlarg i
Ġpropri ae
Ġl en
Ġam are
Ġlat er
Ġprouid entia
Ġoct ob
Ġali cui
Ġe gressus
Ġcircum s
tissim is
Ġsanctit atis
Ġeb ri
Ġheb dom
ĠÎ´Î¹ Î±
eg it
Ġperson arum
Ġinim icis
Ġp ent
Ġperfec tus
Ġdic endo
Ġaegyp tum
Ġcer uic
Ġexs ting
Ġhos ti
Ġsoc i
Ġgladi um
Ġconc urr
Ġuid ent
Ġpercus s
Ġsper n
Ġo li
Â §
Ġh ir
ĠÎ± ÏĢ
Ġcur su
Ġcommun ionem
Ġdiffic ile
Ġsteph ani
al og
il lis
Ġali enum
Ġmi x
Ġinnum er
Ġfaci as
Ġsyn odum
on s
ac uli
Ġinn o
Ġuul tis
ric us
Ġmens ura
um entis
Ġf ing
Ġcon n
Ġqui libet
Ġdeb uit
Ġun anim
Ġfor et
Ġconu oc
Ġter tiam
Ġcanon es
Ġpraesum at
Ġflu uium
ec ta
ia li
Ġneg are
Ġconstit utus
Ġaff lig
il itate
Ġsubiec tum
Ġlic entia
Ġpraes tare
Ġapp lic
Ġutil itatem
Ġmai oribus
Ġand re
Ġinu as
Ġpraedic ta
Ġap peti
Ġcreatur am
Ġconfess ionem
in arum
le xit
er g
Ġcarc ere
Ġr is
Ġsuc ced
Ġprae pon
Ġeuang el
Ġez echi
Ġqua libet
Ġanti qui
Ġflum ina
m enta
Ġsing uli
Ġpauper um
Ġintenti one
Ġimper atore
Ġnego tium
Ġgrad u
ant as
Ġquam dam
Ġminister io
Ġinuid ia
eri que
Ġpecc at
Ġfelic iter
Ġdi lu
Ġn esc
uer um
Ġuic tus
Ġhab uisse
Ġpar entum
esc ens
Ġmur mur
Ġdom es
Ġio uis
Ġher b
Ġoptim e
Ġfigur am
Ġm ob
Ġe qui
Ġsub aud
Ġchristi anus
Ġuictor iam
Ġdet est
Ġla es
Ġform ae
Ġa ene
Ġmon s
Ġcl au
Ġdiffic ult
Ġrec ess
Ġnum eros
res pon
s ol
u endum
ae um
eb itur
Ġo tios
Ġsci endum
id io
ed ia
Ġsil entio
Ġmot um
Ġp esti
Ġamp lex
Ġsermon ibus
Ġiug um
Ġqu alem
Ġa uid
ĠÎ ½
Ġins ol
Ġdom os
Ġips ae
Ġcuius libet
Ġpre tio
Ġpraes ul
Ġconf ug
Ġurb es
Ġan tich
Ġaud ac
es te
Ġar tic
Ġmal us
Ġprop or
Ġmonach is
Ġiniqu itatis
Ġf ui
s uper
Ġsp atio
Ġbene uol
Ġual enti
Ġspec ul
Ġlab ores
Ġkal endas
Ġed oc
Ġul terius
Ġpot uerit
Ġcommun em
Ġiis dem
Ġantich ris
al am
Ġu enti
Ġpec tus
itter et
er ium
Ġcom itis
Ġconuers us
im enta
Ġhab etis
Ġcuius dam
Ġleg atos
abili bus
Ġali en
Ġmat u
Ġexemp lis
Ġinjur iam
Ġcor int
Ġnecess itatem
Ġparadis o
Ġp and
Ġsubs ist
Ġuestim enta
Ġam ic
Ġal lig
Ġpo en
Ġnum eri
Ġprom isit
Ġe undem
ular ibus
Ġh eli
Ġl atus
b ene
h um
Ġsenti re
Ġre lin
Ġprae cl
Ġfer ia
Ġchristi anos
Ġmo er
ĠÎ¼ Î·
Ġon us
Ġhab ebit
Ġimp ugn
Ġuestr os
Ġdestr uc
Ġinteg rum
Ġarg ente
Î¿ ÏĢ
Ġiuuen is
Ġrom anus
Ġregn at
Î¹ ÏĥÏĦ
Ġfortitud o
Ġpros equ
Ġholoc aus
Ġs tim
im ento
er io
itur a
Ġdemonstr at
Ġcyp ri
Ġgra ue
Ġsacerdo tis
Ġat tin
Ġcirc uitu
Ġcon turb
Î» Î±
Ġlab oris
Ġlibert ate
b r
Ġi t
Ġx uii
Ġuid entes
Ġnat ale
h ac
di o
Ġangel um
Ġquem quam
Ġhab ita
Ġitali am
as tis
Ġfor titer
Ġoc ulus
Ġpraes crip
Ġmar g
Ġpropos ito
Ġuic tim
Ġeff und
Ġita lia
Ġul tro
Ġser uo
tem per
um p
Ġrom anum
Ġtit ulo
Ġi on
Ġconsili i
Î¸ ÎµÎ½
Ġnoc tur
Ġg ab
Ġaufer re
Ġfac in
Ġci tius
Ġch r
Ġsub trah
Ġor ator
ue h
Ġconu ic
ist ae
Ġub ic
Ġiudic is
Ġduc it
Ġam icus
deb ant
Ġse g
ulis se
Ġth om
Ġuniuers i
bi um
Ġoff ens
Ġuoc ibus
Ġsec us
Ġne ut
ell it
Ġcomp lex
Ġpati entiam
Ġtrin itas
Ġe rec
Ġapol lin
r iter
Ġorig in
uit a
Ġhor am
ari e
Ġamp l
Ġsed i
Ġmag istri
ic ulum
Ġad est
Ġex st
Ġmens uram
Ġconsuet udine
Ġde liber
Ġmod icum
ach us
Ġgener aliter
Ġbapti st
es ima
Ġpass im
Ġpre dic
Ġop prob
Ġpon dere
Ġpr ess
Ġir asc
Ġpl enum
Ġlo quebatur
Ġl oth
Ġaliqu ibus
il itas
Ġsolum modo
Ġposs is
tr am
uer ent
Ġuoc antur
Ġinh abit
Ġuill am
u entes
Ġid que
Ġpers ol
Ġpraedic tum
Ġaliqu ant
Ġ y
Ġpon dus
Ġscriptur as
Ġinsid ias
Ġdec ima
Ġdi gni
Ġinueni ri
Ġpatr ologia
Ġli quid
Ġe quit
Ġtor r
Ġlati ne
Ġpraeter m
Ġtermin us
Ġanathem a
il lo
Ġod ium
Ġecclesiastic is
Ġscr ut
Ġa i
Ġoffic iis
itud ines
Ġcaes aris
im et
Ġpon d
Ġneg at
Ġmand amus
ass ent
Ġuul tu
Ġnup tias
ti ores
Ġfaci endum
Ġprae con
Ġmand atis
omn ia
Ġstat uit
Ġab n
eb ri
Ġn or
Ġaccipi at
est or
Ġmili tibus
Ġrec it
a que
Ġmitt ere
Ġl an
Ġpsalmis ta
Ġport am
am ine
Ġdi git
pr es
Ġe ug
Ġpl enus
Ġlic entiam
Ġs inis
Ġscrib ere
Ġsuperi oribus
Ġsam uel
Ġqua erunt
Ġad esse
Ġuen isset
mi gne
Ġe us
Ġe dit
Ġu ana
Ġarchidi acon
Ġsepul tus
Ġmai ori
Ġerr or
Ġinc urr
Ġp uri
Ġc us
ul erit
Ġa eris
Ġpertin entiis
lim us
Ġquin ta
Ġplenit udo
iss es
Ġmun eribus
Ġuinc ulis
s em
Ġcon tigit
di e
Ġx uiii
Ġuirg a
b ur
ati i
Ġdux imus
trac t
Ġcon dic
tis que
Ġuirg ines
a ulus
Ġf asti
Ġg ente
Ġcl ero
Ġremiss ionem
Ġs o
Ġre tinere
Ġconstit uti
le ti
Ġpo tissimum
Ġanci ll
Ġordin es
Ġcontr o
c id
Ġin esse
eli ci
Ġquic quam
os o
Ġquaes umus
Ġno e
Ġinter ual
Ġrespon sum
Ġaccep imus
Ġarg enti
Ġux ores
er go
Ġtor qu
Ġcon ter
i ani
u enti
Ġt yp
Ġexaud i
Ġqu ac
Ġac qui
Ġsex to
ta g
Ġmiser ere
qu antum
Ġth ron
Ġc es
Ġpos iti
ch ris
Ġconfirm at
Ġde li
Ġab jec
Ġpot uisset
Ġmor em
Ġnou imus
Ġgr amm
Ġni g
Ġacc idit
Ġmedi ol
Ġcib o
Ġultim a
Ġsecre ta
Ġhieron ymus
Ġgraec o
Ġpot entiae
Ġsus tinere
Ġsub li
Ġfam e
Ġstat uta
Ġmagn ae
os is
un e
Ġpet ra
Ġpriuileg ium
Ġam icos
Ġas pic
Ġag ro
und is
Ġr ationes
ĠâĢ ĵ
Ġcon ci
Ġist ae
Ġsor or
Ġbenefic io
Ġac tio
Ġfron te
Ġe git
Ġob j
Ġden unti
Ġmo ue
Ġuinc ula
or ta
ol am
Ġconsuet udo
Ġextrem um
Ġredd idit
Ġterr enis
pec tus
Ġprimog en
uer etur
Ġn ab
Ġe ut
Ġquo ad
Ġuol uc
ib ilem
Ġbaptis mo
Ġprob at
Ġ Ð
Ġsi tis
ul sus
Ġreg ener
Ġr ite
Ġimpet r
ur s
ol at
Ġinuen imus
capit ulum
Ġs cip
ogra ph
lo qui
Ġquam diu
Ġsal uti
Ġist os
Ġsing ulorum
Ġcanon ice
Ġop es
Ġuid eret
Ġc it
Ġinstit uta
Ġnub es
a uri
Ġcontr ario
Ġconstit utum
Ġmuli eris
Ġpot estis
Ġcogni tionem
Ġgrat ul
Ġredemp toris
Ġtorm enta
Ġc x
Ġdu xit
Ġn asci
Ġmarty res
Ġch il
Ġsubiec to
ueni re
Ġsequ enti
Ġgra uis
Ġoccas ionem
Ġtabern aculum
Ġfon tem
Ġhaeretic os
Ġde cipi
Ġdi lex
Ġann us
Ġcoeles tium
Ġag ric
Ġpac to
Ġhaere ditatem
Ġnob ilis
ĠÎ³ Î±Ïģ
Ġp us
Ġp ane
Ġflam ma
f rag
Ġe lis
Ġprim iti
Ġcogit are
Ġcurr it
c em
er ata
Ġui ae
Ġob jec
Ġrelig ionem
Ġped um
m ag
Ġuer is
Ġquaes tionem
Ġcanon um
Ġperfec tionem
e antur
Ġd orm
Ġiuli i
Ġaud ite
Ġcrim ina
Ġcoron a
c as
Ġm ichae
Ġport as
Ġac tione
Ġcap ere
ib ile
ib it
Î¿Î½ ÏĦ
Ġpontific em
al ter
Ġg estis
Ġuniuers um
Ġmar ci
Ïĥ Îº
Ġpersec ut
Ġobsec ro
n t
Ġgrati arum
Ġadj un
Ġden uo
Ġh el
Ġexs titit
Ġelec torum
Ġcommend at
Ġde linqu
Ġiug iter
Ġaristot eles
Ġam icis
Ġman uum
t ui
g e
oc hi
Ġperf id
Ġpr isc
Ġaet atem
Ġtenebr arum
Ġsub til
Ġoc ulorum
Ġcomm or
Ġrep rehend
Ġdiac oni
Ġdic itis
Ġma ur
Ġcur sum
Ġimm undi
Ġinfid eli
Ġinu enta
Ġremun er
Ġcred id
Ġhabit are
f or
Ġconf ite
ast as
an ensis
Ġab omin
Ġop prim
Ġfund amentum
c omm
r en
de us
Ġrecep it
Ġu titur
Ġcontro uers
Ġren unti
Ġd ura
Ġdign e
sequ itur
Ġaud eat
Ġappell at
in d
Ġpl at
Ġcondi tione
Ġadim pl
Ġmaxim o
Ġh arum
Ġacc essit
esc ant
Ġcaes are
erit o
m ae
Ġsing ulas
Ġostend eret
Ġnic ola
Ġuisc era
Ġt ae
Ġinst ar
Ġprae uid
Ġtheod os
Ġdecern imus
Ġmir a
Ġpess im
Ġa tr
und ia
Ġoccul ta
Ġsignific ant
ord in
Ġstud ia
Ġb ul
Ġdes tit
Ġioann e
Ġopp idum
Ġimp ii
ad es
Ġcont ulit
Ġin ius
Ġti tus
Ġem p
Ġsup pl
Ġmiseric ord
Ġimm un
Ġclem entia
Ġobt ulit
Ġas pici
Ġcast rum
st es
Ġex posi
Ġin se
ac ensis
Ġb en
Ġfor o
Ġdic as
Ġut pote
Ġprom ulg
Ġex ced
Ġhab eri
Ġcol loqu
Ġconsili a
Ġuolunt ati
Ġprae dix
al o
Ġmagn itudine
Ġimper fec
Ġspiritu alis
Ġpaul ulum
odo x
r ici
Ġste tit
Ġinui ol
Ġp p
Ġing ens
Ġa z
Ġmon tibus
Ġuoc atus
Ġcustod iam
Ġg ess
Ġcred entium
Ġiudae a
Ġquando quidem
Ġsalut are
Ġu ini
Ġt aliter
Ġdi is
Ġar s
Ġsci at
Ġst atus
Ġlab oribus
e uit
Ġp oc
Ġen um
Ġins idi
Ġproc re
Ġeph es
Ġt el
Ġde tin
Ġcul tum
Ġfac io
tic am
Ġap pon
ch is
Ġobs c
Ġc os
Ġuid erit
Ġadm itt
Ġtrans gress
uli bus
Ġprom itt
Ġdesid eriis
Ġ/ /
u ante
Ġa ffic
Ġor are
Ġsac rum
Ġs ata
Ġiud as
Ġor tus
Ġs au
Ġal bus
Ġmale fic
Ġtr uc
il a
Ġhab erent
Ġisa ias
Ġen unti
Ġfac tae
Ġfug am
Ġpl an
Ġdis plic
Ġori ente
Ġchristi ana
Ġnego ti
Ġsu d
ati ue
Ġconfess io
Ġaudi ui
il o
Ġcom it
Ġbib li
Ġex pect
Ġcon qu
Ġc ris
Ġresur rexit
ĠÎºÎ±ÏĦ Î±
Ġsup p
ul atus
ul arium
Ġimp lic
Ġci uium
Ġcanti cum
Ġpsal l
Ġconsequ ens
j an
Ġc uc
Ġieiun ium
Ġpraedic are
Ġcontr ist
Ġprae tor
Ġcognosc itur
Ġremedi um
Ġauctor itatis
Ġuen erat
Ġsid era
sic ut
Ġap oc
Ġuid imus
Ġuol entes
Ġh e
Ġprom issa
c op
Ġh ug
Ġocta uo
c n
r ing
Ġdim ic
h en
Ġdiuin itatem
Ġlign a
Ġp ip
ur b
Î¹ Î±
i que
Ġpraes entium
Ġrest at
it arum
oth ec
Ġplurim is
Ġsabb ati
Ġpaul atim
Ġc li
ati uum
Ġprae iudic
iss us
ard o
Ġcy ri
Ġar tis
Ġbarb ar
Ġalt aris
Ġal ac
Ġhistor iam
Ġiuc und
Ġqu andiu
Ġc oc
Ġpec uli
Ġaus us
Ġrefer re
Ġkal end
ac em
Ġpro i
Ġneg atio
Ġueni entes
Ġnef as
ec t
Ġlong ius
Ġe uer
Ġin quisi
ux erunt
ell arum
Ġpraes ent
Ġi di
Ġg re
ci ae
ab as
Ġob temper
Ġperfec te
Ġgr and
Ġsag it
Ġfiduci a
Ġhebdom ad
Ġ !
Ġinter ius
Ġam icum
Ġph antas
Ġg ut
Ġual eant
Ġsacr atissim
Ġsch ism
Ġpic ta
u entur
Ġint entio
Ġcomp le
Ġaudi uimus
Ġtrin itate
Ġpass iones
d un
Ġquae libet
Ġlib ere
ob rem
Ġter rib
Ġsacerdot em
Ġl ub
Ġsur rexit
Ġdilig entius
er ti
Ġpl ang
Ġin cl
Ġmili tiae
Ġfacult atem
ereb atur
Ġuul go
Ġpossess ionem
Ġintr are
t ol
Ġgra uius
ĠÏĢÎµ ÏģÎ¹
Ġpat ric
Ġdesider ia
Ġdiuin itas
Ġsu au
Ġintellig entiam
Ġoper ari
Ġexper i
Ġinsip i
Ġcul tu
Ġuen ite
Ġconf iteri
Ġchar ta
ÎµÎ¹ ÏĤ
Ġcic er
Ġmai orum
Ġabs ur
Ġscand ali
Ġsabb ato
o bus
Ġfug a
Ġprot eg
Ġafric a
Ġpraedic atione
Ġaccip itur
Ġass yri
Ġdes uper
git e
Ġcred endum
Ġconsci entiam
Ġcons on
Ġcogit atione
Ġl us
Ġdam na
Ġpauper t
Ġali enis
Ġab ys
Ġtrans c
Ġfac iamus
ĠÎµÎ¹ ÏĤ
Ġal tum
Ġdign osc
Ġcep it
Ġ >
ec tum
c orum
Ġser ua
Ġded isti
Ġprouinci am
Ġf um
Ġmens ibus
Ġg us
Î¿ Ïģ
idi e
Ġuinc ulo
quam ur
u endi
Ġuel is
Ġaduent us
Ġeu as
Ġeu eni
Ġpresbyter um
Ġsepulc rum
Ġm entibus
Ġcae les
Ġuo tis
Ġex istere
Ġiudic at
Ġnego tiis
Ġleg um
Ġti ber
od e
Ġcred entibus
Ġpraedic atores
Ġmagistr um
Ġnat alis
i Ã¾
Ġleg ati
Ġfac inus
Ġnatur ali
ig ur
Ġag e
Ġsequ entibus
Ġrespond ens
Ġop em
Ġca da
ric em
ac ti
Ġscel us
Ġhaeretic is
ceper at
Ġsuper na
Ġded erit
Ġc ibus
Ġper dit
Ġpro lix
Ġsic c
Ġuic em
Ġmo li
Ġgenti les
Ġpan es
Ġinter m
Ġhon ores
c ol
ceper it
Ġpar och
Ġf uissent
Ġflum en
Ġpraecip imus
Ġquas dam
Ġuti le
Ġsupr em
Ġsimil itudo
Ġpossid et
Ġad iu
Ġcuius que
Ġquar tum
or atio
Ġma ximus
Ġimm ob
Ġliber os
Ġanim alium
Ġsuperbi ae
Ġd aret
Ġoport ere
Ġdex tra
Ġalexand r
Ġcons urg
issim os
Ġmemb rorum
Ġk ar
Ġprofic isc
um ento
Ġmo uet
Ġpsal mi
a uerint
s ac
Ġius tos
Ġiac obus
Ġmortu o
Ġr uf
Ġuen us
Ġcognosc it
Ġfutur am
pl ur
Ġeuid enter
et u
tim ur
Ġperfec ti
Ġnol o
Ġfur ore
Ġag unt
Ġprae p
Ġprod esse
Ġopin ionem
g ere
itur um
Ġsub le
Ġcomm itt
os e
Ġpot ui
ass is
h e
ÏĦÎµ ÏĤ
p is
Ġaliqu os
Ġintellig imus
Ġre cip
Ġuoc ati
Ġuoc ari
Ġexhib ere
ĠÎ±ÏħÏĦ Î¿Ïħ
Ġab j
Ġd atus
Ġsimil em
r id
Ġprop i
st anti
Ġsu e
Ġaci es
Ġh ib
Ġag imus
Ġius su
Ġcogn omin
Ġnob ili
Ġuuln er
Ġor ationes
Ġin clus
Ġca licem
Ġimper i
Ġbl andi
Ġsubdi acon
Î¿ Î´
Ġhosp it
Ġpeper it
Ġingen ii
Ġsub ter
Ġcoep iscop
Ġcorn eli
Ġdix isti
Ġauctor es
Ġaccipi unt
ur e
Ġgali lae
l as
Ġimp iorum
Ġno uam
Ġsex us
Ġinter itum
Ġsignific are
Ġtris titia
Ġal to
Ġpublic am
ac to
Ġindic at
Ġsp ei
Ġuiu unt
Ġsor te
Ġt enta
Ġa uers
Ġu ap
Ġpraecep to
eb ris
Ġdiuers as
Ġdaem onum
Ġc ell
al ec
Ġsed it
Ġnomin atur
Ġfam ilia
Ġreno u
Ġdilec tus
Ġhistor iae
Ġu aria
Ġres pectu
Ġsem ina
qua que
Ġcler icos
Ġfamili ar
Ġpasch ae
unt es
Ġreuer a
Ġtrep id
Ġfac ite
Ġconuer tit
Ġnim ia
Ġuide ant
Ġeffic itur
Ġdecre tum
Ġscand alum
Ġsub ti
Ġpl erique
Î¹ Î±Î½
Ġing enti
Ġcons istit
in f
Ġre peti
Ġcol or
Ġrep reh
Ġuet ust
Ġux oris
Ġuid ebantur
Ġsacerdo tium
Ġtr ic
Ġgener ationem
Ġacceper unt
Ġrec tum
am ina
Ġuol uerunt
Ġded erunt
Ġna z
Ġpud ici
Ġmagis tro
Ġtrans it
Ġcop ios
Ġdiff ini
Ġgra dum
Ġprof it
dec imus
ular es
Ġuocab ulo
Ġag endum
Ġc ing
on ae
Ġre dem
Ġal ti
Ġues te
Ġacc end
Ġtim oth
Ġlac er
Ġutri que
Ġtu arum
ell ere
Ġextrem a
Ġsu us
Ġimp ut
Ġueni ret
Ġrelig io
Ġcom item
Ġcon tri
Ġcer tamen
Ġfutur ae
omm od
Ġbaptis mi
Ġingen ium
Ġacced ere
l la
Ġobedi entiam
Ġin est
Ġdil at
Ġdissim ul
Ġsec uti
Ġprodi g
Ġelem enta
Ġquod que
Ġuindic tam
Ġre ip
Ġuestr orum
Ġsomn o
Ġi er
Ġc un
Ġin ced
Ġstr en
Ġbaptism atis
Ġciuit atibus
Ġpiet atem
Ġsub uer
i gitur
Ġapp os
Ġimpet u
ae ter
Ġre uol
Ġuer itati
Ïī ÏĦ
Ġcaeter os
h t
Ġrem itt
Ġin ob
Ġin quis
Ġconcupisc entia
Ġfer rum
Ġac tionis
Ġeum que
Ġobsequ ium
ul p
or ia
Ġf uere
Î± Î¼
ort es
ĠÎµ Î¾
Ġsociet ate
Ġaper uit
Ġfelic is
Ġcontin entur
âŁ ¨
ud i
Ġdes pici
âŁ ©
Ġdi utur
Ġprop iti
Î¹ Î±ÏĤ
Ġcarn es
Ġfec imus
Ġir re
Ġgener atio
Ġiun ii
Ġa quit
Ġar rog
Ġintra uit
p ore
Ġepiscop atus
Ġaetern o
on os
Ġgraec is
Ġlib erat
Ġfuer is
Ġlat ron
Ġuocab ulum
u endo
er ere
Ġalt ari
Ġcanc ell
Ġ. ..
Ġangel o
ib unt
ĠÎ± Î¹
Ġest ote
Ġb urg
Ġexerc it
Ġlapid ibus
Ġsed et
Ġsalu atorem
Ġquaes i
Ġpraest at
Ġhuman itatis
ta ret
Ġmiseric ors
b et
Ġacc ommod
Ġpass i
Ġfo ue
Ġtoti dem
Ġad ri
Ġman eat
Ġport ae
Ġantec ed
or ius
Ġcre ator
Ġoffer re
Ġr ationibus
Î¿ Î¼
Ġcanon icis
Ġnati uitatis
Ġprom er
Ġir atus
Ġpraedic ationem
Ġcal ce
Ġscrib itur
Ġaem ul
Ġgramm ati
Ġf ar
Ġex pet
Ġobtin uit
Ġuniuers ae
mi x
Ġs ali
Ġcur sus
Ġredi it
x erunt
Ġsen atu
Ġgregor ii
Ġne qu
Ġsalu us
am entis
Ġclam at
Ġconfess oris
Ġobli uisc
Ġbeatit udinis
i tibus
en orum
Ġuniuers o
j s
Ġirr ation
entis simus
Ġinter cess
Ġan x
Ġinfirm itatem
Ġappare at
Ġgener atione
m an
Ġess em
Ġul c
Ġsecur us
Ġline a
Ġpo enae
Ġdec ess
Ġfem inae
ĠÏĦ Î¹
Ġcui que
Ġsimil itudine
Ġconsci entiae
Ġabscon dit
Ġiudic e
Ġdim is
Ġterr itor
Ġcarn alis
Ġinfirm itas
Ġlum inis
Ġh eu
Ġid ola
Ġarchiepiscop um
Ġe ffer
Ġins ula
Ġflu uius
er ua
Ġpen es
Ġag ri
Ġloqu ens
Ġinim icorum
Ġcler icus
Ġincomm ut
Ġchris te
Ġmin orem
Ġmir aculis
l it
m ul
Ġu otum
el em
Ġconf ort
Ġdiuit es
Ġquo usque
Ġsol uit
Ġex ar
Ġac cedit
Ġpoter is
Ġpo enis
Ġdesign atur
Ġpotest ates
Ġeu oc
gre d
f o
Ġimp iis
Ġuet erum
Ġc u
Ġma x
Ġth ess
Ġg el
Ġlau ac
Ġ )
Ġcon fic
Ġob uiam
Ġpat ron
Ġi up
id ere
ab eris
Ġex clam
Ġconst anti
Ġinstit uit
Ġorig inem
Ġpers uad
Ġsequ atur
Ġarb or
Ġpal atio
Ġhumil itas
enn ae
Ġex clus
ph ona
Ġepistol as
Ġori entem
Ġeut y
er ii
ris que
Ġinuis ibi
Ġmonach os
ri bi
Ġca str
Ġperman ere
Ġproced ere
Ġconc ordia
h os
Ġpro u
Ġmar ti
Ġsignific atur
ac ius
Ġidol olat
Ġre lax
Ġmerc es
ar emus
Ġceleb rare
en Å¿
Ġch ron
Ġsyn odi
Ġpatr ocin
Ġxx ii
Ġexter ius
Ġuener abiles
it timus
Ġueli m
Ġfiduci am
prae dic
Ġse greg
Ġhab eatur
Ġquam obrem
item ur
Ġoptim um
arum que
Î± ÏħÏĦ
ip se
Ġoccis us
Ġdi lexit
Ġmur os
Ġsteph anus
Ġsub ditur
Ġfor tes
Ġst ella
Ġsus pend
Ġred arg
Ġdilig entia
Ġpleb e
Ġpast ores
f orm
al on
Ġcom iti
Ġgen eri
Ġaudi unt
Ġdiscip ulus
Ġmarty r
Ġhort atur
Ġpontific e
Ġsenti t
b um
Ġet h
Ġc ili
Ġcer t
Ġgal lic
Ġs to
Ġinc redi
Ġerud i
Ġeas dem
Ġtr op
gis se
Ġcompar atione
Ġperic ulos
Ġcoop er
Ġcul tus
Ġbenedic tione
Ġs tra
Ġconsili is
Ġnau es
Ġpercus sit
Ġdup lex
Ġar rip
itat u
Ġar ab
Îµ Î²
Ġconfit etur
Ġbeatit udinem
Ġquinqu ag
Î· Ïģ
Ġsupplici um
Ġtes te
Ġt un
ce b
Ġx ix
Ġmun i
Ġagn us
Ġin haer
Ġan astas
Ġinter f
Ġst et
Ġign omin
Ġuentur us
Ġconc essit
Ġcustodi re
Ġoccid ere
Ġtestimon iis
on iis
Ġopp ugn
Ġpri oris
t ari
Ġer am
Ġdol oris
Ġpresbyter o
Ġconfess us
Ġrep rehens
Ġsemeti pso
Ġpublic o
Ġphilosoph us
Ġimm erito
Ġspirit ui
ĠÏĢÏģ Î¿ÏĤ
c hi
Ġper ire
Ġloqu or
Ġcon duc
Ġre leg
Ġdu ci
Ġrefer tur
Ġi te
Ġpro uis
Ġhierosol ym
Ïī Ïĥ
ric um
Ġexpe dit
Ġd r
Ġeu ac
qu os
qu ot
Ġp y
Ġp ann
Ġe ur
Ġb itur
Ġquoc umque
oc i
Ġthe olog
Ġson at
Ġmor tific
ĠÎ¼ ÎµÏĦ
Ġpauc os
Ġopin io
Ġitali ae
Ġpent ec
Ġa eccles
Ġinter fici
Ġiniqu itates
u go
Ġob r
Ġsoc iis
Ġsollic itudine
Ġdon auit
Ġminis tri
Ġconueni unt
Ġdiui tiis
Ġmon et
Ġfam ul
Ġhab uerunt
Ġcre atoris
ber ti
Ġdelic ta
Ġfraud e
Ġexer ci
Ġn orm
Ġmagn itudinem
Ġob tinere
Ġaudi entes
Ġloqu ar
Ġeuangeli z
Ġdex tris
Ġarchiepiscop i
Ġor g
Ġbon if
Ġag at
Ġcogni tio
Ġro bus
Ġsalom onis
Ġoporte at
Ġsecund am
au ere
Ġnomin i
un quam
Ġcon uinc
Ġex tor
Ġinc umb
Ġmerc ur
Ġuen eris
ĠÎ¿ Î¼
enn ium
Ġcomp unc
Ġmat ri
Ġpriuileg io
er r
Ġs oph
ic itur
Ġconuers atione
Ġbenefic iis
Ġsociet atem
Ġex cipi
Ġocc ur
Ġeam que
Ġuiu ens
ĠÏħ ÏĢÎ¿
Ġpu ella
Ġindustri a
Ġlib eris
Ġdic entis
ra ret
Ġgaud ere
Ġqual itate
im per
Ġpecc atoribus
Ġno uerat
Ġcr em
Ġla z
Ġpoter unt
de f
Ġla x
ati z
Ġinf elic
ab itis
Ġpal a
Ġpl ate
Ġcorn u
Ġinter est
Ġin ep
Ġfr em
Ïģ Î¿Î½
Ġcognosc at
b on
Ġe un
Ġar tem
Ġob itum
Ġst abil
Ġdefini tio
Ġcalum ni
an em
Ġaur em
Ġerr ores
Ġsym b
cuius que
Ġcon ce
Ġdeb es
ern a
ric o
Ġspiritu aliter
Ġsex aginta
Ġf le
ac is
Ġoc e
Ġqua eris
Ġfec und
Ġiuuen es
Ġpar atus
Ġarc am
Ġnati uitate
Ġcond idit
Ġsod om
cem odi
ci um
uer im
Ġdic t
Ġprof und
undi am
Ġcapti uitatem
Ġianu arii
Ġha us
l y
Ġdign etur
Ġaequ aliter
Ġqu andam
Ġpri ori
Ġinjus te
Ġdere linqu
Ġqu es
Ġde orsum
Ġpat rim
Ġquoti ens
Ġmemin it
Ġreip ublic
Ġn ica
Ġsp re
Ġte i
Ġpecun iae
Ġconced imus
p ul
Ġad n
Ġsol uere
Ġcar oli
Ġpet ram
Ġluc as
Ġduc ere
Ġquorum dam
ta ur
f am
Ġexs ul
Ġlec tio
Ġf elici
Ġueli nt
Ġf aus
Ġcomm issa
Ġrep l
ĠÎ¿ Î¹
Ġat ting
Ġsal uum
Ġmo ueri
Ġaudi at
Ġcada uer
al di
Ġsalu os
Ġaper ta
Ġmiss is
ser mo
Ġde lec
esc eret
Ġd atis
Ġagn os
Ġabst ulit
iss ione
ĠÎ» Î¿Î³
Ġdic erent
hi op
Ġflag ell
Ġdi ri
Ġdef l
Ġinfin ita
Ġca dit
ed a
s up
Ġinfin itum
Ġten ent
Ġmens ur
Ġperc uti
Ġgl adius
Ġsci entes
Ġexs urg
Ġpe de
Ġlibert atis
Ġaci em
Ġprof ut
Ġdisc ess
Ġcommun iter
Î¸ ÏģÏī
ĠÂ §
oli ci
Ġdiss ens
Ġra im
Ġcrim in
Ġextr ane
Ġquadrag esim
Ġf ung
Ġiudic i
Ġconu entus
Ġill ec
Ġsil entium
Ġimag in
j am
Ġc en
Ġscandali z
Ġist orum
Ġmuli ere
Ġredemp tor
m ate
Ġc ense
Ġpl or
Ġconsum p
Ġpri orem
Ġappell atione
Î´ Îµ
Ġsed ere
Ġpra er
Ġrespond et
Ġciu ibus
Ġsag itt
Î¿Ïħ Î½
Ġsing ulari
Ġtribul atione
Ġdere li
Ġmorta lium
Ġde trac
Ġfur or
qu oniam
un tia
Ġcar itas
Ġconf estim
Ġpa go
Ġconu al
Ġauari tia
ir ca
Ġag rum
Ġuic it
Ġsubs crip
Ġliber tas
Ġcapit ulum
ens o
Ġpa ene
Ġpossid ere
Ġflum inis
Ġprouinci as
prae terea
Ġecclesiastic ae
Ġf estum
atur i
Ġcogit ationibus
Ġperpet uam
Ġcic ero
Ġdeb eret
it r
Ġcar itate
Ġcontin u
ym p
Ġextr emo
Ġpugn a
Ġbaptiz ati
Ġcons pici
Ġnarr at
er p
Ġloqu untur
Ġfac imus
Ġno uerit
Ġconsequ enter
Ġlun am
Ġbeat orum
Ġnut r
ae o
Ġdign itas
Ġueni entem
Ġreuer entiam
ec ce
Ġcon dita
Ġprob are
Ġgaud et
titer unt
Ġaud ita
Ġpraedic ti
Ġbaptis ma
Ġsuffic ere
Ġdilec to
Ġin er
Ġleg ere
Ġins crip
Ġinfl amm
Ġiac et
Ġaccip e
Ġapp rehend
Ġhos te
Ġanti quis
Ġuuln us
eunt e
Ġsacros anc
Ġ ot
Ġaur ea
Ġsimul que
Ġsalut aris
Ġreg ionem
Ġp io
Ġdecim as
Ġcan is
Ġdim isit
Ġposter um
tam in
Ġreper itur
Ġconstitu tis
Ġimag ines
Ġf ata
Ġass erit
ta li
Ġpro uer
Ġinu enti
Ġsus cipit
Ġc entur
Ġh es
Ġlum ina
iss i
Ġnoc tu
Ġaugus to
Ġtene at
Ġter re
d oc
x erit
Ġex ire
Ġfac ultas
Ġsc is
Ġsus c
Ġcontra h
Ġdic antur
m achus
Ġob i
Ġsempiter num
Ġignor at
Ġut r
Ġgenti lium
Ġcupid itate
Ġcrucifix us
ui ae
Ġleg it
Ġapp end
Ġcoel estem
Ġl asci
Ġr ug
Ġsuper est
Ġuit uper
Ġintellig entia
Ġpeti it
Ġdup lici
Ġlegitim e
Ġres istere
Ġhuius cemodi
Ġph ys
Ġl xxx
ps am
Ġmari am
Ġimp ius
Ġquoc unque
eri orum
Ġnou ae
Ġtec ta
Ġinsid iis
Ġin ebri
Ġqua ero
Ġcon tex
Ġamp lec
Ġpros tr
Ġde itatis
Ġper fer
Ġfutur orum
Ġmateri ae
i fer
Ġcol la
Ġten etur
Ġmeli ora
Ġimit ari
Ġfebr u
ar at
Ġdes pic
Ġaugus tus
Ġunius cuiusque
Ġlac te
Ġmort ale
Ġcod ice
Ġd rac
Ġurb s
Ġplurim i
Ġcar olus
Ġsing ularis
de i
Ġdesign at
Ġbasili ca
Ġex itus
Ġul lum
Ġrespic it
Ġco hib
Ġdeser tum
Ġfor s
Ġchristi an
Ġrem ig
u enda
Ġper pend
est es
ĠÏĦ Î¿Î¹ÏĤ
Å¿ t
s crip
am et
Ġpraedic tis
Ġa era
Ġag ros
Ġarg ento
Ġmol li
Ġconuer ti
Ġoper ationem
titis se
Ġcorint hi
x u
Ġde hinc
Ġpar ad
Ġam is
Ġaudi ant
Ġuentur um
Ġsepulc ro
Ġperic ulis
Ġprae tere
Ġsic ili
Ġfor ti
Ġmun eris
ni hil
Ġorig ine
Ġde tur
Ġcer tis
Ġaccep to
Ġhaeres is
Ġcrucif ig
mar cus
c re
Ġcon tag
Ġpos uerunt
Ġsc op
Ġreg ionibus
Ġconf l
Ġto tis
Ġinob edi
Ġpublic is
Ġli u
Ġrom anam
Ġpulch errim
Ġmar tii
Ġcomp rehens
Ġseru at
Ġsent entias
Ġfort assis
Ġinse par
Ġmor bo
Ġpo li
ane ant
Ġspon sus
Ġpec tora
ram que
Ġexerc ere
m at
cc c
Ġsolid os
Ġfate or
Ġphilosop hi
Ġor ta
Ġmyster io
Ġp ei
Ġui uo
cr ut
Ġaetern i
Ġuis ione
Ġrh et
Ġorth odox
ri fic
Ġpraedic at
Ġsequ entes
Ġmund a
Ġuiu at
hor r
Ġc ubi
Ġcath olici
ens que
Ġsecund ae
Ġsucc essit
ann us
Ġsec undi
Ġuide tis
Ġclari fic
Ġt ela
Ġun dec
Ġliber o
Ġcirc iter
Ġl ass
Ġfaci entes
Ġsupplici a
Ġprophe tia
Ġplag a
Ġbibli othec
Ġspon sa
Ġg uid
Ġign osc
Ġual ere
Ġpleb s
Ġimb ec
Ġreliqui as
gn a
Ġpet ere
Ġfal so
Ġmit te
Ġalexand er
Ġuid eris
Ġplurim os
od es
Ġex itum
Ġap petit
Ġch er
Ġmon t
Ġopus c
Ġbre uis
ta x
Ġinfer re
Ġcet erum
n orum
t end
Ġpap am
Ġseruit utis
Ġsequ ens
Ġtim et
Ġmet us
Ġinuid iam
Ġf lex
Ġreg r
Ġi e
Î± ÏĥÎ¹
Ġimp let
Ġreipublic ae
Ġcre atorem
Ġdef endere
Ġepiscop atu
u z
Ġsaec ularis
Ġimp lor
Ġintellig entiae
u tiones
Ġtris tis
Ġresurrec tio
Ġdiuis io
ulis ti
Ġperic ula
Ġpostul at
im um
Ġrec titud
Ġculp ae
Ġg essit
Ġped em
Ġsuper nae
Ġuic es
Ġcui quam
Ġill ustri
Ġus ibus
Ġpri oribus
Ġualenti ni
er are
Ġobl itus
Ġfortitud inem
Ġper trans
Ġsec uri
Ġint ulit
Ġprohib et
Ġconcordi am
h er
Ġelec tionem
Ġclar a
Ġperd idit
aug us
Ġinu ic
Ġper misit
Ġproxim a
Ġu or
id as
Ġnon as
Ġcre ata
ym ph
im i
Ġar ce
Ġpl enam
Ġdeb eamus
Ġfluc tus
Ġod it
Ġmerit orum
Ġp se
on g
Ġor tu
Ġst rep
Ġpresbyter is
Ġcapit ula
ens u
Ġuul tum
Ġspeci ei
p iter
Ġinqui unt
Ġdic endi
Ġsp ati
tem us
pr essit
Ġaudi tis
Ġmir abilia
Ġmuli erum
Ġob d
Ġcap ta
Ġr od
Ġr ad
ps al
Ð ¾
ess i
Ġal loqu
Ġsti pend
Ġillic o
Ġath anas
Ġt alium
Ġrec ol
Ġconuers ationis
Ġfon tes
entissim o
Ġcertam ine
Ġlab ia
Ġmet al
it ores
Ġb os
Ġne p
Ġpuri fic
Ġduc tus
Ġloc up
Ġcap tus
Ġprincip ia
Ġsil u
Ġin clud
Ġad iec
Ġd ato
Ġinf und
Ġuic tum
Ġtumul tu
Ġaut um
Ġcar p
Ġess entiam
Ġ tin
Ġcom ites
Ġdilec ti
Ġaltitud inem
p ad
es it
ess a
Ġcel s
Ġsacrific ia
Ġli tig
Ġatt est
Ġconclus io
Ġmagn itudo
Ġsacr orum
Ġapoc aly
Ġbon itate
Ġpraec ess
Ġr ati
Ġres taur
il itatis
Ġepistol is
Ġlec tor
Ġcur ios
ne que
Ġplac itum
abili us
Ġignor antia
Ġcar itatis
Ġsent entiis
Ġdim itte
Ġinueni es
Ġre tr
Ġpro geni
Ġar tibus
Ġsanctit ate
m eti
Ġcirc uit
Ġexpl an
Ġindic ium
Ġa h
Ġsp atia
Ġinsin u
Ġdom ibus
Ġun da
Ġprae dam
Ġsubj ici
Ġlib r
Ġei que
Ġmedi oc
Ġcogni tione
Ġparticip es
Ġaci e
Ġgen itus
ĠÏĢ Î±Î½ÏĦ
Ġge org
e e
Ġu entum
Ġanti qua
Ġling uis
Ġn ationes
Ġchal ced
ĠÎº Î±Î¸
Ġi idem
Ġration alis
ï¿½ ï¿½
Ġam mon
Ġministr os
Ġpriuileg ia
Ġcus tos
Ġar tes
Ġmaxim am
Ġare lat
ĠÎ¸Îµ Î¿Ïħ
Ġpar ochi
Ġam itt
pec ta
Ġcunc tos
Ġmens am
Ġassum psit
Ġspirit ali
Ġmou etur
Ġaccipi ens
Ġuine am
Ġequ us
Ġidol orum
Ġput a
Ġs ani
Ġse que
Ġsap ere
Ġdon is
Ġargum ent
Ġcar mina
Ġloqu imur
Ġalexand ri
Ġeloqu ia
Ġmar m
ĠÏĦ Îµ
urr ere
Ġocto g
Ġintellig atur
Ġabscon d
Ġchr ys
in ensis
Ġali unde
Ġun d
Ġfac erent
Ġtr am
Ġlib rorum
er t
Ġn eb
Ġinu ad
Ġrep ell
Ġspiritu alibus
ĠÎ± Ïģ
Ġpertin entibus
Ġadmon et
Ġobsec r
ra im
Ġalter ut
p hil
Ġne pot
entes imo
Ġsal ui
Ġcogn ita
Ġrecogn osc
Ġhab entem
Ġreg iae
Ġsacram enti
Ġp yr
os am
Ġregn are
Ġsper are
Ġc ith
Ġexercitu um
fec it
Ġradic e
tin ae
Ġcarn alibus
Ġquin decim
Ġprof undum
Ġut untur
Ġui xit
Ġca ud
Ġoper atio
ÏģÎ¹ ÏĥÏĦ
Ġstatu imus
Ġu oto
Ġex ag
Ġchristi anum
Ġuer g
Ġle onem
Ġuis io
Ġpublic um
Ġpontific es
Ġpuer o
Ġfluc tu
Ġtempest ate
Ġm ic
Ġut risque
Ġfam am
Ġcommemor at
Ġu ene
Ġlec tione
Ġquoc irca
Ġrec uper
Ġimperator i
Ġseruit utem
Ġdere lic
Ġsynago g
u ente
Ġepiscop atum
Ġnego tia
Ġar n
Ġuol uerint
Ġidi psum
x ii
per et
Ġfer ri
Ġnol unt
Ġcorpor aliter
Ġno uis
Ġration abiliter
b as
u ebat
Ġpa enit
Ġproposi tiones
Ġinqui et
p ra
Ġdic et
Ġues tibus
Ġdiuin itate
Ġfec isset
Ġordin atus
Ġquaes tione
e ius
itur i
Ġpos itis
Ġsum psit
Ġpraes ente
Ġth alam
Ġdeser ui
Ġrequi es
Ġiohann is
Ġqui ete
Ġid olis
Ġpraesid io
Ġconfirm amus
ur sus
ul aria
id erat
Ġor tum
Ġal tius
Ġargum enta
Ġor at
Ġaet hiop
Ġconsul es
er icus
hi bi
e de
Ġab dic
Ġpra ua
Ġinterp ell
Ġrap i
Ġpatern a
Ġuiu endi
Ġdiffer entiam
Ġchristi ano
Ġeorum que
Î±Î¹ ÏĤ
Ġiu go
Ġindulg entiam
om et
Ġpraes entes
ita que
Ġperfec tio
u ici
Ġi iii
Ġmand auit
erem ur
Ġnem ini
Ġt us
Ġbl and
Ġrob ur
Ġreb ell
Ġparad isi
Ġperd ere
Ġm c
Ġsanc tarum
Ġdes ol
con tra
oni orum
Ġcorrup ti
ab a
ĠÎµ ÏĥÏĦ
Ġuictor iae
Ġuell ent
Ġgraec orum
en ius
Ġdeuo tionis
Ġamici tia
Ġmo enia
Ġcatholic is
Ġhumil es
Ġequ os
Ġexcommunic ationis
Ġui ti
Ġmuli eribus
Î¸ÏģÏī ÏĢ
Ġelec tis
Ġexam ine
Ġf lec
tissim am
Ġelec tione
Ġexter min
u ac
Ġspiritu ali
Ġinuis ibilis
Ġqui etem
uer em
Ġcur ae
Ġfug ere
Ġeli as
Ġmy r
on ensi
Ġaud istis
Ġpon am
ci tis
Ġdim ittere
Ġlat et
Ġpag inam
Ġhuman itatem
s ibus
Ġcre atus
Ġmiss am
Ġscrib ens
Ġsubs tit
Ġnasc untur
queb antur
Ġuniuers am
ueni ens
Ġpenet r
Ġut ramque
Ġsep tent
Ġmort alis
un a
Ġsempiter na
Ġ =
Ġpar th
Ġostend ens
Ġconj ung
Ġpurp ur
ic ula
Ġcred at
Îº Î»Î·
Ġuiu entium
Ġmortu a
Ġi erosol
Ġu om
Ġref rig
uig il
Ġdi rip
Ġmal am
Ġpraedic atum
Ġfirm iter
Ġbabyl onis
Ġer og
Ġsp el
Ġcup it
Ġant onius
Ġsubjec ta
.-- -
er ae
Ġcom ite
Ġpraedic ari
Ġexc ess
Ġpelag i
Ġsol lici
Ġfaci ebat
Ġmedic us
Ġparu ulis
od a
Ġdep rehend
Ġxx i
Ġxx u
Ġdomin ico
Ġsum mus
Ġequ o
Ġpraesid ium
Ġna uis
Ġer imus
Ġco erc
Ġle on
Ġredd at
Ġcher ub
Ġtemp la
Ïģ Îµ
Ġlum in
Ġred di
Ġpri ore
Ġcaeter o
Ġcircum st
Ġnau frag
Ġscriptur am
Ġori go
Ġfluc tibus
t atus
Ġpat efac
Ġir rig
Ġf enes
Ġconsor tio
ot am
Ġab ol
Ġpl eni
uid am
Ġali eno
Ġrem e
Ġepi ph
qu ando
Ġfaci enda
Ġfruc tibus
Ġreliqu um
Ġdomn us
al do
Ġquibus libet
Ġfi erent
Ġsoc ios
pl ac
Ġdixit que
Ġc oss
Ġsim on
Ġquaes tiones
Ġelec tos
Ġpatriarch a
Ġpisc es
Ġqu ing
Ġun decim
Ġsum ps
Ġcred amus
Ġnonnul la
Ġocta ua
Ġuer t
Ġpri ores
Ġcrim inis
ati uam
Ġprincip atum
Ġfrequ ent
Ġcaes arem
h anc
Ġex prob
Ġfili as
Ïħ ÏģÎ¹
Ġpresbyter os
Ġsacram entis
Ġmatth aeus
Ġdomin ici
Ġpraedic to
Ġdulc is
uer am
Ġdisc us
Ġast ra
Ġfortitud ine
Ġgr em
Ġcur is
Ġhaeres im
Ġlang ob
Ġdisc rep
Ġinim icum
e tiam
Ġabs c
Ġinueni untur
Ġcustod it
Ġconstan tinus
Ġmenti onem
Ġuniuers ali
Ġdol o
Ġdim in
Ġstr id
Ġrelic ta
Ġsugg es
Ġpharis ae
Ġitin eris
Ġcons ulibus
Ġextr insecus
Ġexcep tis
Ġm eri
Ġsuper fici
pr in
Ġcer ti
Ġapostolic is
Ġpal p
Ġconfer re
Ġimple uit
Ġimper at
Ġreg iam
Ġuis u
Ġgreg em
at ui
Ġam ico
Ġuol ebat
Ġcont entus
Ġgener alis
Ġappell ant
Ġquadr ing
Ġunigen itus
Ġn estor
Ġre pon
Ġbon itatis
Ġdeser ta
Ġquid dam
Ġmens a
Ġacceper it
Ġpati enter
Ġtab ulis
Ġconsue uit
Ġomnim odis
qu ibus
Ġtant us
Ġexsec r
Ġp ep
in git
qua es
Ġration ale
Ġoporte bat
Ġadip isci
Ġh eri
Ġaus pic
sec undum
Ġrec essit
Ġbenedic tio
Ġamp ut
l iter
bene dic
Ġleg atis
Ġuiu entes
ciper ent
m os
Ġdi rex
Ġperman et
Ġadjutor ium
d isc
Ġa go
Ġob str
Ġuic issim
Ġprofer re
Ġobseru are
Ġex sequ
Ġmon tium
Ġaccep isse
Ġra dix
Ġpraedic atio
Ġterm inis
p raes
Ġuid isset
Ġnesci unt
j ur
y ph
Ġnos ti
ici is
Ġnatur alem
Ġnol uerunt
Ġson us
Ġcarc erem
Ġcolumb a
Ġnonn unquam
Ġe up
Ġea que
tissim ae
Ġmere amur
Ġer as
Ġinf elix
Ġueni ant
Ġappell antur
Ġing em
Ġang li
Ġpersec utionem
Ġfortun ae
Ġp ale
Ġd eri
Ġcogit atio
Ġfla gr
d on
Ġscel ere
Ġhab entur
Ġco hor
Ġnob iles
Ġinuen erunt
Ġanim alibus
Ġflum ine
Ġopin or
es tr
Ġregn ante
Ġod orem
Ġgerm ani
Ġd ate
Ġimpet us
ic ulo
ul erat
Ġconf orm
Ġocc ult
Ġanathem atiz
Ġdonati st
isc o
Ġconu entu
Ġca in
Ġsib imet
id os
Ġor itur
Ġuen ia
Ġx li
Ġaudi erunt
Ġtra dita
Ġinterp re
Ġmaiest ate
Ġequit es
ac ium
ol e
Ġsollic itudinem
i anus
Ġu ati
lic is
Ġpropri i
Ġitem que
z a
Ġop e
Ġcred atur
Ġsup pos
Ġserp ens
Ġrede unt
is te
Ġac tiones
Ġdomin a
Ġno f
Ġdiuin arum
Ġapp reh
Ġpesti l
or p
cip itur
Ġius sa
Ġmod ern
Ġfund amenta
Ġexer ce
Ġe quis
Ġrelic tis
p as
Ġcarn aliter
Ġsurg e
d itate
Ġsynago ga
Ġuest em
Ġal um
Ġsit um
Ġdix erim
Ġclem entiam
Ġ Ïī
Ġg ar
Ġdomin is
iam ur
Ġlae titiam
ĠÏĥ Ïħ
Ġuolup tas
Ġreuoc are
Ġsecre to
Ġfutur us
Ġprofec tum
c al
Ġmin ores
Ġdilig unt
min ibus
Ġconsequ entia
Ġsuffic iat
f ug
Ġop ibus
Ġuis ionem
Ġloqu eretur
let us
Ġabund antia
Ġtes tific
m ento
Î± ÏĢ
Ġbeni gne
Ġseptent ri
Ġcon fici
gn um
Ġpor rig
Ġing eni
Ġdiab olic
Ġzel o
Ġf esto
Ġle pr
Ġhor re
Ġobli ui
Ġtes tibus
l li
s on
Ġuer tice
Ġperfec tam
Ġconfess ionis
Ġnau ibus
Ġtheod or
o x
un ci
Ġfl ux
Ġobsequ io
Ġspon si
it to
Ġbene dixit
Ġieiun io
Ġlapid e
Ġaest u
er ia
Ġc eper
Ġdic ebatur
Ġindign um
Ġiu u
tare tur
Ġserui tio
Ġuid isse
Ġeadem que
Ġuet erem
Ġinfer ius
Ġministr is
ul sa
Ġsed ens
Ġpar uo
Ġultim o
Ġm es
Ġsignific ationem
Ġtoll it
Ġhieron y
Ġfirm amentum
Ġcaes ari
Ġinjur ia
ti uum
Ġco ti
Ġhon oribus
Ġexs tinc
Ġuer ius
Ġill arum
Ġreg ulae
Ġprim itus
Ġquar tus
Ġhebrae os
Ġintr insecus
ax at
ĠÎ±Î³ Î¹
ac ulorum
Ġst ellae
Ġloc uti
h unc
Ġcae ci
Ġuniuers os
Ġtempor alia
Ġten eri
Ġcon atus
Ġlib et
Ġscrips i
Ġoccas io
Ġpropriet atem
Ġliber am
Ġcogno uimus
Ġuent re
Ġad dic
Ġreg inae
Ġpauper em
Ġsenti unt
Ġcop iis
m as
Ġca lix
Ġmet aph
Ġsoli us
Ġdecre to
m ata
Ġquam libet
Ġpau lin
Ġpati untur
Ġconuers i
Ġconcess um
Ġbasili cam
Ġreg ionis
Ġleg untur
Ġiudic ibus
Ġcol ore
Ġbe atis
Ġproc essit
Ġsuperi or
cor p
Ġ ÏīÏĤ
Ġdic turus
Ġoper atus
Ġaedific auit
al b
Ġen c
Ġuid ebunt
Ġequ itum
Ġpu ellae
Ġsinis tra
Ġab str
Ġpraedic tus
Ġcaec us
Ġinc ogn
Ġcongr ua
Ġsei pso
Ġp ura
Ġmali tiam
Ġcand el
it ul
Ġprom ittit
Ġerr oribus
fici orum
Ġac quisi
Ġpor tum
Ġgal lia
Ġast u
Ġp iis
Ġun itatis
Ġres on
Ġpsal mum
Ġaequ alem
Ġf unc
Ġrep raes
Ġcoeper it
Ġuuln ere
Ġfamili ae
Ïģ Î·
Ġbib ere
Ġaffirm atio
Ġexpon it
Ġintenti onem
m inis
Ġcon p
Ġneg lec
Ġlater ani
Ġpip p
Ġimp rim
Ġdoc torum
Ġcunc ti
greg orius
Ġcec iderunt
Ġinqui ens
ci i
Ġdol ores
Ġpulch ra
Ġb y
ib iles
Ġperm ittit
Ġtit uli
Ġequ um
Ġuulg us
Ġchal dae
Ġreprom iss
h us
Ġrec tam
Ġparu uli
Ġcanon ica
Ġes au
Ġsanc tim
Ġter ga
ist am
Ġcomp lec
Ġintellig amus
Ġmand ato
ĠÏĢÏģÎ¿ Ïĥ
u endis
Ġl umb
Ġilli b
Ġmonaster ia
Ġattend e
Ġterm ino
Ġlan ce
Ġdi oc
Ġgraec os
Ġa ra
Ġa erum
Ġsum ere
Ġpharis aei
in ia
Ġimp ortun
Ġobedi entia
Ġspel unc
ec to
Ġsen atum
ac iam
de g
Ġeu enit
Ġmem inis
Ġprud ens
Ġinu entum
Ġaud itum
Ġmis ere
Ġscel eris
Ġperf r
h on
Ġac tionem
Ġen arr
Ġbon itas
Ġsum mis
Ġloqu endi
Ġdecem bris
Ġrec to
Ġlab iis
Îµ ÏĥÏĦ
Ġconting ere
Ġstir pe
Ġaccep tum
Ġtempor alibus
Ġlacrym as
Ġattin et
Ġser o
Ġdeb ito
Ġomnipot entem
Ġexcep to
Ġcorn ua
isc us
Ġual ent
Ġpal atium
Ġsol ito
Ġqual itatem
____ ____
Ġordin atione
Ġ- .
Ġcur ia
Ġopp ido
qu omodo
in orum
Ġde le
Ġpar atum
Ġiam que
il lim
cl e
Ġconi un
Ġsabb atum
Ġn is
Ġex in
tur is
Ġliber auit
Ġhos tiam
Ġquaer endum
Ġint uitu
Ïħ Ïĥ
Ġdef orm
ĠÏĢ Î¿Î»
Ġinfirm itatis
Ġutil itas
Ġruin am
Ġes cam
Ġinst aur
Ġprot ulit
Ġfas tig
Ġper mis
Ġappell ari
ĠÎ¿ ÏħÏĦ
Ġdamn um
ga ius
on t
ul si
Ġimp ium
Ġo f
Ġfam es
Ġsan itatem
Ġt ellus
Ġul lam
Ġau es
Ġacceper at
Ġuine a
Ġqui es
Ġprud entiam
Ġath eni
em que
osc op
Ġtrah it
Ġpl ato
Ġoc ulo
Ġo uium
Ġgener ali
Ġcustodi at
Ġcognosc imus
Ġcolumb ae
Ġi z
ha ere
Ġsingular iter
Ġqu anti
Ġdic es
Ġclam or
Ġdelic tum
Ġquar tam
Ġdiui tiae
Ġre fic
Ġb uc
Ġte p
Ġperm aneant
Ġisrae li
ĠÏĦÎ¿Ïħ ÏĤ
Ġs es
Ġs cep
iss emus
Ġconc ulc
a f
Ġconst et
Ġimm od
Ġdisc ordi
Ġrelic to
Ġin l
Ġh oris
u h
Ġd abitur
Ġqu endam
Ġdi iudic
Ġpl ene
Ġle uit
Ġdeclar at
Ġpr idie
Ġac tis
Ġintellig unt
Ġsenec tut
Ġcamp o
ï ¬
Ġde est
Ġat tamen
Ġaquil a
Ġdomn o
Ġreg iones
Ġiudic um
i gni
Ġint em
Ġinc ol
Ġnecess itatibus
Ġconst antia
Ġger min
Ġconj un
Ġoccid ent
Ġsollic ite
Ġtu b
Ġap te
Ġcur auit
Ġaur e
Ġnati uitas
Ġsubjun git
Ġmar ch
Ġlati us
Ġlec tum
n es
Ġimp ro
Ġmo uere
Ġnata li
Ġg au
Ġremo ta
Ġf eb
Ġpar ati
Ġmori etur
Ġa x
Ġinter esse
Ġpot um
eris que
con f
Ġcrim inibus
Ġde teri
Ġdes pon
Ġmali tiae
Ġopin ione
Ġpers arum
Ġcon sequi
Ġcons istere
Ġpugn am
Ġmeli orem
Ġoccul te
esim um
Ġcodic es
Ñ Ĥ
Ġnou issima
ĠÏĦÎ± ÏħÏĦ
Ġpecc auit
Ġsci ebat
Ġcontig erit
u tionibus
ĠÏħ Î¼
Ġu ar
Ġui uis
Ġuol ui
Ġinc ess
Ġhor oscop
Ġseptim a
Ġassid ue
Ġguillel mus
j a
Ġcatholic orum
Ġsar c
issim as
Ġfer me
ill os
Ġsanctit as
Ġh ann
ac io
Ġpac tum
Ġcop iam
Ġcastit atis
Ġoper atione
Ġdiffer t
Ġtit ulus
Ġs os
Ġpar ac
Ġag eret
Ġnou us
Ġantec ess
us us
ta que
Ġcomp end
Ġw illel
Ġgem itus
Ġtrin itatem
un tibus
ac ch
Ġaud ito
Ġhebrae o
Ġflam mis
Ġquat ern
Ġdiui tiarum
m ent
Ġe rep
tur os
Ġaequ ales
Î¸ Î·
Ġdecre tis
Ġeffec tu
ter n
Ġr itu
Ġpast oris
Ġbaptiz atus
Ġuentur a
Ġper en
Ġcum ul
est ri
Ġpraecip itur
Ġmys tice
Ġsci tis
Ġrespon deb
Ġsuperi ora
Ġaequi uoc
ÎºÎ»Î· ÏĥÎ¹
Ġre um
Ġsubli mi
u ata
Ġdisc uti
Ġaper ire
Ġcanon ici
s pir
ac ensi
Ġfr um
Ġcae de
Ġintellig at
Ġhisp ania
Ġmerce de
Ġcr escit
Ġign ob
Ġluc rum
Ġmir aculum
Ġsuccess ores
Ġieiun iis
Ġmatrim onium
h uius
Ġin quantum
Ġmod es
Ġconsens um
ĠÎµÎº ÎºÎ»Î·ÏĥÎ¹
Ġexordi o
Ġoctob ris
Ġph r
Ġform as
Ġlac t
ber to
Ġquad rup
Ġpraer og
Ġm s
eb or
Ġlong in
Ġinnoc ens
an ensi
Ġfal sis
Ġseruit ute
Ġcon tamin
Ġloqu atur
Ġpraef ati
Ġsatur n
Ġtranse unt
Ġer em
Ġlaud at
Ġprec or
Ġobedi re
Ġfoed us
Ġf e
Ġscrip to
Ġdefini tione
Ġtenta uerit
s p
u tit
Ġco hort
Ġopprob rium
c os
m ut
Ġpatriarch ae
Ġde uic
Ġun icum
Ġcap iti
Ġgra di
Ġput et
Ġagnosc ere
se p
tu li
Ġasc endere
Ġimpiet atis
Ġinter pos
Ġeo que
Ġten ebat
Ġpros ec
entissim um
Ġplenit udinem
od onos
Ġdom ui
Ġambul are
Ġ {
Ġostend at
Ġoccas um
Ġp ab
ili i
Ġdiuin orum
abili um
Ġaequ o
Ġinsin uat
Ġbeth le
Ġh ugo
Î± ÏĥÏĦ
Ġsit a
Ġost ent
Ġsuperi ori
Ġmem ento
Ġdiscip ulorum
Ġmarty rium
Ð °
on ias
Ġin greditur
ter r
Ġhab eas
Ġnoc tibus
Ġsanctit atem
Ġcontempl atione
Ġprophe tiae
Ġd atam
Ġde dec
Ġre pos
iss ae
Ġeos que
ann i
Ġiu uat
Ġdiuers ae
Ġuinc ere
Ġaccip imus
et si
Ġcons ang
Ġimm edi
Ġcib os
Ġgener ibus
Ġtrad ere
Ġsor tem
Ġuari etate
uc t
Ġdicit e
Ġprincip atus
Ġfer oc
Ġlae ta
Ġsur rex
Ġtim oris
Ġd unt
Ġori entis
Ġeffic it
Ġseni ores
re bat
Ġper im
Ġordin ibus
Ġben jam
Ġsens it
Ġbo ues
Ġnab uch
Ġpr idem
ul es
Ġuti lis
Ġcommun ia
ni x
Ġscel era
Ġpraeb ere
Ġuid endum
ath an
Ġiub ente
ili as
Ġeorum dem
Ġual le
Ġsens ibi
Ġutil itate
Ġphilipp us
Ġd ens
Ġspirit aliter
quo que
Ġtr unc
Ġsci as
Ġess emus
Ġcompl ac
Ġuideb itur
Ġdeb etur
ĠÏĢ Î±ÏĦ
Ġsplend or
Ð µ
ati uo
Ġl ata
Ġdu cibus
ill am
Ġsupplici o
Ġin fec
Ġdogm ata
Ġu ento
Î± ÏģÎ¹
Ġi a
Ġc aret
Ġad ae
Ġleg atus
ÎµÎ¹ Î±ÏĤ
Ġabb a
Ġtempor alis
Ġuolupt atem
Ġbeatit udo
Ġregular iter
Ġt unic
Ġdi alec
Ġaud iamus
Î¿Ïħ Ïĥ
Ġcondi tionis
Ġmaiest atem
esc ente
th e
Ġmemb rum
Ġalleg or
il it
Ġun dis
Ġoccul to
Ġeph raim
ar dum
Ġcor usc
Ġlaud are
Ġludo uici
Ġrepraes ent
m et
Ġcar men
Ġfund itus
o git
tum que
ĠÎ±Î½ Î¸ÏģÏīÏĢ
Ġmorta libus
Ġnabuch odonos
Ġbib it
quae que
Ġcompos itum
Ġprotec tione
Ġme ti
Ġpar tus
Ġues tis
Ġpal l
Ġcon cipi
Ġperpet uae
Ġmans it
Ġnub ibus
Ġcondit or
crips it
Ġn u
Ġpr isci
Ġgr essus
Ġdisc ere
Ġcircum fer
Ġtrad itur
Ġed idit
Ġredi g
Ġdunt axat
d al
n arum
u ibus
Ġperhib etur
dis cip
Ġsimplic es
Ġsatisfac tione
Ġadj ici
Ġiacob i
Ġcupid itas
Ġe uch
Ġs ana
de inde
Ġpsal ter
Ġmarty rii
Ġsor ores
Ġrog amus
Ġrep enti
Ġinfer no
Ġsen es
Ġsinistr am
Ġintellig untur
Ġueni ent
Ġinfirm i
Ġconsor tium
Ġali arum
Ġues pere
Ġaliis que
Ġqual itas
Ġnup tiis
Ġnosc untur
Ġpossess io
Ġexempl ar
ut as
Ġplenit udine
tib ilis
Ġmisericord iter
ur os
Ġdic tae
Ġpor tu
Ġintegr itate
un us
Ġst y
Ġcae cili
Ġanima bus
Ġthes auri
Ġper l
Ġre fici
Ġpar ric
Ġd an
Ġaccipi ant
Ġe uers
Ġper it
Ġsanc tissimi
Ġpraeter ita
undi ae
Ġexi git
h omin
Ġid est
atum que
Ġan hel
Ġpuer is
Ġdiffer entiae
Ġnonnul lis
Ġnouem bris
ec tis
Ġdamn ationis
Ġcapit uli
Ġdul ci
b yter
or b
in io
Ġali enus
Ġnim io
Ġtit ulum
Ġhisp ani
Ġlibid inis
Ġambros ius
Ġiup piter
id ii
Ġpati atur
Ġperic lit
Ġprod it
b ri
Ġad mo
Ġdes it
Ġoc ulum
Ġaduers is
Ġsplend ore
Ġin quin
Ġchar issime
Ġsor orem
Ġmanduc are
iam que
Ġmil libus
ĠÎ¿ ÏĦÎ¹
Ġins ulam
Ġfl ore
ui is
Ġposs im
esc et
Ġign o
Ġgra ues
Ġconuers o
Ġhor as
Ġparti ceps
Ġm am
Ġbene fac
Ġnoc ere
Ġfors an
n atur
Ġprae da
Ġam as
Ġca ut
Ġaud io
Ġdil uc
Î¹ Ïĥ
Ġrec re
Ġbaptism ate
d il
Ġpropri as
Ġconcep tus
Ġder og
im p
Ġcaus arum
Ġspec tat
Ġsignific atione
Ġdamn ationem
Ġdiuis ionem
Ġobl atione
amb ul
Ġsubaud is
er to
umb r
h om
Ġui tios
Ġprud enter
Ġqu ati
Ġneg ant
ĠÏĢ Î¹ÏĥÏĦ
Ġcunc torum
Ġui uum
Ġmis erunt
Ġuirg inum
Ġdim idium
Ġpoenit eat
Ġcre p
Ġamici tiam
Ġnostr arum
Ġmiss um
Ġquot quot
Ġinterfec it
Ġd entes
und am
Ġres ip
Ġtra duc
Ġpromiss ionis
Ġdecim am
Ġr uti
cip e
Ġuolupt atis
Ġrespons io
Ġmur um
Î· Î¼
Ġmal ae
Ġaper it
Ġsumm ae
Ġpraepos itus
er er
Ġm oll
Ġg ust
Ġuid ebat
Ġat qui
Ġuiu imus
Ġmut uo
Ġlic ere
Ġignor are
Ġsuperi ore
Ġon era
Ġcongr u
Ġcl uni
Ġdiuid itur
Ġcom itatu
ub uit
Ġmi gra
Ġpor tare
Ġaccipi et
Ġin aequ
uent us
Ġafric am
Ġdani el
tam ur
Ġsen em
Ġcogno ui
in oc
ui x
Ġpo eta
Ġuers u
Ġnut u
Ġnabuchodonos or
aud i
Ġseptem bris
Ġsollic itus
ÏĥÎº Î¿ÏĢ
Ġpro gress
Ġfec eris
Ġaug mentum
Ġdelici is
am p
Ġsed ibus
Ġeffic ere
entissim a
Ġpulch re
Ġruin a
Ġantis tit
or ium
em a
ab ar
Ġgr ande
ular em
Ġphilosoph orum
Ġnomin um
Ġstr ic
Ġpraeb uit
Ġpatern ae
Ġprosper a
Ġaposto lici
Ġperm ut
or am
erit as
Ġcomm er
Ġtol et
Ġsanc tu
Ġsol itudine
Ġmem ores
Ġarb ores
Ġobl ata
Ġrau enn
Ġminim um
m ir
or n
Ġpar ere
Ġfaci atis
Ġuniuers ale
Ġw as
ĠÎ¼ ÎµÎ½
Ġindign us
Ġtabern aculi
Ġuestim entum
o edi
Ġad uenit
Ġinf est
Ġr ic
Ġnecess itatis
Ġcodic ibus
Ġtruc id
Ġp s
Ġpati ens
Ġlae tus
Ġpersec utione
Ġcondit oris
Ġperfic ere
a ueris
Ġter g
dem us
Ġdefens ione
Ġpraen unti
ut ere
Ġded isse
Ġsacerdo tii
Ġgalli ae
Ġreuers i
Ġmorta li
Ġsalub riter
Ġcreb ro
Ġubic umque
Ġmol esti
Ġtranst ulit
Ġin a
Ġeus ebi
Ġam icorum
Ġpecc atoris
Ġgen ua
Ġang lorum
Ġuent ris
Ġdi r
Ġni ti
Ġintellig ens
ĠÎ¼ Î¿Î½
Ġbenjam in
Ġarchi ep
Ġcondi tio
Ġanci lla
eb amus
Ġmi tig
Ġcan es
Ġpuer os
Ġde esse
omn es
Ġpos ito
Ġpot enti
p oli
im entis
Ġad di
Ġab duc
Ġtabern aculo
Ġfor es
Ġuniuers aliter
on us
Ġu ili
Ġad u
Ġui tis
Ġues c
Ġiudic iis
Ġfer t
Ġcanon icorum
Ġuac uum
Ġconueni at
Ġreliqu iae
Ġnon o
Ġeu ol
Ġsaec ularibus
Ġaltitud o
Ġlucern a
Ġ âŁ¨
Ġius tini
Ġtrad unt
Ġdomin icam
Ġcom edit
Ġar tus
Ġmet um
Ġsil uis
Ġpromiss um
Ġprofic it
eb imus
Ġcr ux
Ġlug dun
Ġcare at
s ent
Ġd al
Ġdis cep
Ġspiritu alem
Ġecclesiastic am
Ġphilosop hiae
Ġf erat
Ġh ast
Ġdi rexit
Ġbon itatem
Ġinde f
Ġconn ex
Ġholocaus tum
Ġex eunt
Ġr u
Ġuin ci
Ġbes tiae
Ġexordi um
Ġsub ueni
Ġqua lia
erunt ur
Ġmi tis
Ġul lus
Ġfug iens
entissim i
un o
Ġdic emus
Ġar om
Ġcar olo
Ġant on
Ġnonn isi
Ġplac eat
Ġhib ern
Ġseni or
Ġierem ias
Ġp es
Ġex ult
Ġsub rep
on am
os ae
Ġred und
Ġcarn ales
Ġarbit rii
Ġrecipi at
te g
io ann
Ġterr ore
Ġconsider atione
Ġp iae
un um
Ġpar ens
tim a
Ġinuen erit
Ġeuangelic a
Ġcathed ra
Ġgr ata
Ġdisp end
p ol
Ġc uidam
Ġl ustr
Ġmo ab
Ġmo tibus
Ġhos pi
Ġnoc tes
Ġlong i
Ġreuer ti
Ġminim a
Ġpraesum pserit
ĠÏĢÎ±Ïģ Î±
Ġl emo
Ġterm ini
Ġludouic us
et arum
Ġac h
Ġcont endit
Ġprouinci is
Ġian uam
d at
Ġuictor is
Ġomnipot enti
Ġingress i
Ġpropi tius
Ġuoc abitur
Ġproxim e
Ġmit titur
Ġco actus
tin is
es is
Ġcre de
Ïħ Ïĩ
Ġsubjec it
Ġl et
Ġden omin
Ġcog itat
Ġuoc are
Ġhabit auit
Ġaegr ot
Ġappell auit
Ġiub etur
Ġpostea quam
Ġref ut
Ġpecc auerunt
Ġuen enum
Ġimper ti
Ġnuncup atur
Ġam ator
Ġag entes
Ġscrip ti
Ġcapti uitate
Ġuisc eribus
Ġconstitu tionem
ac us
Ġsol er
Ġneg auit
Ġxx iu
Ġhaeres i
p pi
Ġprae clar
Ġpot entes
Ġfam em
Ġuener abilem
Ġimag ine
Ġrequir it
Ġmeri ti
Ġpar ui
Ġmar s
ĠÎµ Î»
Ġgra dibus
Ġordin ationem
it are
omn is
lic o
Ġc e
Ġcarn ali
Ġclar itate
ÎµÎ¹ Ïĥ
Ġredd itur
Ġxx iii
Ġgener ationis
ĠÎ» ÎµÎ³
Ġatr oc
Ġhab eamus
Ġmul c
Ġmon as
Ġidem que
anti phona
Ġlae titiae
Ġper cipere
Ġius sus
si gnific
Ġcast ellum
cir cum
Ġdefini tionem
Ġa es
Ġex quir
Ġpro ximus
Ġfac ili
Ġuol uisse
Ġdu arum
Ġcandel ab
f is
Ġfr ui
ag e
Ġcred is
Ġu entis
isc ere
Ġanim orum
Ġimp ios
tic os
Ġpros tern
Ġhuman itas
on o
Ġrob ore
Ġten ens
Ġspec ios
Ġexprim itur
Ð ¸
Ġap ta
Ġinu ent
Ġni titur
Î¿Ïħ ÏĥÎ¹
Ġrefer untur
Ġdiuis ione
Ġgre gis
Ġne x
Ġuindic are
ĠÎ±Î» Î»
r oc
am enti
Ġco aeter
Ġag i
Ġmin oris
Ġarg uit
Ġpati entiae
Ġinfer os
Ġconui uium
g aud
lic a
Ġcar ere
Ġiuris dic
Ġuer m
Ġini quit
Ġconuers a
Ġxx ui
Ġop ul
Ġo uis
Ġpul uere
Ġperman eat
Ġgenit ricis
ane a
Ġsecre tum
Ġmarg ar
Ġqui etis
Ġuol ati
Ġquis piam
Ġuic ec
Ġdilec tis
Ġatt oll
Ġquaer ens
Ġtor p
s io
Ġad sum
Ġadj ecit
Ġspirit alem
ep ist
Ġconcupisc entiam
Ġuolupt atibus
quem que
Ġmis erum
Ġparu ulos
Ġlam ent
Ġtract atus
Ġacer b
Ġe ft
Ġa ula
Ġp in
Ġper uer
Ġsuper ueni
Ġdiuin us
Ġuolunt ates
Ġmasc uli
Ġper iit
Ġio uem
Ġle uis
Ġfem inam
Ġstul ti
Ġton itr
Ġfidel em
Ġstat utum
Ġrhet or
Ġim itat
Ġoper ationis
Ġinfirm us
Ġpere at
ard orum
Ġcompos ita
ĠÎ·Î¼ ÏīÎ½
Ġman ens
Ġmut are
Ġstul tus
Ġdubit are
tr as
Ġpar es
Ġcar mine
.. ..
x erat
Ġd ag
Ġg n
Ġposs itis
le o
Ġrec tor
Ġinfer ior
ti dem
Ġui is
Ġist as
Ġnum eris
Ġcal ore
Ġw al
Ġconting at
Ġn as
Ġn oll
Ġdec orem
Ġag er
Ġproc ons
Ġdesc endere
Ġpropos ita
Ġpraem issa
Ġmedic ina
Ġbeatissim i
Ġprae ueni
Ġpe ius
Ġinstit utum
Ġindig et
Ġinteg ro
ti e
Ġprae tex
Ġsol atium
Ġanim alis
Ġlib ellum
Ġind uit
Ġnub e
Ġincer tum
Ġp tol
is e
oc ta
Ġpro gredi
Ġsci unt
Ġfl os
Ġmand atorum
Ġdecim is
Ġpala estin
Ġcar itatem
Ġincl y
Ġf u
uer entur
Ġser iem
Ġind ul
Ġcup iens
Ġrelinqu ere
Ġincon s
Ġinsign ia
Ġeri tis
Ġcast ro
Ġbitur ic
id isti
Ġtu ba
uin us
Ġth eat
Ġinuit us
Ġs inus
Ġuid ua
Ġpon e
Ġaur eum
Ġbeat am
s eru
ati uae
Ġcor rum
Ġst ellarum
Ġsacrific io
Ġg eni
Ġr aro
ĠÎµ Î±ÏħÏĦ
Ġmulti plici
Ġinueni et
Ġinsign is
b ilem
Ġh l
ÏĢ ÎµÏģ
Ġpraef atum
Ġdefic it
d os
h uc
m or
Ġpl ebi
Ġcam er
Ġpec toris
Ġfec istis
Ġind ub
Ġserui tium
Ġdic enda
Ġuer n
Ġsol ebat
Ġpe timus
Ġclam ore
Ġoptim a
Ġfl ores
Ġfla ui
Ġtoll ere
ĠâĢ ¢
Ġornam enta
Ġst ans
Ġmed ul
Ġres us
Ġte tigit
Ġaud itu
Ġbasili cae
n c
Ġsignific ans
Ġdiuers itas
Ġpraef atus
Ġmed ius
Ġuari as
Ġdelic torum
Ġep isc
Ġsuperi oris
ÎµÏĦ Î±Î¹
Ġp ii
on om
Ġdep end
Ġhabit ant
Ġuindic ta
ĠÎ¿Ïħ Îº
Ġhabitat ores
Ġqu eat
as ius
Ġpon i
Ġamici tiae
Ġunigen itum
Ġe loqui
Ġneg lex
Ġs qu
cum b
Ġpe tis
Ġlati ni
Ġflag iti
em it
Ġinf r
Ġti b
Ġimpet um
Ġimmort alis
Ġapostolic o
Ġperfec tionis
Ġfla git
Ġcorpor ali
uin i
Ġess enti
Ġimm an
Ġabs tinere
Ġmat ron
Ġcer tus
Ġdign os
Ġlec to
Ġdeb etis
Ġmedi am
Ġclem enter
Ġduod ec
Ġdidic it
Ġd ant
Ġm entio
Ġsuscit auit
er atis
Ġpr andi
Ġrec tores
ider int
Ġsata g
Ġad fer
ĠÎ¿ Î½
Ġcorpor alis
Ġad erant
ora ui
Ġinfer ni
d c
Ġep ic
Ġdeb itam
Ġconsul e
Ġtol le
Ġdul ce
Ġas pectu
Ġnatur as
Ġmir abiliter
Ġprae li
Ġal c
Ġins pic
Ġci bi
Ġdiuers o
Ġard ore
Ġinop ia
Ġlaur entii
Ġposs em
Ġauctor is
Ġasc rib
Ġnati uitatem
Ġol ei
Ġlux uria
Ġflag ella
Ġdioeces is
Ġdignosc itur
a di
Ġcarn i
Ġaequ um
Ġt endit
Ġprae lio
tra uit
ist at
Ġmagn itudinis
Ġuiu us
Ġsurg ens
ĠÏĩ ÏģÎ¹ÏĥÏĦ
i ph
Ġnau em
ac ibus
Ġpot u
Ġmul tarum
ux erat
Ġaur is
Ġincend io
ÎµÏĥ Î¸Î±Î¹
prin cip
Ġi urg
Ġp ae
Ġper tim
Ġpotest ati
Ġini uria
Ġanti stes
Ġsimulac ra
Ġscel erum
Ġu entus
Ġquibus que
Ġhon estum
Ġmiss arum
Ġignor antiam
Ġdecre uit
Ġdaem onia
Ġcet eri
Ġexi uit
fr idus
Ġad de
Ġad ire
Ġre ceperunt
Ġuid uae
Ġas inus
Ġlaud ate
Ġurb ibus
Ġresur rex
Ġded erat
Ġcogno uerunt
Ġconstantin o
Ġg y
Ġquod cumque
Ġreg it
Ġeu en
Ġiub il
Ġcollec ta
Ġab el
Ġconstr ing
fer um
Ġcol lo
Ġcardin ales
Ġincon gr
Ġlaps us
Ġeuty ch
h omo
Ġe ra
ter is
iss am
ad ri
Ġret ulit
Ġuel lem
Ġpar entis
Ġsapi entem
Ġpontific i
Ġga z
Ġqui esc
Ġg o
Ġsed ebat
Ġprae di
Ġreg ulas
Ġinueni atur
Ġbrach ium
Ġfac turus
Ġmor b
Ġdep ra
Ġpast orem
Ġhebrae i
Ġprofic ere
Ġcontumeli am
Ġceler iter
as ii
Ġad un
Ġdamn atus
Ġintellex it
Ġinstrum enta
Ġg unt
and s
isc it
Ġas se
Ġcl arius
Ġioann i
Ġmit ti
Ġillib ata
Ġdi uer
Ġcur as
Ġaetern is
fr at
Ġadulter ium
in que
Ġuid ebit
Ġher odes
Ġcorrig ere
Ġregim en
or mis
Ġf enum
Ġdis par
Ġconc re
Ġmarty rio
sci licet
Ġmat ern
Ġuide as
Ġquaer imus
Ġrefer ri
Ġcrim inum
Ġprud entiae
Ġpasch alis
et am
Ġap t
Ġpar uum
Ġal bi
Ġign es
Ġhuman itate
Ġstul titia
Ġou ibus
tax at
Ġacc ur
Ġxx uii
Ġprouid ere
Ġfigur ae
Ġadim p
ĠÎµÏĢÎ¹ ÏĥÎºÎ¿ÏĢ
Ġini qui
Ġpal lium
Ġgerm an
Ġdefens ionem
Ġsax a
Ġdioec esi
Ġdedi gn
Ġtoti es
Ġhann ib
m entis
it tam
Ġconf lic
Ġseru ata
Ġdefunc to
Î¿ Ïĥ
Ġaugus tino
Ġport at
Ġration i
Ġimbec ill
Ġrem is
tissim os
Ġduc itur
Ġhi p
Ġconuers ionem
Ġs ortes
Ġpers crut
Ġfur orem
Ġdisposi tione
Ġuati cin
od us
ue tis
ric es
Ġspiritu ales
Ġtest antur
Ġinueni at
Ġtribun al
Ġdigit o
Ġgr andi
Ġis dem
Ġcurr ere
Ġtang it
Ġst abili
Ġrem edia
Ġimm ens
Ġind utus
Ġincom p
Ġprofut ura
Ġper emp
Ġuit e
Ġmem ini
Ġhy d
Ġiord anem
augus tinus
ol om
lic e
Ġam an
Ġas pir
ator ia
Ġmedi is
Ġabb ates
Ġgal a
Ġconfus ione
ri is
Ġsep ten
Ġlae tific
Ġabi re
Ġpign us
Ġde prim
ul fus
Ġquod libet
Ġun das
Ġcons pir
Ġne quam
Ġcar b
Ġher cle
Ġconsider andum
Ġtr ab
erat or
Ġsacerdot e
Ġandre ae
Ġca duc
Ġdum taxat
Ġcont est
Ġsacr as
Ġglorios a
Ġst om
Î´ Î¹
Ġnesci re
Ġgr atum
Ġdeb eo
Ġcup io
Ġlic eret
Ġdiff und
Ġcongr uit
Ġua dit
asc rip
Ġspon s
x l
Ġc ale
Ġde lib
Ġappar atus
Ġphil ist
Ġerub esc
f um
Ġ â
Ġf asc
Ġman na
Ġtrans itum
Ġdesider ant
Ġindulg entia
ti que
ar t
Ġhodi ern
Ġconstantinop olim
Ġrespon deo
Ġde ut
Ġimp ar
Ġnot am
Ġoport uit
Ġcur are
Ġcr escere
Ġaur as
Ġhaeres es
Ġinter ced
Ġquos que
Ġbac ch
on as
id ius
Ġfer ens
Ġini bi
Ġaduers arius
Ġconsid erat
Ġquac umque
Ġuicec om
x iii
Ġfec erint
Ġmemor atur
Ġeodem que
Ġson o
s pec
Ġc ot
os os
ric e
Ġrestit uit
Ġeleemosy nam
ec as
Ġsci ant
Ġconst anter
Ġarc us
Ġuiu os
Ġdescend ens
Ġluc ri
Ġreper it
Ġfelic itas
Ġm enda
Ġex str
Ġaud acia
Ġinf antes
Ġexp le
Ġmort ales
Ġg erit
Ġqua erat
Ġsuper bus
Ġuolupt ate
Ġangus tia
Ġs anus
Ġconuer titur
Ġcons pectum
Î± Î¼ÎµÎ½
Î¿Ïħ Î¼ÎµÎ½
Ġe ae
Ġprae esse
Ġunum quemque
Ġpresb iter
Ġfon tis
Ġauari tiam
Ġdec ur
Ġaper tius
Ġquaes iuit
Ġnequi tiae
h r
Ġac ti
Ġprae lium
Ġrog at
Ġuesper am
ia re
Ġfal si
Ġfelic itatis
ioann es
Ġm elle
Ġha uri
Ġpac i
Ġimpiet atem
Ġremans it
Ġaliqu as
Ġcomp let
rec t
Ġsuscep ta
Ġcorr ob
Ġabn eg
Ġapocaly psi
ÏĦ Î±
Ġsoc ii
Ġmol e
Ġrespond erunt
Ġplu uia
. ;
Ġpr osc
Ġprae cedit
Ġuic ina
Ġneg leg
Ġeuangel istae
im is
Ġmo ech
Ġloqu endo
Ġabsol ute
Ġadjutor io
Ġp ium
Ġluc ul
ider ant
Ġredd et
Ġsuffici enter
ur git
Ġob uia
Îµ Îº
Ġaud isset
Ġsignific et
Ġmer uerunt
Ġdiscrim en
Ġeuad ere
Ġf od
Ġrec urr
Ġsustin uit
Ġcamp is
Ġlegitim a
Ġfebru arii
Ġhab ebis
Ġsc ab
Ġsapi enter
ĠÎ± Îº
Ġdionys ii
Ġpet o
Å¿ cop
Ġconuers ationem
Ġtranse at
Ġc ellam
Ġcon se
Ġmi gr
Ġsep t
Ġuas is
t ate
ati cum
ac e
Ġr ich
Ġne pos
Ġliber ati
Ġtabern acula
b ar
Ġre le
Ġam isit
ub stanti
Ġaug ur
Ġla icis
Ġpul uerem
Ġieiun ia
em et
Ġomnes que
Ġneque unt
Ġspec iali
Ġhi er
Ġfau ore
Ġosc ul
Ġparoch ia
d ia
Ġin hib
Ġan s
Ġpal ud
Ġcib is
Ġdeuo tio
Ġhaeredit as
ac a
el lin
Ġlib ido
sim il
Ġdom ic
Ġson um
Ġillustr is
Ġauari tiae
Ġimp ia
Ġdec id
ann is
Ġc le
Ġcontr ari
Ġinfirm a
Ġgl ob
n omin
per s
Ġam ph
Ġput es
Ġmonast eriis
Ġmens em
Ġeg est
Ġutil itatis
Ġpraefec tus
b re
Ġad al
Ġurb ani
Ġtransi erunt
Ġappell atus
Ġdiuers itate
ÎµÎ¹ Î±Î½
Ġconsol ationem
Ġnud us
Ġtorm entis
at rix
Ġmiser ia
Ġaetern us
Ġarc ana
quod que
Ġsan itas
Ġnup tiarum
Ġlib ras
Ġimp ati
Ġarb ore
Ġpraem on
ha us
Ġdiff usa
Ġdiacon um
Ġpraeced entibus
ĠÎ¼ÎµÏĦ Î±
Ġper inde
Ġch l
Ġnihil um
ĠÎº ÏħÏģÎ¹
Ġlat era
Ġcogit ationum
Ġgreg es
en arius
atur os
Ġsol lem
Ġmin ori
Ġquin tum
Ġaug ust
Ġcaeter orum
Ġmendac io
Ġobiec tum
i ano
ati uus
Ġg ig
Ġprae cis
Ġpl aus
Ġocc idi
Ġlabor are
Ġoctog inta
Ġc eu
Ġdic etur
Ġlong ae
Ġmac ula
Ġcontem ps
Ġanathem atis
Ġiniur iam
Ġexcel sis
ab imur
Ġprae dixit
Ġsol it
Ġaccep t
Ġeff ig
Ġappar ere
Ġeloqu io
Ġa uis
Ġgen erat
Ġtrib uat
Ġmori atur
Ġdiuis a
Ġcustod es
Ġuenti l
Ġredem it
Ġad in
ae dific
ul isset
Ġex iit
Ġuol ueris
Ġleg iones
Ġcanon ibus
nam que
Ġobseru ari
Ġprimogen itus
Ġqu om
ri ti
Ġper rexit
eni g
Ġdix eris
Ġmyst eriis
Ġod erunt
Ġpraem issis
Ġcongreg atione
Ġpere unt
Ġcompar atur
Ġconsuet ud
Ġconsid era
o f
Ġa a
Ġelec tum
Ġdaem onibus
Ġexpos uit
Ġmel chis
Ġcognos ci
Ġl es
Ġsil ua
Ġuac at
Ġimmort alitatem
Ġpropriet ate
Ġdescrib itur
Ġparisi is
Ġsc yth
Ġhor ae
Ġsuperi ores
Ġsanctis simus
Ġministr are
Ġconsumm ationem
Ġin anis
ab ul
ua st
Ġuol uisset
Ġnol uerit
Ġconsider are
Ġiuli ani
Ġincarn atione
Ġmultitud inis
Ġargum ento
Ġma d
Ġpl umb
Ġal tissimi
Ġpraef ato
Ġd it
Ġsol uta
Ġcred ens
Ġsequ eretur
Ġreuer end
Ġsor s
Ġobedi entiae
Ġperdi tionis
y t
Ġg estum
Ġr uth
Ġqua ere
Ġmatrim onio
Ġre cedit
con tin
Ġaugus tinum
Ġisa ia
Ġimpr ud
Ġrespic e
Ġterritor io
b atur
Ġign ibus
Ġsex tus
Î¸ Îµ
Ġignor antiae
Ġle ue
Ġhos tia
Ġintr at
Ġfortitud inis
Ġuirgin itatis
Ġlacrim is
Î· Î»
ora uerunt
Ġbenedic tionis
Ġpropos uit
Ġelig ere
Ġproeli o
Ġex ec
gn o
Ġinf ans
Ġni ue
Ġapostolic um
Ġdesin it
Ġprop ugn
Ġdoc ent
ane um
Ġiur amento
Ġgraec a
Ġarch ang
Ġcoenob ium
Ġresus cit
y st
Ġo tium
Ġgen esi
Ġphilosoph ia
Ġincor pore
Ġmenda x
Ġ bus
Ġf orum
Ġaut h
Ġsacram entorum
Ġdelic tis
Ġintelleg i
Ġuoluc res
Ġn ug
Ġuid erentur
Ġuiu endo
Ġbell is
Ġcoll ata
Ġrequi e
Ġconstitu tionis
Ġiuuen em
p hi
Ġint endit
Ġseru ari
Ġpass ionibus
Ġuiri liter
Ġtene atur
Ġsug ger
es imus
bi libus
Ġer rare
Ġcons er
Ġuit are
Ġmil li
Ġdiff id
Ġglori atur
Ġs inum
Ġac hil
Ġag ris
Ġrec tae
Ġinde x
Ġexspect at
Ġspecie bus
Ġcommiss um
n il
Ġmar ito
Ġeu an
Ġconst are
Ġdamn atione
Ġeloqu ium
Ġsob ri
Ġtemp t
Ġass ensum
Ġcongreg ati
Ġconcupisc entiae
Ġmagistr atus
Ġattend ite
Ġquem que
Ġfer r
Ġturb ae
Ġcop ias
o am
Ġci uis
Ġmin ore
Ġpretios a
Ġubic unque
Ġper tulit
Ġar am
ici unt
Ġini qua
Ġlab orum
Ġexp i
Ġfur oris
Ġadj ut
Ġsermon um
Ġaccipi endum
crib ere
Ġostend unt
Ġtempor aliter
Ġcub itorum
psal mus
tor ia
Ġleg atum
Ġei ec
Ġmedi ator
Ġelec tionis
Ġsociet atis
Ġcontemn ere
Ġm uc
Ġluc tus
ric a
ereb antur
Ġisa iam
Ġcanti co
Ã Ł
Ġser g
Ġfor n
ma i
Ġproxim is
Ġalb ed
Ġuest es
Ġfin ita
Ġb id
uc tu
Ġag g
Ġaccep i
Ġprofess ionem
tr ae
Ġdomin icum
Ġappell are
Ġux ori
Ġpraec essit
Ġdepos itio
Ġic tu
ist as
Ġind oc
Ġtur pe
Ġrel atione
Ġsat anae
Ġsaec ulis
Ġmiss os
Î¿Î¹ Î½
os sa
Ġg nae
Ġnasc eretur
Ġlatit udine
Ġe ar
Ġac ha
Ġins pec
Ġaequ inoc
Ġdemonst rare
Ġadep tus
ib iliter
Ġsy riae
Ġprofess ione
Ġthesaur os
Ġquac unque
c s
e ae
Ġp are
Ġpos ui
Ġquo quo
Ġinter ior
Ġos sibus
Ġreuer titur
pot est
Ġuinc it
Ġauxili ante
ĠÎ³ ÎµÎ½
Ġmoy se
Ġmelchis ed
ili bet
dit as
Ġgen u
Ġcred ul
Ġten ore
Ġsenti at
Ġsacerdo tio
Ġbaptiz ari
Ġincer ta
Ġpalm am
Ġc essit
Ġpar ce
Ġpl erisque
Ġbon e
Ġins ulae
Ġag rip
Ġsuperi orem
Ġfau orem
Ġbesti is
Ġalieni g
Ġor o
ux erit
Ġmaiest as
Ġsolemn ia
u ul
Ġg ale
Ġcl are
Ġmal le
Ġaegyp tiorum
Ġconsec utus
Ġdilu uium
n em
Ġess entiae
Ġmut ata
Ġpurp ura
ati uis
Ġcom prim
Îµ Ïĩ
Ġimp rop
Ġprof undo
Ġdep rehens
Ġdemonstr atur
Ġcoeles te
Ġali enae
Ġspon sam
Ġxx uiii
ibi li
x ui
Ġt ueri
tic orum
Ġcas ibus
Ġfelic em
enn io
Ġproposi tionis
Ġterr est
Ġfaci endo
Ġess es
Ġmagis que
Ġluc tu
Ġos ti
Ġadha er
sem per
Ġd ot
Ġsp arg
fer a
Ġur bi
Ġordin are
Ġdoc eat
Ġinim ica
Ġappeti tus
Ġcor di
Ġhis ce
Ġsalu ari
mi gr
Ġuig ilia
Ġdefunc tus
Ġtim ens
Ġmonach um
Ġeuangelic ae
end ecas
Ġab est
atis que
Ġsex ag
Ġadul esc
Ġinteri ora
Ġrati ocin
Ġdi adem
Ġcontin entia
Ġios ue
Ġquantit atem
Ġueloc iter
Ġcoenob io
Ġali enos
Ġexc ol
Ġdisc urr
Ġimpos uit
Ġuer sum
Ġcomp leta
Ġinfer num
ix a
Ġillumin at
Ġlup us
Ġc f
Ġen g
Ġcollig itur
Ġcommunic are
Ġpse ud
Ġmeminis se
ar am
Ġpraes to
Ġconf itemur
Ġconfirm auit
Ġecclesiastic o
Ġaud is
Ġdem et
Ġdol et
Ġcul men
Ġtent ationem
Ġanimad uers
y c
atur am
Ġhab uerint
Ġhab ebunt
Ġiud am
Ġsim e
Ġher ac
Ġsuscipi ens
Ġf om
Ġec on
Ġsec uta
Ġsep ties
Ġpersec utionis
Ġi de
Ġco qu
Ġdoc umenta
Ġprincip aliter
Ġfl etus
Ġcontr ariis
Ġelec tio
Ġconuen erunt
Ġuolum ine
Ġs ara
Ġsub duc
Ġauctor ibus
Ġsalu atore
Ġhi pp
Ġass erunt
Ġdist at
Ġcens ura
Ġremedi o
Ġmach in
r hae
Ġin cep
ul at
Ġcons im
Ġsci ret
Ġher m
Ġsemeti psos
Ġi tidem
Ġin aud
Ġmi rific
Ġpraedic ator
Ġsing ulare
Ġconstan tini
Ġuiol enter
oc hiae
Ġcomm odum
Ġdisc ord
Ġscrib ae
Ġoffer t
Ġgrem io
Ġreg ulis
Ġsupplici is
Ġeuch aris
ae a
Ġaud itus
Ġspec ulum
Ġuirg inibus
pl end
Ġador are
Ġaudit ores
Ġsub in
Ġpl anc
Ġimp un
con st
Ġarb orem
Ġambul at
Ġlatit udo
bi lium
Ġli mina
Ġprouinci arum
Ġcondi tionem
Ġ rix
om a
Ġdic tam
Ġo tio
Ġdec ore
Ġiudae us
Ġpal ati
Ġuiu entem
Ġcontempl ationis
pres byter
Ġpar is
Ġepiscop ali
Ġuinc ulum
Ġtent atio
Ġcess auit
Ġpriuileg iis
Ġmonstr atur
Ġparadis um
Ġe uit
Ïģ Î¿ÏĤ
Ġgaud ent
Ġcau endum
Ġinst antia
Ġcorinthi os
meti psos
ist unt
Ġhon esta
Ġredemp tionem
Ġparu ulus
Ġcertam ina
Ġluxur iae
Ġm eretur
Ġm uta
ap ud
Ġmagn opere
Ġmir abili
Ġprof ug
Ġperd ur
f uit
ed is
Ġcontin entiam
Ġexplic are
Ġuideb is
Ġad fec
Ġips arum
Ġprop ius
Ġins ult
Ġmer ced
Ġpud or
Ġdorm it
Ġind ag
Ġpal atii
Ġsacerdo tali
Ġclem ens
Ġdetr imentum
Ġbern ardus
Ġchil de
Ġp isci
Ġdei ec
Ġconu enti
Ġmir abilis
Ġcrud eli
Ġadju uante
Ġthesaur um
Ġin und
Ġcom bur
Ġquant us
Ġinnoc entiam
Ġgalli as
Ġsuper are
Ġimp edit
Ġth rac
Ġinnoc entia
Ġcat ech
Ġber tr
Ġegreg ius
Ġcom bus
au e
Ġpri orum
Ġabb atibus
Ġaper tum
Ġciu ili
Ġge h
Ġadju u
unc tum
Ġmul tam
Ġaccep tis
Ġst abat
ĠÎµ Î³
Ġput amus
Ġpater etur
p ius
Ñ ģ
om us
Ġim a
Ġpot us
Ġdoc tus
Ġadj ac
Ġcas um
Ġconi ung
Ġcon gress
Ġes a
Ġsustin et
Ġabst ra
Ġdionys ius
uid a
Ġtribul atio
Ġp ir
Ġex ting
Ġres crip
Ġexp ell
Ġfall acia
ing ere
Ġpag ina
os ius
ra uerunt
Ġins ani
issim orum
Ġadj ung
Ġredi ens
Ġprop itio
Ġcomm isit
Ġatt ulit
Ġmedic i
Ġqu int
Ġnon a
Ġdi amet
Ġspiritu alia
Ġtribul ationibus
ĠÏĦÎ¿ÏħÏĦ Î¿
. :
Ġmiss ae
elli go
Ġpossess ione
Ġelem entis
Ġperfid iae
Ġsim ilibus
Ġinc o
Ġgra uia
Ġmod os
Ġclar us
Ġexhib uit
Ġreliqu os
Ġuestig iis
Ġtang ere
Ġc acum
Ġt ell
Ġne ap
Ġcap ell
Ġquem libet
Ġpraedic antur
Ġciuit atum
per i
Ġsub uers
Ġindi uis
posi tione
Ġdeb ell
Ġpon at
Ġpet unt
Ġpertin eat
Ġdiuis it
Ġuiol entia
Ġd abat
Ġf uimus
Ġde ced
Ġgen itum
ĠÏĦ Î¹Î½
Ġcongreg atio
Ġdulced ine
Ġphr yg
Ġt yri
Ġad itum
Ġdeb it
Ġcred iderit
Ġgnae us
Ġpon untur
Ġuiri um
Ġplurim orum
Ġobsid ione
Ġcorrob or
f re
Ġuer sa
Ġexs ol
Ġamb ula
Ġdep reh
Ġsalom onem
Ġag am
Ġhos tias
Ġcup iunt
Ġsubj ug
Ġcet eros
Ġrog auit
Ġfem inarum
Ġinnoc entem
Ġsociet as
Ġn ort
Ġst ellas
Ġconc us
Ġconc in
Ġapol lo
ab ae
Ġquod cunque
Ġdecre uimus
Ġsollic itudo
Ġdiscrim ine
b urg
e que
Ġsol itudinem
Ġpraes titit
Ġrec enti
Ġist uc
Ġobs tin
Ġmir or
Ġsubi re
Ġdispens atione
Ġfacult ates
Ġlatit udinem
Ġlacrym arum
qu as
Ġneg ationem
Ġsch olas
Ġc ere
Ġr im
Ġfac ilis
Ġpar tum
Ġcomm ittere
Ġmin uere
Ġnou as
Ġcelebr atur
Ġgenti l
Ġgregor io
Ġfratern itati
Ġsubdi tis
Î½ Î±
ĠÎµ Î¼
Ġn atione
ri or
Ġpro ueni
Ġis id
mo x
Ġdiffer unt
Ġequ orum
Ġactu um
Ġmeridi e
Ġmeridi em
Î± Ïħ
Ġgr ess
Ġno tis
Ġnun tius
Ġinstit utis
Ġadd itur
Ġcirc uli
Ġsimplic em
Ġargum entis
Ġuocab ula
Ġprouer bi
Ġu eg
Ġcon antur
ac tae
Ġinc idit
Ġpecc auerit
Ġsign orum
Ġuideb imus
Ġlibid inem
Ġac ciperet
Ġcred ant
Ġconst antiam
Ġtri ang
Ġabbati a
Ġmanifest at
Ġmere atur
Ġegress i
Ġf lect
Ġse orsum
Ġsub inde
Ġdoc ens
Ġual lis
Ġdamn o
Ġhaeretic us
Ġoppos ita
c ulum
omn ibus
Ġsus pir
Ġsatisfac tionem
Ġl or
Ġiudae ae
Ġmulti plex
Ġinnoc entii
Ġc ister
Ġob sequi
int ellig
Ġsaec ularium
Ġuuln eribus
Ġfortun am
Ġub era
Ġpermans it
Ġch or
Ġfor tem
int erea
Ġaduers o
Ġposter is
Ġdiscep t
Ġd entibus
Ġill us
Ġcons s
Ġne po
Ġar tium
Ġtrans migr
Ġpor tio
Ġiur auit
Ġnun tios
Ġpros pic
Ġdescrib it
Ġper enn
Ġcons ubstanti
Ġrep le
Ġordin ata
Ġclar itatem
Ġsimplic itate
Ġexig ere
Ġhebrae orum
Ġangus tias
Ġtempest as
Ġdisced ere
Ġcontin entiae
Ġdol oribus
Ġdep lor
Ġcler ic
Ġemend are
Ġcent rum
Ġpernici em
Ġinfideli bus
x iu
es in
Ġdi ur
Ġhab ui
Ġter go
Ġcomm ix
Ġcae d
Ġfem inis
Ġsubjec tum
Ġpercus sus
Ġsupr ascrip
Ġa enig
at arum
ic io
Ġlib y
Ġuet eribus
Ġinte ger
Ġaus ter
Ġserp entes
Ġcl eri
Ġarm orum
Ġtribul ationis
Ġrecord ationis
Ġsinc er
Ġpulchr itudinem
Ġch an
Ġmon umentum
Ġmat hem
Ġcoll es
Ġext endit
Ġpend et
fam ilias
Ġd ans
Ġac adem
Ġtra iec
Ġinfer t
Ġinfid eles
Ġspoli a
Ġobsc ura
Ġn atos
ta ui
Ġer ump
Ġnos tis
Ġlaud atur
Ġmedi ocr
Ġquantit as
im m
Ġimper atores
Ġinueni ant
oth e
Ġlemo uic
qu ant
Ġu enter
Ġmon itis
Ġag greg
Ġdilec tum
ÎµÎ¹ Î±
Ġconuers atio
Ġdux erit
Ġuocab ulis
Ġglori ari
Ġlongit udine
Ġcherub im
Ġl itt
Ġre petit
Ġuid isti
Ġdum modo
Ġdiuers i
Ġgem itu
Ġperuers a
Ġhyp ocr
Ġar uer
Ġliber ari
Ġdiss enti
Ġaltitud ine
Ġtumul tus
Ġincrem entum
Ġpec us
Ġdec ant
Ġcuius quam
Ġcompos uit
Ġdiff us
Ġinuid iae
Ġasper a
Ġseptu ag
enti e
Ġgr andis
Ġred de
Ġpraedic ant
Ġprot est
Ġproposi tione
Ġtranst ulerunt
Ġcit ra
er ati
eb untur
Ġte tig
Ġuestr arum
Ġcal or
fac ta
Ġquat er
Ġsur git
Ġdiuid it
Ġster n
Ġio ue
Ġnecess ariis
Ġfam ae
Ġposter ius
Ġduplic iter
itat o
Ġuid erint
Ġar nul
Ġdes unt
Ġir rog
Ġgener ationes
Ġostend e
ister et
Ġint elligo
Ġimp ort
Ġins igni
itud ini
Ġost endi
Ġiur amentum
Ġnumer orum
Ġquantit ate
uer as
Ġcred eret
Ġsex c
Ġmyster ii
Ġpud ore
Ġorn atum
Ġnorm am
Ġ ÏĪ
Ġu ates
in ius
Ġpra uis
Ġfaci emus
Ġmin oribus
Ġcircum c
Ġlae d
ber tum
Ġcler icum
Ġexis tit
c ul
ter etur
Ġuer tit
Î¹ Î¿Î½
Ġmis eris
Ġexs ilio
Ġinterrog atus
Ġsomn um
Ġsuscipi at
Ġthom as
ot ae
Ġdes erit
Ġmis era
Ġserui unt
Ġcommod a
Ġsym machus
Ġa erem
ic es
Ġdic ent
Ġcomp ati
Ġem an
Ġau en
Ġger ere
Ġpoen arum
ac c
Ġui ua
Ġui uet
Ġgen itor
Ġdoc toribus
Ġcontin ere
Ġnego tii
Ġglorios us
Ġbenign itate
Ġradic em
Ġterrib ilis
Ġs ess
Ġali c
Ġcaus sa
Ġuide amur
Ġlec t
Ġhumil em
de at
Ġcol orem
Ġsapi entibus
Ġconueni enter
Ġge omet
d enique
Ġproc lam
Ġdiuers um
Ġimpr ess
Ġplag am
a uerant
Ġtam etsi
Ġcur rus
Ġul tionem
Ġle one
Ġlati nis
Ġstr uc
Ġredemp tionis
Ġa estus
ill ud
Ġordin auit
Ġpraedestin auit
Ġcu ilibet
Ġhip pon
Ġper str
Ġeccles ie
Ġuol uisti
Ġag mina
Ġaudi erit
Ġnol le
Ġz en
Ġiub emus
Ġmonst ra
ti r
ÏĥÏĦ Î¿Î»
ebi tis
Ġsec ret
Ġlec tionis
Ġcad ere
Ġuine is
Ġfratern itas
Ġeccl e
Ġag atur
Ġorn atus
Ġaed es
i ant
Ġsed ulo
Ġfr ustr
Ġimm orta
Ġga uis
Ġopp ida
Ġfelic itatem
Ġmaledic tus
Ġexcel sa
Ġin sequ
Ġper git
Ġnec em
Ġins tinc
Ġuoc abatur
Ġpor tis
Ġfirm itatem
Ġpraef igur
Ġinnoc entes
Ġhonorific e
Ġa ura
Ġdi pl
Ġpar tur
Ġsc orp
Ġpre ter
Ġinfirm os
Ġtrad iderunt
Ġconuer tere
Ġpeti tionem
crib itur
Ġare a
Ġdign am
Ġsacerdo ti
Ġdisciplin is
i tia
x uii
Ġs ard
Ġag ite
Ġz iz
Ġdubit atione
Ġfraud ul
Ġsubl ato
Ġmelchised ech
Ġcon atur
Ġer emo
Ġhab entibus
Ġimper atorum
Ġdon at
Ġtim uit
Ġcad unt
Ġprol ata
Ġplag is
Ġquaerit e
Ġmom ento
el mus
Ġal ue
Ġhaere des
ĠÎ´ ÏħÎ½
Ġconstitu tione
qu ar
Ġper mix
Ġr itus
Ġexs titerit
Ġdem er
Ġumb ram
Ġcontradic tione
Ġpisci um
Ġuen eno
Ġcongreg ationis
Ġster ilis
ol er
Ġdisc ordia
Ġarb orum
Ġagn um
Ġdiffer entias
Ġqual itates
Ġnequi tia
Ġeur op
i psa
er tum
Ġc cc
Ġual uit
Ġth eb
Ġem und
Ġtest em
Ġpraeter ito
Ġmag i
Ġconced ere
Ġdur um
Ġexist ens
Ġantis ti
in ensi
Ġre or
Ġprofec ti
num quam
Ġcant u
Ġne quit
Ġost ensum
ĠÎ± Î´
Ġaper to
Ġalb a
Ġpropon it
Ġcastit atem
t on
Ġluc r
Ġio ui
hom ilia
Ġad mis
Ġsub trac
Ġag mine
Ġindi ffer
Ġfund um
Ġsepar ari
Ġbeatit udine
e odem
tor ium
Ġcompar ationem
Ġfornic ationis
u titur
Ġcol oris
Ġten ui
Ġdep ort
Ġmori untur
Ġhierony mi
Ġf uisti
Ġno uerunt
Ġperturb are
Ġf ast
Ġag ente
Ġfelic itate
Ġproced at
Ġcompl ur
Ġuigili is
e tibus
Ġqua est
ad a
Ġpri ora
Ġcapit oli
Ġsord ibus
Ġd as
Ġh em
Ġex sequi
Ġstud iorum
Ġpraecep ti
Ġfat etur
Ġpar ata
Ġrep lic
ĠÎ· Î½
Ġue h
Ġdeuo tionem
domin o
s os
Ġsi gni
Ġuer titur
ce at
Ġadh ort
el o
Ġtur ris
Ġsalu are
Ġnesci at
Ġdelic to
ĠÎ±ÏħÏĦ Î¿Î½
Ġueli mus
Ġfoli a
Ġsollici ti
t re
ce de
Ġcup imus
Ġf oc
Ġf uc
Ġsump ta
Ġex anim
Ġperfec tione
Ġobedi ens
posi tionem
Ġced ere
Ġnicola i
or mi
Ġpar at
Ġarc em
Ġlec tionem
Ġmanifes tius
Ġperf idia
Ġuolupt ates
Ġdidic imus
ublic a
Ġassyri orum
Ġm isi
Ġling uarum
Ġdist antia
Ġclaus a
Ġtradi tionem
Ġthron um
Ġpr z
Ġfr u
Ġpec ora
Ġno uitate
Ġprim os
Ġamp lect
Ġsubiec ti
Ġliquid o
d ominus
Ġe ua
Ġsignific ari
Ġuna quaeque
Ġlic uit
Ġcess at
Ġmetaph ys
x uiii
Ġf en
Ġas ia
Ġred dita
Ġcarn alium
Ġini tia
Ġlac um
Ġquaes tionis
Ġfraud em
Ġline am
Ġphili ppi
ar tic
Ġprae erat
Ġuide or
Ġquant am
Ġatt entius
Ġnot us
Ġfem inas
Ġuestim entis
Ġepi Å¿cop
Ġlib ello
Ġseru etur
Ġle uiter
Ġidone us
Ġtyp um
er ici
it que
Ġsp iri
Ġar cum
Ġreg ali
Ġdeb erent
Ġusque quo
Ġpraecep torum
Ġmens ae
Ġserui entes
Ġdesider ii
aut em
Ġconui uio
Ġfran ci
Ġn atu
Ġcon cedit
Ġad itus
Ġco in
Ġpop osc
Ġgra uitate
Ġcec in
Ġuent rem
Ġlar git
Ġadimpl ere
Ġtu e
Ġur bium
Ġueni ente
Ġatt ent
Ġsin it
Ġcognos ce
id imus
tic em
Ġnihil que
Ġoper antur
Ġmit tam
Ġserp entis
Ġperpetr ata
en g
Ġqui r
al us
Ġo g
Ġlin te
Ġuiuific at
Ġbul la
Ġse ueri
Ġmor am
Ġmar tis
Ġuiu ant
Ġexper tus
Ġstudios e
Ġcom itibus
Ã¾ s
Ġnesc is
Ġor ate
ĠÎµ Ïĩ
Ġtim entes
Ġmir abile
pet rus
Ġinfirm um
Ġod ore
Ġsper o
Ġgraec um
Ġperueni at
Ġuulg i
i ac
Ġt a
Ġper jur
Ġen ar
Ġinter emp
Î¹ Î»
Ġag gra
Ġsens uum
Ġcont entio
Ġuener atione
Ġeffec ti
in gitur
Ġre atum
Ġcunc t
Ġpraesum ps
Ġcircumcis ione
Ġcolum na
Ġpraesci entia
tu limus
Ġconf ring
Ġmin ora
Ġexemp li
Ġbre ue
Ġimpl etur
Ġdiacon o
Ġierosol ym
Ġin ordin
Ġsuper uac
Ġiudic et
Ġexc r
Ġfl ere
Ġconueni ens
Ġcreatur is
Ġe dita
ur o
Ġex it
ph us
Ġconu entum
Ġmedi etatem
Ġsalut ari
Ġtac ere
Ġcern itur
Ġoccurr ere
Ġf ef
Ġuers ibus
Ġobseru atione
Ġom itt
geni ti
a ff
Ġe la
Ġu arii
Ġg es
Ġcontemp tum
Ġpugn ae
Ġexistim o
Ġmar t
Ġspiritu um
Ġuiu ente
Ġcanon icus
Ġstatu entes
Ġtribul ationes
Ġster c
Ġre os
op on
ap p
eg or
ex s
Ġaeg re
Ġxx ix
Ġsab a
Ġminister ii
Ġiuli anus
Ġaliquant o
Ġh am
ar emur
pe dit
Ġcatholic os
Ġnesci tis
Ġacced at
Ġperuen erunt
Ġinsign e
f al
Ġe ust
al dum
end arum
Ġsol l
Ġliber are
Ġmaxim is
Ġlac us
Ġrede at
Ġbes tia
ĉ ĉ
ur ae
Ġpar em
ell os
Ġcre atori
Ġcol ere
Ġnomin at
Ġuirg am
Ġuet era
Ġcircum de
Ġcorrup tionem
Ġbeatis simus
is a
ur sum
ĠÎ ¶
Ġsuper at
Ġsua uis
Ġexs poli
Ġaetern itatis
Ġconsul ere
Ġsper at
Ġconsequ itur
Ġdelect atione
Ġgenti lis
Ġmass a
Ġproi ici
Ġlabor at
Ġseptim us
Ġangus tiis
Ġalt aria
Ġsuble u
Ġper quir
Ġchristi anam
Ġconuers io
Ġsic ilia
Ġni gr
Ġrec ti
Ġdoc ti
Ġnatur is
Ġluc ra
Ġind ec
Ġposse d
Ġuener ant
Ġcanon icam
Ġmanduc at
Ġciu ilis
Ġprophe tiam
Ġpraecl ara
u endam
Ġn ationibus
Ġui ueret
Ġind uci
Ġnou issime
Ġthess alon
Ġab d
Ġmun ific
Ġuis ionis
ĠÎ± Î¼
Ġpor tionem
Ġcam pos
Ġillic ita
Ġarchidiacon us
c ula
g lor
it tis
Ġar at
Î· ÏģÎ¹
Ġput auit
Ġtrac tare
Ġclem entiae
Ġphara onis
Ġirac undiam
Ġs anum
Ġa ui
Ġcred erent
Ġatt on
Ġoccid entem
Ġinterrog auit
Ġcern ere
Ġsubjac eat
Ġciuit ati
Ġrap it
Ġadmon itio
su bi
Ġinferi oribus
Ġdespon s
Ġseru auit
Ġproc eres
Ġmir aculorum
Ġabl ata
Ġresponde at
m em
Ġre trah
Ġch ir
Ġmor is
Ġimp ie
Ġf aut
Ġfur tum
Ġturb as
Ġdelect atio
Ġmeli ores
Ġfrig us
Ġu endi
Ġf et
Ġsi r
Ġquam que
Ġual eamus
Ġseru atur
Ġdol us
ill atim
Ġmol end
Ġorth ograph
Ġliqu et
Ġtun ica
z z
el us
ra p
ÏĦ Î¿ÏĤ
ios e
Ġdesc rips
Ġostend imus
Ġmedic inam
Ġincor por
Ġc ella
op hil
Ġac um
Ġpot uerint
Ġag is
Ġuic ibus
Ġinstit utione
arg umentum
Ġexhib et
Ġtris titiam
Ġneglig entia
Ġafric ae
Ġconsc ius
n eg
r h
Ġuen imus
Ġprim as
Ġaud itor
pic e
Ġaccid entia
Ġexpon ere
Î·Î½ Î±Î¹
Ġhisp aniae
occ up
. âĢĶ
ac oni
Ġr ach
Ġch ana
Ġch orus
Ġpar tu
Ġint oler
Ġmiss as
prim um
Î»Î· Î¸
Ġsubl ata
Ġin ha
Ġr ar
Ġqua eri
Ġintellig e
Ġintellig enda
Ġtrans iit
Ġpre cep
Ġclar itas
Ġher ba
Ġdelect at
Ġcanti corum
Ġcircumcis io
m ati
Ġqu antis
Ġmur o
Ġnud a
Ġsat anas
Ġremiss io
Ġcoti die
Ġtim ent
Ġecclesias tici
Ġconi ec
Ġpur o
Ġutil iter
Ġantiqu orum
Ġincred ul
c et
Ġc era
ess ent
Ġsc rup
Ġprob ari
Ġinfirm is
Ġgem in
Ġfon tibus
Ġconced itur
Ġtene ant
Ġpercipi ant
Ġcompreh endere
en arum
an ius
Ġres er
Ġperfec tae
Ġel uc
Ġdispos uit
n isi
x isse
Ġu anum
Ġm d
eb ius
Î· Îº
ann um
Ġcupid itatem
y ma
ar er
Ġui uam
Ġxxx i
ĠÎµÎº ÎµÎ¹Î½
Î¼Î±ÏĦ Î¿ÏĤ
i an
n at
end orum
Ġag gredi
Ġpraeb et
Ġhosp es
Ġobst up
Ġlatron es
Ġan a
Ġpecc atorem
Ġfaci ebant
ann a
ĠÏĢ Î¿Î¹
Ġgem mis
prop ter
Ġung u
Ġmom enti
Ġmess is
Ġenum er
Ġpet ens
Ġass ensu
Ġaper tissime
Ġnol umus
Ġquaer entes
Ġconcess ione
Ġb ai
Ġco ac
Ġco egit
Ġiur are
uni uers
Ġspirit ales
Ġierem iam
Ġa bus
Ġpos uisti
Ġcre bris
Ġimp ell
Ġinc a
Ġtempor ali
Ġabbati am
qu are
ill us
Ġcognosc ant
Ġminim is
Ġreprob i
Ġrelin quit
Ġre tract
Ġuni geniti
Ġpul uis
Ġaff lu
Ġcustodi unt
Ġextrem is
Ġretin et
Ġincipi unt
Ġgeh ennae
f id
x c
Ġi umenta
Ġman ent
ux i
Ġsequ ere
Ġmuli eri
Ġquaes tionibus
Ġed om
Ġproced itur
Ġde gen
Ġliber atus
Ġaduers arios
Ġlati num
pat er
Ġbaptist ae
Ġeug en
Ġl og
Ġar ua
Ġqua li
Ġei ici
Ġuic ti
Ġdisc essit
Ġdiuers arum
Ġuac are
Ġioseph us
Ġinstrum entum
Ġexst at
uli us
Ġcomp ens
Ġdilig ens
Ġopt amus
Ġquam plur
Ġor emus
Ġnou issimis
Ġexposi tione
Ġc xx
ab el
ens ione
Ġam ica
Ġimp letum
Ġtim eo
Ġinuen io
Ġdeu ote
Ġcontrouers ia
erit atis
Ġfaci tis
Ġla ici
Ġclam auit
ÏĥÎ¹ ÏĤ
Ġperse qui
Ġhab ito
ist arum
Ġpraecip ua
Ġobl ationem
Ġeloqu entiae
Ġabscon di
Ġfoed ere
inter rog
Ġphilipp o
Ġcatech um
Ġt ob
Ġsed entem
Ġqua erebat
Ġmin as
Ġconj ec
Ġd amus
Ġl u
Ġag ebat
Ġsenti o
nul la
Ġcalig ine
Ġhum eris
Ġexc aec
Ġini ti
Ġirr itum
Ġmultiplic iter
Ġconfit entur
Ġproposi tionibus
Ġincrem enta
Ġt og
Ġpot uimus
Ġmod ul
Ġintegr am
Ġcircumcis ionem
s ti
en arr
Ġh o
di ffer
Ġreg ere
Ġflamm as
Ġulc isc
Â °
Ġor auit
Ġas p
Ġmon umenta
Ġph al
Ġnull as
Ġgaud ens
Ġconi ur
Ġimpiet ate
Ġhen ricus
Ġre atus
Ġam al
Ġprob atio
Ġcontend unt
Ġadjun xit
Ġsy rac
Ġdam as
Ġconfirm are
Ġinterpret es
Ġsacrific iis
Ġpromiss ionem
Ġob ui
ph o
Ġcommun ionis
Ġconstit uere
Ġsil uae
Ġeg erunt
Ġinnoc entiae
Ġoptim us
Ġrecep ta
Ġimpiet as
Ġtul lius
Ġab lu
Ġexc ogit
Ġconsul em
Ġaus i
Ġfau cibus
Ġpraepar auit
Ġsubstanti as
Ġlongit udinem
Ġdifficult ate
Ġguid o
Ġpag anorum
Ġascend ens
Ġcoenob ii
Ġadip isc
Ġspiri tibus
tor qu
ulis per
Ġnatur ale
Ġcaeter as
Ġfamili am
Ġfrig ore
Ġconqu er
Ġiniquit atibus
Ġd ap
Ġn eru
Ġes ca
Ġqua eritis
Ġres istit
ed es
Ġsus pi
Ġtra ditum
Ġcam pi
Ġcod ex
Ġrecipi unt
Ġabscon dita
Ġmichae lis
ol et
Ġint ueri
Ġcred as
Ġded imus
Ġaux ilia
Ġaedific are
Ġcollig ere
Ġpu ellam
Ġconfus ionem
Ġsyllogis mus
Ġec des
Ġpecc andi
Ġae uo
Ġdiuers orum
Ġrefer unt
Ġhistor ica
Ġpostr em
Ġques n
Ġe Å¿t
Ġi uncta
Ġpr atis
Ġam atores
Ġsc ulp
Ġimp une
Ġsal e
Ġrep udi
Ġcontin eri
Ġcern imus
Ġ ÏĥÏĦ
Ġm itter
Ġan teri
Ġprob atum
Ġarb oribus
Ġstul titiam
Ġd atae
Ġm as
Ġdiuers os
Ġz ur
prae d
Ġantiqu itus
Ġseni oribus
Ġfoli is
Ġdomin icis
Ġd aretur
Ġet ern
lic es
Ġfac turum
itas se
Ġaeg ro
Ġsor oris
Ġsubjec tis
Ġpraesump tione
Ġe gisse
Ġsens iti
Ġdeclar atur
Ġconstantinop oli
Ġcredi tis
Ġscip io
c ius
f a
ti li
Ġpraedic tae
Ġmir aculo
Ġperic uli
Ġlign is
Ġseptim um
Ġradic es
Ġsubjun xit
ir em
Ġuen issent
con c
ebr as
Ġirr id
Ġacced ens
Ġexcell entiam
Ġl eni
Ġinter ueni
Ġerud itus
Ġinferi ora
g enit
Ġde ci
Ġdomin os
Ġpat e
Ġreg alis
Ġleg atione
Ïī Ïģ
nec ess
Ġalexand ro
Ġsolemn iter
Ġancill ae
Ġsec ura
Ġser ies
Ġinc ensum
Ġaetern itate
Ġinteri orem
as per
Ġpraepos ito
Ġimpon ere
p ub
ut orum
cl xx
Îµ Î¼
uid e
Ġha esit
Ġsomn ium
Ġinfidel itatis
Ġh al
Ġsanc tissimo
Ġas simil
Ġins pici
Ġfaci endi
Ġtra xit
Ġrog atus
Ġconcep it
Ġcontenti one
Ġsol ita
Ġsem inis
Ġx m
Ġdeclin are
c at
od ed
Ġep it
Ïĥ ÎµÎ²
Ġuic iss
Ġten entur
ma xim
Ġuis o
Ġprud entes
edit ores
Ġalic ubi
Ġf umus
Ġini que
Ġdep op
Ġproposi tionem
Ġceler itate
Ġcael estis
cl a
Ġpec ud
Ġsac er
Ġintellig ant
Ġdilig enti
Ġmil item
d udum
u amus
id isset
Ġper cip
Ġco li
Ġmar itus
ider ent
Ġlong am
Ġux oribus
Ġsuscep tus
Ġsuscep imus
Ġdub itat
Ġstatim que
Ġtec tum
Ġam ant
Ġca ute
Ġnou issimo
Ġclaud ius
luc ius
Ġcalumn iam
Ġastu tia
Ġprae t
Ġimp endere
Ġag ath
Ġcol oni
Ġpa ulisper
Ġir rep
Ġsoc iorum
Ġultim us
Ġrelinqu itur
Ġpulchr itudo
Ġinterual lo
Ġsubtil iter
Ġde prom
Ġpar t
Ġclaus tra
Ġregim ine
= =
Ġin ane
Ġcomm e
Ġeu ag
Ġaequ itate
Ġf era
Ġsp inas
Ġins urg
Ġag ant
Ġdoc toris
Ġpauper is
Ġdex tram
Ġren asc
Ġsuscip imus
Ġmarm ore
- .
Ġinc it
Ġdoctr inis
Ġfrequ ens
Ġhomic idium
Ġpar it
Ġop itul
Ġuid erent
Ġuen ena
ord ecim
th a
Ġperi erunt
Ġconfid imus
Ġcorrip i
Ġfr umentum
erat o
Ġplac ent
Ġpal li
Ġfamili aris
Ġperdi tionem
pex erit
h al
Ġali enam
Ġpro ter
Î¿ Îº
Ġcur ric
Ġpor tus
ĠÏħÏĢ ÎµÏģ
i unc
ios us
Ġprom ittitur
Ġtempor alium
Ġimpl eri
Ġgalli arum
Ġse gn
Ġap tum
Ġfor tius
Ġmod eram
Ġconsenti re
Ġuolum ina
Ġconsc end
Ġantichris ti
artic ulus
Ġh ero
Ġen n
Î¿ ÏĨ
Ġmut atur
Ġrespond etur
Ġoccul tis
Ġsteph ano
Ġfacult ate
Ġcompreh endit
Ġuec tig
Ġs ina
Ġn ato
am ma
Ġual l
Ġsequ entia
Ġpati mur
Ġprof unda
Ġappell ationis
Ġbell orum
Ġaccid ere
Ġreligios i
Ġpraepos iti
Ġc ato
Ġprae co
Ġuel um
Ġspon so
Ġsubiec ta
Ġsar ac
Ġgen erum
Ġaud et
Ġexc itat
Ġcommun es
Ġling uas
Ġmac ul
Ġoffer ri
Ġele ph
Ġcapti uos
Ġcathed ram
Ġb ri
Ġae uum
Ġmand at
Ġanti quo
Ġuera x
Ġrequi escit
Ġpraest ante
Ġconcupisc it
Ġfratern itatis
sae pe
quaes tio
in ium
Ġaduers arii
Ġconstit uto
Ġmili bus
Ġglorios um
Ġquer ela
Ġindiuid ua
Ġd abis
Ġr isi
Ġpot e
Ġfor tior
Ġiudic auit
Ġmir ari
Ġpriu ata
Ġarbitr antur
Ġtes tium
Ġpollic etur
Ġlongit udo
Ġeth n
Ġde uen
Ġcom petit
Ġtam que
Ġiudic abit
Ġnatur arum
Ġnun tium
Ġed uxit
Ġtard ius
Ġabj ici
Ġexprob r
el ech
Ġiudae am
Ġtriumph um
Ġprofici at
Ġnig rum
Ġre ui
Ġsum itur
Ġnomin atim
Ġnecess ariam
Ġeloqu entia
Ġsempiter nam
Ġui enn
Ġues tit
Ġpraedic tam
Ġual ens
Ġacc el
Ġdef uit
Ġpraeter itis
Ġpol y
Ġsubjec ti
Ġclem entis
Ġreligios is
Ġpompe ius
Ġinfideli um
Ġquod si
Ġag enda
Ġput atur
Ġcelebr ari
Ġprofer t
Ġexi tium
Ġpsalm os
Ġhaeredit atis
Ġuid erat
Ġpul l
Ġuerec undia
Ġcons titerit
Ġcre uit
Ġstud eat
Ġcapit ulis
Ġdaem on
Ġbaptist a
Ġal is
Ġinf antia
Ġadd uxit
Ġpud oris
Ġreman et
Ġfrum enti
Ġin cip
Ġpro ueh
Ġcar olum
uin a
Ġcogn itum
Ġpraest ol
Ġcorrup tione
Ġconjug ium
i tionis
Ġc ari
Ġg eli
tem ur
Ġintellig entes
Ġcul tores
Ġdog ma
Ġiord anis
Ġdomin orum
Ġsanc tas
Ġpecc aui
Ġconstit ui
Ġostend am
Ġadi utor
Ġalterut rum
Ġdioc leti
is ta
ap ti
Ġor ationi
Ġdix erint
Ġilla es
Ġsapi entis
Ġarb oris
Ġappar eret
Ġoffer tur
Ġminister ia
Ġsomn ia
Ġdefec it
Ġrefug ium
ol li
Ġg ene
Ġcol lum
Ġcol laud
Ġsing ulae
Ġarbitr atus
Ġpriuileg ii
Ġsuscipi unt
Ġcorpor alibus
Ġludouic o
Ġad ditum
Ġhab eam
Ġpl ani
Ġpo etae
Ġimper auit
Ġcontin ens
Ġaccep isti
Ġcup idit
Ġol ymp
Ġpugn are
Ġimple atur
Ġcastit ate
Ġconsang uine
Ġcap iunt
Ġcl erum
ist ens
Î· Î³
Ġconc rem
Ġunum quodque
Ġfuer o
Ġdilig at
Ġanti ph
Ġspirit alibus
Ġmili tia
Ġpraedecess orum
Ġretr orsum
Ġt op
Ġus quam
Ġimper ia
Ġput atis
ane is
ĠÎ¿ Î¹Îº
Îµ ÏĢ
Ġins on
Ġcred endo
Ġcarn ibus
Ġprof uit
Ġuin dem
Ġspon t
Ġmur is
Ġard ens
Ġgladi i
Ġadhib ere
Ġsurg ere
Ġpropor tion
Ġabs ens
Ġfer as
Ġtrib uere
Ġinterpret atio
Ġreced ere
inn oc
Ġfasti di
Ġeueni re
Ġp am
Ġde uit
Ġterr enae
Ġmili tiam
Ġhil ar
Ġsingular em
Ġn ymph
Ġob umbr
Ġcur iam
Ġpon atur
Ġlaud abilis
Ġperpet uis
Ġeg erit
Ġpari etes
Ġbenign us
Ġsubli mis
Ġde a
Ġcl arum
Ġplac uerit
Ġpraeter itum
Ġmari ti
Ġconseru are
el ae
Ġali menta
Ġpl eno
Ġeu entus
Ġdilig amus
Ġxxx ii
Ġlibid ine
Ġe untes
Ġr uit
Ġb ra
ator ium
Ġini quis
Ġau unc
Ġrelig ioni
Ġsam arit
Ġdeter ius
Ġappare bit
Ġsuppl ant
cl xxx
Îµ Î¸
inc tus
Ġfug iti
Ã¾ an
Ġtent atione
Ġconsider emus
Ġsubdit os
Ġt ulerunt
Ġloc utionis
Ġsignific auit
Ġpal ma
Ġflor ibus
Ġsepul turam
Ġtransc end
Ġtram ite
p it
Ġde que
Ġut que
Ġcons ign
Ġdeser uit
ti ll
Ġsem et
Ġcommend auit
Ġpraec ell
Ġconfit ebor
Ġexin ani
od or
Ġdomin ae
Ġop or
Ġor ph
Ġal ph
Ġinf us
Ġimm unda
Ġsap it
Ġkal endis
Ġcirc ulum
Ġtempor alem
Ġfals am
Ġoppos itum
Ġdeli qu
Ġmigra uit
Ñ Ģ
Ġad e
Ġid um
Ġdon atus
Ġrap tus
prae f
Ġincarn ationem
Ġsump tus
Ġad erat
ac ter
Ġdilig entiam
Ġtestimon ii
Ġdeuo ta
Ġconseru entur
Ġgrau em
t oll
Ġex itu
Ġpraes ti
Ġdef endit
Ġass ec
Ġuener anda
Ġinterpret atione
Ġuac ua
Ġglorios i
Ġpom p
Ġphara o
Ġsyrac us
Ġf im
Ġal as
Ġinter itu
Ġgr atissim
Ġprim ordi
Ġag men
si ue
Ġsae ua
Ġscrips isse
Ġsar rac
Ġincend ium
Ġabs orb
Ġhon este
Ġprem it
Ġmarc ellin
Ġprincipi is
Ġeccl ef
z i
ÏĦ ÏīÎ½
Ġas pectus
Ġcur at
Ġth is
Ġth ur
Ġstud uit
Ġdub ia
Ġinuit at
Ġsubjun gitur
Ġh eres
Ġap oll
Ġgr ass
Ġscrip tores
Ġlab e
Ġnou os
Ġpriu atus
Ġbar n
Ġdesign antur
dic itur
Ġaliqu atenus
Ġfutur os
Ġpraesci uit
Ġcru ore
Ġzach arias
Ġinno x
Ġres pexit
pe di
Ġul lis
Ġuti lia
Ġcan ibus
Ġfem ine
Ġredemp torem
Ġcollig it
Ġantiqu us
Ġuehem entius
ï¬ ģ
Ġpl um
Ġag untur
Ġrep ud
Ġle ua
Ġmut ari
Ġpropos iti
Ġdel ph
Ġantiqu um
Ġexcel sum
Ġp lin
Ġquo quam
ata que
Ġues tib
Ġus i
Ġmun im
Ġem enda
Ġsuccess orum
Ġram is
Ġspern it
Ġtunic am
se x
Ġcomp ass
Ġten emus
Ġmiser atione
Ġproced ens
Ġexist at
Ġot t
Ġchan anae
on ei
Ġin que
Ġhab eatis
Ġpra uitate
ue ti
Ġuers atur
Ġinterpret ati
Ġoccid erunt
Ġscel eribus
Ġdiscre tio
Ġpil atus
Ġpsalm orum
p al
Ġf esta
Ġper acta
Ġan th
Ġco ena
ios um
Ġaedific ationem
Ġoccid ente
Ġaccip ite
Ġpris tinum
Ġperfic itur
eda em
f c
ic al
Ġposs emus
pos itum
Ġcet er
Ġfacult atibus
Ġsubstanti is
Ġueris im
e ug
Ġf atis
to que
Ġsus pec
Ġpon unt
Ġpontific ibus
Ġturb is
Ġconfus io
Ġprofit etur
Ġpr x
ri git
Ġar tifex
Ġser ie
Ġpur um
Ġagnosc it
Ġinferi ores
Ġsenectut e
s id
ul em
Ġuid ebant
Ġdec oll
ma gn
Ġuniuers as
Ġserp entem
Ġuine ae
Ġeuac u
Ġdiri git
l xx
in cipit
ic ulis
Ġdi rim
Ġob oedi
Ġpuer orum
Ġdisp licet
Ġel abor
Ġobseru antia
Ġplag as
Ġic tus
Ġdulced inem
mag ister
ol em
ud ic
Ġg ad
Ġdiscip ulum
Ġdim itti
Ġscrib is
Ġindign ationem
Ġadmir atione
Ġius tam
Ġconc it
Ġsoli dum
Ġmenti ri
Ġocta ui
Ġpraeiudic ium
Ġser m
Ġduc unt
Ġloqu eris
Ġmut auit
Ġtent ationibus
Ġcapti uitatis
Ġrel atio
Ġsuff oc
Ġparticip atione
Ġdefec tus
f it
Ġsp um
Ġuit alis
Ġilli nc
pos si
Ġcontin ua
Ġmiss o
ire tur
Ġgubern atione
Ġbesti as
Ġrepromiss ionis
Ġa esti
Ġde uast
Ġep ul
Ġturb am
Ġpraed ia
Ġsomn is
ubi um
or io
Ġper ibit
and orum
Ġuir id
Ġstul tum
Ġsacr arum
Ġreliqui is
Ġpartic ularis
Ġai ebat
Ġcastr orum
Ġh un
et atis
Î¹ ÏĤ
Ġpraedic auit
Ġconuers ione
Ġexam en
Ġconcep tum
Ġgoth orum
Ġer up
Ġdeb eas
Ġuic ini
Ġfl etu
Ġnob ilium
Ġlegis l
Ġgladi is
Ġedi tion
Ġchana an
h ar
Ġl ot
Ġarg uitur
Ġcircum cid
Ġuictor es
post quam
Ġposteri or
Ġdelici as
Ġaliquant ulum
Ġu atic
Ġch am
ex c
Ġind isc
Ġfigur is
Ġpud et
Ġumb ras
Ġcupid itatis
Ġsuppon it
Ġca uere
Ġmor eretur
Ġinf tr
Ġtur on
Ġprob antur
Ġindic t
Ġintellec ta
Ġopin iones
Ġprohib emus
Ġspect aculum
Ġmass ili
ĠÎ±Î» Î»Î±
Ġtei psum
d ata
Ġimp ass
Ġmar itum
Ġseruit us
ĠÎ¹ Î½Î±
Ġagno uit
Ġfac illim
entes que
ici p
Ġsumm e
in te
Ġimp ot
Ġpon ti
Ġnum en
Ġlac ess
Ġuno quoque
Ġinjur ias
Ġdi ap
per am
Ġal tis
tur as
Ġhabit aculum
Ġtimoth eum
Ġd ac
Ġn uc
Ġper peti
Ġac errim
Ġquo uis
Ġmod ico
Ġlac edaem
Ġmori ens
Ġhosp itio
Ġreprob orum
Ġfatig are
Ġnosc itur
x ix
Ġad dita
Ġl ani
Ġre ditum
Ġdis j
Ġexcep it
Ġ tinc
it y
Ġch oro
Ġpot uissent
Ġpop ul
Ġmagn as
Ġard or
ÎµÏĦ ÎµÏģ
Ġaeth ere
d r
f li
m ulta
itur os
Ġpl ec
Ġbene plac
Ġduc ti
Î´ Î·
Ġtuis que
Ġthesaur is
Ġadolesc ens
Ġcrucifix um
Ġun icus
Ġco etus
Ġsanc imus
Ġsol os
Ġnoc et
Ġpros pici
Î±Ïģ Ïĩ
Ġcamp um
Ġbur di
Ġera dic
pub lius
s ing
Ġseru anda
Ġio an
Ġspirit alia
Ġdubit et
Ġf ato
ac itate
Ġg ot
Ġdis cedit
Ġuen is
Ġinf ring
Ġapp rehens
Ġuig ore
Ġcanti cis
Ġge hen
Ġabstin entia
Ġabbatis sa
Ġeleemosy na
Ġuetust ate
Ġco etu
Ġlic itum
Ġpromiss io
Ġcand ida
Ġexpedi re
t ar
ab ula
pr oc
Ġconf ut
Ġfi ebat
Ġloqu entem
Ġcogit ationis
Ġnar rauit
Ġobl ationes
Ġferunt ur
h ere
Ġa is
Ġre ditus
Ġac eto
Ġsp ur
Ġoffic iorum
Ġfirm auit
Ġpraem is
Ġaus u
Ġappar uerit
Ġconsider ans
Ġdisposi tionem
Ġhab enda
tim ini
Ġins tig
Ġrap inam
Ġculp as
eron om
Ġadf uit
Ġsyll aba
Ġresip isc
Ġs k
atus que
Ġfl uit
Ġsapi enti
Ġla psum
Ġflu uio
ĠÃ¾ an
Ġiuss ione
ich s
Ġtri ticum
Ġbabyl onem
Ġlit ore
Ġdirec ta
Ġinnot uit
Ġabsur dum
Ġsynagog ae
Ġlumin aria
ic arum
ol es
Ġse quebatur
ab i
ter unt
Ġdis er
Ġdefunc ti
Ġcupi entes
ad um
sim iliter
Ġuide bitis
Ġsen is
Ġpraem io
Ġinstit utionem
Ġsepul turae
en nam
Ġt usc
Ġli gni
Ġtrans itor
Ġregn orum
Ġlat ro
Ġezechi el
Ġpar entem
Ġanti quae
Ġproced unt
Ġnud um
Ġtemer itate
Ġmoles tia
p us
Ġten entes
Ġfall ac
Ġpraedestin atione
Ġhe in
s ym
Ġiudic ari
Ġsubs ec
Ġreligios a
Ġsump tum
h eu
p ri
Ġre tic
Ġut atur
Ġimm undus
Ġsuscep ti
Ġcontemn it
Ġturp is
laud a
p ens
Ġleg at
Ġcogn om
Ġquaer amus
Ġiniqu us
Ġperd at
Ġprohib ere
Ġoptim o
Ġpan ibus
Ġeloqu ii
Ġprosper is
Ġdistinc tio
Ġnep t
i ue
Ġn ini
Ġtrans iens
Ġaquil ae
Ġinfr uctu
Ġ oth
Ġi as
Ġdec anus
Ġsex tum
Ġlae ti
Ġcatholic us
Ġnesci ens
Ġexpe ti
Ġconjug em
Ġar as
Ġar ida
Ġuoc um
Ġdoc eret
ib at
Ġconsens us
Ġmendac ii
Ġmagistr os
Ġex pressit
Ġsub rog
Ġat rium
Ġcens um
Ġglori etur
Ġappend iciis
Ġiz uis
e orum
i ul
Ġsub tra
ÏĦ Î±Î¹
Ġcap tum
Ġterr or
Ġscrip tor
Ġae ui
Ġed ere
Ġuari os
Ġobtin et
Ġexcep ta
Ġgalli am
Ġmonst rauit
Ġunanim iter
Ġconfite or
h ym
era que
Ġliber ius
Ġuniuers orum
prim a
Ġsubi ac
Ġlapid um
Ġsei psos
Ġhuc usque
Ġexist unt
Ġuine as
Ġlup i
Ġaristot elis
Ġpatrocin io
b am
Ġu entorum
Ġf ile
uam ur
Ġpros it
Ġnup ti
Ġiuni or
Ġpentec ostes
imper ator
ic ho
Ġre quisi
Ġsci amus
Ġfirm itate
Ġrequi esc
Ġfratern itatem
Ġpraefec to
Ġproiec t
Ġc ereb
Ġam ari
Ġmor as
tor io
Ġcre atum
orem us
Ġcarc eris
Ġelem entorum
Ġorigin ale
Ġxm l
e qui
Ġt uta
ac int
Ġcap pad
Ġpass um
Ġabb atum
Ġsalom one
Ġincipi at
Ġduri tiam
Ġex tinc
Ġterr eni
Ġtrans itus
Ġecclesiastic um
Ġnau e
Ġoccas u
Ġnox ia
Ġedic tum
Ïħ Î¼
Ġuen io
Ġbene uent
Ġrespon demus
Ġaff l
Ġfoed eris
Ġtrid uum
Ġlocup let
Ġdeut eronom
u ff
uit us
uit que
Ġsol uitur
Ġul li
oph yl
Ġhom ilia
Ġdispens ationem
Ġintem per
Ġd antur
emp lo
Ġimp leta
Ġuniuers ity
Ġpass ionum
Ġem itt
ese os
Ġrelinqu ens
Ġperuen isse
Ġregener ationis
Ġcircuit um
ti ue
Ġf unic
om ag
Ġre atu
Ġspec tare
Ġliber alitate
Ġput are
Ġuniuers itatis
ĠÏĢ Î»
Ġgal lorum
Ġbenefic ii
Ġbenign itas
Ġtro i
a de
Ġl ut
Ġper actis
Ġius si
Ġaud isti
Ġmagn os
Ġpre ce
Ġir asci
Ġden ot
sub st
Ġpenet ra
Ġdig itis
Ġclass ical
Ġprimiti as
Ġenc oded
Ġad iit
Ġst antes
Ġredd eret
Ġtab ulas
Ġtac tu
Ġro elli
Ġsid ere
Î½ Ïī
Ġann a
Ġexs ilium
Ġalio qui
Ġconstr ic
Ġmou entur
Ġorthograph y
ic iam
Ġf auc
Ġer um
Ġscrip torum
Ġimm und
quid am
Ġcontin ent
Ġspon sae
Ġear ly
Ġzur ichs
Ġab unde
Ġne ue
Ġca uer
Ġfor ent
Ġuen ere
Ġdign eris
Ġlo que
Ġplac ita
Ġuet at
Ġanti quam
ĠÎ¿ ÏħÎ½
Ġlic ebit
Ġiniqu um
Ġcant us
Ġrestit ui
Ġdet ulit
Ġnic om
Ġmos es
Ġsuauit atis
Ġhl udo
Ġcale fac
s ch
ri f
Ġni x
Ġrec umb
Ġdiuin as
Ġsoc ium
Ġu endere
Ġre tia
end e
ue x
Ġrem in
Ġae qua
Ġlat enter
Ġcontr ac
Ġredd unt
Ġabi erunt
Ġintellex erunt
Ġartic ulo
Ð¾ Ð
c m
Ġg rex
atur ae
Ġhab eretur
Ġter tiae
Ġsc al
Ġuet er
Ġcanon icos
Ġcoeper at
Ġping ue
b antur
ce bant
quam uis
Ġfor ibus
Ġleg unt
Ġtrib uta
Ġinde b
Ġsen ectus
Ġcens u
Ġprouid entiam
Ġnonnul los
Ġtrah ere
Ġsupplic iter
Ġsid erum
Ġmatth aeum
Ġpromis erat
m un
Ġqui eti
Ġual eret
Ġapostol atus
Ġprincip ali
Ġmiser os
Ġtra ditus
Ġconstr uxit
Ġrequir itur
Ġresurg ere
Ġhomic ida
i ensis
Ġc ym
Ġr hem
Ġer amus
Ġfam uli
Ġmut ua
Ġsoli o
Ġsoli um
Ġmitt ens
Ġoccul tum
Ġpom a
Ġexcell entia
Ġclass is
Ġaffic i
Ġcons ult
Ġterr enum
Ġfam ulus
ix us
Ġfund ata
Ġpropriet as
Ġuali da
Ġincur s
Ġreperi untur
o u
Ġin r
Ġab esse
Ġdilig imus
Ġlat eribus
Ġignor antes
Ġsumm opere
Ġdiuid i
Ġquadrag esima
Ġgraui ora
ĠÏĨ Ïħ
Ġtoler are
Ġchil per
Ġprae ceps
Ġam nis
Ġreg inam
Ġuerb er
Ġfer arum
Ġdiffer re
Ġpossess ionibus
Ġobtin eat
Ġfron tem
Ġuirgin itas
re l
Ġad sit
iter is
Ġman ip
Ġas iae
Ġag endi
tri x
ill ae
Ġdamn auit
Ġos tia
Ġultim am
n oc
Ġsu ffer
fer i
Ġprob ationem
Ġla icus
Ġpor rec
Ġmet uens
Ġpoter o
Ġmarty ribus
Ġard ua
Ġinteri oris
Ġdilex i
Ġhospi tium
Ġsum it
Ġquas cunque
Ġclar om
ĠÏĥ Ïī
Ġferu ore
Ġcompreh endi
Ġpy thag
Ġregr essus
per ent
Ġcre ati
Ġual eri
Ġpass a
Ġequ es
Ġlarg itate
Ġparu ulorum
Ġsepul ch
Ġcircumcis ionis
Ġeri git
c er
Ġsc in
Ġsus ceperunt
ĠÏĦ Î±ÏĤ
Ġaur eis
Ġpor ph
Ġordin atur
Ġproxim os
Ġcongreg ata
Ġdistric tum
Ġsinistr is
Ġinuiol abiliter
Ġu ario
ur as
ati or
Ġre prim
Ġsuper f
Ġsit u
Ġpropri os
Ġuirtu ti
Ġcelebr ata
Ġsuperb is
Ġdecim um
Ġcrud elis
Ġeleemosy nis
Î±ÏĥÎ¹ Î»
Ġpraef atio
Ġindign e
Ġperuen erit
Ġrh od
Ġinop iam
Ġpeper cit
Ġclau es
Ġper ibunt
uit o
Ġsub mo
Ġassump ta
Ġsubdi ti
Ġaest ate
Ġm uti
Ġde praed
ere tis
Ġconsequ atur
Ġtor c
Ġinnoc entius
Ġpersec utio
Ġumb rae
Ġinstrum ento
Ġhierosolym am
a Ã¾
op otam
Ġex odo
ens io
Ġdomin io
Ġinter pon
Ġcap iat
Ġfran ciae
Ġliter is
Ġadn ot
Ġquibus cumque
Ġcuius cunque
Ġcarn alia
Ġgal lus
Ġretrib utionis
Ġhebra ice
Ġceruic e
Ġbeneuol entia
Ġnaz ar
Ġu endit
Ġcomm otus
Ġpotest atibus
Ġuniuers alem
Ġdiss id
Ġneglig entiam
Ġuan itate
Ġdecep tus
Ġmoue at
Ġsqu al
Ġs ant
in xit
Ġuoc ifer
ÏĢ Î¿Î½
Ġuener int
Ġmemb r
Ġaus tri
Ġsatur nus
Ġsolemn itate
Ġe rexit
Ġd oli
Ġr oth
Ġdic torum
Ġgener alem
Ġincon cus
Ġhy acint
Ġuad o
Ġcorrump itur
Ġquadragesim ae
Â ¬
Ġt andiu
Ġman ente
Ġann ot
Ġred ditus
Ġind ur
Ġaduers ariis
Ġindic auit
Ġquer im
Ġgest orum
r oni
Ġch a
Ġleg endum
Ġsecund is
Ġger ens
Ġsubs idium
Ġfem in
Ġcruci atus
Ġidone um
Ġaudac iam
Ġraim undus
h es
Ġc p
Ġco arc
Ġsacrific ii
Ġpersec uti
Ġiuuent ute
Ġobd ur
Ġl uto
Ġb ys
Ġsub uenire
Ġign au
Ġlud ib
Î¼Î±ÏĦ Î±
Ġinuas it
Ġlangob ardorum
Ġde itatem
Ġst antem
Ġsequ entis
Ġeuangeli a
Ġlae ua
Ġcast a
Ġuill as
Ġthesaur o
Ġneut rum
Ġinuisibi lia
Ġimmedi ate
Ġf ri
ol os
Ġcons is
Ġconfirm ationem
Ġsper amus
Ġram os
Ġgeorg ii
Ġper t
Ġdis tin
Ġappell ationem
Ġbenedic tum
Ġtab ul
Ġamar itudine
Ġlucern am
Ġinstinc tu
ot os
Ġind esin
Ġcommun imus
Ġincon ueni
Ġinjur iis
g il
Ã ·
Ġe uigil
Ġac tionibus
unc tis
Ġloc utio
Ġsal is
Ġmis isti
Ġsaec ulari
ca es
Ġprof essus
Ġaper tis
Ġfund o
Ġon ere
Ġpatern o
Ġbarb aris
Ġsublim e
g es
Ġad str
Ġg as
Ġno uer
Ġmo ta
Ġuo ti
Ġfamili as
Ġsepul tura
Ġdemonst rauit
Ġagni tionem
Ġsubdiacon us
Ġst ant
Ġdec er
Ġrec tius
Ġcol unt
Ġcul mine
Ġpag ani
Ġcens uram
Ġceleb errim
Ġconsenti t
Ġpi per
Ġambros ii
d en
Ġf udit
Ġb ore
Ġsol ui
Ġca erem
Ġloqu entes
Ġreuer tatur
Ġplus quam
Ġmans iones
Ġpostul auit
Ġexistim ant
prop osi
Ġobt entu
Ġassump tus
Ġmarc elli
Ġparab olam
Ġinno u
Ñ Į
Ġe greditur
Ġu f
Ġm uri
Ġdi osc
Ġprob e
Ġtent ationes
Ġinterrog at
Ġconsuet udinis
Ġisa iae
Ġdiscre tione
Ġdispos itio
Î¿ÏĦ Î·ÏĦ
enÅ¿ is
Ġstom ach
l itter
x li
ic ulos
ul sit
Ġco haer
uin o
Ġrep ort
Ġuiu entibus
Ġbeat os
Ġxxx u
Ġtransm ut
Ġsacratissim o
Ġcappad oc
p au
t et
Ġco eg
Ġid enti
Ġreg ium
Ġuoc ata
Ġpraedic atorum
inc ti
Ġspon sum
Ġobl atio
Ġaquil onis
Ġsaep issime
Ġdirig ere
Ġfesti uitate
Ġinnumer abiles
Ġindub it
Ġsp inis
Ġuol entibus
Ġloqu ere
Ġpe ditum
Ġtac itus
Ġclar itatis
Ġcond on
Ġconjug io
Ġc ati
id iam
Ġex op
Ġor bi
Ġdecern it
Ġopportun e
Ġaccess erunt
Ġsymb olum
Ġcoin quin
Ġaegyp tii
Ġfau ente
Ġgrae cia
Ġceleb rauit
Ġpropriet ates
Ġcertam inis
Ġtyrann us
Ġeus ebius
chris ti
Ġaeccles iae
d idit
Ġf eret
Ġchris t
Ġmon emus
Ġprim ordia
Ġocc isi
Ġpraedic ando
Ġul lius
Ġcer tius
Ġcal orem
Îº Î±Î¹
Ġcircum f
Ġconcili is
Ġgraec us
Ġfrequ entia
do as
. ]
Ġs un
qu orum
Ġues p
pr os
Ġmod ica
Ġsent entiarum
Ġrob ertus
Ġpromiss ione
Ġrecipi ant
Ġsplend orem
Ġfic ta
ac ii
Ġmor bus
ed um
ux isti
Ġsex tam
Ġinterpret ari
Ġsollic ita
Ġcogni tionis
Ġlate que
m am
st at
Ġser aph
ate i
Ġprincip alis
Î¿Ïħ Î»
Ġcan it
th olom
Ġcogit ationem
Ġreper iri
Ġadd ere
Ġsubjec to
p ugn
ur it
Ġb ass
Ġdomin ium
Ġcl y
Ġaudi entiam
Ġaudi entium
Ġpossid ebunt
Ġfau or
Ġagnosc itur
sanc te
Ġauth enti
d ius
h uic
Ġco aequ
Ġdeb ebat
tic as
Ġmiser o
Ġgener ale
Ġdamn are
Ġsacerdot alis
Ġuent os
Ġpyr r
Ġn ationum
Ġsub it
Ġuol ebant
Ġreli quo
Ġaugus tum
Î±Î» Î»
Ġcent ro
Ġdiuit em
Ġopor teret
Ġpl a
Ġuni uoc
Ġpraeter quam
Ġhaeretic um
Ġcorpor alem
Ġexcel si
Ġdispon it
Ġfoue am
Ġp enit
Ġsc ap
Ġmil ite
Ġordin ari
Ġreper ire
Ġprohib uit
Ġcredit e
Ġdiscern ere
ati ca
Ġuer ticem
Ġexc id
Ġtum ulum
Î±Ïģ ÏĦ
Ġdiacon os
Ġadop tionem
ar m
ut urum
tis se
Ġsc ito
pec c
Ġdilig entissime
Ġfigur as
Ġnobil itate
ĠÎ² Î±ÏĥÎ¹Î»
Ġmoer ore
t antum
Îµ ÏĨ
res p
Ġperfec to
par s
Ġabsol uta
Ġreuoc at
Ġcolleg io
Ġtyrann i
Ġcastit as
Ġiuuent us
en na
Ġgen ibus
Ġuen iamus
Ġag amus
Ġsci am
Ġhum ilia
Ġfuer imus
Ġaufer t
Ġsubjec tus
Ġtribun us
Ġincend ia
Ġuan itas
Ġexspec tare
Ġgeni ti
Ġluc et
Ġmil les
Ġtrac ta
Ġcad at
Ġpasc it
Ġcarthag inem
Ġamplex us
ati ci
Ġper u
Ġac quis
Ġsem itas
Ġmal uit
ĠÎµ ÏĦ
Ġaequ itatis
Ġinim ico
Ġsuscep tum
ÎµÏģ Î¿Î½
Ġreliqu erunt
Ġpollic itus
scrip tum
Ġindisc re
Ġe unt
Ġep ulas
Ġiam dudum
lin a
Ġtrib uni
Ġdol um
Ġnol ens
Ġerr orum
Ġconsul atum
Ġquatu ordecim
Ġprofess ionis
Ġpunc tum
Ġmor bi
Ġdamn at
Ġabbati ae
Ġline ae
Ġsuc cedit
Ġdistinc ta
Ġpudici tiae
spir itus
ir entur
Ġco ap
Ġoff endit
ĠÎ±ÏħÏĦ Ïī
Ġcub iculum
Ġexperi entia
us i
or as
id eo
Ġr emp
lic um
Ġprae tend
Ġsup plex
Ġmemor atus
Ġref ren
Ġcoll atione
Ġpraec urs
Ġmag dal
Ġxxx ui
Ġfat eri
Ġcypri anus
Ġca uet
Ġuol et
Ġmedi ante
Ġem olum
Ġcens us
c es
Ġpat eat
ue xit
Ġimpet rare
Ġexor n
Ġinsip iens
Ġs el
Ġre quis
Ġdi ra
Ġnomin auit
Ġpropri us
Ġaetern itatem
Ġrespond endum
Ġpari etem
Ġcaec itas
Ġclaus is
Ġdeu otus
Ġbabyl on
Ġpis cibus
Ġinterm issione
c red
i entes
ul tum
Ġper peram
Ġdec oris
Ġimm undum
Ġomni que
Ġclam are
Ġthe odo
Ġcant uari
Ġdil atione
Ġcy cl
Ġinterfec tus
Ġaffer re
por ro
Ġmes opotam
r ob
Ġpos cit
Ġpet ul
Ġaduers ario
Ġdamn ati
Ġprouid entiae
Ġcib orum
Ġeleg i
ter it
Ġr atus
ad o
Ġseru antibus
Ġuere or
Ġtransfer re
Ġexsult atione
Ġmun erum
Ġsequ entem
Ġaccep istis
Ġmort alitatis
Ġcontemp tu
Ġgreg e
Ġbal ne
Ġmemin imus
Ġandre as
g am
Ġfor tia
Ġtrans gredi
Ġgaud entes
Ġexerc et
Ġaccus are
Ġsecur itatem
Ġclass em
Ġbrach ia
Ġimped imento
b ia
ens ionem
Ġinc ub
Ġseuer us
Ġstabil itate
? --
r arum
Ġp od
ur gite
Ġde uia
Ġg om
itur am
Ġpar ia
Ġaliqu antum
Ġmiser iam
Ġprob auit
Ġxxx iii
Ġexpos itio
Ġrepugn at
Ġaed ibus
Ġconci lia
Ġterg um
u tionum
et er
ot es
Ġuid uam
Ġsol itus
Ġsal tus
Ġins ens
Ġmar tinus
Ġdim issa
Ġsuscep isse
l on
Ġrespon sa
Ġpe titur
Ġinterpret ationem
Ġlaque o
Ġappet unt
Ġsubm inistr
Ġlargi ente
Ġtheodos io
Ġsicili ae
Ġad min
Ġdic tu
Ġor ationum
Ġuol ut
int ell
Ġpere ant
Ġcern ens
Ġexprim it
Ġuesper um
Ġde itas
Ġen it
Ġuir us
Ġtemp lis
Ġleg atur
Ġimm or
Ġul tioni
Ġintellig as
Ġth em
Ġaudi endi
Ġsemper que
Ġcont endere
Ġapostolic us
Ġgaud ii
Ġcoep ta
Ġpraecip uum
Ġfini tim
Ġcin eres
Ġqu ominus
Ġin hi
ati co
Ġpos itam
Ġsuis que
Ġaudi ri
Ġaetern itas
Ġspiritu alium
deb atur
Ġprandi um
ic uli
Ġg erebat
Î¹ Î¿Ïħ
Ġleg ato
Ġdis ce
Ġdec ora
Ġag endo
Ġsus tulit
Ġrequi euit
Ġimpos itionem
Ġmitt at
Ġintro ire
Ġsinc era
Ġmanichae i
ĠÂ§ .
Ġbethle hem
u tius
ti ora
Ġc xxx
Ġu ici
Ġnon am
Ġcur iae
olog us
Ġsomn us
Ġproposi tionum
Ġpond era
Ġi bat
Ġcardin ali
Ġinan em
Ġcypri ani
ell es
Ġam ice
Ġpecc ando
Ġuic inis
Ġdim ittit
Ġministr at
Ġuisi bilis
Ġineff abili
Ġs ad
Ġui arum
Ġuit ulum
itud inibus
Ġlec tiones
Ġconfirm atur
Ġcirc ulus
Ġsimplic itatem
Ġangli ae
Ġdomin atur
Î¿ Î¾
Ġsim oni
Ġmat res
Ġput abat
Ġordin um
Ġnot ae
Ġpraest et
Ġalb o
Ġian ua
Ġuill ae
Ġliter as
ui tis
Îµ ÏĤ
Ġleg ationem
Ġuolunt arie
Ġindi gni
Ġcanon ico
Ġindic are
Ġiug a
Ġbal a
Ġluxur iam
Ġsau ci
Ġpaupert atem
Ġeuas it
i ales
r ach
us ta
Ġme arum
Î± Î²
Ġsal uo
Ġquibus cunque
Ġads c
Ġhisp aniam
Ġpatriarch arum
Ġfix a
Ġres ec
Ġtant as
Ġti r
Ġcommun ibus
Ġassum ps
Ġconsequ entibus
Ġpast ore
Ġcat egor
Ġreliqu as
un gitur
Ġdi rep
Ġill ata
Ġinter itus
Ġres plend
Ġiudic atur
Ġneg atiua
Ġluc tum
Ġdon atum
Ġoffer unt
Ġtris tes
Ġtransl atio
Ġde per
Ġch ore
Ġpet entibus
Ġspiritu ale
Ġtum ulo
Î±ÏĦ Î¿
Ġexi erunt
Ġturp iter
ĠÂ ¦
Ġdefin itum
Ġiuuent utis
Ġmerced is
Ġd cc
Ġm entium
ius s
Ġam ittere
Ġconf lu
pos itis
Ġdon are
Ġsequ antur
Ġliber abit
Ġput abant
Ġem b
Ġprol es
Ġreman ere
Ġincom par
Ġsustent atione
Ġnor unt
Ġlitt ore
fer tur
ue at
Ġinf ini
Ġaudi erat
Ġoper ae
Ġchar itati
Ġem ic
Ġhaere ditate
ĠÂ ¶
Ġuenerabili bus
Ġsos p
h an
Ġn emus
de um
ess is
Ġpar ent
Ġus ui
Ġmun icip
Ġtrib utum
Ġpre f
Ġsomn i
ti orem
Ġd ati
Ġf est
Ġf atum
Î½ Î±Î¹
Ġw il
Ġieiun ii
Ġaufer etur
Ġgraui or
Ġdistinc tionem
Ġlacrim as
Ġhludo w
Ġe de
Ġre clam
Ġch ord
Ġam ara
Ġnomin antur
Ġmo uit
Ġrep let
Ġfam ulis
Ġnun tia
Ġobt ulerunt
ĠÏĥÏħÎ½ Î¿Î´
Ġpropin qui
Ġma uri
Ġmon umentis
Ġluc am
Ġlati nos
Ġobseru antiam
Ġcongr uum
Ġsecur itate
Ġimmort alitatis
Ġmom enta
Ġcancell arii
Ġs et
Ġcon ditum
Ġput auerunt
Ġmand ati
Ġpecun ias
Ġmendac ia
Ġnit untur
Ġleuit ae
Ġf ist
ab amus
Ġint estin
Ġcomm em
Ġconf rac
Ġrec tus
Ġdign atur
Ġmedi i
Ġsoc ia
Ġnot as
Ġpast oribus
Ġimag inis
Ġoptim i
Ġcat eru
Ġattend entes
Ġmonstr at
Ġradi is
Ġfle tibus
Ġac rius
Ġer g
Ġni gra
Ġuig orem
Ġredemp tio
Ġfesti uit
Ġc entes
an arum
ul tus
Ġsu ess
Ġpl aud
Ġpra uorum
lo g
Ġmo en
Ġfal lor
Ġmet uit
Ġcorpore a
Ġfund auit
Ġbr itt
Ġcaeteris que
Ġcarthag ini
Ġinterfic ere
Ġco enam
Ġdix erimus
Ġth er
Ġfund amento
Ġreper ta
Ġabsol uit
Ġgerm aniae
Ġsei psam
Ġpunc to
Ġp iorum
Ġper uas
Ġind uti
Ġsaec ulares
Ġmer g
Ġmit to
Ġfilia bus
Ġton s
Ġundec imo
Ġueg et
um entorum
Ġpar as
Ġquad rig
Ġtribul ationem
Ġdecim ae
Ġpasc ua
Ġpraedecess oris
ps us
Ġbene ficiorum
Ġlati no
Ġpag anis
Ġdul cia
Ġintend e
Ġpris tinam
o em
ti gisse
Ġper tract
Ġhum o
ass es
Ġnum ina
Ġmiser tus
ĠÎ± Î»Î·Î¸
Ġuinc itur
Ġconfirm ata
Ġconueni ant
ra dus
Ġsol itum
ali us
Ġis mae
Ġaudi entibus
Ġipsum que
Ġem it
ĠÎ¿ Ïģ
Ġmut atio
Ġcirc ulo
Ġcommend atur
Ġredemp tione
Ġbarb ari
Ġcolum nae
i uli
u ui
Ġex ul
Ġsi tim
ir a
Ġun xit
Ġac ri
Ġterr orem
Ġdoc e
Ġdup licem
Ġfranc is
Ġall oc
Ġfere bat
Ġincomp rehens
en em
Ġusque quaque
Ġquant ae
Ġacc endit
Ġmer entur
Ġmonach o
Ġfoed era
Ġfic ti
Ġosc ula
Ġampli fic
c el
s ab
u tium
Ġeis que
Ġlaud ant
Ġfug iunt
Ġbo eth
Ġascend erunt
Ġplen issime
Ġf leuit
Ġr ura
ob oam
ap is
Ġante pon
Ġexs titisse
Ġbenedic ite
Ġfals itatis
e in
Ġb ip
and ans
Ġimm emor
Ġrep per
Ġchar t
Ġprob ata
Ġcatholic um
Ġintegr itatem
Î¼Î±ÏĦ Î¹
ĠÎ±ÏĢÎ¿ ÏĥÏĦÎ¿Î»
Ġgut tur
Ġlauac rum
u atus
Ġred dam
Ġpraedic torum
Ġpoter imus
Ġiniqu o
Ġcess are
Ġiustific ationes
Ġconsist unt
ise op
Ġu asc
ens ius
Ġprof ite
Ġmedic um
Ġiacob um
Ġprouoc at
Ġprael ati
Ġcorneli us
Ġidololat riae
Ġi ec
Ġd y
im elech
Ġquid nam
Ġcre debant
Ġten uerunt
Ġpresbyter orum
Ġsepar are
Ġlarg itione
Ġconsol ationis
Ġdescend unt
Ġpraesid ia
Ġtal enta
it ans
di g
Ġdoc ebat
Ġappell ata
Ġepistol arum
Ġeff udit
Ġimit ationem
Ġmenti tur
Ġsch ola
ĠÎ±ÏħÏĦ ÏīÎ½
Ġcontemn unt
Ġaquil onem
Ġfals ae
Ġexpress a
Ġhierosol ymis
ol y
emp iam
dem on
Ġual emus
Ġcel eri
Ġuindic tae
Ġcens emus
Ġconsenti unt
Ġsul ph
Ġsicili am
c arum
Ġf il
Ġcar ent
Ġman eret
Ġdelect atur
Ġro ta
Ġtene antur
Ġexcel so
Ġincipi ens
Ġuan itatem
Ġmys tica
Ġinuti lis
Ġ (
Ġu eti
ens ae
Ġnos metipsos
Ġuen erem
Ġgra uitas
ric ius
Ġiac ere
Ġdiuers itatem
Ġdecre ti
Ġpraest anti
Ġnunti auit
Ġhil arii
Ġconclud it
Ġag res
pos uit
Ġabs ente
Ġdol os
Ġordin ationes
Ġuiu orum
Ġsubs istere
Ġconuer tatur
Ġoccid itur
Ġasser ere
Ġcolloc auit
Ġzel us
b iles
Ġc edit
Ġop tat
Ġter tii
Ġqua erebant
Ġmar te
Ġbe ate
Ġcod icem
Ġfab ula
Ġuiol entiam
ent as
Ġid olum
lec tio
Ġcongreg ationem
Ġcreatur arum
Ġhort amur
Ġinquir ere
Ġuil lis
Ġtransf igur
Ġobj urg
Ġremin isc
h aud
ant que
Ġpost hac
Ġuen isti
Ġfaci ent
Ġfirm um
Ġtertio ue
Ġnem ine
Ġlar gitur
c li
Ġ Ã·
Ġde tra
Ġl eth
Ġcap itur
Ġcarn alem
Ġmort alem
Ġtriumph o
Ġfugi entes
Ġconscrip ta
Ġgab ri
Ġsuau e
Ġchaldae orum
Ġimpro uis
e ff
p ur
ab und
Ġuoc amus
Ġseru et
Ġdilig is
rim que
Ġhuman as
Ġsolem ni
Ġingen ia
Ġon er
Ġpho en
r oph
eb ar
ag g
Ġuic tu
Ġuic arius
Ġabs entia
Ġfl ac
Ġass enti
Ġmens ium
Ġscrib endi
Ġambul ant
Ġflu enta
Ġinh ab
Ġnaui um
Ġformid ine
Ġpess ima
Ġcris p
h as
Ġde press
Ġdoc umentis
Ġuic o
Ġassum ere
Ġdefec tum
Ġeuangelic am
Ġsord es
an ei
un git
ent am
Ġcon sed
Ġl itus
Ġeff l
Ġconced at
Ġiohann em
Ġagric ola
Ġcicer onis
sym machus
u entibus
Ġad el
Ġg esti
Ġabs ced
Ġdom iti
Ġstud ii
Ġir ris
l au
Ġt uto
Ġsu ffec
ens am
Ġop ific
Ġdign is
Ġpertin entia
Ġpauper i
Ġfre tus
Ġpauc orum
Ġration ali
Ġfall ere
Ġsym ph
Ġbesti arum
Ġthesauri z
Ġt auri
Ġl and
di i
fer o
Ġius simus
Ġthe oph
Ġcess ante
Ġflu ui
Ġposteri ora
Ġduri tia
Ġp estis
ter um
Ġcol lis
Ġuide am
Ġcer tissime
con tr
Ġlabor ant
Ġintro itum
Ġdefec tu
Ġinferi orem
Ġretrib utionem
Ġcapi tibus
Ġpharisae orum
Ġa ulam
Ġt elis
Ġhab e
