#version: 0.2
e r
q u
Ġ a
u m
Ġ e
Ġ i
u s
i s
Ġ s
Ġ p
i t
Ġ c
n t
a t
Ġ qu
o n
r e
Ġ d
a m
Ġ n
Ġ m
o r
e m
l i
Ġ v
Ġ t
Ġi n
e s
e n
i n
Ġ f
o s
u r
a e
Ġe t
i c
qu e
u t
Ġ h
i m
e t
a r
u l
a n
Ġp r
e nt
o m
a s
i d
i b
Ġ l
e c
Ġ re
Ġe s
o c
u n
Ġa d
i a
o d
Ġs u
a nt
a c
l l
Ġd e
ib us
i us
Ġe x
er e
Ġc on
Ġ g
t a
s e
Ġs e
i o
u d
Ġes t
o p
o l
Ġn on
Ġ "
i on
Ġ ut
r a
a l
u it
i l
a b
u nt
i um
p er
or um
Ġp er
g n
u er
o t
Ġd i
Ġ r
i am
o re
en d
Ġc um
is s
i p
es t
Ġ b
Ġs i
en s
Ġqu i
Ġqu od
i li
u c
e l
o b
os t
i r
Ġa c
Ġc o
Ġc a
Ġa ut
Ġm a
Ġa t
Ġv er
e g
Ġcon s
Ġd ic
Ġse d
Ġa n
a re
i i
Ġ li
e b
Ġi nt
Ġa li
u b
Ġi m
om n
an d
e d
Ġpr o
Ġqu ae
t er
e ll
Ġ omn
Ġn e
Ġa r
ec t
Ġs c
at ur
u i
is t
Ġa b
Ġqu am
Ġ &
at ion
Ġqu id
it ur
Ġf ac
Ġpr ae
Ġi ll
or t
p t
om in
Ġes se
Ġc om
li c
it at
Ġp l
Ġi d
Ġat que
ul t
s t
Ġqu o
Ġp ar
un d
Ġ u
Ġ er
Ġi p
Ġt r
Ġm e
Ġa m
Ġa p
ar i
i g
Ġ op
un c
Ġv id
Ġn ec
Ġli b
iss im
i ae
u is
Ġh ab
f ic
ae c
Ġ ob
Ġsu nt
ar um
r o
Ġe n
at us
Ġs t
Ġqu a
Ġt am
Ġ or
Ġint er
Ġa l
es s
in e
er t
er et
Ġco nt
us t
qu am
re s
Ġ& #
Ġp os
Ġp ot
Ġi ta
in c
er i
r at
em p
Ġs ol
i h
i u
Ġh oc
Ġp at
Ġip s
Ġp ost
Ġv el
t um
im us
Ġaut em
s p
Ġr om
Ġs p
Ġsu b
is c
Ġl eg
r i
at is
Ġa nt
Ġ 1
r ip
Ġen im
Ġet iam
ib i
Ġim per
a d
at um
Ġe ius
Ġm ar
at a
g o
Ġv ir
Ġt u
Ġ un
Ġ x
c e
Ġc or
d e
u ius
it um
i is
u g
Ġver b
Ġpr op
r is
Ġs ic
u li
Ġ oc
Ġin c
Ġne que
Ġt emp
en i
it a
qu it
Ġl oc
Ġa g
or is
re m
r um
Ġs er
ore s
Ġd ec
ul l
Ġt e
Ġm od
Ġf l
a g
Ġs it
i an
Ġre g
an s
er is
it us
uer s
a u
e x
o u
Ġc l
er it
Ġn am
Ġh omin
u p
t us
s et
Ġn ost
er um
is se
Ġh aec
c us
Ġquo que
Ġe o
Ġi am
er unt
er at
ant ur
ur b
Ġc ur
Ġan n
ore m
Ġan im
Ġm ult
Ġrom an
ation e
Ġ .
Ġin s
Ġsu per
f f
Ġpr a
Ġg en
Ġtam en
er c
Ġv oc
Ġpr im
Ġcom m
Ġv ol
re t
Ġpar t
as t
Ġca us
Ġt er
at i
Ġap p
Ġqu ibus
Ġca p
Ġdi x
Ġe a
Ġsc rip
Ġt ant
Ġm in
Ġs ec
Ġm an
a li
Ġquid em
a ud
b us
u e
i as
Ġp ub
ion e
it er
x im
at e
Ġg r
es c
d ic
iss et
a uit
Ġs um
Ġv en
Ġp a
Ġma gn
Ġ. .
Ġh is
Ġi ud
Ġp h
er ent
i or
Ġp o
Ġim p
Ġs im
Ġt um
Ġ o
Ġimper at
Ġqu em
Ġqu as
Ġp op
Ġn um
Ġin quit
li us
Ġe um
t or
in a
Ġs en
Ġ '
Ġ us
Ġd u
an c
Ġf ort
r im
d am
t o
in g
s it
Ġali qu
ih i
i os
e o
i ent
eb at
Ġm il
Ġre s
Ġcons t
s us
i nt
Ġcom p
Ġm ihi
d it
Ġa u
er a
Ġf ili
Ġin f
ion em
Ġi s
li g
Ġiud ic
Ġre m
et ur
Ġre c
Ġqu is
Ġv ic
Ġf uit
ih il
Ġ urb
Ġa ud
t i
d i
Ġac c
at io
Ġt h
Ġv i
ul o
Ġn ihil
Ġ k
p h
Ġin u
Ġma xim
Ġes set
Ġma g
ul is
Ġoc c
Ġf er
Ġn unc
Ġde f
en e
ent i
uis se
itat e
Ġer at
Ġl it
Ġn ull
Ġi u
p e
Ġi st
unt ur
" ,
Ġm o
t is
ul um
in is
Ġc ar
Ġin g
Ġl uc
Ġde b
r ic
ent es
is i
in i
ir c
Ġt ibi
Ġant e
Ġb ell
c h
er o
um que
Ġvid e
Ġ 2
u a
Ġm or
n b
nb sp
li n
Ġf uer
9 5
Ġm ed
Ġex p
Ġd isc
at o
it ud
Ġc re
Ġre p
Ġpot est
on is
Ġqu os
ent is
ul a
Ġa s
Ġn ob
Ġ (
Ġh ost
Ġm em
Ġn omin
Ġs ibi
Ġh on
f ect
end i
Ġv al
Ġqu ia
Ġv it
i fic
it o
i uit
Ġi l
" .
as s
e li
Ġcon c
Ġcons ul
Ġp et
Ġap ud
Ġpub lic
Ġver o
ent ia
f fic
Ġapp ell
Ġt ot
Ġpos s
Ġd uc
Ġl at
Ġ ub
a p
Ġe go
it as
ent e
qu i
end um
er n
Ġf r
Ġip se
Ġi us
Ġmar cus
Ġf id
Ġill e
Ġsi gn
Ġt en
in us
or ibus
Ġg ra
Ġs al
Ġt ra
in em
ation em
e p
Ġd es
Ġf i
Ġg rat
Ġmod o
Ġc h
s i
Ġpra es
Ġex erc
m a
Ġc uius
Ġs em
ent um
Ġn os
Ġi t
Ġcon f
ur a
Ġal ter
Ġf ec
Ġcont ra
Ġi gn
ul us
i e
Ġv et
Ġn isi
are t
it t
Ġc irc
Ġp ut
Ġca es
Ġomn ia
Ġl on
ic i
Ġub i
Ġe p
Ġgr aec
Ġd om
Ġg a
at u
Ġ und
Ġm al
g itur
ent em
u en
it u
Ġdi u
Ġre d
Ġin d
op h
m od
Ġe os
at em
Ġp ec
in o
o g
u gn
Ġf am
and o
Ġb on
in de
Ġpr inc
itat em
Ġomn es
Ġm at
or a
Ġc r
it is
Ġpr oc
Ġe l
il e
Ġcaus a
Ġquas i
Ġf or
Ġcor p
Ġpro u
Ġlon g
Ġs ent
Ġop p
Ġe i
Ġn eg
Ġ 3
Ġi gitur
Ġc j
Ġd omin
Ġob s
r ib
ian us
ili a
Ġc iuit
Ġc ol
Ġh ic
it e
Ġv est
Ġex t
Ġsu p
Ġqu ant
9 6
ut i
Ġm et
il is
Ġg l
Ġs ac
Ġs ine
Ġc ae
Ġc ui
Ġlit ter
ce p
Ġc ast
ac t
Ġc ert
Ġco gn
eret ur
Ġtr ans
e a
Ġl ab
b i
d em
an n
Ġverb a
o li
Ġam ic
Ġqu on
is que
Ġm is
it i
Ġomn ibus
Ġser u
e at
Ġe orum
ent ur
y r
s um
Ġprinc ip
Ġex c
Ġe m
Ġsec und
are nt
t h
Ġdi gn
ii i
uer unt
Ġli c
Ġa e
Ġa et
Ġmag is
r ae
Ġill a
Ġc et
Ġh uius
Ġtant um
n e
Ġe qu
Ġmil it
Ġd em
i re
in um
Ġd um
Ġph il
os c
em us
oc t
re c
Ġs an
Ġe am
Ġqu in
Ġm ort
ent ibus
itat is
Ġs ae
Ġimperat or
id em
Ġs us
ent a
Ġi i
Ġa uc
ce pt
ul ta
ar is
i ll
om en
9 4
Ġ -
i ens
ion is
Ġtr ib
Ġ 4
Ġid em
Ġ ra
Ġre sp
d id
i que
Ġv is
er u
Ġad uers
ion es
on e
Ġn atur
p os
r am
Ġre i
Ġr erum
ec ta
Ġsim ul
Ġad m
Ġc el
ili um
Ġar m
Ġb ene
Ġin st
Ġ :
am us
o que
c c
d uc
t in
a i
g u
Ġs oc
Ġn ou
Ġpr ob
Ġre gn
Ġt est
Ġh um
ur um
Ġf ug
er es
Ġomn ium
uer it
Ġit em
end a
Ġnob is
Ġre f
Ġsu a
Ġper s
Ġprae c
p l
Ġd is
Ġmem or
ul os
os oph
Ġt o
Ġp ac
eb ant
u o
Ġn o
Ġl e
Ġx x
e i
Ġ 5
Ġphil osoph
Ġi ii
Ġa ug
al is
t u
Ġar b
end o
Ġm un
Ġe g
Ġprae t
Ġlib er
Ġant i
Ġpat r
Ġloc o
Ġfac i
ist i
o nt
Ġc al
Ġp al
Ġqui nt
Ġm on
an i
Ġim m
r as
at or
ation is
Ġquon iam
Ġ [
Ġst ud
Ġsu is
Ġde inde
i gn
Ġi ust
Ġips a
re n
er ant
Ġre li
and um
p r
Ġs atis
Ġdic itur
Ġg al
Ġsem per
Ġt unc
Ġprou inc
Ġc iu
Ġtemp ore
on d
Ġi bi
Ġdix it
y m
Ġali a
ant es
Ġl aud
Ġco ll
s a
Ġm ulta
Ġpl ur
Ġor d
od em
u um
Ġdic it
r os
ab at
Ġill ud
x it
ent iam
Ġh om
p ic
on em
Ġl ac
Ġpr od
Ġp ugn
ere a
Ġde l
Ġprae ter
Ġin de
ad em
h ib
Ġsu o
and i
t e
Ġpl ac
u pt
Ġab s
Ġar g
Ġga ius
Ġil li
Ġd ol
Ġd et
ur g
Ġe ff
Ġe odem
Ġre bus
qu is
Ġsi nt
el li
Ġf rat
Ġita que
Ġh anc
Ġex ist
as c
it ut
Ġsign ific
Ġn omen
u ere
or d
a ll
at os
Ġlib ro
Ġse x
d um
Ġhomin um
Ġde p
re nt
Ġf uisse
Ġpr om
Ġnec ess
or i
Ġe u
Ġs ing
qu a
Ġdic ere
Ġse pt
Ġconst ant
ar ia
i orum
Ġsp ec
Ġc op
Ġi v
io res
Ġpec un
Ġp ed
Ġ 6
Ġmin us
im o
iss ent
Ġfort un
Ġcon u
Ġ ult
Ġsi ue
Ġ ost
Ġverb is
Ġs anc
Ġp ul
es e
Ġin i
Ġdi e
Ġd on
ent o
Ġo ffic
Ġpos se
Ġcirc um
Ġc at
ion ibus
eb atur
issim um
Ġc ic
Ġn im
at im
Ġund e
ili us
ur is
Ġscrip tum
Ġc ens
Ġe adem
Ġ ,
Ġpo en
li a
Ġcre d
Ġprim um
c rip
Ġfi eri
t ut
Ġt ur
an o
Ġp om
Ġn em
Ġips um
ir m
Ġam b
Ġpro f
Ġth e
Ġc up
Ġsum m
Ġer go
ac h
s u
uer at
issim e
it ia
as se
Ġl ae
Ġdi es
i et
a x
er em
Ġpost ea
ili o
ul it
Ġnomin e
Ġv ul
Ġ uer
Ġtrib un
Ġper ic
Ġd ub
Ġop t
Ġroman i
ta b
es se
Ġm ut
Ġsu i
Ġn au
ur i
Ġun um
Ġfuer it
qu id
Ġt ert
Ġer ant
Ġd oc
Ġauc tor
Ġat t
ic a
Ġprop ter
Ġh ac
Ġus que
Ġhab et
Ġc as
Ġp ort
ic um
Ġt im
ant e
an us
ia nt
Ġb r
Ġf ur
Ġes s
Ġs ese
Ġvoc ab
o qu
Ġ 7
Ġa f
ur us
Ġf ab
Ġbell um
Ġpr os
Ġsc rib
p et
Ġh os
Ġae qu
Ġca pt
ut us
Ġco g
Ġing en
i unt
Ġexist im
il es
ent ium
l e
Ġpart e
Ġhomin es
i x
ant ibus
Ġut i
Ġpop uli
Ġgen us
Ġali i
Ġiu re
er ibus
Ġ um
Ġh unc
emp l
id e
a que
Ġpub lius
Ġm ens
Ġpa uc
u isset
Ġsic ut
Ġsu um
Ġx v
end it
Ġh i
ar ium
at es
an um
Ġsol um
Ġre x
Ġar c
Ġali is
uer t
Ġli n
ul c
Ġmaxim e
Ġquae dam
p lic
issim us
are m
Ġi ub
Ġann o
on s
Ġcomm un
a ui
â Ģ
er os
ar io
i es
Ġper m
Ġu el
Ġgl or
Ġvir tut
i f
Ġomn is
ect us
Ġfac tum
ir i
Ġcaus am
Ġn oct
Ġf ore
am n
ant em
Ġs ens
ation es
Ġt em
Ġver um
Ġv eni
Ġarb it
Ġun a
ic us
Ġprim o
Ġomn i
li m
Ġqu orum
Ġluc ius
Ġp en
er m
Ġde d
Ġn ot
Ġpr iu
Ġa ulus
re g
Ġc am
Ġnull a
in es
Ġ ull
Ġa ed
Ġh ist
i at
Ġs ap
Ġs il
Ġk al
Ġd im
re h
ra g
Ġsen atus
and a
it io
Ġh or
u x
and em
Ġsu cc
Ġer it
Ġmag ist
Ġu x
Ġcon i
Ġfor m
Ġpl eb
Ġa eg
Ġpro fect
Ġs y
que nt
Ġfac ere
Ġp uer
Ġi ter
Ġc unc
Ġm uli
Ġlib ert
ic o
Ġal ex
Ġac t
Ġop ort
Ġmo nt
re p
ra b
Ġch r
an e
Ġaliqu id
on i
Ġimperat ores
am m
Ġtu a
Ġr h
Ġr og
im um
Ġopp id
Ġv ar
Ġtemp us
Ġpo et
Ġs in
al em
issim a
Ġser m
ta re
Ġfort e
io re
Ġvol unt
im a
Ġcont in
Ġquid am
end am
erent ur
r ac
ili c
Ġill um
Ġdisc ip
Ġquint us
Ġpo nt
Ġa it
Ġ od
Ġt ut
Ġhab ere
Ġv ii
ent er
a ut
Ġv os
end is
Ġe is
n am
u per
in ae
il em
Ġd iss
e lic
Ġm iss
Ġint ell
y s
io rem
Ġmult is
Ġquant um
Ġad ul
at am
Ġill is
Ġdic tum
Ġneg ot
Ġk ai
Ġis ta
Ġun i
o x
Ġad s
Ġdi ff
Ġsal ut
o ed
Ġf ut
ic e
Ġurb em
Ġali en
int a
id i
Ġb re
in ibus
Ġali ud
Ġsae pe
at ae
u ic
Ġre t
Ġbell o
ess it
oc l
t am
Ġpr ius
e pt
Ġad f
ation ibus
id it
Ġpra est
Ġ 8
Ġv iu
ari is
Ġaf ric
u et
Ġvid etur
an is
Ġfam ili
Ġips i
in am
Ġqua d
Ġsup ra
Ġm ir
Ġa ff
ar b
Ġa us
Ġthe od
Ġhom o
mod i
Ġm er
Ġacc ip
an a
Ġv ig
Ġa qu
Ġill o
Ġess ent
Ġpos sit
Ġrom ae
Ġfac ta
Ġac cep
Ġt ab
Ġf au
Ġop in
Ġ1 3
Ġloc um
Ġa a
Ġv inc
Ġp or
Ġdi uers
Ġpot ius
ic is
Ġdu o
Ġgrat ia
Ġaduers us
Ġa ur
Ġpraec ip
Ġips o
Ġsu am
Ġalex and
Ġmagn a
Ġvic tor
n a
Ġex empl
Ġpl us
Ġad u
Ġme a
Ġh ere
Ġcon g
Ġa est
Ġc rim
eri nt
ul li
Ġg em
Ġdic i
itud ine
Ġm ol
Ġt urb
Ġnost ra
r ig
Ġf al
ent us
Ġl ud
ob is
Ġlic et
Ġdi lig
Ġh inc
ul as
os que
Ġsecund um
Ġu ir
on es
Ġi uli
t ae
Ġqu ando
Ġd ist
Ġi un
ro g
Ġanim i
issim i
Ġi ac
al e
ant ia
Ġpom pe
ere b
Ġprae d
Ġt ali
Ġin dic
Ġqu ic
Ġm ac
Ġpat er
Ġre st
Ġm en
Ġfec it
Ġnatur a
Ġ1 0
Î ±
Ġx i
id a
io l
Ġas s
Ġat h
c ip
Ġv ell
Ġanim o
l es
Ġmis er
Ġcap ut
Ġr atione
Ġma ior
Ġi o
Ġgen ere
ur r
r orum
Ġ Â
as que
Ġpart em
ent iae
Ġdi em
Ġn esc
Ġsu ae
Ġau x
Ġre lig
Ġt a
Ġtr ium
Ġp rec
Ġpro eli
Ġp ol
ar d
Ġqua est
Ġad h
Ġant on
are s
Ġpar s
Ġscrip sit
Ġt or
Ġper f
Ġfl u
n um
Ġin p
Ġde dit
Ġimp et
ic ae
Ġsc ip
Ġus us
Ġad eo
Ġtam quam
Ġver s
ul am
se qu
Ġhist or
Ġv iii
in ianus
Ġcast ra
Ġt ac
Ġpro xim
Ġprim a
Ġse u
Ġmo x
Ġdiscip lin
r ia
Ġs or
Ġint ra
es ta
Ġep ist
Ġtra d
Ġn unt
Ġver sus
al es
Ġg est
Ġh y
Ġali o
Ġil lius
Ġid eo
en us
Ġfac it
Ġcl aud
Ġd amn
Ġcel eb
Ġaug ust
Ġf re
Ġpop ulo
Ġvit ae
Ġuni uers
ut a
Ġcaes ar
Ġor b
ar ius
ect um
er am
eb antur
Ġ âĢ
Ġun o
im e
Ġi is
on a
Ġb arb
Ġdic t
a us
Ġv e
Ġter ra
Ġdes id
Ġvir i
Ġe d
us que
Ġdi ocl
Ġurb e
Ġar ma
Ġdec em
Ġdic unt
Ġqu at
end ere
Ġsu os
Î ¿
Ġv ita
it h
Ġpr ot
Ġh erc
Ġg aud
Ġh er
Ġde i
Ġcae l
ul ae
Ġp ass
ius que
Ġpos set
Ġ 9
Ġnost ri
Ġreli qu
Ġmod um
Ġter r
Ġp arent
uen it
Ġnem o
Ġ ui
Ġc ust
at ibus
Ġam pl
li b
p an
Ġre per
Ġven it
th ag
us c
Ġ ol
Ġsan e
Ġse p
Ġnum ero
Ġu ic
en a
it es
itud inem
Ġf elic
Ġqu ar
od i
u us
Ġreg em
u am
Ġin m
Ġar t
Ġhomin em
Ġam p
an g
ot h
at ores
ul e
Ġcl ar
Ġhon or
Ġsc el
Ġp ret
Ġfl um
Ġinu en
Ġf und
Ġse qu
Ġman u
Ġobs eru
ant i
Ġnum quam
Ġh aud
Ġconst itut
Ġv obis
Ġqu ot
Ġreg is
Ġverb um
at orum
Ġips ius
r ob
Ġc an
Ġo ff
Ġgra u
ul g
Ġred d
li um
Ġor atione
r u
Ġqua er
ab ant
Ġsent entia
Ġintell eg
Ġse uer
Ġiu u
Ġf it
Ġau re
Ġfili us
Ġcomp os
u res
Ġsan gu
Ġut rum
Ġb elli
res s
res sus
Ġhost ium
er re
Ġman us
eni que
Ġm ot
Ġad i
Ġp ud
Ġd il
ili bus
Ġv in
Ġm and
Ġrom am
95 7
Ġlong e
Ġbene fic
on ia
Ġlib ris
Ġex s
did it
Ġpraes id
re d
Ġar d
o ll
am que
Ġqua es
Ġita li
Ġvir g
Ġac cus
Ġper pet
Ġr atio
Ġanti qu
Ġver g
Ġprae tor
ilic et
Ġv ult
Ġini ur
Ġd enique
mod um
itud o
Ġper tin
Ġcl am
Ġann os
Ġgal li
Ġmar c
en is
Ġcor n
Ġt ib
ar g
e per
Ġiu uen
Ġfili um
Ġcont r
Ġop us
Ġhon est
Ġocc up
Ġexerc itus
Ġm i
Ġsc ilicet
Ġp on
Ġprae fect
aret ur
Ġl oqu
Ġst atim
Ġc y
Ġsap ient
n is
ant is
or m
Ġan g
Ġd ia
Ġcomp l
Ġa per
Ġf em
Î ¹
Ġdic ta
Ġal b
Ġval ent
Ġvi x
ut um
Ġs on
Ġmat er
Ġst at
Ġr u
Ġra p
Ġh uic
Ġi uris
Ġp au
Ġd esc
Ġadh uc
Ġtant a
Ġocc id
Ġexerc itu
il iter
Ġf ere
Ġresp on
Ġt andem
Ġleg e
r id
Ġprae dic
Ġs ust
iss a
isc op
Ġin im
ar ii
Ġtemp l
Ġurb is
Ġqu e
Ġmilit es
Ġd oct
Ġarbit r
Ġtheod os
Ġpost quam
Ġcar m
Ġ1 1
Ġe as
Ġtrium ph
Ġn ig
Ġm itt
Ġf oed
Ġl ect
r on
in os
ec it
uer int
Ġgraec i
Ġcic ero
Ġs oli
Ġeius dem
Ġmult o
Ġmet u
Ġarm is
i em
Ġfuer at
issim o
Ġsic uti
ul p
Ġh a
Ġsp ect
Ġfid e
Ġscrip s
Ġpop ulum
Ġga ll
Ġmar t
Ġsum ma
Ġfid em
Ġn oc
en n
Ġprop e
Ġnost ris
Ġ z
end ae
Ġin di
Ġm ilia
Ġfac ile
ian o
Ġdis p
et is
oc h
Ġadul esc
Ġdi g
Ġ1 2
Ġaud i
eb us
Ġin l
o i
Ġ ou
Ġde x
Ġpublic ae
Ġcorp oris
Ġt on
ul orum
ur am
Ġann is
Ġconst it
Ġverb orum
Ġcup id
Ġint eg
Ġar ist
â Ł
ep s
e ant
Ġfortun a
Ġep iscop
Ġpr on
Ġor n
Ġm erc
as set
Ġd at
Ġs per
Î µ
Ġi x
Ġcomm od
Ġresp ond
Ġnam que
Î ½
t os
Ġg erm
Ġal iter
Ġins ign
Ġcirc a
Ġf ig
Ġpublic a
Ġpraet erea
Ġcic er
Ġre lic
c um
f ac
Ġv im
Ġe quit
Ġmil itum
Ġsup plic
l eg
r atus
Ġco h
Ġun us
94 9
Ġcur a
Ġvid eri
Ġloc is
h em
it iam
Ġomn e
Ġpra em
Ġanim um
em pt
94 5
Ġf est
Ġext rem
Ġinu id
Ġcust od
ion um
li bus
Ġiudic es
ae que
Ġn ol
Ġposs ess
issim is
is it
ip p
ian i
m e
n on
Ġt el
Ġprop ri
ali bus
er ius
Ġi ug
Ġm und
ob us
Ġa sp
Ġbon a
Ġill am
Ġp ect
Ġali os
95 3
Ġsen atu
" ;
Ġverb o
Ġcons ilio
Ġper c
and am
Ġal t
Ġimper ium
ec im
Ġnull o
Ġac er
Ġhomin is
Ġex per
ab atur
Ġp re
Ġel eg
ac ch
Ġmagn o
ra h
Ġm ore
Ġm ur
Ġips is
p p
Ġe c
it iae
es que
Ġre u
Ġre lin
Ġvol upt
Ġhum an
i arum
Ġhis pan
Ġomn em
Ġs ax
it os
Ġcert e
Ġvar ro
u as
Ġ ore
Ġf irm
Ġu ol
Ġpost ul
Ġx ii
Ġpr ud
res c
Ġ on
Ġc aec
Ġt it
Ġprae f
Ġ ot
on st
Ġcons ilium
Ġcam p
Ġproc ul
d a
Ġexerc itum
Ġc er
Ġdi ffic
Ġor ig
Ġtemp oris
Ġa st
Ġscrip t
Ġroman is
Ġvin dic
or ta
ip pe
Ġtr an
Ġpr imus
Ġh as
Ġfau or
Ġinc l
Ġchr ist
Ġu id
Ġlitter is
Ġf un
Ġomn ino
Ġsent entiam
Ġquam uis
it am
Ġl a
Ġl ap
Ġinter p
Ġvir um
end as
Ġmort em
Ġre di
) .
ret ur
Ġcogn osc
en um
Ġv ac
ec um
Ġas per
Ġcert am
Ġc ato
Ġhab ent
Ġd est
ist is
Ġn asc
uet ud
n i
Ġnim is
Ġnull um
Ġmal e
Ġconu eni
Ġr ur
ed it
Ġtu ae
Ġobs id
Ġc n
eb it
er im
Ġpec c
Ġst atu
s is
Ġco ep
Ġdu x
Ġgl ad
Ġm ou
Ġxx x
Ġuer o
Ġs yr
Ġm erit
ens is
ell a
Ġalter um
Ġvet eres
Ġin n
Ġdi ebus
Ġdix i
Ġfl ag
Ġcet eris
ill e
Ġhere d
l is
Ġex ig
Ġfac t
Ġtur p
Ġcorp us
Ġt yr
Ã ¦
r uc
Ġsu as
ic am
Ġf in
on ium
ed ere
Ġanim ad
Ġma re
Ġpat ris
Ġin uit
Ġcon d
Ġu en
Ġdeb et
Ġposs unt
Ġquod am
Ġme um
Ġauc t
it ium
er us
Ġlab or
i per
Ġist ius
int i
Ġd en
Ġroman o
Ġquin que
Ġc ult
id o
Ġsp ir
Ġc en
Ġt ui
o ta
Ġquibus dam
Ġius sit
em que
Ġob l
Ġdic untur
Ġhab uit
Ġe ffic
Ġob t
Ġh ort
Ġcons c
Ġprofect o
Ġpop ulus
u eni
Ġer r
Ġindi gn
Ġqua dam
Ġprop r
Ġm it
Ġcl ass
Ġst ip
Ġstud io
Ġme o
li o
Ġf a
Ġh ann
Ġf ra
Ġfili o
Ġhomin ibus
Ġprouinc ia
on um
b at
Ġre tin
Ġv ari
Ġpro hib
Ġc and
Ġpot uit
Ġpul ch
Ġdec re
Ġto ta
Ġm ari
r in
g a
ub lic
Ġqu ippe
Ġcons ult
Ġhost es
ia c
Ġt ar
itat i
Ġsanc t
Ġrep reh
8 0
Ġf u
Ġcog it
Ġp u
Ġimper io
Ġdomin i
id is
at h
Ġsac er
i it
Ġdic imus
it ae
c irc
Ġgr amm
it ione
Ġt res
or n
a uerunt
ut o
Ġsept em
Ġcons uli
Ġab st
ali a
x x
Ġl um
Ġsol et
Ġcons ili
os s
Ġiudic io
Ġfre quent
Ġs id
Ġl ep
Ġali as
o us
Ġrec te
Ġcar thag
Ġign or
Ġpr or
ro nt
Ġph ili
Ġdef ens
Ġoport et
Ġt ul
and is
ce per
Ġp ond
Ġpar um
Ġsen atum
ĠÂ «
Ġpecun iam
95 9
er as
Ġp ere
Ġdom um
Ġlitter as
Ġd ulc
Ġleg ibus
cep it
u ium
Ġgramm at
Ġtest am
Ġvul n
Ġtu o
- -
Ġper t
Ġu oc
Ġmin ime
Ġcast ris
Ġtot um
Ġdi uis
Ġpat ri
Ġs atur
oque nt
Ġsy ll
Ġa ll
Ġum quam
Ï Ħ
Ġinu eni
in as
Ġs ab
Ġcorp ore
Ġad d
qu ir
Ġciuit atis
Ġdem onst
Ġoc ulos
Ġag m
Ġcet era
Ġtu um
Ġprae b
Ġme i
ust ra
Ġac h
Ġreg e
Ġquam quam
Ġn it
Ġl un
Ġcons p
Ġfam a
p ot
Ġb ib
Ġmemor ia
Ġum b
Ġhann ib
t erea
re di
Ġtant o
Ġf ert
Ġex sp
ion i
Ġsucc ess
Ġcaes aris
ur p
ect u
Ġsol lic
Ġfuer unt
Ġmac ed
ect is
Ġin op
Ġcon iu
Ġcons uetud
Ġcr ud
Ġplur im
Ġref ert
Ġull a
Ġ ort
Ġf at
y n
Ġglor ia
Ġcon dic
Ġs ag
Ġins c
en o
Ġt uis
Ġvet erum
ab it
Ġcap ito
Ġaliqu a
x ta
Ġmed io
Ġc ulp
Ġe dic
Ġfer re
Ġsus p
Ġiter um
Ġarg um
ent ius
Ġlin g
Ġobs c
y pt
Ġmort e
Ġdom us
Ġid circ
Ġdu obus
Ġnost rae
Ġcomp ar
Ġoc ulis
Ġrec ip
Ġnec esse
Ġor ient
u os
itud inis
Ġc ub
c umque
Ġins id
Ġpro fic
Ġprop terea
Ġnost rum
Ġsign a
Ġloc us
Ġp el
Ġver t
Ġtemp oribus
Ġus u
erum que
Ġdex t
Ġlin gu
Ġa em
Ġb l
Ġle u
Ġsc ient
ag inta
Ġroman orum
Ġfr ig
Ġn ar
Ġrep et
Ġext ra
Ġc ess
Ġius s
Ġocc as
Ġamp lius
Ġtemp est
Ġiu xta
Ġil lic
ra re
Ġcomm ent
Ġcons id
Ġnost ro
Ġciuit ate
Ġf ront
Ġs omn
Ġsacer d
Ġiudic ium
u ae
Ġs ym
Ġphili pp
em n
Ġist e
Ġvel ut
Ġacc id
Ġexp l
Ġcon ui
Ġquis que
Ġfuer int
Ġen n
Ġpa ulo
Ġvir o
Ġsu orum
Ġhos p
Ġli m
Ġoppid um
Ġdix isse
Ġund ique
e as
id um
l u
Ġanim os
Ġe ur
Ġut il
Ġmem b
Ġ uit
p ar
e ph
Ġi c
ior a
Ġfer me
Ġpron unt
Ġma i
Ġc entum
Ġr ationem
Ġcoll eg
Ġsub s
Ġdiocl et
Ġprop os
Ġfr uc
Ġn il
Ġiust inianus
Ġe arum
Ġregn um
Ġl ux
Ġf ul
uit er
Ġd ur
Ġleg es
ant ium
u ol
Ġl arg
Ġroman us
um b
Ġc ern
Ġconsul es
Ġmor ta
r us
at orem
er rim
y l
Ġs ort
Ġsum pt
at ium
Ġad hib
Ġprod uc
Ġimper ii
Ġman ibus
Ġtr ibus
Ġmult i
ali um
Ġb onis
Ġvul g
Ġde o
Ġg er
c em
Ġv iol
Ġdix imus
Ġnob il
e u
Ġn aui
Ġme li
Ġpart ic
it ibus
Ġpart es
uer ant
Ġdi ut
Ġult ra
Ġf all
Ġsangu ine
Ġf uisset
unc t
Ġaud ac
ar ch
Ġost end
Ġn atus
Ġman if
Ġvid eretur
Ġsecund o
Ġill os
Ġsub st
Ġleg em
in ere
Ġx iii
on io
r upt
Ġsu ff
Ġanti och
Ġc ant
Ġmor ibus
Ġhuius modi
Ġdesid er
Ġa pt
Ġag it
Ġsec um
Ġeg reg
Ġquat tu
Ġm us
ic os
Ġvit am
Ġp as
Ġvid entur
Ġdu od
Ġval e
iss em
Ġvic t
Ġgen eris
al iter
Ġinst itut
Ġde lic
ol um
at as
Ġtr act
r ibus
Ġpr ol
Ġde duc
Ġtra h
Ġa gn
Ġcum que
Ġfore t
Ġrh od
Ġapp ar
Ġpecun ia
Ġmem in
Ġfac tus
Ġprop in
it ionem
se d
eri que
Ġvoc ant
ont e
r ing
Ġi r
on ibus
ic t
Ġfac ult
itat es
Ġcon l
Ġquic quam
at iu
Ġpost rem
Ġsum us
Ġciuit atem
e unt
l am
Ġv ere
rat um
Ġid que
Ġsol is
Ġdef end
Ġitali am
Ġo lim
Ġfra ud
Ġman um
Ġgra d
ent io
e us
Ġmult um
el lig
e um
in ist
Ġsub t
ari os
Ġquon dam
Ġrelin qu
Ġbell a
u io
ab ilis
Ġmaxim ianus
Ġpotest ate
orum que
Ġr ob
rat a
Ġconiu g
Ġtot ius
Ġdioclet ianus
Ġpat i
Ġrur sus
Ġdic eret
Ġn ud
und em
Ġp y
Ġroman os
n o
Ġpl erumque
ens es
Ġ os
Ġi re
iss um
Ġsol a
Ġsuper b
ar a
id us
Ġaeg ypt
ar unt
Ġex st
Ġac cept
Ġrom a
Ġpers on
a go
n ae
Ġi b
Ġtemp ora
Ġvirtut e
Ġinter c
Ġ 0
on iam
Ġet si
Ġas c
Ġcon dit
Ġnon dum
Ġinc ip
Ġde os
h o
Ġi an
Ġb al
cem odi
d is
Ġsus pic
issim os
Ġita lia
Ġcap ite
ios e
Ġter ram
Ġidcirc o
Ġs oll
un g
od o
Ġpar iter
Ġfor ma
Ġs ar
Ġob i
Ġvoc e
Ġpleb is
um us
Ġpro g
Ġ1 4
Ġhost em
ent u
it or
Ġc ec
Ġoffic io
Ġpl ures
Ġ1 5
Ġob tin
ur os
Ġquattu or
Ġtu am
ar iam
Ġp iet
uc und
Ġcom per
Ġloc a
Ġter rae
Ġhuius cemodi
Ġingen io
ic it
uer is
ect i
Ġlac rim
Ġarist ot
Ġiub et
ar us
s o
Ġser uit
ll a
Ġins crip
Ġ Î
Ġex ter
ra uit
Ġd are
Ġm ille
Ġconsuli bus
Ġc ass
Ġdic am
Ġno x
Ġcas u
Ġtyr ann
ect o
y c
Ġpro inde
Ġmor b
Ġling ua
y g
Ġinterp ret
Ġdix erunt
ior ibus
Ġgerm an
Ġl au
Ġde orum
Ġroman um
Ġor a
im ur
Ġnoct e
r oc
Ġhab eat
Ġint ellig
Ï ħ
Ġp up
Ġgr acch
Ġvig inti
Ġde um
Ġb el
Ġgrat iam
u imus
u re
Ġper d
Ġpat res
Ġvide atur
Ġappell ant
Ġs et
Ġinter rog
Ġnomin a
Ġl o
Ġpa p
96 4
pr op
Ġsae p
ut is
Ġre n
Ġtr ist
Ġrep ente
Ġpat rem
96 1
Ġpart im
Ï ģ
Ġto ll
Ġxx v
ur ae
Ġut r
Ġtrans f
id es
Ġmon st
Ġi ur
end os
Ġvir is
Ġa ene
Ġc ed
Ġc ot
Ġpl a
Ġsing ul
Ġl an
Ġsyll ab
ell us
Ġtem per
Ġob st
Ġsol us
Ġin quam
1 0
Ġsub i
Ġscrip ta
l ex
Ġocc is
Ġd ata
Ġn ub
t io
Ġmult os
ient es
Ġauctor itate
Ġim ag
Ġreu oc
Ġd id
Ġun am
Ġlitter a
ens i
ra que
Ġnou a
Ġc ep
Ġord ine
ol is
Ġv ent
Ġf inem
Ġhistor ia
x imus
ic orum
Ġvis um
Ġlae t
Ġn ut
Ġp res
Ġaliqu ando
Ġca d
Ġf erunt
Ġap ol
Ġv eli
Ġinter im
Ġfr anc
Ġalter a
c i
ell um
Ġn at
Ġregn i
ut e
Ġtheodos ius
Ġser ui
Ġdub it
Ġpl at
Ġi act
Ġme is
Ġmaxim a
Ġe andem
Ġpat re
Ġi ucund
Ġus um
Ġgra ui
Ġ om
Ġad modum
Ġch ar
Ġpont ific
Ġtr ig
Ġadm ir
Ġp un
Ġdu as
Ġcre b
Ġpublic am
Ġc c
Ġim b
Ġde u
Ġref er
Ġsignific at
Ġaest im
Ġfac to
96 3
et e
Ġmemor iae
Ġabs ol
Ġre l
Ġne f
cep ta
Ġdel ect
Ġcoh ort
_ _
Ġc ib
arent ur
Ġnesc io
Ġper g
Ġst ell
Ġvalent inianus
b a
id ie
Ġme ae
Ġter m
Ġhost ibus
Ġpet it
Ġtest im
Ġtum ult
Ġante a
Ġtert io
Ġ ur
Ġhost is
Ġux orem
Ġnaui g
Ġoc ta
Ġl ex
uit ur
Ġsp e
Ġadm on
Ġh uc
id ium
Ġa iunt
um p
Ġf rum
Ġint erea
li x
Ġdec ern
Ġann um
Ġmis it
Ġsc ire
' .
Ġnost er
Ġea que
lib et
Ġfl am
Ġmanif est
Ġde us
Ġdu os
Ġfili i
Ï Ĥ
Ġre cept
Ġpauc is
Ġali us
Ġsacerd ot
Ġinc om
and ae
Ġper se
Ġquos dam
Ġve hem
am ur
Ġer ud
Ġtot o
Ġaet atis
Ġadm inist
issim ae
Ġquis quam
Ġver a
Ġprouinc iae
Ġe cc
Ġtr o
ast i
et a
Ġfec isse
Ġi ura
Ġhon ore
en im
ens a
th orn
it em
Ġb o
Ġsp em
Ġsent ent
ab antur
ach us
' ,
it iones
ren s
Ġs all
ar ibus
Ġp yr
Ġann i
Ġdef in
Ġconc ess
ian um
Ġsoc rat
Ġord in
eli x
i uis
Ġpl ura
Ġnatur ae
Ġdeb ere
Ġmagn um
l ud
y th
Ġmilit ibus
Ġc u
Ġconstant inus
Ġarc ad
es imo
Ġaristot el
h a
Ġv es
Ġr ub
Ġfi eret
Ġdomin o
Ġhab eret
uer et
Ġsp oli
Ġvar r
Ġalexand er
Ġre uer
issim am
Ġpos c
mod o
96 0
Ġg ign
ios a
Ġh orum
Ġleg it
Ġqu are
Ġex cus
Ġopt im
Ġt ulli
isc i
Ġreli quit
Ġu est
Ġips os
Ġproeli o
n us
Ġme lius
Ġcunc ta
ort un
Ġimperat oris
96 2
Ġun ius
Ġimp rob
Ġinter fect
qu o
Ġpar i
Ġpa ene
Ġpart ibus
Ġb is
Ġaliqu ot
qua quam
ter et
Ġpen itus
Ġor ationis
Ġsus cip
Ġpere g
u xit
h en
et us
Ġfl amm
Ġno ta
Ġamb ig
Ġt ol
Ġma li
Ġop era
ro que
Ġs enti
Ġam or
Ġphilosoph i
Ġips am
Ġimp ed
Ġecc les
Ġpac em
Ġcrud el
Ġnomin is
Ġequ itum
arum que
s c
Ġv end
Ġdi uit
eg it
Ġpotest atem
ios us
Ġcat onis
in io
ur o
Ġsall ust
ab o
Ġplur ibus
Ġc it
Ġpop ul
Ġmo en
ot us
Ġgen er
Ġmal a
Ġper i
Ġconsul em
Ġapol lin
ens um
Ġpoen a
d o
l us
Ġ w
et o
Ġper n
Ġam ore
Ġbr it
Ġau f
i ui
Ġli gn
Ġcas us
Ġd up
Ġimp l
are n
Ġutr iusque
Ġcaus as
Ġocc ult
Ġn uper
Ġsing ulis
Ġdon ec
Ġdom i
Ġaet ate
Ġquae que
Ġis dem
Ġequ idem
uit ate
Ġspec ies
Ġs ter
Ġde que
Ġp rem
Ġcap it
Ġh ec
Ġdom o
Ġleg atos
Ġquant o
Ġ: :
Ġinc ert
Ġath eni
qu od
Ġn upt
er io
Ġs is
Ġlib ros
Ġsalut em
Ġaus pic
Ġxi v
r ium
lic et
Ġn ulli
ur ia
Ġb as
Ġaliqu o
Ġs ta
uer i
Ġaccep it
Ġv ia
Ġdomin us
Ġd issim
Ġdic ebat
Ġpecun iae
r op
Ġscip io
Ġherc le
Ġar ch
Ġfid es
Ġquin qu
Ġped es
Ġan imus
fic i
Ġe undem
itat um
Ġ1 6
Ġmed ium
iss is
era que
Ġequit es
Ġbon um
Ġcael o
Ġsum p
Ġcr u
Ġel oquent
Ġrest it
âŁ ¨
âŁ ©
Ġp p
ens ium
Ġcl em
Ġproc ur
Ġflu uius
Ġist o
Ġco eper
Ġleg is
Ġreg i
Ġprincip es
p on
ac ta
Ġsac ri
ord ia
Ġloc i
Ġconf irm
Ġfor o
Ġf ast
Ġvir os
l end
r ius
er ae
Ġm ans
Ġpoet a
et um
Ġcons ec
Ġsoc iet
n os
Ġciuit as
Ġd atur
e is
t as
Ġlib rum
Ġutrum que
Ġconc ed
Ġfi at
Ġmal um
c on
Ġra pt
a uerit
an os
Ġdec lin
t ius
ic as
atum que
Ġnim ium
ell is
Ġa qua
Ġs aec
Ġt rep
Ġb e
Ġprae pos
Ġciu ium
Ġs at
Ġr ip
Ġbon orum
Ġsent entiae
Ġphilosoph us
a uc
Ġist i
Ġmot us
Ġex cept
Ġmed ia
Ġfr ustra
Ġalter ius
ili i
Ġnull us
Ġag ere
Ġcaes arem
Ġaur o
Ġdic o
Ġoc e
Ġp isc
Ġquic quid
Ġprae cept
Ġleg ati
Ġanimad uert
ect io
res si
Ġven er
Ġlitter arum
an ae
Ġru f
ari ae
ot is
Ġcaus is
Ġoc to
tab at
Ġcons crip
Ġst up
Ġexempl um
Ġcont um
Ġdix erit
Ġme am
er emus
ol a
eb am
Ġbre ui
Ġi oc
Ġsumm o
Ġme us
Ġg ar
Ġvet ust
Ġqu um
Ġsp es
Ġr id
ac tus
iss o
Ġcons ist
ios um
Ġfer ro
Ġet enim
Ġsub ito
Ġinst it
Ġduod ecim
end us
Ġpl ane
Ġhi em
Ġcor on
or us
Ġsu ffic
Ġappell atur
Ġmen se
c a
Ġ ul
Ġvers ibus
n ox
ant iam
Ġpac e
Ġvell et
Ġio uis
Ï Ģ
Ġan d
Ġperic ulo
Ġv as
und um
Ġl en
ert im
Ġmagist ratus
Ġfut urum
Ġne pot
Ġquid quid
80 5
Ġali um
Ġlong a
os a
Ġvid ebatur
ar it
Ġpect ore
Ġfl uc
Ġprofect us
Ġpol lic
Ġang ust
Ġpau per
Ġxv i
Ġveni re
Ġnon n
Ġcop ia
Ġacer b
Ġpror sus
Ġsp lend
Ġtert ia
Ġc es
or o
Ġqu om
op t
Ġfac eret
Ġt ub
Ġsol itum
Ġput at
Ġoffic ium
Ġpor ro
Ġcoep it
Ġs ul
un quam
Ġad duc
Ġpl eraque
Ġs ect
Ġpublic e
Ġexpl or
l ar
Ġsol o
Ġquar to
Ġgen era
Ġinc end
Ġcae ter
Ġob lig
Ġn i
pr ob
r up
Ġam ici
Ġh ib
Ġposs id
ae d
Ġmort is
en as
eris que
Ġrh et
Ġec ce
Ġfi unt
Ġaet ern
Ġe duc
Ġhab ebat
Ġg entes
Ġab und
Ġpatr iae
95 2
Ġmol est
Ġlingu ae
Ġli g
Ġmagn i
Ġfaci unt
Ġpl erique
Ġap ut
Ġsust in
Ġconst at
Ġnull am
Ġciuit ates
Ġi ra
Ġinter f
Ġfl ore
Ġspec ie
at oris
Ġsim il
itt ere
Ġliber os
m is
Ġm ores
Ġm om
Ġm ess
Ġcomm end
Ġfr ug
Ġdiu in
Ġsym m
Ġp is
Ġma iores
ex it
Ġcr uc
Ġfrat er
Ġperic ulum
Ġafric a
ereb at
at ore
Ġtra dit
Ġc li
Ġimperat orem
an orum
Ġsp ecta
Ġin qui
Ġem pt
en am
Ġg entium
Ġint r
Ġsem el
er s
Ġm isc
h i
Ġsim plic
Ġcorp ora
Ġgal lic
u ia
Ġsc i
Ġdisc rim
Ġmat rim
Ġplur imum
m et
ig it
an quam
Ġplac et
Ġroman a
Ġcap i
Ġtrig inta
Ġvir tus
Ġdis pos
at oribus
in d
Ġcae li
Ġp est
ent os
Ġcl ad
Ġcomp et
Ġnem inem
Ġmar is
Ġfort asse
Ġhon orem
Ġdiff erent
Ġt eg
Ġduc e
Ġmil es
Ġgraec e
Ġseuer us
ent orum
Ġpos uit
Ġing ens
Ġquot iens
Ġduc es
Ġexsp ect
Ġsol ent
Ġcred o
us a
Ġfac und
Ġlib id
Ġins ol
Ġaux ilium
ic om
ibus que
Ġr ud
itat us
Ġor atio
urr it
a em
Ġcarthag ini
Ġprim is
Ġbrit ann
8 1
Ġre de
Ġmal is
Ġprinc eps
Ġper fect
Ġan us
Ġxv ii
Ġfauor inus
e am
Ġcal am
Ġi unc
ic em
Ġs ur
Ġf ata
Ġid one
Ġmai est
Ġcon p
Ġvit ium
Ġcunc tis
Ġa uri
Ġm ent
Ġpugn a
Ġvocab ulum
Ġvictor ia
h ic
Ġde pos
Ġmor i
Ġinn oc
Ġt ir
Ġbon i
Ġimm orta
Ġa er
Ġm ecum
Ġopp ugn
Ġlo qui
im is
Ġvel uti
Ġvest ra
Ġar te
Ġpa ll
Ġord inem
it iis
Ġim it
esc ere
Ġprouinc iam
e in
Ġcon uers
itat ibus
Ġcop iis
Ġnau es
Ġb eni
Ġmagn am
Ġsp ar
Ġpatr ia
Ġult ro
Ġe b
Ġpat ern
Ġrespon dit
en ae
Ġl eo
Ġar ti
d us
Ġvid eo
Ġaliqu is
Ġt ulit
Ġpros per
Ġqu arum
Ġcon uenit
Ġverb i
Ġquant a
Ġbeni gn
Ġfest in
Ġfid ei
ab is
Ġposs ent
Ġsac ra
Ġpropri e
Ï ĥ
ab itur
Ġlat ine
Ġpar c
Ġf inibus
ation i
95 6
er ta
ce at
Ġcl aus
t em
Ġf ont
Ġst o
Ġleg iones
Ġurb es
Ġvide licet
Ġmagist rat
Ġnig id
l em
ab ile
und i
Ġux or
u isti
Ġper sp
Ġpot erat
Ġnost ros
Ġnatur am
Ġp ign
Ġser p
re pt
ar o
Ġre uers
Ġf as
Ġcons ens
Ġu is
Ġingen ium
Ġper uen
und a
Ġten eb
Ġtem ere
Ġist am
on iae
ic es
Ġl am
ĠÂ »
ri x
Ġnum erum
Ġtot am
Ġp urp
Ġter ras
Ġp ens
Ġc eru
Ġv ast
Ġh eb
Ġexp ed
Ġpraes ertim
Ġd ari
Ġop ere
Ġdign um
Ġcicer onis
Ġinf am
Ġaduers um
p iam
Ġst ult
95 4
Ġregn o
Ġre qui
Ġr ust
Ġinc ur
Ġph o
Ġ urg
Ġh od
Ġped ibus
Ġtert ium
Ġadul ter
Ġquad rag
Ġpros p
er ri
Ġm entem
ol o
itat a
Ġinc id
Ġreg es
Ġvis a
Ġvell e
Ġaed ific
Ġturb a
Ġsecund a
Ġtu us
Ġqu alis
Ġdem um
d im
Ġinter dum
er ium
Ġm atur
ita uit
qu idem
Ġdign a
Ġpr ior
Ġn er
Ġin sp
Ġcons s
iant ur
ul s
Ġac ies
ub ern
ient ibus
Ġfaci es
Ġt itus
Ġprofic isc
il a
Ġill ust
Ġcapt iu
Ġs amn
Ġd atum
Ġacc ess
Ġconf ess
Ġpu ell
in n
Ġxx i
Ġpatr iam
Î ·
Ġn unquam
Ġhomin i
Ġpar ua
Ġvir ibus
or sum
Ġsp onte
Ġ1 7
Ġsens us
0 9
ari orum
is m
e f
Ġf eri
Ġse que
Ġac ie
Ġgraec is
Ġoport ere
Ġval et
Ġfug it
Ġopin or
em or
Ġcon uen
Ġlib eris
Ġhab it
Ġfili am
Ġex im
Ġpot es
Ġposs int
Ġtribun us
Ġne quaquam
qu in
Ġc resc
id am
Ġac iem
Ġmod is
Ġt ard
et i
Ġcont ing
Ġpa ul
Ġm os
ud um
95 5
Ġaet h
Ġsus cept
Ġstud ium
Ġi ou
Ġvid eb
Ġa eris
ul arum
Ġput ant
id ia
Ġpac is
r an
Ġist is
Ġmat ris
Ġs tab
Ġpo ll
ient e
d es
Ġsc a
ic ip
a uerat
in ia
Ġprou id
Ġvest ig
Ġnost ram
re st
Ġm entis
Ġs ull
Ġp ic
et h
iss es
und is
Ġ1 8
Ġfili os
Ġv ox
Ġer unt
Ġleg um
Ġeius modi
Ġmuli er
Ġv ag
Ġdic at
Ġvid ere
Ġab i
und us
Ġput o
Ġcaes are
Ġsul pic
ec h
Ġma iore
inc eps
esc it
Ġconstant in
Ġhod ie
Ġm ente
Ġpat ric
Ġform id
Ġdisp ut
t ione
Ġpr isc
Ġgra uis
Ġvirtut is
Ġre ip
Ġill orum
Ġag g
Ġmaxim o
Ġprot inus
Ġsub l
Ġins ula
er are
Ġf ulg
and us
Ġvul go
Ġlibert atem
Ġveli m
Ġma iorum
Ġam o
Ġalter o
an ia
Ġali orum
Ġinl ust
ac us
ens ibus
Ġfug a
Ġvalent in
Ġmagis ter
Ġcrim en
Ġmod i
Ġprincip is
Ġnau ibus
Ġmerit o
Ġsymm achus
Ġad fect
Ġsim ilis
Ġut er
Ġper cus
ad modum
Ġterr arum
Ġde inceps
Ġcons eru
Ġvoc atur
Ġind ig
Ġfab ric
Ġuic tor
Ġh aut
Ġcar c
p ro
Ġp urg
un que
Ġorb is
ell o
Ġduc em
Ġsub lim
Ġsign um
Ġfert ur
Ġin h
Ġob sequ
Ġpostrem o
Ġqu er
ation um
ient em
Ġitali ae
Ġchrist ian
Ġg reg
Ġco ept
Ġsic ili
Ġvic tus
Ġpac to
Ġbarb ar
Ġplac uit
Ġper ueni
Ï ī
iam que
Ġcap ta
Ġconsul e
Ġtribun i
Ġsuff rag
n as
on ii
Ġcaus ae
Ġpal am
Ġexp lic
Ġcorn eli
Ġnum erus
Ġopp os
is ter
Ġqui r
Ġsep ar
Ġcer ta
Ġsu ad
Ġg esta
Ġali quam
Ġiam que
Ġsimul ac
Ġfac ilius
Ġing enti
Ġduc is
Ġdoct r
ot i
Ġt ecum
Ġmagn is
Ġsim iliter
Ġc entur
Ġmagn ific
Ġfid uc
i oc
id ae
Ġg entis
Ġsc r
Ġfortun ae
Ġhispan ia
Â »
Ġap ost
Ġvol uit
Ġpart h
Ġcons um
Ġlitter ae
b is
Ġt og
Ġtr uc
Ġanim is
Ġposs um
Ġ osc
Ġcol lig
op oli
Ġli ceat
iu e
Ġspec iem
Ġads id
Ġv ad
isc e
Ġtant i
Ġind ust
Ġass id
Ġaet as
Ġserm one
Ġib idem
Ġv iam
Ġf eb
Ġdi i
Ġgraec a
Ġpublic is
id as
Ġg oth
Ġinf est
Ġdomin um
i atur
Ġno ui
Ġtali a
il eg
Ġhon ores
Ġpompe ius
Ġmi rab
Ġdix isset
Ġsequ itur
it it
Ġad dit
Ġphilosoph um
Ġprop ria
Ġeum que
u issent
Ġf ing
Ġut raque
Ġfer oc
Ġsanc ti
i oris
Ġad ol
Ġse quent
Ġmor s
did erunt
Ġpraet orem
Ġae que
h or
it ter
in orum
Ġsing ulos
Ġquom odo
Ġvid it
Ġnoct em
Ġhomin e
Ġvoc is
Ġaliqu ant
Ġlab ore
e fac
Ġinst ruc
at ius
ec und
Ġcet eros
Ġv ex
Ġmin ist
Ġ2 0
Ġprou oc
Ġciu es
Ġnegot ium
re b
Ġob li
Ġfug am
us ta
Ġt alis
Ġac ceper
Ġali am
Ġven ust
Ġfrat ris
Ġtempl um
el a
Ġconst itu
Ġdisciplin a
Ġverg ilius
p rae
Ġlib ri
Ġt rem
Ġex hib
Ġop eram
Ġdom est
Ġpy thag
Ġ )
Ġprius quam
Ġs emp
ab ili
itt it
Ġcal c
Ġvocab ulo
Ġvi res
Ġprincip io
Ġlun a
Ġor ationem
rum p
Ġdub ium
Ġoppid o
Ġcompos uit
ess et
Ġfrat rem
y b
Ġr ig
Ġsim ili
Ġcontum eli
d iu
it orum
c o
Ġpraesid io
Ġtul lius
7 9
Ġali c
Ġag ro
Ġcen se
Ġ1 9
Ġag ros
Ġcommun i
Ġreip ublic
Ġcon dem
Ġdic tus
Ġra dic
Ġdec us
Ġmor a
Ġseru us
Ġadulesc ens
c ons
Ġsol e
Ġquem admodum
Ġp ast
Ġa k
Ġde lib
en os
Ġquod que
Ġch al
Ġcet erum
r uit
Ġh e
Ġmat rem
Ġform am
Ġpret ium
Ġcr ass
Ġdest in
Ġsacri fic
Ġh es
Ġad n
Ġdef unc
Ġind uc
Ġb en
Ġcom oed
Ġdign itate
Ġhy p
l a
Ġi up
ul atus
Ġcom es
Ġvet eribus
ot um
Ġcogn o
Ġdem ost
Ġcunc t
Ġqua eri
at que
Ġm end
in ium
Ġs urg
Ġf inis
ic h
Ġde g
Ġr up
Ġmar ia
Ġprincip em
Ġleg i
Ġgr and
Ġm ix
Ġau res
Ġamic os
Ġpauc a
Ġv all
Ġre uert
Ġnon ne
Ġsy n
Ġt usc
Ġfili is
Ġfec erit
Ġmiss us
ret o
Ġimp os
Ġcondem n
Ġc in
on ius
Ġleg imus
rent ur
Ġvolunt ate
Ġost ent
Ġnoc tis
at ia
Ġqu oc
Ġdec lar
Ġarbitr or
Ġa x
Ġre quir
Ġer ip
Ġint ro
Ġvel it
Ġnum m
Ġau ar
Ġkal endas
Ġdim ic
Ġin ibi
Ġre cus
Ġg ord
Ġcomp reh
Ġnou um
Ġauctor itas
ĠâĢ ľ
pl ex
Ġreli qua
Ġcop ias
Ġpraecip ue
Ġdic as
Ġmon um
Ġt un
ens us
Ġsin ist
Ġorb em
ient ia
Ġluc e
Ġiun g
atur um
Ġpa en
Ġacc ed
Ġhost e
r act
y ch
Ġper uenit
Ġdiu id
Ġost endit
Ġpropin qu
Ġc oss
Ġt et
Ġut roque
Ġpl erisque
Ġdeb eat
Ġm el
Ġmund i
r arum
ac ulum
Ġaud ire
Ġimpet u
ab us
Ġtr ia
Ġroman ae
Ġit idem
Ġe ph
Ġingen ii
0 6
Ġp ing
Ġc ing
Ġsic ilia
erunt ur
0 8
j an
t ibus
Ġv endit
se qui
Ġcor rupt
Ġnou em
Ġmoen ia
l ect
ic ere
Ġpos ita
Ġadu oc
Ġmod est
Ġter ris
Ġmed ioc
Ġfid el
Ġprom pt
Ġmont e
Ġf ines
Ġob nox
Ġcon duc
Ġper p
isc um
Ġglor iam
id os
Ġde h
p iter
Ġsc io
Ġer ga
Ġvi ll
Ġmaxim um
Ġclaud ius
Ġadminist r
r h
ul erunt
Ġcap ita
Ġsumm um
ac ula
Ġp eper
Ġm orem
Ġfili a
Ġmun us
Ġn ati
Ġetiam si
Ġmin or
Ġsaep ius
n es
Ġh ipp
Ġtemp orum
Ġma iorem
Ġchr ys
Ġarti fic
r om
er ata
Ġp ag
il o
Ġb a
Ġdiu ina
Ġxv iii
on iis
se quent
and os
au imus
r ans
Ġp s
Ġh o
Ġgra uiter
a k
il li
Ġmil lia
Ġamic us
Ġflum en
it are
Ġin num
Ġst et
p a
Ġver su
iu a
Ġstud iis
Ġlac ed
er ari
id io
Ġaliqu od
Ġphilosoph iae
or s
ec us
Ġman cip
Ġdisc ess
Ġp aren
uer b
Ġfuer ant
Ġpal m
Ġexp os
Ġali ae
Ġsc yth
Ġc iuis
Ġlib eri
Ġimm o
et as
Ġth rac
Ġmemor iam
Ġl us
Ġtant is
Ġexempl o
Ġmemb ra
Ġop eris
Ġfrat res
Ġsentent iis
und o
Ġpot erit
Ġaliqu em
Ġamic itia
Ġscrib ere
Ġe lig
Ġp an
Ġl up
un x
Ġinc lin
Ġmal o
Ġmon s
Ġ13 7
Ġcap itis
Ġdu ae
u at
Ġt i
Ġpos itum
Ġcur am
Ġpublic o
on us
Ġp end
Ġh el
Ġvocab uli
im am
rat i
Ġle ui
c rib
i atum
r io
Ġ ere
Ġre dit
Ġse g
und am
Ġdep reh
Ġreipublic ae
Ġde fic
itur um
Ġiud ex
Ġta urus
Ġepist ula
Ġvarr onis
Ġm ach
Ġv inum
Ġam oris
atus que
Ġvol o
Ġmun era
Ġtel a
Ġcub ic
t ur
Ġt ene
Ġa ere
on ere
Ġfec erunt
Ġcens or
Ġpraed a
Ġagn osc
Ġa urum
it que
Ġfac inus
Ġhab es
Ġnos c
Ġcel er
Ġmun icip
i enn
Ġop es
Ġus urp
Ġlat ina
Ġvet us
Ġamic is
Ġm ilibus
Ġad opt
Ġor is
e que
Ġd ot
ut em
Ġpart is
Ġinf in
Ġit in
Ġquad rig
Ġsyr acus
e atur
er atur
res sum
Ġdesc end
ian a
Ġcur ia
ua ll
Ġtrans m
Ġinsc rib
prop ter
Ġist um
Ġt rec
Ġdi erum
Ġad t
Ġinf ra
n ec
Ġv ali
Ġdic is
on ae
rat is
Ġd a
ium que
Ġcep it
Ġest o
Ġar ith
Ġarith met
f l
it ionis
Ġqu inc
on o
Ġr ut
Ġmult itudo
Ġval de
Ġsac ris
Ġequ o
Ġpleb e
er on
Ġp asc
Ġn atum
Ġlon go
Ġiup piter
Ġde in
Ġful m
Ġull o
Ġanton inus
Ġprouinc ias
h ai
Ġqu ere
an im
Ġad iu
ia re
Ġg ess
Ġmult itudine
Ġtant am
Ġini qu
Ġtran qui
Ġdiut ius
Ġs am
ud it
ol us
ot o
Ġtrans l
Ġvis us
Ġdub io
Ġopt ime
Ġtem pt
Ġenn ius
Ġ âŁ¨
at ui
ib ile
Ġmagn itudine
Ġmo ll
Ġmaior ibus
Ġiniur iam
Ġp ig
Ġann orum
Ġdis quis
Ġcael um
ur as
Ġet r
Ġh ae
Ġre b
Ġg ens
si gn
Ġign is
Ġhonor ius
i untur
Ġpat rim
int h
Ġproc ons
m at
iam us
ell e
Ġiniur ia
ess us
Ġaug ur
Ġher od
Ġinuid ia
Ġtumult u
Ġat roc
atur a
Ġoc t
Ġred dit
Ġdol ore
9 7
li i
Ġdi ei
Ġfac ti
Ġnecess aria
Ġepiscop o
em ur
Ġf rag
Ġap oll
Ġpotest as
Ġabs c
Ġsi quidem
Ġvir orum
Ġquaes o
Ġu inc
Ġvoc em
Ġco el
Ġmilit iae
Ġnoct ur
Ġpen et
u ir
qu ens
on as
Ġsuper st
Ġten et
Ġexc ell
Ġculp a
Ġf us
Ġac ta
Ġappell antur
Ġrest itu
ul es
Ġu et
Ġres ist
Ġarithmet icae
in ius
Ġne pt
Ġten uit
Ġprod ig
Ġa quis
Ġh ast
lic i
Ġk ata
Ġnunc up
Ġlong ius
Ġamp li
re a
Ġt ang
Ġr um
Ġprim i
Ġth es
Ġdes ert
Ġaqu ae
r ant
Ġinc olum
Ġgraec ia
Ġol ym
Ġbl and
Ġdisquis itiones
Ġs oph
Ġh eres
Ġcur su
Ġdol or
Ġconi unc
Ġtestam ento
Ġfat ig
ur ius
ant er
Ġcet eri
Ġserm onibus
Ġcons ilia
ro uers
Ġquem quam
Ġgrat ias
Ġviu ere
Ġaugust i
s ectio
Ġf elix
Ġleg atis
Ġexp ugn
ire nt
Ġdep rec
su per
Ġpret io
Ġpertin et
Ġn ata
ae i
Ġcon uert
Ġca ut
Ġma ximus
Ġdic endi
Ġcont rouers
Ġsp atio
Ġsp atium
Ġinf l
Ġexc ip
Ġpugn am
Ġhib ern
Ġimm in
Ġfig ura
Ġp ess
Ġaet atem
er ens
Ġin que
Ġg ubern
Ġinf irm
Ġign ob
Ġaqu il
Ġc od
os us
ec ut
Ġan c
Ġcont empt
Ġmiser ic
od um
Ġper ag
âĢ Ļ
Ġdilig enter
Ġpompe io
Ġscrips isse
805 5
Ġlaced aem
Ġex h
Ġquint o
Ġod io
Ġpas sus
Ġs a
Ġin itio
Ġmult ip
Ġth ess
Ġfore nt
iu um
Ġsub m
Ġdes per
Ġmend ac
3 6
Ġe ch
ent r
ent ior
Ġf oli
Ġor nam
int ra
u iam
Ġi ras
Ġciu ibus
ol og
Ġurb i
Ġact io
Ġhistor iae
Ġcertam ine
Ġhab uisse
Ġiudic em
Ġpugn ae
Ġdiuers is
Ġma ius
Ġtu as
Ġsign is
Ġcert um
Ġpoet arum
Ġaa a
Ġproxim a
Ġiuuen is
Ġsyllab a
Ġven isse
Ġrem ed
Ġit inere
Ġui g
Ġhab eant
Ġres crip
Ġred uc
Ġampl ex
u es
Î ¼
Ġv ect
atur us
ata que
Ġrec ens
Ġcogn omin
Ġord o
Ġath enis
p es
ol ae
Ġfal sa
Ġinuen imus
Ġpraefect us
Ġrepreh end
Ġqu andam
un e
Ġuel ut
Ġpost um
Ġhon oris
Ġval ens
Ġclass em
Ġl ate
ud ic
eb is
Ġcoll oc
Ġot ium
ant iae
Ġpl ut
Ġarg enti
Ġv ino
en se
Ġali bi
Ġcont end
Ġamic itiae
ublic a
eb o
Ġdign itatis
Ġ- -
Ġorb e
Ġnat alis
Ġserm o
Ġaux ili
Ġdext ra
Ġl ent
Ġpl ag
Ġeius que
Ġnegot io
Ġperc ont
Ġpraeter m
Ġoffic ia
Ġin uis
Ġf ato
Ġr osc
Ġimperat ore
Ġalter i
Ġoffic iis
Ġpuer i
Ġflore nt
um n
Ġac tum
Ġsal ub
Ġsup rem
Ġsor did
i ebat
Ġt anquam
ul ari
res sa
Ġmem ini
Ġpul s
Ġm uc
Ġreg um
Ġappell auit
Ġgal lia
Ġaccip ere
Ġt end
Ġconc ili
Ġdes ign
Ġspir itus
Ġcon fect
Ġins uper
ass ent
Ġfaci at
Ġqu ing
Ġn us
Ġin ept
Ġh ora
Ġconi ect
Ġsep ult
Ġiuu ent
Ġper u
au ere
Ġius su
Ġlong um
Ġamic orum
Ġpass im
Ġco erc
Ġvel is
itud ines
Ġcarm ina
Ġorig ine
Ġdic endum
Ġmir um
it ti
Ġf ic
Ġpr ist
Ġcon j
ta que
Ġag rum
Ġregn a
Ġmont is
Ġfac ie
Ġdol orem
Ġdiuers a
Ġquinqu aginta
k a
o gn
Ġreg ia
Ġsag itt
arch us
Ġn a
issim as
Ġappell at
ym ph
Ġfortun am
Ġaus us
Ġbenefic ium
itum que
Ġeo que
Ġpet i
p rim
Ġcon sequ
ect am
itur a
Ġinf er
Ġfer u
Ġcre did
Ġhannib al
y d
Ġe dit
Ġqui que
Ġpl aut
Ġconu ic
Ġio ann
Ġnus quam
i ata
Î »
Ġi iii
Ġh isce
Ġsoc ios
y p
Ġad g
Ġdiss ol
Ġpropr ium
Ġseru os
n em
Ġf asc
Ġint est
Ġill uc
Ġcor ona
Ġvit io
Ġbon us
Ġamic itiam
Ġcal li
Ġedic to
Ġ2 1
Ġ3 0
Ġlaud e
Ġanton ius
Ġcor am
Ġcor ne
i z
v s
Ġappell atus
Ġfam ilia
Ġvulg us
Ġmult orum
Ġrec t
Ġfrat re
Ġafric am
Ġaugust us
Ġconstit uit
iss i
Ġcons pic
Ġan x
Ġprim am
Ġcuius que
Ġra d
Ġquint a
Ġsec ur
Ġsal tem
Ġs eni
Ġqu endam
Ġl act
Ġalien a
Ġa rab
Ġma ll
Ġper it
Ġmagn us
Ġlib rorum
Ġsec utus
Ġcop iam
red itur
Ġconstantin opoli
Ġcorne lius
Ġa ust
Ġt ale
uit as
Ġdes p
Ġdign itatem
Ġsoc iis
Ġmur os
Ġconsens u
Ġh ad
Ġin ius
issim orum
Ġcap ill
Ġcarm ine
Ġmerc ed
er ere
Ġqu al
ul em
Ġsub d
Ġnull is
Ġincom mod
Ġf uere
Ġpl ato
Ġdec imo
Ġduc i
Ġcommun is
Ġaeg r
Ġtab ulis
Ġauct ores
Ġr am
Ġid us
Ġlit ore
Ġubi que
ill a
Ġ- ,
Ġsalut is
Ġuir tut
or que
em in
Ġr ot
Ġquis quis
Ġind ulg
Ġliber al
Ġsept imo
Ġpompe i
ac tis
Ġante quam
Ġsoc iorum
Ġiuli anus
Ġdeb ent
Ġca li
Ġill y
Ġsic c
Ġpulch errim
Ġpereg r
Ġut ique
to ll
Ġtab ulas
Ġbenefic io
Ġolym p
Ġn ae
erent es
Ġher b
Ġmater ia
Ġs est
Ġloc orum
Ġpers ona
Ġpoet ae
Ġparent es
Ġsatur n
or ium
Ġpl ena
Ġpraec l
Ġmont em
Ġart em
Ġpa ulum
Ġocc idit
Ġ2 2
Ġsin u
Ġconsid er
Ġg e
il lim
Ġca u
Ġproeli um
Ġin ex
Ġr is
Ġph r
Ġnob ilis
Ġcae de
Ġult ima
Ġiuli us
Ġar s
Ġlib enter
Ġpot issimum
di x
Ġinu ad
Ġcicer onem
Ġfruc tus
Ġian u
Ġ ).
Ġf isc
Ġse gn
Ġmat re
Ġinst rum
Ġsex to
Ġpern ic
Ġin an
Ġcon cept
Ġfac tis
ari as
Ġhab itu
ĠâĢ ĺ
Ġquadrag inta
ta ret
Ġhab eo
Ġprincip um
Ġoff end
Ġquaer ere
Ġcec id
i ret
r itus
Ġv aria
Ġf ine
an am
el lius
Ġpop ulos
ios i
Ġart ibus
u ii
Ġs inc
ac tum
eb as
ari que
Ġhab ens
Ġpet ere
Ġcorp oribus
Ġcrim ine
Ġcontr aria
Ġar tis
Ġtu os
Ġmult as
Ġamic um
Ġauctor itatem
Ġvult u
Ġdex ter
Ġpythag or
iu o
Ġter ga
Ġsim ile
Ġign omin
Ġcert o
Ġsignific atione
Ġvocab ula
urr ere
Ġpon it
ae t
Ġvid emus
Ġnost rorum
rec t
Ġstip ul
ed ic
Ġpl en
Ġeam que
Ġvult us
Ġtempl a
Ġm as
Ġf um
Ġvol umus
94 0
Ġamb ul
Ġpect ora
l o
im enta
Ġdic atur
Ġpra esc
Ġing ressus
Ġneg leg
Ġscrib it
Ġsalut e
Ġconsili is
h ac
Ġsec us
Ġpublic um
Ġrelig ione
Ġs ard
Ġhab eri
Ġse qui
Ġas ia
Ġvest rae
Ġcapito lium
uer ter
Ġfac iam
Ġlat ere
Î¿ Î½
Ġor ator
Ġleg ionibus
Ġp ectus
Ġsc h
Ġdu abus
Ġpraes ens
Ġp e
Ġocc ur
Ġvit ia
Ġpoen am
Ġredi it
Ġdic ens
Ġiudic is
Ġrest itut
Ġquar ta
l et
Ġcons ulis
Ġab l
Ġpat rum
Ġsignific are
Ġflum ina
Ġne pos
Ġsol itus
Ġfl ac
Ġtem er
Ġprec ibus
Ġt alem
Ġpa uli
Ġsen atui
Ġlit ora
Ġvolunt atem
Ġc ent
ad es
Ġvirtut em
Ġcael est
Ġpup ill
Ġsallust ius
Ġqu ale
Ġquis piam
Ġsae ui
Ġperm itt
Ġ Î±
or g
Ġu al
ert ur
Ġins ulam
Ġtran se
Ġscient ia
Ġtrep id
ab ilem
Ġreg io
Ġcui que
Ġp ene
Ġc eper
ens em
Ġput as
Ġvest rum
Ġsac ram
cep s
Ġdist inc
Ġmorb o
ac ia
Ġcont emn
Ġciu ili
Ġdet er
Ġceleb r
Ġxxx v
Ġfu issent
Ġt ou
ac i
Ġcomm emor
Ġcar p
Ġfaci et
Ġsumm am
Ġgrad u
Ġadol esc
0 4
atis que
Ġmun ere
Ġconi ur
Ġtranqui ll
p ta
Ġproc ed
Ġflu uium
Ġabst in
Ġe k
Ġhab erent
Ġapp os
Ġposs is
Ġtra go
Ġmet us
Ġxx ii
Ġamb o
Ġull um
Ġrespon de
il itate
Ġdic tis
Ġquas dam
Ġalter am
Ġpoen as
Ġtrago ed
0 1
ic ula
Ġad ept
Ġcr as
Ġpal ud
Ġcommun e
l um
Ġd io
Ġh il
ol em
uit atem
Ġinc on
ios is
Ġhum ani
s ub
Ġa quam
Ġop ul
Ġvid et
Ġdec ur
Ġep ic
Ġprouinc iis
Ġdisciplin ae
am en
eg o
Ġven eris
Ġlum ina
m en
ri que
Ġiud ae
Ġamic o
Ġdecre tum
Ġeur ip
Ġc ito
Ġpr ost
Ġinter est
Ġx ix
Ġven isset
Ġth eat
Ġ13 6
Ġm ass
Ġu os
Ġoppid a
ereb ant
Ġfa uc
ic ul
Ġpl an
Ġimper ia
Ġfl ex
Ġcol or
Ġchr isti
at on
Ġcae d
Ġpal at
Ġplur ima
Ġin j
Ġint ent
Ġrep ent
Ġeff us
Ġver ecund
au e
Ġvictor iam
Ġfin it
t im
Ġs ib
Ġl ax
Ġre us
Ġneg at
Ġexempl a
Ġextrem um
p s
al am
Ġne ut
ect os
Ġap r
Ġcogn ita
Ġequ um
Ġfut ura
Ġpass uum
h ann
Ġ uers
Ġant ist
Ġven us
rim que
Ġnomin ibus
Ġuter que
d ae
os um
Ġob uiam
eri or
Ġips orum
Ġvide antur
Ġfam am
Ġmiss i
Ġmot u
Ġoccis us
Ġr o
rat o
Ġvocab ulis
Ġconi unx
Ġsed es
ert ia
Ġvet eris
Ġcaes ari
Ġmun eribus
Ġglor iae
Ġalexand ri
Ġmeli or
h oc
Ġqu atu
Ġf orum
Ġsen ect
Ġvest ris
Ġarcad ius
Ġam orem
ar at
itur us
Ġmar m
Ġvol uc
Ġscrip tis
Ġeos que
Ġtempest ate
Ġf ess
ul isse
Ġmod us
Ġanim a
Ġconc ur
Ġcontin uo
Ġrhod iens
im i
Ġr atus
Ġius ta
act enus
ecta b
Ġsil u
Ġbel lic
e qu
r iae
Ġn or
Ġm eg
or ia
Ġt ecta
Ġl ug
Ġl yc
Ġad j
Ġex or
ol e
Ġag i
Ġist ud
Ġ ÏĦ
Ġlib erum
Ġiudic ia
Ġarm orum
Ġvehem enter
Ġaristotel es
at ic
re xit
Ġim o
Ġu eni
Ġqua propter
Ġthe oph
Ġsax a
iper et
Ġconsult o
c l
re ta
est um
ug it
ian is
Ġdef orm
Ġrep ud
Ġposs umus
Ġcult u
Ġagm ine
Ġdec et
Ġpraes tare
Ġaqu as
Ġla es
p as
qu ae
Ġca ll
Ġte x
Ġven iam
Ġinsid iis
er ii
Ġa es
Ġd omn
ur n
ut h
Ġx l
Ġag rest
Ġmuli eres
Ġg entem
Ġper dit
Ġca ud
Ġst ren
Ġmod er
Ġmult itudinem
Ġinu as
Ġp t
Ġv ota
Ġtr ip
ert us
Ġreg ibus
Ġopp ortun
Ġmont es
Ġaugust o
er imus
Ġl ub
Ġut itur
Ġr ost
Ġdix erat
Ġluc em
Ġord inis
Ġfamili ae
r ub
Ġam ph
Ġaud io
Ġnecess itas
Ġlibert ate
Ġio ui
Ġconui uio
um en
Ġt ent
Ġt al
Ġut rimque
ab am
est im
and as
Ġst ir
Ġanim al
Ġnum er
Ġas iam
Ġign i
Ġtantum modo
Ġher ac
Ġdemonst r
Ġp ell
on am
ac to
Ġsc op
Ġfec erat
ici ens
Ġnegot iis
Ġideo que
ĠâĢ Ŀ
ith rid
Ġol eum
Ġd udum
Ġh eu
Ġexp rim
Ġequ is
Ġped itum
Ġlibert atis
Ġret t
Ġlan gu
Ġc ul
Ġpar iet
Ġnihil o
Ġcre dit
Ġnou o
Ġquat enus
Ġincl us
Ġdissim ul
Ġsemp ron
Ġal c
Ġun quam
Ġinc red
Ġsex aginta
Ġtestam entum
Ġfront e
Ġfiduc ia
Ġd aret
Ġcomm e
Ġsen ex
Ġcet er
Ġequ os
Ġabs ur
Ġtur pe
Ġcong reg
Ġp ict
Ġint us
Ġvoc ibus
Ġaliqu i
Ġres id
Ġfer rum
Ġconf id
Ġsap iens
Ġimpet um
Ġgracch us
Ġex act
Ġcont ent
Ġnum eros
ios o
Ġnob iles
Ġgrat iae
Ġreli quis
Ġbre u
Î¿ Ïħ
Ġpaul atim
s ic
ob rem
Ġreg ionibus
Ġciuit atibus
Ġserm onis
0 3
Ġin pr
Ġin itium
ir um
Ġaccep imus
Ġtali bus
Ġherc ule
Ġclass is
ac es
Ġill as
Ġcur sus
Ġexp ect
Ġcam pan
Ġcamp o
Ġdiffic ult
Ġcertam en
Ġlux ur
Ġpla utus
o lic
Ġal to
Ġsen atores
Ġfer ri
Ġtrans g
Ġaccep ta
Ġscript ores
5 0
Ġf ou
Ġpr osc
Ġvoc es
Ġlitter am
Ġdem et
94 7
Ġaux ilio
Ġv ini
Ġinter dic
Ġcont rac
Ġdisc ed
Ġfide icom
Ġincip it
Ġdic ebatur
Ġdign us
Ġsens im
ereb atur
Ġui x
Ġpartic ula
Ġfideicom m
Ġquo ad
Ġem in
Ġadi ut
m us
Ġp ares
Ġl atus
Ġinter uall
Ġapp et
Ġstud ia
Ġeu as
Ġtribun o
Ġperic ula
Ġpauc os
Ġads crip
Ġmart y
Ġglad io
Ġphr yg
r it
Ġinu icem
Ġdom it
Ġdet rah
Ġconueni re
h el
Ġsol em
Ġ2 3
Ġpraes enti
Ġgraec o
Ġdom os
Ġod ium
ent issime
Ġmin ister
Ġluc ret
Ġac tus
Ġcor rig
Ġsen ator
Ġsept entr
Ġpleb i
Ġdiss er
Ġiuuen es
Ġsid era
Ġconsuetud inem
Ġnigid ius
Ġpaen it
Ġp ep
Ġm orum
Ġf ini
ae um
Ġr ationibus
Ġver sum
Ġvoc ari
Ġconsul atum
Ġem end
Ġmitt it
Ġn iu
Ġh actenus
Ġhab ita
Ġtot idem
Ġexerc it
Ġseru um
Ġprincip ibus
Ġnau ium
Ġmens ibus
Ġsanct orum
0 2
t ium
Ġvid i
Ġag e
Ġann ali
Ġmult ae
Ġgrat ianus
Ġanti quit
Ġextrem a
it ias
Ġper sequ
ult um
Ġag itur
Ġag ri
Ġhis p
Ġign au
Ġequ est
Ġepiscop i
Ġagm en
Ġtestim onium
Ġresp ons
Ġsapient ia
Ġquatu or
m enta
p ed
Ġm ithrid
Ġin ut
Ġhab itus
Ġloc up
Ġpop ulis
tor ibus
Ġbell is
Ġduc ibus
Ġdic eretur
Ġmod erat
Ġtant ae
Ġnum eri
Ġciu ilis
Ġcond ita
Ġc oc
Ġn eb
Ġsub j
Ġnecess itate
Ġpond ere
Ġme os
tum que
Ġeg it
Ġsing ula
Ġumb ra
Ġilly ric
uer etur
Ġpot uisse
Ġacc idit
Ġrep ublica
Ġcat ili
Ġtor qu
Ġstip end
Ġintr od
Ġ ulc
Ġin per
Ġg entibus
Ġfal sum
Ġhannib alem
Ġp ann
em per
al a
Ġpauc i
Ġeleg ant
Ġpla uti
Ġsac r
Ġdon a
Ġdid ic
Ġ ÏĢ
in arum
Ġr os
iss us
Ġmar it
Ġpa x
Ġnecess ario
Ġmont ibus
Ġmaior a
en es
ae o
Ġad est
est us
Ġeos dem
Ġel eph
Ġphilosoph orum
Ġact ionem
Ġcarm en
Ġinsid ias
Ġf rem
Ġpr iore
Ġpot ui
ris que
ient is
Ġcomp ell
Ġdisc ept
Ġtrib u
r iter
Ġign em
Ġlab ores
Ġdoc et
Ġfamili ar
Ġmur m
xx x
Ġnonn ull
u ui
Ġ ;
Ġst om
Ġreg ione
Ġvol ens
Ġfr ang
Ġcol ore
Ġaccip i
Ġfoed ere
k e
y ll
est hai
Ġquam obrem
Ġst rag
Ġanim am
Ġign osc
Ġdis per
Ġport us
Ġio hann
Ġinuid iam
Ġcaec ilius
Ġrhet or
Ġdi is
Ġqua erit
Ġmed ic
Ġaduers a
Ġlaud ibus
Ġquir ites
am ine
ul erat
Ġlib era
Ġrep per
Ġprincip e
Ġscrips erit
__ __
s am
uer ent
Ġpro i
Ġfl or
Ġdes in
Ġopt imum
Ġreuers us
qu al
ol it
ab iles
Ġb acch
Ġst rep
Ġcor rip
sit an
Ġvest ri
Ġalien o
Ġscel us
Ġi um
or io
Ġvoc at
Ġlat inum
Ġret ro
Ġpraem ia
Ġsicili am
ec utus
Ġduc ere
Ġindust ria
o is
on it
Ġb est
Ġab hor
Ġvid es
ust um
Ġph ys
Ġno uis
Ġfaci em
Ġess em
Ġcapt us
num quam
am entum
Ġh ym
Ġex ort
Ġco hib
Ġmar iti
Ġurb s
Ġacc essit
Ġund is
94 8
Ġdel ph
Ġimpet us
Ġou k
Ġnef as
Ġh erm
Ġut que
Ġer as
Ġcont ig
Ġnost ras
Ġexp et
Ġperic ulis
Ġdict ator
Ġsoll emn
Ġsull a
Ġre cepit
ac ulo
Ġcon fic
Ġ" "
Ġr ationes
Ġ2 5
Ġdign itas
Ġpatr ibus
Ġreli qui
Ġredd ere
Ġdesc rip
Ġaudi ui
a ph
u ad
Ġpr idem
ip h
Ġ2 4
empl o
Ġpraesid ium
Ġmerit is
Î º
Ġs inus
Ġl asc
ue h
Ġnob ili
Ġbon o
Ġimperator i
ae us
Ġsp ons
Ġdu xit
Ġiudic ii
Ġfam e
Ġpoen ae
Ġaur ibus
Ġc un
id iam
Ġcl od
Ġmaxim i
Ġdol ab
Ġcircum d
Ġhered itatem
Ġauct ore
Ġt ellus
Ġin r
se dit
Ġal ta
Ġsangu inis
Ġcompl ex
Ġadiu u
r iam
Ġleg atum
Ġibi que
Ġplat onis
m in
Ġe idem
Ġsu d
Ġse pe
Ġdi rig
Ġnatur alis
Ġflum ine
Ġnasc itur
re x
Ġsu g
Ġne qui
Ġten ere
Ġfaci endum
Ġlaud em
Ġistius modi
Ġcit ra
a z
ic ibus
se l
il itas
Ġprim ae
Ġaequ o
Ġpriu ileg
Ġkal endis
Ġe up
Ġun gu
Ġdef ini
Ġten ui
Ġfor sitan
Ġhered es
Ġpert urb
Ġs op
et si
Ġb id
Ġquem que
Ġtempl o
Ġterm in
itat u
Ġf ate
ell am
Ġlic entia
Ġnunt ia
Ġpost er
Ġmin ore
Ġhon os
96 5
Ġmort uus
Ġinscrib itur
y ph
Ġut inam
Ġhum anis
Ġnecess arium
Ġpraefect o
Ġp oc
it ores
Ġf ren
Ġb ou
Ġser uis
Ġdec or
Ġcur ae
Ġtib erius
Ġgall orum
Ġconsp ectu
ut ae
Ġl aus
Ġmed it
Ġopp rim
Ġarm en
Ġ Îµ
Ġp and
om et
Ġprae dam
Ġtr ic
Ġvic it
Ġtribun is
Ġflum inis
Ġfrequent er
Ġplut archus
Ġc os
Ġv ariis
Ġh ar
Ġsu auit
il itatem
Ġne quit
Ġcom itia
Ġop em
Ġmar tis
Ġapp aret
Ġpor c
Ġpartic ip
Ġs tare
Ġc inc
Ġus quam
Ġrec uper
Ġsem et
Ġstat uit
Ġlun ae
b atur
er ret
Ġd er
Ġut ile
Ġsc ae
Ġmin ores
Ġref erre
Ġd ion
Ġad l
Ġprae u
Ġcap ere
Ġsangu inem
Ġequit ibus
Ġredi re
Ġves per
Ġp ae
Ġv t
Ġf ar
ul ch
Ġli quid
Ġpompe ium
Ġpropr io
Ġconsuetud ine
Ġphilipp us
Ġdeh inc
s ae
ac ti
Ġter go
Ġiudic um
Ġux ore
Ġcomment ariis
Ġaene as
e uit
o uit
Ġven erunt
Ġist os
Ġign e
Î¿ ÏĤ
Ġconsili i
Ġalic uius
Ġa eli
Ġpa ph
Ġappell ari
Ġund as
Ġext emplo
Ġle uis
g r
Ġp lin
Ġad didit
ab unt
Ġr ationis
Ġvel oc
Ġag rip
Ġlong in
Ġlab orem
Ġspec ia
Ġmens is
Ġdecre ta
Ġlacrim is
v est
ta x
ta uit
Ġam nis
esc unt
Ġhom erus
Ġhy g
Ġmi ra
Ġinteg rum
Ġn ymph
Ġleg ere
Ġvir go
Ġdec ess
ern a
Ġpraet ore
Ġpronunt i
Ġne ue
Ġfac in
Ġann alibus
Ġpra en
Â» .
c om
i k
Ġin pos
Ġin prob
Ġann alium
Ġcogn om
Ġconstitut a
Ġclam ore
Ġsta gn
uer o
Ġmed iam
atu re
Ġlaud is
Ġcircum f
Ġscip ione
Ġrelic ta
ipp us
Ġdiffic ile
Ġstell arum
i ur
y ri
Ġfac is
Ġfl au
Ġinf elix
Ġfor s
Ġexc it
Ġsecund us
Ġtrad itur
Ġargum entum
em it
Ġl oquent
Ġad pet
Ġproc ess
Ġscel ere
Ġsocrat es
ent issimus
ac em
Ġrec ord
Ġgrat ul
Ġcel erit
Ġvolunt as
Ġfamili aris
Ġplurim is
Ġg n
ot e
Ġto is
Ġlac ess
Ġproeli a
Ġsoli d
Ġhad ri
p is
Ġp ir
Ġd ura
Ġst atum
Ġlit ig
Ġlat ini
Ġpraet ex
Ġabs que
Ġcondic ione
Ġul ter
Ġli qu
Ġpar ere
Ġvoc antur
Ġscrip si
Ġsec uti
Ġsept u
Ġsil entio
Ġg ente
Ġab est
Ġpat et
Ġmis eri
Ġact ione
Ġopin ionem
Ġpas ch
Ġsentent ias
er g
Ġd ato
Ġd orm
im ul
ul erit
Ġconf estim
Ġind oc
Ġmort uo
Ġlac us
Ġaux ilia
Ġgall is
Ġs eri
Ġu ul
Ġhor r
Ġmol li
Ġpraetor io
Ġeur op
Ġm eret
ant um
Ġb eat
Ġcons ol
ell it
Ġprae par
Ġinc ol
Ġanton io
Ġart es
Ġprud entia
Ġauct orem
i v
im ae
Ġcont ione
Ġmo li
ram que
Ġfrat ri
ord iam
Ġort us
b o
Ġt ales
ut os
ac is
Ġg urg
Ġfac ias
Ġfort iter
Ġ2 6
Ġciu em
Ġhere dem
Ġp in
am in
Ġsc ite
Ġinf elic
Ġseru o
Ġic tus
Ġmagistrat ibus
" :
c it
Ġd abat
Ġn ic
uc h
Ġop ibus
Ġgra uius
Ġmuli eris
Ġbre uiter
Ġvictor iae
Ġadu entum
Ġscrips erunt
Ġfact urum
Ġmanifest um
Ġsump ta
Ġs ord
rat es
Ġag ris
Ġport um
Ġta uri
Ġuniuers i
Ġden unt
Ġd ens
Ġl et
Ġinc ho
Ġpart ium
Ġman e
Ġmaxim is
Ġhon oribus
Ġcontra h
Ġgraec orum
Ġcui quam
Ġsus cepit
Ġquaer itur
Ġverg ilii
Ġ ]
Ġe unt
Ġv isc
Ġfac tam
Ġoffic ii
Ġfab ius
Ġalien um
Ġvari et
97 2
d ecim
Ġt es
ant h
end itur
endi que
Ġpet ul
Ġcens ores
Ġtut el
Ġadf irm
Ġmemin isse
Ġp ren
ul sus
Ġad esse
Ġab sum
Ġfac ili
Ġal ac
erent em
Ġfort is
Ġfi x
Ġpers uas
Ġcat onem
Ġscip ionem
Ġfranc orum
Ġop eri
Ġinc rep
Ġcl asse
ati que
Ġven erat
Ġas iae
Ġconsul atus
Ġsae uit
Ġarg ente
Ġfur ti
Ġmen and
Ġaure a
m an
emp e
Ġcomm itt
ient iam
Ġtest is
Ġquad ring
Ġtrad unt
Ġnasc i
Ġtruc id
Ġb ass
Ġleg atus
Ġgen eribus
Ġxx iii
Ġpossess ionem
Ġm asc
Ġper did
Ġar ce
Ġmagn ae
Ġsign o
Ġhom eri
Ġvig il
Ġscip ionis
Ġvolupt as
Ġs ert
Ġp iper
Ġm es
Ġad dic
Ġper l
Ġcont igit
Ġconf us
Ġfacult atem
an iam
Ġsu arum
Ġpar u
Ġven ia
Ġfili ae
Ġsex t
Ġclaud io
Ġrur sum
Ġcon qu
Ġr itu
Ġpro lix
Ġquae cumque
Ġsim iles
Ġconsul atu
Ġgaud ia
Ġparent um
Ġconsult um
Ġfruc tum
on g
Ġh ed
Ġper duc
Ġill ae
Ġsol u
Ġloc uti
Ġiudic iis
Ġaud iuit
Ġfec isset
Ġaed es
Ġadu entu
Ġiuu at
Ġcorn u
s ecus
Ġprincip ium
Ġiust itia
Ġsens u
Ġaeg re
Ġrepreh ens
Ġintellig itur
Ġs ati
Ġc ris
Ġsu e
ta g
Ġcont entus
Ġmar ito
Ġcur iam
Ġsuper iore
anc ip
Ġinu ol
Ġlat eb
Ġcas um
Ġdoctr ina
Ġro go
Ġn aut
Ġt ig
Ġmar s
Ġvol um
Ġgra ue
Ġmilit ari
Ġconstant ino
Ġexempl is
Ġhere dit
Ġgaud io
Ġpud or
Ġpel ag
Ġos sa
Ġinterc ess
) ,
Ġapp are
Ġalexand ro
Ġsug g
Ġt arent
Ġt aed
Ġf oc
et u
Ġcon atus
Ġab d
Ġvic em
Ġvic es
Ġconf it
Ġpoen is
ian ae
Ġaccip it
Ġrespon sum
Ġconl oc
Ġamo en
Ġcom it
Ġcont empl
Ġpat itur
Ġdiu es
Ġnegot ia
Ġcustod ia
Ġvestig ia
b antur
Ġcom iti
Ġact iones
Ġinop ia
Ġorient e
ul lius
un i
Ġprop er
uers um
ecta re
Ġperic uli
Ġnoct u
Ġad rog
Ġcon pl
Ġdic endo
Ġal ue
Ġpot entia
Ġsp arg
Ġlic eret
Ġeodem que
Ġuen it
Ġ y
ut ius
Ġsi g
eb unt
Ġmult am
Ġsim ilia
Ġund ec
Ġpraet ores
Ġach ill
Ġsort e
c ont
Ġc ilic
ic ulum
Ġqui et
Ġpos itis
Ġeff ug
Ġnau em
Ġconi unct
Ġtar quin
Ġe qui
Ġi ei
Ġp ab
Ġde dic
Ġred didit
Ġaff irm
Ġgalli am
Ġhab etur
ull us
Ġann us
Ġmulta que
oth ec
Ġiniur ias
Ġfraud e
Ġh em
Ġdic erent
Ġan cip
eb amus
omin us
Ġappell ata
Ġcol um
Ġequ orum
Ġlaud es
Ġpen es
Ġgest is
Ġcot idie
Ġpuell ae
Ġad uen
Ġg ab
Ġcons im
Ġst ric
Ġinter pos
Ġing redi
Ġlibert as
Ġverg ilium
Ġir r
Ġdup lic
am b
et ai
Ġdic ebant
Ġpar ric
Ġcor inth
Ġman et
uert it
Ġvuln era
Ġsingul ari
Ġspecta b
Ġh ell
Ġobs ec
Ġperm an
Ġquic umque
Ġrelic tis
Ġgrad us
Ġconscrip ti
Ġparen s
d rub
Ġprae cepit
Ġpar tus
Ġroman am
Ġpraes um
Ġcirc uit
Ġpec uli
Ġcal umn
Ġsens um
Ġhuman ae
Ġuol unt
Ġintrod uc
Ġg el
Ġurb ibus
Ġpu ella
Ġrede unt
Ġpersp ic
p ad
Ġc ac
Ġmed iis
Ġgraec um
Ġmet um
Ġmens es
Ġdilig entia
Ġaper te
Ġstom ach
am ina
Ġvid eret
Ġqua ero
Ġtam etsi
Ġtu orum
ph orus
Ġnem ini
Ġtribun os
Ġpuer um
Ġobsid ione
1 1
Ġm yr
Ġv entum
ul isset
Ġde a
Ġper cip
ert i
Ġinscrip tus
3 9
on os
uit atis
Ġr ump
Ġpraet oris
ras se
Ġsep ulch
Ġperpet ua
Ġagm ina
Ġtol er
Ġiou em
a est
e k
Ġf atum
Ġl ust
Ġcar n
Ġas sum
Ġeu oc
Ġdia lect
Ġgall os
Ġacer rim
Ġaliquant o
Ġben iu
Ġtr id
Ġag am
Ġcl e
Ġund a
Ġuer t
Ġmuli erem
Ġproxim o
Ġn empe
ab iliter
Ġquod dam
res sit
Ġoc ulorum
Ġanim ae
Ġded isse
Ġpropri is
Ġtir o
ienn ium
Ġn ullius
et es
Ġdix isti
Ġius sus
Ġtra didit
Ġmilit aris
f rag
oc in
Ġcons ulum
Ġpost ero
rem us
Ġmal orum
Ġvest ro
Ġem ancip
Ġlic entiam
Ġped um
Ġnim ia
Ġinuen it
79 36
Ġdemost hen
Ġim ago
itat io
esc at
Ġus i
Ġgraec os
Ġsenatus cons
Ġdisciplin am
Ġuniuers a
Ġorient em
e ae
Ġp arem
Ġinu entus
Ġ2 7
Ġaest u
rin secus
d om
Ġter g
Ġval erius
Ġarbit rab
Ġinm an
Ġcompos itum
Ġcontr arium
p at
Ġd or
Ġn as
Ġpot erant
95 1
Ġrep ugn
Ġlae ta
Ġprec or
Ġasper n
Ġren ou
Ġocta uo
Ġv entur
Ġf en
ab or
Ġtot us
Ġeu eni
Ġoff ens
Ġpraefect um
Ġorient is
Ġinstit uit
t orum
Î ³
im as
ul sa
Ġcon pos
Ġg essit
Ġdec ret
Ġdef endere
Ġsab inus
Ġoce anum
Ġfluc tus
h aec
Ġin quis
Ġab duc
Ġhab ebant
Ġcor rump
Ġvide or
Ġcrim in
Ġperpet uo
Ġarbitr io
ĠÎ º
Ġh ir
ect ione
Ġloc utus
Ġmult itudinis
Ġinst itu
Ġpers arum
Ġpal atio
rent es
Ġbr ach
Ġform ae
Ġafric ae
Ġfoed us
Ġdi rec
Ġcomm ut
Ġsignific et
Ġhonest um
Ġ0 8
Ġsar c
Ġqu or
Ġd atus
Ġl itus
Ġper que
Ġan al
Ġar ua
Ġpos ui
Ġmod ul
Ġau es
Ġpon ere
Ġs ob
Ġco actus
Ġcom ites
Ġpar uo
Ġen ar
Ġten u
Ġfec eris
Ġliber orum
Ġfab ula
Ġrelig ionis
Ġinop in
Ġlingu am
Ġt re
ic ulis
ell ae
Ġdoc tus
Ġparent is
Ġot io
Ġpiet ate
Ġcot id
Ġc eu
Ġd ere
ar c
Ġprae cepta
Ġpot uisset
Ġexc el
Ġiust itiae
Ġtert ius
Ġsucc ed
Ġsubs crip
Ġconsist ere
Ġc rem
Ġn icom
Ġg ent
ra ret
Ġqua lia
Ġsuper ior
Ġvet ere
Ġsumm is
Ġtert iam
Ġarc em
Ġpre ter
Ġhuman arum
Ġtran st
Ġobsc ur
Ġvect ig
Ġc cc
Ġqu ales
ant a
ui g
ess ent
Ġem olum
Ġra uen
Ġprouinc iarum
Ġconstant ius
Ġport as
Ġfamili ari
Ġest in
Ġdi ui
Ġne qu
Ġu all
Ġtr unc
Ġing eni
Ġluc is
Ġseru orum
Ġuer um
Ġfre quens
Ġfem ina
p ost
Ġad ri
ol am
end io
ina i
Ġdu orum
Ġsan g
Ġcred ere
Ġsil uis
Ġta urum
Ġparent ibus
Ġren unt
Ġxxi v
Ġpraesc rip
Ġp ull
Ġc ret
Ġad ire
Ġg rec
est i
Ġma ur
Ġhab itum
Ġst r
Ġcur sum
Ġno ll
Ġtim or
Ġnupt ias
Ġmultip lic
Ġn atu
id ius
Ġfl ect
Ġdem oc
Ġprec es
Ġspir itu
Ġdion ys
Ġant h
erent ibus
Ġtra i
Ġquon am
Ġbre uis
Î± Î¹
Ġpropri et
em odum
Ġat tin
Ġnum id
Ġpraet ere
Ġdol o
Ġcapt um
Ġve h
Ġpres b
lic o
Ġag ric
Ġpraes entia
Ġanti quis
Ġprof ess
Ġmuli erum
" "
Ġd rus
ta ur
ert um
Ġhon esta
Ġign es
Ġadm itt
Ġsep ulc
Ġinqui unt
m o
Ġ unc
Ġl aque
Ġver itatem
Ġcor rept
Ġpa ulus
Ġnum ina
Ġlat inis
Ġlat inae
Ġsing ulas
Ġpertin ere
Ġfem inae
Ġsper o
Ġtestim onio
Ġiei un
Ġv ous
im os
oc c
ili as
Ġk y
Ġluc ilius
Ġlab oris
Ġdis plic
Ġeu ad
Ġtim ore
Ġaequ um
Ġquor undam
Ġcons ue
ust o
Ġinc or
Ġgen et
ios ius
Ġrem p
Ġaud ita
Ġpac u
t ionem
Ġs auc
Ġdic to
Ġsc it
Ġu ell
Ġsol ut
iu us
Ġvit iis
Ġaur as
Ġsupplic io
Ġsupplic ium
Ġpiet atis
u ens
Ġd o
Ġd an
Ġint ol
Ġpl anc
Ġer ig
Ġfort uit
ator i
Ġcas ibus
i endum
ur ibus
per et
uc t
ist ere
Ġag eret
Ġres eru
if ex
Ġsor or
Ġscel eris
Ġmand atum
Ġspir itum
Ġf oris
Ġnon o
Ġr ar
Ġcor de
Ġprop ugn
Ġgen eri
Ġing entem
Ġcong r
Ġcong ru
Ġnesc it
Ġedic tum
Ġh arum
Ġl eni
Ġad or
Ġqua eris
Ġvic tum
ici unt
Ġdoc ti
Ġbr ut
Ġhas drub
Ġceler itate
c ur
Ġe ae
Ġp are
Ġf ist
Ġl es
ir ma
Ġcom itiis
Ġcomp on
Ġ2 8
Ġtra b
Ġarg entum
Ġpraest ant
Ġconstitut us
Ġmou et
Ġantioch us
Ġbal ne
Ġdelib er
Ġquoc umque
d as
Ġ omin
Ġd am
ot am
Ġlib et
Ġqua li
Ġinter fic
erat i
Ġvol go
Ġlae tus
Ġnot um
Ġmagist ratum
ĠâĢ Ļ
Ġmand ata
Ġthes a
Ġ oth
Ġex itus
Ġg eli
Ġut rique
Ġag ens
Ġimp ud
Ġsex us
Ġpuer os
Ġdiss ens
Ġorig inem
Ġcohort es
Ġetr usc
Ġprosc rip
m i
m entis
Ġl ys
Ġad pos
Ġac ri
Ġsp um
Ġrep ar
Ġconu oc
Ġpond us
e antur
is a
Ġf onte
Ġgen uit
Ġist ae
Ġius sa
94 1
Ġcop ul
Ġinsign is
Ġsumpt um
Ġflam ma
e os
Ġc ann
on ias
iss am
Ġdic tu
Ġmin orem
Ġacc edit
Ġvest ram
Ġto i
Ġanti qui
Ġpor rig
Ġanton ium
Ġeloquent iae
Ġcelerit er
Ġn oli
ib at
ast as
Ġvic esimo
Ġconf ug
Ġtrans ire
tab ant
Ġnar r
Ġic tu
Ġpiet as
Ġdifferent ia
h ab
in f
Ġpl enum
ine at
ati or
Ġsup pl
Ġprob e
Ġlud os
Ġindic ium
Ġsulpic ius
s os
Ġqu ac
Ġd isi
Ġad sp
Ġma u
Ġsc is
Ġbon ae
Ġmilit em
Ġatt ing
Ġargum entis
Ġh oi
ens que
Ġvid imus
Ġter rib
Ġcamp is
Ġuit ae
Ġp ur
Ġd abit
ec erunt
ol os
Ġper hib
Ġca ue
ust us
Ġips ae
Ġdec reto
Ġgra uitate
Ġobs ess
Ġsac rum
Ġost endere
Ġeadem que
Ġdist rib
Ġfelic iter
ule phorus
Ġquaes itum
Ġperson am
Ġt ell
im entis
Ġr ation
Ġmaxim am
Ġnob iscum
Ġfr ond
Ġcircum u
Ġprof ug
Ġpoet is
Ġreliqu um
Ġdemonst rat
a uerint
am enta
Ġh eli
Ġcl a
Ġmuli eb
Ġquar tum
Ġgalli as
Ġaudac ia
Ġcec idit
b ulephorus
er antur
Ġe uenit
Ġf ores
ec erit
Ġre leg
Ġop erae
Ġen s
Ġant ec
Ġgen eros
Ġciu ile
Ġeu id
Ġaqu arum
Ġpud ic
Ġbenefic ia
rid ie
Ġrelic to
Ġsomn o
Ġscae uol
s isse
Ġp ius
Ġh am
Ġca da
Ġreg ina
Ġman ub
Ġth alam
Ġk ak
Ġbell orum
Ġsal us
Ġcircum st
Ġcommun em
Ġafric anus
Ġperpet uum
Ġlum ine
Ġfast ig
tax at
m as
Ġab esse
Ġal tum
Ġinc ogn
ient ium
Ġocc urrit
Ġdeb eret
Ġexc og
Ġdum taxat
Ġdep ut
Ġped e
Ġux oris
Ġuniuers is
Ġn eru
as ter
uit que
Ġne x
Ġpraes entibus
Ġquin decim
Ġux ores
Ġtor que
Ġinim ic
atiu o
] .
l iter
y st
Ġcon leg
Ġb ith
Ġluc tu
Ġoffic iorum
Ġadu eni
Ġgall us
Ġsag it
Ġfruc tu
Ġsubst antia
Ġeccles iae
t es
uer im
Ġdic ant
Ġmo ueri
Ġpers uad
Ġproxim um
Ġlaet itia
Ġaristotel is
Ġvalet ud
Ġn ug
im en
ra ph
il um
Ġmagn itudinem
Ġsanc imus
Ġvinc ula
Ġgem itus
Ġpraed ae
Ġinueni re
Ġpest il
Ġa ue
Ġs o
Ġm am
ae qu
Ġcons ent
Ġst atus
Ġgen it
Ġurb ium
Ġfec i
Ġput es
Ġsus c
Ġplac ere
ons ult
Ġtrad itum
Ġcorn ua
Ġperse uer
c ae
inc tus
Ġdec um
Ġcomm is
Ġfili orum
Ġdef l
Ġius si
Ġdes er
Ġsac ro
Ġarg ut
Ġconstitut um
Ġfacund ia
Ġdemost h
ut urum
Ġad itus
Ġli ne
Ġtr it
Ġor o
Ġsec ret
Ġappell atum
Ġind ut
Ġmet all
Ġseru are
Ġflag it
Ġlep ide
Ġmeret ric
Ġor ta
Ġprop ius
Ġpul c
Ġsens it
Ġopin ione
Ġutil itas
Ġincred ib
ra x
Ġper quam
Ġli quam
Ġvol uerit
Ġtot iens
Ġlat ino
Ġbon os
Ġverba que
Ġcoll oqu
Ġcircum sp
Ġmagist ro
Ġpleb em
Ġserm ones
Ġcrim ina
Ġd it
Ġtr op
emp ta
Ġsol ita
Ġcomp rob
Ġmal edic
Ġfam ae
Ġmat ern
Ġsoc ii
Ġmiss a
Ġaure li
Ġsociet atem
an iae
Ġad erant
ol et
Ġcons ort
Ġtr am
Ġiudic ibus
Ġnob ilium
Ġvit elli
Ġquant i
Ġfur tum
Ġcontin u
Ïī Î½
Ġhes per
Ġgord ianus
n ou
Ġmar te
Ġcl ari
Ġvoc um
Ġvol uisse
Ġrec ed
Ġcirc iter
Ġarb ore
Ġvirtut ibus
Ġtit ulo
Ġpecc atum
1 2
c ap
Ġa uers
it uit
Ġm ob
Ġf o
ic ia
Ġde ae
Ġac adem
Ġdic ti
Ġsuper est
Ġcap ess
Ġmed iol
Ġput et
Ġext r
Ġdol oris
Ġflamm is
er ua
Ġm ulc
Ġl x
Ġre um
Ġex itum
Ġme orum
Ġam is
Ġoc uli
Ġag er
ag es
Ġvol uerunt
di e
omen on
Ġfaci ebat
ren a
Ġdet est
Ġperic ulos
Ġcommod um
Ġconsuetud o
Ġcolleg a
Ġpropos itum
Ġseruit utem
0 5
er p
Ġin b
ar n
ell as
Ġvoc atus
Ġth erm
Ġinu ic
Ġnau frag
Ġpulch r
Ġrob ore
Ġsimulac rum
e amus
Ġr ati
Ġqua que
Ġx en
Ġsit u
Ġnecess um
idi atum
Ġaccep isse
Ġinteg ra
Ġhosp es
atiu a
e ia
Ġqu anquam
Ġl ata
Ġut untur
Ġinter m
Ġcur r
orem que
Ġrec ta
Ġist orum
Ġiust um
Ġatt ico
Ġfamili as
Ġproeli is
Ġrelic tum
Ġscient iam
Ġeloquent ia
Ġcoept um
Ġar tus
Ġop e
Ġprop emodum
Ġpraecip imus
Ġiou e
7 952
est is
Ġtr is
Ġtant us
ios am
Ġput aui
Ġneg lig
Ġanti qua
Ġepist ulam
Ġiuuen em
Ġfront o
Ġsumpt us
Ġcoeper unt
Ġpurp ure
Ġa ui
it teret
om a
Ġex inde
ell ere
Ġconc essit
Ġcorp orum
Ġvest e
Ġpuer o
Ġuic t
Ġhispan iam
Ġcognosc ere
Ġobi urg
Ġc im
Ġin erm
Ġf ui
Ġh ect
Ġhab eas
Ġtam que
Ġpost ridie
Ġapp lic
Ġgrat a
Ġhum ana
Ġphilosoph is
Ġord ines
Ġdel eg
Ġveni ens
Ġcondit am
Ġtulli i
h omin
Ġa re
Ġp act
Ġm uris
or as
Ġf ann
Ġad st
Ġfac iant
Ġtr ac
Ġpost erum
ient i
Ġacc om
Ġinu enta
Ġmo uit
Ġhuius ce
rep ta
Ġopin io
Ġart ium
er atus
Ġde di
Ġpro ximus
iis que
ull o
Ġres c
Ġcup ide
Ġaff ect
Ġdecem b
Ġmund o
Ġmatrim onium
Ġinnum er
ens o
Ġ2 9
Ġmed ius
Ġconc ub
Ġvet erem
Ġmat ri
Ġ3 2
Ġcol oris
Ġve hic
Ġfund um
Ġuig inti
Ġseptu aginta
Ġcris p
Ġsang uis
Ġam are
Ġlib y
Ġips as
Ġsuper f
Ġimp on
Ġch a
Ġmis erum
Ġped em
Ġscrib is
Ġull am
Ġhor am
er er
Ġi li
Ġc uc
in u
pt is
Ġmar itus
Ġfer ens
Ġpriu atis
Ġpriu ata
Ġvirg inis
Ġna uis
m ar
am ento
ic io
Ġcon didit
ell os
Ġcaus arum
Ġau ium
Ġdomin is
Ġtest es
Ġaegypt o
es i
auit que
Ġsim ilem
Ġpraec ed
Ġcoll a
Ġnim irum
Ġalt ius
Ġm entes
Ġde lig
op onus
Ġb ab
Ġint end
Ġpo eni
Ġpublic i
Ġra b
Ġmale fic
Ġcand id
n unc
Ġs qual
Ġv ias
Ġnon numquam
ab imus
Ġb uc
Ġpot uerunt
Ġgen erum
Ġvirtut um
Ġvell ent
Ġcoh a
Ġcruc i
Ġauar itia
Ġstet it
Ġcada uer
Ġac tu
Ġu ide
Ġins ulae
Ġingen ia
Ġdim itt
ublic am
i ebant
nt h
Ġat ta
Ġal um
Ġpa ulis
Ġmat ron
Ġinst ar
Ġadept us
Ġremp ublicam
Ġc anis
Ġre cep
Ġprae ceps
Ġpot uerit
Ġcur as
Ġanim alia
Ġdeb emus
Ġport am
Ġbr utus
Ġpraecip it
nos oponus
r iti
Ġqu alem
Ġd atis
om p
id ere
Ġver i
96 6
96 7
Ġlab erius
Ġeg ressus
Ġvinc ere
Ġgest arum
Ġard ua
Ġorig o
Ġin mod
Ġh are
Ġad p
Ġme as
Ġor itur
Ġnum eris
Ġist as
Ġval ere
Ġten eri
96 9
Ġcert is
Ġle onem
Ġpraest it
Ġintelleg i
Ġverg ilio
Ġtel is
Ġoptim i
Ġdiscrim ine
Ġpho eb
Ġantiquit us
Ġ +
ip at
Ġali eni
Ġar rip
atur os
Ġpost hac
Ġph al
Ġposs im
Ġgraec ae
Ġmet ellus
Ġmiss is
Ġlud is
Ġapollin aris
b um
c unque
m ata
Ġan astas
Ġvid ebantur
Ġinc ess
Ġsuper ius
Ġep ig
Ġdep op
Ġveni unt
Ġconi ung
urr unt
Ġiug um
Ġimag inem
Ġpern ici
Ġps ych
Ġcras sus
Ġpaulis per
Ġd ard
Ġpr idie
un o
Ġr ite
Ġte que
Ġvi uit
Ġpet o
Ġconf l
Ġcae dem
Ġexc lam
Ġsumm ae
Ġvirtut es
Ġinsign ia
Ġach a
Ġdesider io
Ġlacrim as
Ġmoen ibus
Ġp i
Ġf unc
Ġb er
Ġer is
Ġvid erentur
emp iam
Ġgr ac
Ġtra duc
Ġequ es
Ġdet rim
Ġdist rah
Ġxxv i
Ġster n
r itum
Ġs ali
Ġar gu
Ġrem an
Ġvic e
Ġvi lla
Ġposs em
Ġuir g
Ġclar a
Ġaccid ere
Ġreb ell
Ġi ram
it ionibus
Ġet h
Ġca er
Ġaut um
ita que
Ġlat r
Ġlong ae
Ġsup p
Ġcast ig
Ġtest ibus
Ġref ug
Ġiub emus
Ġclam or
Ġconstit it
Ġculp am
Ġsyllab am
Ġiras c
Ġi urg
al us
ens ius
Ġsed em
Ġop per
Ġqua enam
Ġnum en
Ġcuius dam
Ġopp ress
Ġimm an
Ġsanc tae
Ġalien is
Ġtac itus
Ġinuen itur
Ġargum ento
Ġdot em
Ġcul m
u orum
Ġex ar
Ġut ramque
Ġpot ens
Ġimper auit
Ġiudic e
Ġvit uper
Ġgraec iae
Ġel em
Ġopt ima
Ġaest ate
on ios
Ġd rac
Ġf erat
Ġb rum
Ġam at
Ġleg isse
Ġcur s
Ġres ol
Ġel ect
Ġcol umb
Ġlab e
Ġplur is
Ġatt on
Ġdisciplin is
Ġgalli ae
Ġerr ore
Ġsimil itudinem
Ġeup h
i endi
er icus
Ġa era
os p
ic ium
om ed
Ġex anim
Ġiudic i
Ġduc it
Ġcast rorum
Ġaequ ora
Ġasper a
dim idium
Ġpaph n
Ġi unct
Ġf ef
et ae
ol om
Ġper fic
Ġist uc
Ġred im
Ġpecun ias
Ġprofect i
idi em
Ġfacult as
Ġstell as
81 50
Ġlocup let
Ġanal og
b ant
Ġm ae
Ġquod si
Ġu obis
Ġpot ent
Ġpet ri
Ġfi et
Ġult imum
Ġplurim os
qu em
Ġa quit
Ġm ic
Ġin aud
il it
uer ti
Ġca re
Ġhab emus
Ġal p
Ġins ect
Ġlab oribus
Ġmun eris
Ġsyr ia
Ġdeu ot
Ġatheni enses
Ġpaul ulum
Ġcarc ere
er ia
it ius
Ġf ons
Ġh un
ec erat
Ġg rem
Ġco egit
itur os
Ġsub duc
Ġmar g
Ġsec uri
Ġmon aster
Ġeff ig
ori arum
Ġsanc tum
Ġport u
Ġfur or
eros que
Ġloqu itur
Ġrefer ri
pro f
u iri
Ġn ationes
Ġf iant
Ġh an
Ġl y
Ġpro uerb
und e
Ġop eribus
Ġrec ess
Ġfr u
Ġmer idiem
Ġterr ore
Ġgrau es
Ġiuuen um
Ġd ant
Ġv atic
Ġh s
an as
ra u
ro uis
Ġquibus que
Ġist aec
Ġdeb uit
Ġneg are
Ġciuit ati
Ġmilit iam
Ġsucc essit
Ġpond o
Ġmai oris
Ġteneb ris
c ili
Ġp ant
im entum
an gu
ec isse
ia uit
ac ulis
Ġtr istis
Ġte p
Ġscrip to
Ġo ud
Ġcuius modi
Ġhy per
Ġloqu endi
Ġz en
Ġperson ae
Ġornam enta
Ġconstantinopoli m
os is
Ġcons ump
Ġcom item
res su
Ġimp lic
Ġrec iper
Ġcar b
Ġimm ol
Ġlae ua
Î¹ Î±
Ġoccas ione
Ġphilipp i
Ġplat onem
Ġinterfect us
Ġmali gn
Ġclad e
Ġmaiest atis
Ġlus it
Ġlact e
i enda
Ġp iac
io que
Ġper inde
Ġcont ulit
Ġacc ur
Ġpugn are
Ġded erunt
Ġadu ent
Ġabst ulit
Ġgoth orum
) :
ul si
Ġad im
op o
il itatis
Ġca lig
Ġsp atia
Ġvol g
Ġmet elli
Ġnou am
Ġdep ort
Ġprom itt
Ġlae d
Ġhistor iam
Ġgest um
Ġec quid
Ġcand ida
Ġanimaduert imus
Ġfate or
Ġuul n
r ud
r imus
Ġe ut
it abat
Ġm enti
Ġl ar
Ġde li
Ġdi rip
Ġsim plex
Ġrem itt
Ġinu ent
Ġcar d
Ġmor bi
Ġsal ua
Ġhum ili
Ġmemor atu
ont a
oqu in
Ġcontr act
Ġcapito lio
Ġpyr rh
Ġdup lex
Ġcomoed ia
Ġad sign
ac ium
Ġest is
Ġab n
Ġob r
Ġpot u
Ġinc ed
erat io
Ġacc edere
Ġcre p
Ġput auit
Ġsae ua
Ġopt imo
Ġsor oris
Ġinuen iri
Ġsust inere
s en
Ġqu Ã¦
Ġl atio
Ġam ar
Ġx li
Ġvol et
Ġrec tius
Ġk o
Ġto ut
Ġtut a
Ġvell em
Ġlum en
Ġgracch o
Ġmarm ore
Ġpaphn utius
Ġp am
Ġn om
Ġt reb
es um
Ġf ati
end arum
Ġco eli
Ġver itatis
Ġsen ec
Ġcar ne
Ġconstant ia
Ġmer itum
Ġaccip iunt
Ġorn at
Ġasc end
Ġferunt ur
Ġpereg rin
Ġsociet ate
Ġquac umque
Ġsc ept
Ġer ump
Ġcomm ou
Ġcol onia
Ġnatur ali
Ġpraeter quam
le u
Ġaed em
Ġalien am
Ġath enas
Ġcommod e
Ġvert ice
Ġphilipp o
Ġfrum entum
Ġpurp ura
Ġqu empiam
ar er
ia i
Ġdic emus
Ġsp ond
Ġdec ed
Ġpart i
Ġdet in
Ġpom p
ix a
Ġproxim e
Ġvuln ere
Ġplurim i
805 9
Ġaccom mod
e z
Ġs od
ae a
Ġad sum
Ġcon m
Ġam nem
Ġmil ite
Ġocc ulta
Ġconsul ari
Ġred did
Ġarm atorum
Ġto uto
Ġphilosoph o
Ġcam pos
Ġden eg
Ġvideb itur
r ari
Î ´
Ġat qui
ub i
Ġop er
Ġsol ebat
Ġmin ut
Ġtot is
Ġciuit atum
Ġsecund ae
Ġquint um
Ġhom erum
Ġprom is
Ġpriu atus
Ġiuli ano
Ġon us
Ġpropr iam
Ġves pas
Ġagrip p
Ġin sequent
ere d
Ġsol am
Ġmagn itudo
Ġiudic are
if ariam
Ġsil entium
Ġpossess ione
Ġasp ectu
Ġfauor ini
Ġden uo
Ġmatrim onio
Ġperueni re
Ġe inai
ll is
Ġg ut
Ġfac erent
Ġsub it
Ġprop h
Ġser en
entes imo
Ġconc lud
Ġappell auerunt
Ġexc lud
Ġfrat ribus
Ġnecess itatem
Ġaequ ore
Ġperm ut
Ġpriu ato
Ġcrim inis
Ġrelig io
Ġ0 9
Ġdiscrim en
Ġhes i
Ġhan ib
m on
at ric
un um
io p
pt us
itat o
Ġvid isse
Ġanim orum
Ġman ere
Ġfer as
Ġhost i
Ġpet itur
Ġsus ceper
Ġaduers o
Ġpal atium
Ġcred itur
Ġbr undis
Ġpraem ium
Ġobsid es
ĠÎ ¼
Ġxxv ii
Ġimag ines
Ġincert um
Ġanth rop
Ġi ul
it ans
Ġqu aliter
il us
Ġab rah
Ġnec em
Ġag endum
Ġnob ilem
Ġsem en
Ġdiu us
Ġsoc ium
Ġitem que
Ġeff ectus
Ġess es
Ġpor ta
Ġadh a
Ġtrad ita
Ġdulc ed
Ġcoron am
Ġn is
Ġv entus
Ġin est
Ġet c
Ġu iri
Ġam itt
Ġinf eri
Ġinf erre
Ġpotest atis
og ism
Ġuer ba
Ġreliqu os
Ġtib ic
Ġeas dem
or ius
Ġt ueri
ic ulos
Ġad uerb
iss emus
atur i
Ġins taur
Ġlic inio
Ġsex ta
Ġiis dem
Ġz eno
Ġcupid itate
Ġretin ere
Ġrestit ui
Ġnicom ed
er amus
Ġa ra
Ġv enti
Ġad did
Ġali arum
Ġreg iones
Ġo li
Ġconc ip
Ġext rinsecus
Ġregn auit
Ġdoc uit
Ġtriumph um
Ġmitt ere
Ġanimad uers
er atis
Ġn up
Ġpr and
op on
ub uit
Ġar as
Ġsc iat
Ġita lic
Ġleg at
Ġaed ibus
Ġmagist ri
Ġnunt iatum
Ġgrau em
Ġmorta libus
Ġaccept o
Ġinscrip ta
Ġex itium
Ġcont ionem
Ġinc rem
Ġus ui
Ġrem ans
Ġdomin e
Ġbene uol
Ġtab ern
Ġperf ug
Ġconsc ientia
Ġbas ilic
l at
s erunt
Ġa uert
Ġqui es
Ġver is
Ġfac et
Ġsec uta
Ġvit e
Ġoport eat
Ġrelig ionem
Ġquaest ionem
Ġeffic ere
Ġsacerd os
Ġcu idam
Ġfluc tu
1 7
Ġt ectis
Ġin us
Ġpr Ã¦
Ġex ag
ol as
ab ilia
Ġpet unt
Ġius iur
Ġfid eli
Ġten ebat
Ġ3 5
Ġnou as
Ġarg ento
Ġquaest io
Ġbarb ari
Ġherc ules
Ġiuu entus
Ġlap id
Ġhiem e
Ġmagistrat u
Ġchal c
Ġc ort
in dic
Ġcum ul
Ġan hel
Ġprop on
Ġmin eru
Ġconc ordia
Ġconf lic
Ġcred itum
Ġcommun ia
rab at
Ġviu o
Ġmarc ellus
Ġfem inis
Ġmater iam
Ġarbitr ium
Ġumb ras
Ġnonn ulli
Ġbith yn
Ġn uc
Ġv ento
ol orum
Ġprae l
Ġap ta
Ġob iit
Ġsol ito
Ġdeb it
Ġgra dum
Ġmens ura
Ġpoet am
ereb antur
Ġson us
Ġadulesc entem
empt us
Ġnol o
Ġsacerdot es
Ġprosp ere
Ġanc ill
Ġinteruall o
Ġiusiur andum
t rans
Ġh oris
Ġad c
Ġsub inde
Ġcap pad
Ġth a
Ġcogn omen
Ġfug iens
Ġspec ul
Ġhonor ific
Ġvirg ine
Ġextrem o
Ġgrammat icus
Ġmarty ris
n ost
s ac
Ġi ri
or am
Ġv otis
ec eb
ec ism
Ġut ero
ed um
Ġpleb s
Ġlud ib
Ġoccas ionem
Ġutil itatis
Ġdesider ium
Ġimmorta les
x erunt
Ġp ia
on de
os i
ur iam
Ġsc iens
Ġpar at
Ġpot eris
ass is
Ġduc um
Ġvest ib
Ġtrans c
Ġsecund is
Ġcommun ic
Ġserm onem
Ġmaced oniam
i endo
m ult
it to
os o
Ġali oquin
Ġdec ip
Ġreg ionem
Ġae qua
Ġle onis
ren dum
Ġnunt ius
Ġuniuers os
Ġfig uram
Ġvolupt atibus
Ġapt e
Ġinstitut a
Ġclad es
Ġidone um
Ġoppos ita
Ġsu us
pt um
Ġsp ei
Ġprop ag
ian os
Ġrec it
Ġtra did
ign e
Ġvere or
Ġcreb ris
qu isque
Ġd y
Ġl og
ab ilius
Ġcons on
Ġser uius
Ġnum ine
Ġdisc ere
Ġconc up
Ġgrat um
Ġred ig
Ġprod esse
Ġcens uit
Ġmiss um
Ġbarb aris
Ġgaud ium
Ġol eo
Ġlect o
Ġvolupt atem
Ġort h
Ġgracch i
Ġcarthagini enses
Ġapoll o
c or
Ġd entes
Ġd cc
Ġex it
Ġcon fici
Ġsed e
isc h
Ġk ar
Ġlat ius
Ġae lius
Ġphilosoph os
Ġprom untur
ux erat
Ġact ionibus
Ġmer uit
Ġdamn a
Ġmorta lium
Ġmendac ium
Ġs k
Ġd al
Ġdic antur
Ġint u
Ġmar ius
erit as
Ġcur is
Ġvic tu
Ġvet er
Ġtrans i
Ġae uo
ord iae
Ġarc ess
Ġaed ium
Ġmagist rum
Ġvolunt atis
Ġads crib
Ġnupt iis
r ach
qu ad
Ġa esc
ul ce
ia lis
ant ius
Ġver rem
Ġpro ut
Ġpar ia
Ġhab uerit
Ġsus cep
pr aec
Ġcop iae
Ġauctor ibus
Ġlud o
Ġuir ibus
Ġiac et
Ġhas ta
atiu um
Ġcaeter is
ili or
Ġdic amus
Ġsuper u
Ġpop osc
Ġcre de
Ġprob us
Ġdep ugn
Ġopt imus
tab atur
Ġport is
Ġproxim is
Ġsper n
Îµ Ïģ
Ġrecip it
Ġenn ium
Ġmorta les
Ġpap ir
Ġfrum enti
Ġi ap
Ġad erat
Ġex ilium
uer am
Ġb ore
Ġb ub
Ġne quam
ui is
Ġreg iam
Ġins per
Ġproc essit
Ġpriu atim
Ġcam ill
Ġdesc endit
Ġdiffic illim
Ġturp ia
Ġquadrig arius
Ġpenet ra
Ġcappad oc
m or
p enus
v er
Ġes c
Ġnon as
al ae
per am
tor i
Ġdef endit
Ġdisc ur
Ġcast ellum
Ġpal aest
Ġprom ulg
Ġconstant io
Ġquaes i
Ġorn atus
Ġcarthag inem
Ġperson as
Ġsoll ertia
Ġsenatuscons ultum
Ġv r
Ġf atis
ae is
Ġleg ionis
Ġ3 1
Ġcircum s
ix us
Ġuir um
Ġcompl ures
Ġtumult us
Ġhipp oc
Ġoct ob
Ġulc isc
p i
in s
Ġl iter
Ġex ha
Ġqui esc
Ġab ol
Ġiu go
Ġcaes ellius
Ġinst ru
Ġdoc ere
Ġhist oriarum
Ġlibert us
Ġpraest at
Ġchrist o
Ġmemb ris
Ġinscrip sit
Ġceru ice
Ġtusc ul
Ġundec imo
Ġc edere
Ġin sequ
ar am
Ġper st
Ġint emp
Ġint ulit
Ġpar uis
Ġanim alium
Ġcomm erc
Ġpo em
Ġlit em
Ġdeb itum
Ġpers ecut
Ġno uit
qua que
Ġperm ix
Ġcontin et
Ġdesc rib
Ġinim icum
Ġepiscop us
Ġaudac iam
Ġces ar
Ġfasc es
Ġp ress
Ġm ig
Ġver itas
Ġcor da
Ġdef er
Ġist ic
Ġel oqu
Ġprincip ia
Ġimm un
Ġmut ata
Ġbr itt
] ,
Ġa uris
Ġi rac
Ġm usc
ut am
ast is
Ġrem ot
entes que
Ġdel ub
Ġprom issa
Ġmont ium
Ġfut uri
Ġafric ani
Ġcen am
Ġioann es
u unt
Ġex tor
ert o
Ġpost eri
Ġapp rob
Ġappell ati
Ġdes erta
Ġhom ero
Ġfab ulam
arem us
if er
Ġpud ore
Ġha es
Ġcult us
Ġerr orem
Ġcolleg ae
Ġtyrann i
Ġom itt
Ġcib o
Ġsump sit
Ġsicili ae
Ġosc ula
e ius
Ġm entio
Ġf era
ur ium
eb itur
Ġpl um
Ġal pes
Ġprof it
Ġexistim abat
Ġded erit
Ġpont ifex
Ġnegot ii
Ġquad rup
Ġclaud ii
Ġtheodos io
Ġrelinqu ere
Ġnepot es
Ġintol er
f am
v ide
y li
Å ¿
Ġp ad
Ġv entis
Ġab iit
Ġpl erosque
ust i
sit ud
Ġrem ig
Ġduc t
Ġdoc um
Ġsens ibus
Ġdiff erre
Ġfal so
Ġbenefic iis
Ġiug a
Ġinstitut um
Ġfluc tibus
Ġquinc tius
Ġinfl amm
Ġdemosthen es
Ġabrah am
Ġc essit
Ġad op
ac c
ui que
inc ta
Ġman lius
Ġdeb es
Ġdom ic
Ġphilosoph ia
Ġded erat
Ġod or
Ġiniur iae
Ġsapient iae
Ġcoh ors
Ġort um
Ġinterc ed
Ġfrum ent
Ġimpl or
b it
Ġqu eat
Ġv esta
Ġf oss
Ġh arus
im onia
om us
uer em
Ġsed ibus
Ġan ch
Ġquid nam
Ġinc idit
Ġmal uit
Ġcol orem
Ġsatis fac
Ġamb it
Ġperic l
ard us
Ġalio qui
Ġnol uit
Ġpropos ita
Ġappar uit
Ġconiug is
Ġinterf ecit
Ġimit ari
Ġsepulch rum
Ġde uic
ab untur
Ġseru ari
Ġnim io
Ġrog atus
Ġfut urus
Ġpor rec
Ġtor p
Ġdesid erat
Ġgaud et
Ġrespond ere
Ġhispan iae
Ġast ra
Ġpert im
Ġsta d
Ġcaptiu os
g i
Ġa ura
Ġv iae
ab amus
Ġper ter
end umque
Ġco qu
Ġar is
Ġvid etis
Ġleg ionum
ero g
Ġas iat
Ġhum ano
Ġeff l
rac ta
Ġdist ing
Ġsor s
Ġinim icus
Ġnasc untur
Ġerr or
Ġsoll em
Ġnumm um
Ġa rea
Ġpr iores
Ġde esse
Ġut ilia
Ġr ura
Ġmagn as
ios ae
Ġdef ect
Ġded ec
Ġpraesid ia
Ġvirg ines
Ġeleg antia
Ġclem entia
Ġcrass o
Ġe un
Ġd au
Ġf reg
Ġex eunt
Ġag unt
Ġth eb
lin c
Ġcre atus
Ġtra diderunt
Ġcontra que
Ġlic ere
Ġfug ae
Ġsil ua
Ġhor osc
Ġoccid ere
Ġsingul aris
Ġcit ius
Ġauspic iis
l ep
s imus
t ionis
v ir
in oct
Ġad ort
Ġdi r
Ġpl er
Ġu im
Ġcor dis
Ġins er
Ġrem is
Ġdeb ita
Ġcae des
Ġpers ol
Ġpont i
Ġmol e
Ġherc ulis
Ġcust odi
Ġinm orta
Ġmur o
Ġsaec ula
Ġcarc erem
Ġhyg inus
Ġv ib
Ġl aut
Ġex ul
ab ar
Ġca duc
Ġquo libet
Ġhab entes
Ġhab ebit
ad e
Ġdec ept
Ġsal uti
Ġexc lus
Ġrog at
Ġquaest or
Ġsust ulit
Ġcoep ta
Ġvari e
Ġvarr onem
Ġattin et
h uius
Ġin o
Ġin eunt
ec isset
Ġad quir
Ġpar ui
Ġnec dum
Ġcur ric
Ġaud isse
Ġpers onis
Ġeu entu
le uc
Ġpont o
Ġinsign e
Ġincl ud
Ġfun ere
Ġglad iat
Ġvulg i
Ġveli nt
Ġa is
ic ulo
io u
Ġdi anae
Ġr aro
Ġma d
Ġleg o
Ġfer ox
Ġdisc ern
Ġexerc itibus
Ġcaes a
Ġpec ud
Ġexc ess
Ġdol ores
urg it
Ġsumm i
Ġhy d
Ġfem ine
Ġrespond isse
Ġoccas um
Ġpostrem um
Ġbe ati
Ġheb dom
Ġamplex us
Ġsilu est
Ġpernici em
Ġp ipp
ra es
Ġcons uet
Ġne ap
erit o
Ġdiu o
Ġbon am
Ġlab i
Ġpers as
Ġfrat rum
Ġcapt i
Ġfem inam
Ġfig ur
Ġmit ter
Ġfraud em
Ġcib um
Ġteneb ras
Ġcubic ulum
Ġfisc o
Ġd onis
Ġin cept
Ġf et
Ġf uc
Ġpr iorem
id erat
Ġat toll
Ġim mod
Ġpos ito
Ġmin oribus
Ġsen es
Ġval eri
Ġdiu inae
Ġsent io
Ġlab orum
Ġeis dem
Ġdamn um
ress os
Ġiniur iis
Ġprofic isci
Ġfauc ibus
Ġbab yl
c is
Ġa isch
Ġl ass
Ġb ar
Ġver sa
Ġsuper ioribus
Ġext it
Ġmet a
Ġprom iss
Ġpul uere
Ġcat one
Ġexistim auit
Ġmonum entis
i retur
r od
s erit
Ġ j
us us
in iam
Ġer am
Ġtemp li
Ġmor am
Ġnos se
Ġtest em
Ġpap a
Ġspecta re
Ġbou es
Ġquiet em
Ġa uis
Ġe uen
et on
Ġad ip
Ġse leuc
ol es
ob nox
Ġma x
ult us
Ġam ant
Ġsp at
Ġfl aui
Ġven enum
Ġimp end
ato que
itas se
ici es
Ġneg ant
Ġext ing
Ġarb ores
Ġfab io
Ġfal sis
Ġquaest ione
Ġreper ta
Ġculp ae
Ġaem ul
Ġincend io
prae pet
Ġtheoph ras
Ġinpr ud
y ter
Ġe uers
it ionum
Ġl xx
ui ll
iu imus
Ġprincip i
Ġlic inius
Ġequ us
94 2
enn ium
Ġsumpt u
Ġcli pe
Ġparen dum
Ġflac cus
Ġcatili na
Ġgurg ite
Ġc ibus
Ġam isit
Ġst rid
Ġrec ond
Ġnull as
Ġcae dis
oli m
Ġequ itatu
Ġsanc ta
Ġmir ific
Ġclaud ium
Ġfoed era
Ġsyr iam
Ġenn ii
Ġspoli a
Ġsuffic it
Ġsimulac ra
Ġradic ibus
Ġi rae
Ġn auit
Ġpr ioris
Ġut endum
Ġr us
Ġfac ilis
Ġmaxim as
Ġil linc
Ġfam es
Ġ3 7
Ġ4 0
Ġnou us
Ġinim ici
Ġvolupt ate
Ġcorneli um
v ii
it ant
Ġt is
Ġf isci
Ġex ire
Ġlib ens
Ġpat efac
ri e
Ġinc umb
Ġcomm or
Ġvol u
Ġrec on
itud ini
Ġpraes entis
Ġprof lig
Ġfau ore
Ġiun o
Ġmarc i
Ġpossess io
Ġbib li
Ġexst it
Ġimag ine
Ġnat alem
Ġmans uetud
Ġchrys ippus
Ġn atos
Ġv ina
in at
in itatis
Ġg ad
Ġat ro
Ġdic ebantur
Ġfac io
Ġmar itum
Ġfer arum
Ġproc re
Ġgl auc
Ġsac rorum
Ġafric ano
Ġaccep i
Ġvirg inem
Ġson um
Ġdig ito
Ġglad iis
Ġinuit us
Ġdiut ur
rupt um
Ġc th
Ġc uper
Ġex quis
Ġprae di
Ġreg ionis
Ġcur rus
Ġins ulas
Ġtra g
iores que
Ġtut um
Ġnegot i
Ġadu entus
Ġepist ularum
Ġscel erum
Ġexper iri
Ġiuss erunt
Ġceter orum
Ġancip iti
a ur
r itate
Ġd ulce
Ġn emus
ul enta
Ġg org
Ġca dit
Ġu ac
Ġinter esse
ert is
Ġleg atorum
Ġant hem
ex i
Ġgen u
Ġsec urus
Ġmo i
ern o
Ġpraes ente
Ġep ict
Ġei que
Ġneg l
Ġeff ectum
Ġaf ran
Ġdisciplin as
Ġspect aculum
Ġdulc is
Ġegreg ia
Ġatheni ensium
Ġoce ani
Ġcontumeli a
Ġba pt
Ġeras ist
3 7
l aud
Ġi ret
or ae
Ġcon cus
Ġper peram
Ġdic enda
Ġu iol
Ġme que
Ġpart u
Ġvic ti
Ġmilit ia
Ġtribun orum
Ġpros pic
Ġprec ip
Ġfund o
Ġtib erim
Ġloqu or
Ġcamp um
Ġmaced onia
Ġrecip ere
Ġcoeper at
Ġprosper a
Ġpresb yter
Ġc is
in qu
Ġad de
Ġut risque
Ġr uit
Ġar cus
Ġag at
Ġte uc
Ġfl uit
Ġcl arum
Ġcur auit
Ġven erit
Ġis que
Ġrec re
Ġpet iit
Ġfur ore
Ġarc es
Ġveni ret
Ġaccip e
Ġgem m
Ġclaud i
Ġampl ect
Ġpostul at
sel li
Ġcognom entum
Ġs ita
Ġv ap
Ġv lix
en em
ac iter
Ġac tis
Ġap o
Ġinter ueni
rat u
Ġven erem
erent e
Ġimp une
Ġau rem
Ġluc tus
ma gn
Ġsem ina
Ġfug ere
Ġfelic is
Ġhonest e
Ġtempl is
Îµ Î¹
Ġunus quisque
Ġlap ide
erus alem
Ġnit itur
pot e
Ġconl oqu
Ġtrist ia
Ġatheni ensibus
Ġcontrouers ia
Ġmasc uli
' '
z z
Ġi bat
Ġs esc
Ġp uerit
itat isque
Ġmin ima
Ġrem e
Ġaud ito
Ġconsul aris
Ġgraec iam
Ġfamili am
Ġdiuers as
Ġgest as
Ġfre tum
Ġinm ut
Ġsust ent
Ġsax o
Ġsid erum
Ġphilipp um
Ġgraui or
Ġexcept is
Ġge omet
Ġdexter a
s erat
Ġt ort
Ġse orsum
Ġr upt
Ġab b
Ġpar ta
Ġcont endit
Ġmin oris
erent i
Ġimp le
entem que
Ġmis ere
Ġexc ed
Ġdel ectab
Ġnoct es
Ġdamn atus
Ġamp ut
Ġpertin ent
Ġru ina
Ġrap it
Ġstatu am
Ġtar qu
Ġconsp ectum
Ġort u
Ġmeli ora
Ġantioch o
Ġbenign e
Ġmiseric ordia
k os
t r
Ġut eretur
Ġco eg
Ġdec id
Ġven eno
Ġauctor itatis
Ġded isset
ux isse
Ġpuer is
Ġfamili ares
Ġaest us
Ġaugust um
Ġcommod a
Ġsur sum
h erc
i rab
y z
Ġe ll
Ġi on
es o
Ġli nt
Ġam iss
Ġop or
Ġst im
Ġpot entiam
Ġaud it
Ġocc urr
Ġmed icam
Ġappell are
Ġsecund i
Ġaug usta
Ġiust itiam
Ġsing uli
Ġcat ho
Ġamb itu
Ġperf ecta
Ġgrammat ici
i udic
m ihi
re bat
Ġd umque
Ġv esc
Ġin pl
es in
Ġl or
Ġpro uis
Ġcuius quam
Ġput abat
Ġ3 4
Ġarb oribus
Ġpatr io
Ġstud ios
Ġdub ia
Ġfem inas
Ġalb um
Ġdig itis
Ġsuperb iam
Ġlan ce
Ġnut ric
Ġsenti re
Ġsest ert
Ġliquam en
Ġf irma
Ġad prob
Ġli u
Ġquid dam
Ġsub ter
Ġann onae
ior i
Ġrec ur
Ġdem in
rent ibus
Ġeu ol
Ġtut ela
Ġsor orem
Ġreu ol
Ġlap idem
Ġaccept um
Ġnepot em
Ġsimplic iter
Ġsci ret
Ġment ionem
Ġconuert it
Ġmerced e
Ġsempron ius
Ġm elle
Ġt an
Ġcon sequent
Ġut ilis
ip ot
est e
Ġal g
Ġsol st
Ġgen itor
Ġter entius
Ġnull os
Ġmor bus
Ġval er
Ġign ibus
Ġput auerunt
Ġbon arum
Ġcogn ou
Ġ4 2
Ġfaci endi
Ġexist um
Ġatt ig
ux erunt
Ġtut ores
Ġdisciplin arum
Ġed oc
Ġparent em
Ġinsc ite
Ġuit am
Ġprog redi
Ġadmir atione
Ġconsec utus
Ġsto ici
Ġcorneli o
Ġaliquant um
trans g
1 8
6 6
r atione
Ġe did
Ġc us
Ġc ith
Ġn ero
id ane
Ġre o
al p
el is
und ae
Ġlib ras
Ġpos itus
Ġinc erta
Ġcl au
Ġmin u
Ġfort es
Ġsac rat
94 6
Ġle ue
Ġatt rib
Ġmens am
Ġmer ita
Ġobseru ari
Ġadi ung
Ġcy p
Ġconstit uti
Ġmonst ra
Ġoccult e
Ġconp reh
Ġtragoed ia
Ġinuas it
Ġe li
Ġd etur
Ġad se
Ġcon per
Ġver ius
Ġdic es
Ġsol uit
Ġcre didit
Ġrep l
Ġaduers is
Ġiust o
Ġciu ilibus
Ġvocab ulorum
Ġrh enum
Ġtut o
Ġhistor iis
Î¿ Î¹
Ġsequ untur
Ġmand auit
Ġtib ur
Ġobl itus
Ġconsid erat
Ġutil itatem
Ġvict oris
Ġconiug e
Ġreuer ti
Ġfabric ius
Ġgrand e
Ġ #
Ġd ap
Ġad e
Ġper didit
Ġser ua
Ġten uis
Ġalter ut
Ġlong is
Ġsent it
Ġcens ura
Ġpraest o
Ġta ur
Ġaccus ator
Ġsper are
Ġcicer one
Ġfact as
Ġvert it
Ġoccas io
Ġconcess um
Ġlign um
v i
Ġ ulli
ul sum
Ġpr ioribus
ab undus
ip ed
Ġca uer
Ġver itate
Ġdic tae
ect ae
Ġap uli
Ġlib ido
iu os
Ġaliqu os
Ġinu entum
Ġing entes
ric a
Ġconc lus
Ġign arus
Ġdiu ino
Ġred und
Ġexc ub
Ġlic ebit
Ġidem que
Ġprom ont
Ġdim isit
Ġdest itut
Ġvuln eribus
Ġiuss erat
Ġlim ine
Ġpropos ito
Ġxxv iii
Ġapollin is
Ġocto g
Ġlen iter
rup ta
Ġcarthagini ensium
Ġcod ici
Ġharus pic
f a
s al
y x
Ġa h
im et
Ġl ecta
Ġad gn
Ġquo quo
Ġprop uls
Ġscrip tor
Ġsent enti
Ġae uum
Ġtrib uit
Ġto us
Ġaug ures
Ġtriumph o
Ġdisp on
Ġiug is
Ġmund um
Ġmit ig
Ġrip am
Ġoce ano
1 5
Ġ ulp
Ġa ffic
Ġe asque
per s
uer entur
Ġdi rept
ili ae
ub ium
Ġal is
Ġsec reta
Ġlat roc
Ġten us
Ġind om
Ġplur ium
Ġeu entus
Ġcunc ti
Ġdiss ip
Ġadf lic
Ġclar us
Ġuid etur
Ġprog en
Ġapost olic
Ġvali d
Ġrhodiens es
Ġbrut t
Ġepig ram
Ġopor teret
Ġe at
Ġs ist
Ġm u
es tab
im ento
Ġint emper
Ġag ebat
Ġfer ret
Ġred itum
Ġcr oc
Ġae qui
Ġcens uerunt
Ġpoen it
Ġepist ulae
Ġintelleg o
Ġard uum
Ġoccup at
Ġcapito lin
Ġrestit uit
Ġvetust atis
Ġfacund iae
Î· ÏĤ
Ġvill am
Ġfulm ine
Ġfauc es
Ġdisser uit
h um
Ġc anc
Ġd arent
Ġm ili
an es
Ġde orsum
Ġob uia
Ġsub ire
Ġinc aut
Ġacc ius
Ġval erio
Ġpraes es
Ġprod est
Ġconu entus
Ġpros equ
Ġperm is
Ġhor de
Ġaus i
Ġmer id
Ġobseru atum
Ġtriumph auit
Ġcupid o
Ġsyr iae
Ġobl itter
Ġmit ti
Ġostend itur
Ġpt olem
l oc
Ġm ere
Ġf unct
ant que
al li
Ġab ire
Ġfac tae
Ġvol sc
Ġpop ulorum
Ġdeb eo
95 0
Ġsecund am
Ġconu entu
Ġcrim inibus
Ġmot ibus
Ġprud ent
Ġinterp ell
Ġflag r
Ġcondic io
Ġantioch um
Ġaene ae
Ġauspic ia
Ġruf ino
r ii
Ġs inum
Ġf ict
ic iam
ib ilis
ac iam
Ġca erim
unc ta
Ġvid isset
Ġpot itus
Ġcur iae
Ġcomm issa
Ġnum inis
Ġsen em
Ġvi xit
Ġmat eri
Ġ3 3
Ġquant am
Ġgl ob
Ġmis ero
Ġprincip iis
Ġle uc
Ġarb or
Ġgal b
Ġpraed ia
Ġrest at
Ġquat er
Ġui res
Ġfide ius
Ġtran sp
Ġadd ita
Ġger ere
Ġincur s
Ġbibli othec
0 0
re tum
Ġm ilium
ec uti
uc ius
Ġsc ias
Ġimper are
Ġprim os
Ġdix erim
Ġman es
ern um
ill um
Ġarm ati
Ġprob are
Ġarb orum
Ġcapt am
Ġnot ae
Ġoppid i
Ġalexand rum
Ġalb a
Ġfun era
Ġfa ust
Ġbas sus
Ġinh um
Ġpraeterm itt
Ġdistinc tio
Ġfen est
Ġdau id
Ġt aut
unt que
est ig
atur am
Ġst ring
Ġsol ere
ri fic
Ġmin ora
Ġcre ati
Ġnomin atim
ne que
Ġdep on
Ġcens emus
Ġpoen us
Ġdecem uir
Ġreliqu ias
Ġtit ulus
Ġindign um
Ġlep id
Ġobsc ura
Ġuit a
Ġrob ur
Ġeleph ant
Ġa ula
Ġt as
Ġde est
Ġpro tag
Ġpar atus
Ġrem iss
Ġdef uit
Ġing red
Ġfi erent
Ġch e
Ġfec imus
Ġfor i
Ġcup it
Ġveni at
Ġaed e
Ġhist r
Ġiuli a
Ġher ba
Ġredd ita
Ġtib erio
Ġiug ur
Ġsatur a
Ġpraeb uit
Ġrecip roc
lu ens
Ġcern ere
Ġspecia liter
Ġtheophras tus
a uerant
Ġi es
Ġi as
en na
an ius
Ġb os
ili am
Ġomn im
pt o
Ġpl ect
Ġleg ato
Ġun g
Ġanim alibus
Ġcr it
Ġpac ific
Ġmon ach
Ġnau icul
Ġhor as
Ġact ibus
Ġads c
Ġlud ou
Ġta uro
Ġaure is
iper ent
Ġabund e
Ġchristian orum
Ġbarbar os
Ġpt olom
1 6
Ï Ĩ
Ġf erebat
Ġver us
Ġali m
ter n
Ġal lig
iu ae
Ġdu arum
Ġvic issim
Ġsup pet
Ġprob at
Ġcoll o
Ġpugn atum
Ġeff und
Ġhaud quaquam
Ġquaer eretur
ress o
Ġoccup auit
Ġha eret
Ġglad ium
Ġsid ere
Ġsoll ert
Ġiucund a
Ġdecern imus
Ġconcess a
Ġsuscip ere
Ġadduc tus
Ġinqui et
l as
Ġin esse
Ġl yd
ol ast
Ġfac illim
Ġam ores
inc tum
Ġrom uli
au isset
ior que
rim is
Ġvic ina
Ġpec us
rae l
Ġmut are
Ġscrib eret
Ġsil uas
Ġmir or
Ġalexand r
Ġturb ine
Ġpud et
Ġbo e
Ġfeb r
f r
y t
Ġ <
ut as
Ġex ilio
ip iam
Ġu ia
Ġsuper esse
ias se
Ġconsul arem
Ġten ent
Ġ3 6
Ġeg ressi
Ġpal li
âĢ Ŀ
Ġnegot iorum
Ġpraecip ua
Ġiun onis
Ġtel um
Ġprud ens
Ġden omin
Ġseptem b
Ġegreg ie
Ġsubt rah
Ġreuer entia
Ġsenti at
Ġsulpic ium
Ġcense bat
v it
Ġm im
ic umque
Ġre ceper
Ġse uere
Ġsol os
Ġdec lam
inde x
Ġmat ut
Ġtest ud
Ġmut ua
Ġded ecus
Ġcompos ita
Ġaccept is
Ġobtin uit
8 4
Ï ĩ
Ġi lico
at arum
Ġf aui
Ġad su
Ġdi rim
Ġdec essit
ex erit
Ġrec to
Ġval eat
ux erit
Ġux ori
Ġfal s
Ġquando que
Ġperf idia
Ġsor ores
Ġtrad ere
Ġcarm inibus
Ġgerm ani
Ġxxx ii
Ġlum inibus
Ġscient iae
ĠÎ ´
Ġquod cumque
Ġli uius
Ġen se
Ġsub dit
Ġdec ert
Ġte i
Ġreg ium
Ġsim ult
Ġis rael
Ġrec tor
Ġvide as
Ġhon orum
Ġduc tus
Ġsac ros
Ġadm irab
Ġgal lin
Ġdon o
Ġcunc tos
Ġdiuers um
Ġdamn o
Ġdecem uiri
Ġbenefic ii
Ġinuid iae
Ġtrah it
Ġprog ressus
Ġcompet it
Ġiunc ta
Ġformid ine
Ġbarbar orum
Ġdeg en
Ġsuprem a
Ġsepe li
Ġplin ius
Ġles b
Ġfideius s
0 7
1 4
f act
er atum
id ii
Ġu indic
rat e
esc ens
Ġlat inos
Ġfr ust
Ġind ag
Ġproc eres
Ġfor n
Ġvest ae
Ġaet ati
Ġra di
Ġno uer
Ġcup iens
Ġtut or
Ġou es
Îµ Î½
Ġvari as
Ġpraecept um
Ġscr ut
Ġp ist
Ġex ord
Ġtr acta
Ġcont emp
Ġcont entio
ad as
ou e
Ġimp rouis
Ġinf ortun
tis que
Ġquant us
Ġprob um
Ġalien ae
Ġgem itu
Ġcy cl
Ġpror sum
Ġmaced onum
Ġidcirc oque
Ġpel ago
Ġlim ina
d ere
u que
v id
Ġe lic
Ġv a
ur io
Ġh ero
Ġl as
Ġut pote
al o
Ġac riter
ist h
Ġdet ract
rent is
Ġnau ali
Ġatt ulit
Ġbr uto
Ġcustod iam
Ġperse qui
Ġgign i
Ġtulli o
Ġconting it
Ġmonum enta
Ġdio g
Ġsacr ileg
Ġvisc era
x i
Ġm oris
Ġv ine
Ġf etus
ac a
Ġor ationes
Ġacc ers
Ġcontra dic
Ġmort i
Ġhum anum
Ġdil uc
Ġhuman itatis
Ġore st
Ġmou ere
Ġvuln us
Ġcass ius
Ġcu ipiam
Ġalic ui
Ġconj ug
Ġstir pe
Ġsuperu ac
is us
Ġp one
Ġd ati
Ġf oribus
Ġh ot
ent am
ol or
Ġca ret
lic es
itat ae
Ġpar atum
Ġst eph
Ġpos uimus
erit is
Ġcur rum
Ġcur ru
Ġcap iti
Ġdes pic
Ġcol unt
Ġcens us
Ġpom pon
Ġpen ates
Ġscip ioni
Ġdesid erant
Ġpraesid iis
Ġhannib alis
Ġcolleg am
Ġdelic iis
Ġoccis o
Ġsuffrag iis
Ġpam ph
Ġintemp est
f i
i ar
Ġ ~
Ġa uer
Ġe nt
is is
re lig
ec i
Ġex sequ
Ġex toll
ta rent
Ġsed et
Ġne u
Ġvir ium
Ġser o
Ġmod icum
Ġimperat oribus
Ġfec isti
Ġnot us
Ġtab ul
Ġson itus
Ġrespon sa
Ġscript orum
Ġpropr iae
Ġillic o
Ġsuperb ia
Ġuictor ia
Ġremed ium
Ġneut rum
n ihil
Ġi erusalem
Ġv il
Ġl is
un us
per ent
and ique
isc ere
Ġsuper ioris
Ġo un
irc a
Ġexerc ere
Ġep ulas
Ġdomin os
Ġle uiter
rent em
Ġped ites
Ġaequ inoct
eros ol
Ġglor ios
Ġbre ue
Ġfal c
Ġterr or
Ġdoct rin
Ġcupid ine
Ġpostul are
Ġ0 4
Ġnub es
Ġfont es
Ġherod otus
Ġbeniu ol
3 2
u arum
Ġa uit
Ġi ratus
at icum
om o
Ġcons enti
Ġen um
iu g
Ġdix erint
Ġau unc
Ġconc ilium
Ġel e
Ġcert us
Ġdem ir
Ġhom er
Ġsignific ationis
Ġconu ent
Ġaequ or
Ġpriu atum
Ġuniuers um
Ġvindic are
Ġfauor inum
Ġfun us
Ġeffic it
ÏĦ Î±
Ġcondic ionem
Ġleu es
Ġappar atu
Ġserui re
Ġocta ui
Ġsimil itudine
Ġnigid ii
dim idiatum
Ġsamn itibus
Ġadfect us
Ġitin eris
super esse
Ġnequi quam
Ġpoc ula
Ġcatho lic
on ica
Ġm isi
as i
ant as
Ġb iennium
Ġar iet
Ġab dic
Ġprae dit
Ġinter i
Ġins ist
Ġiudic atum
Ġred hib
Ġ4 4
Ġiust i
Ġconstant ini
Ġloqu ar
Ġadulesc entes
Ġconueni at
Ġceteris que
Ġmanif esta
Ġinfam ia
Ġsamn ites
Ġquoc irca
gr ani
Ġgrem io
l t
l au
Ġv ana
ul isti
ens am
and e
Ġprae lio
Ġam nes
Ġor ationibus
ex a
Ġcomp end
Ġrec ogn
Ġmed ios
Ġred itus
Ġxx ix
Ġcal lim
antes que
Ġsept ima
Ġsumm us
Ġbr utum
Ġull us
Ġspect at
Ġerr oris
Ġrepreh endit
Ġmemin it
Ġaegypt um
Ġnut ri
Ġdiuit ias
Ġconscrip sit
Ġinfin ita
Ġheredit as
' ;
p o
Ġ oss
or os
Ġv ates
ic uli
ut ione
Ġh al
Ġh aus
Ġpr au
Ġsu au
end ens
ult is
Ġph oc
rim e
Ġaud itis
Ġcar ere
Ġing entibus
Ġsal t
Ġconf und
Ġcast ric
Ġmis era
Ġra bi
Ġded ere
Ġsupra dic
Ġnunt io
Ġvirg is
Ġfest iuit
Ġcreb ro
Ġfors an
Ġe us
Ġs quam
Ġf ib
ut io
ul sit
ia b
Ġan a
Ġer ub
Ġor as
ian orum
Ġsuper iorem
Ġcomm on
Ġinf orm
Ġpet eret
Ġcirc ulo
Ġdiu um
Ġcet ero
ill is
Ġnou ae
Ġdub ito
Ġpraed itus
Ġinsign ibus
Ġexper tus
Ġturp i
Ġconui uium
Ġful uius
Ġpall ad
Ġsequent i
Ġcontumeli am
Ġdefunc to
olog ia
r itas
Ġs imus
in xit
Ġf eret
Ġde per
Ġpar ata
inc tu
Ġsp ur
Ġprim ores
Ġvol ui
Ġdeb eant
Ġlaud are
Ġsept imum
Ġcup io
Ġmari que
Ġdeduc ta
Ġaer arium
Ġmix ta
Ġmancip ia
Ġv ario
en g
os sa
ic itur
Ġex er
Ġtr i
Ġop erum
Ġal tis
Ġpot i
Ġfort em
Ġmo ta
Ġcre di
Ġdes it
Ġmal us
Ġproc edit
Ġproc edere
Ġcet eras
Ġref orm
Ġpostea quam
Ġfab ulae
ipp i
Ġexper s
Ġinuit o
Ġinop s
Ġexst ing
Ġperg am
Ġsubl ata
Ġnae uius
Ġge org
2 39
Ġi e
ic eret
id erunt
Ġcon di
Ġco act
Ġprae erat
ine ant
Ġsec ess
Ġven um
Ġk at
Ġconf erre
Ġfor as
Ġarb oris
Ġmun ific
Ġabs ente
Ġprom isc
Ġconu al
Ġfur ta
Ġfamili arem
Ġlud ic
Ġindic ia
Ġmerc es
Ġorig inum
Ġdecre uit
Ġsab ini
Ġsort em
Ġsubst antiam
Ġobtin ere
Ġpis o
Ġlibid ine
Ġacceper it
Ġsemp iter
Ġpast or
Ġfoli is
Ġv om
im odi
Ġl oth
Ġ" .
Ġper itus
Ġfac imus
Ġam as
iae que
Ġprop ere
Ġser ius
Ġins idi
Ġsen is
Ġaud iens
fect o
ern i
Ġcol oni
Ġdign os
Ġtrib ut
Ġfortun as
Ġtribun um
Ġmut uam
Ġexistim at
Ġcommun ibus
Ġdil ectus
Ġlect it
Ġtestam enti
Ġprouid entia
Ġpercus s
Ġpercus sit
Ġscr ibi
Ġcogno uit
Ġprocons ul
Ġuirtut e
Ġulter ius
Ġxen oph
Ġ< >
3 5
m ille
it ie
Ġc unt
es p
ur iens
end orum
ir is
Ġcons tare
atur que
Ġcom iter
Ġpar tum
Ġam ator
Ġhab uerat
Ġcont est
Ġdes uper
itatem que
Ġmat res
Ġsemper que
Ġlac um
Ġrog auit
Ġpect oris
resc it
Ġxxx i
Ġfact urus
quir ere
Ġaem ilius
Ġmeli orem
Ġprol es
Ġassid ue
Ġpeper it
Ġextr ane
Ġd oli
Ġv an
ia que
ll am
Ġver ae
Ġar ter
Ġst yg
Ġexist imo
Ġsing ulorum
Ġvinc ulis
Ġdilig entiam
Ġceleb rauit
Ġmarc ellum
Ġacer ba
Ġpronunt ia
Ġnud a
Ġpign us
ĠÂ» .
Ġner onis
Ġintest ato
Ġtranse unt
Ġnup ta
u rem
am entis
Ġm ero
em ini
io i
Ġar at
Ġfac es
Ġprae iudic
Ġlib r
iu id
quit as
Ġgr ass
Ġph ar
Ġfer am
Ġfer ae
Ġten eret
Ġten etur
Ġcr ura
Ġlab eo
Ġmis erunt
Ġae ui
Ġstud iorum
Ġnoct ibus
Ġnot is
Ġmuli ere
Ġiuli ani
Ġdict atorem
Ġdia dem
Ġson itu
Ġpraem io
Ġvari etas
Ġsusp ir
Ġfacult ate
Ġlign o
Ġanimaduert it
Ġpauper t
Ġprisc a
Ġobsequ ium
Ġredit u
Ġvoluc res
Ġscaeuol a
Ġboe ot
r y
r ita
Ġp rens
Ġd abo
ent issimum
Ġqui ete
Ġma est
Ġer rare
Ġam ne
Ġleg unt
Ġvic ta
Ġaud itor
Ġcar olus
Ġdeb etur
Ġdisc us
Ġsex tum
Ġscrib am
Ġnot itiam
Ġcan es
Ġretin et
Ġcomment ario
Ġvict ores
Ġsplend ore
Ġleo nt
Ġitin eribus
Ġfoli a
Ġseni or
r ast
v e
Ġc era
Ġpr iam
ot es
Ġcor di
de p
rum que
Ġann ales
Ġven issent
Ġnomin atur
Ġcorp ori
Ġdomin ium
Ġprincip atum
Ġmort uum
Ġprob o
Ġpers crip
Ġeg isse
Ġabs ens
Ġarg ent
Ġuer bis
Ġmiss os
Ġepist ola
Ġcust os
Ġsapient em
Ġcompl ect
Ġiuris dic
Ġegreg ius
Ġvas a
Ġrust ica
Ġnouem b
Ġcubic ulo
r unc
Ġa erum
Ġd urum
Ġm ys
ia des
Ġsu c
op olit
Ġper iit
Ġdi ra
Ġb ulg
Ġlib ere
Ġst rat
Ġpat ientia
Ġman ip
esc eret
Ġtum ulum
Ġau oc
Ġmor as
Ġpublic as
Ġput aret
Ġprob a
Ġlaud at
Ġtali um
Ġfelic itatis
Ġexs ec
Ġcustod es
Ġinn ox
Ġhered ibus
Ġhort ensius
Ġdext ro
Ġcoeper it
Ġrapt im
Ġand r
Ġtub a
Ġpalm am
m os
v iii
Ġp il
Ġc ena
un xit
ac e
ac um
op ere
ter tium
Ġquam diu
Ġfac tos
Ġsub ita
Ġcomm ittere
Ġimperat orum
Ġinf erior
Ġdef endi
ric is
Ġconsul ta
Ġsal e
Ġred di
Ġopp on
Ġsup plex
Ġtrans uers
Ġmis eris
Ġarm atis
Ġdon auit
Ġcred imus
Ġexistim ant
Ġtac ito
Ġepist ulis
Ġpass i
Ġmot um
Ġcy n
Ġcult um
Ġfu rem
Ġdulc ia
Ġmaced on
Ġconsuetud inis
Ġtulli um
Ġlig ust
Ġincur iose
Ġproficisc itur
Ġmas urius
Ġtransg ressus
3 4
Ġc ir
Ġin ani
os am
Ġre cepta
Ġex amin
Ġr ata
Ġcom itis
Ġtr isti
itus que
Ġmult arum
Ġven ere
Ġau ent
ass em
Ġfr ut
Ġsal tus
Ġind iuid
Ġiust e
Ġmens em
Ġrog are
Ġaff ectus
Ġherc ulem
Ġaper to
Ġz o
Ġgrammat icis
Ġdiuis a
Ġuest ig
Ġdiuin itus
Ġfont em
Ġpho en
Ġrett ulit
Ġpraetex t
h on
p or
Ġm ech
in on
ul sis
ab as
Ġca utum
Ġma er
atur ae
Ġcom ed
Ġer rat
Ġer upt
Ġvid eris
Ġvir ili
Ġloc os
Ġdec ima
Ġins ip
Ġmil itis
Ġval erium
Ġlat inorum
Ġput arent
Ġind ec
Ġdign am
Ġlic uit
Ġprom isit
Ġlae ti
Ġarbit ra
Ġinl eceb
Ġuol upt
Ġcogit are
Ġtyrann us
Ġchristian os
Ġcontent ione
Ġe ud
Ġc rat
eb imus
itur i
Ġpar a
Ġinter itum
Ġsol es
Ġins inu
esc ant
esc ente
Ġph aret
Ġsen ectus
Ġmed icus
Ġneg lex
Ġmet ello
Ġcel t
Ġpul m
Ġoport uit
Ġreper i
Ġhonor io
Ġintelleg ere
Ġfem inarum
Ġignor at
Ġcetera que
Ġperg it
Ġclem entiae
Ġangust ias
ienn io
Ġignomin ia
Ġcircuit u
Ġatro x
p ugn
s uc
Ġn od
Ġl ang
Ġex aud
Ġper ire
Ġomn isque
ui os
Ġu ast
Ġinter sit
rat io
Ġsol itos
Ġinc us
Ġven eri
Ġinu iol
Ġdisc edere
ap sa
Ġmilit aribus
Ġinst r
Ġpul sus
Ġpom erium
Ġvul c
Ġbr uti
Ġviu endi
Ġopin ionis
Ġsoli dum
Ġz eph
Ġtel o
Ġeleg anti
Ġsax ones
Ġpatri arch
Ġeccles ia
Ġcru ore
Ġrud is
Ġidone os
Ġmaiest ate
Ġpostum ius
Ġdomn us
vest rum
Ġtarquin ius
i erit
Ġn ato
en arum
Ġlib ero
ust is
Ġsol uta
Ġvel a
Ġx lu
Ġscrip tus
Ġexp edit
Ġten ens
Ġprincip ali
Ġcel s
ont is
Ġsignific ant
Ġdiscip uli
Ġdiuers o
Ġtac ere
Ġmarc o
Ġfauor ino
Ġredi ens
Ġproduc i
Ġegreg ium
Ġtoll ere
Ġdubit are
Ġmolest ia
Ġeb ur
Ġconting ere
Ġpalat ii
Ġluxur iae
Ġirac und
Ġiugur th
Ġe didit
it ari
Ġd ent
Ġn iue
Ġm urum
ur it
ic ines
Ġad fic
end unt
Ġdic eres
ad i
Ġprop erant
Ġmin imum
Ġexp on
Ġlat et
Ġsal tu
Ġit e
Ġregn ante
ont ai
Ġplac ide
Ġgem in
Ġobseru ationem
Ġou a
Ġton it
Ġcupid us
empt um
Ġvolupt ates
Ġfun g
Ġcarthag ine
Ġfront em
Ġdelic ias
Ġstell ae
Ġsociet as
Ġvalentin iano
Ġcense o
Ġsinist ra
ages imum
on iorum
Ġin itia
ta li
el e
Ġsed is
Ġsc rin
Ġfac iens
unc tum
Ġhab itat
Ġen it
Ġen unt
Ġcont ag
Ġcont ubern
Ġant ig
Ġau id
Ġinf re
Ġrem ou
Ġrec enti
Ġvic tis
pl uria
Ġcens oribus
Ġbr acch
Ġperm isit
Ġtab ularum
Ġfelic itate
Ġson at
Ġha ere
Ġhered itate
Ġcad unt
Ġcaptiu orum
Ġrhodiens ibus
cit ra
Ġsagit tis
Ġdepop ul
b et
d os
h are
en c
et iam
Ġad am
Ġb i
Ġma res
Ġan ceps
Ġpl umb
Ġtr actus
Ġop tin
Ġph a
Ġmil iti
Ġconst ans
Ġvit ii
Ġpraes entes
iens is
Ġvis u
Ġtest e
Ġeg est
ord in
rent e
Ġaed is
Ġcontr ario
Ġcontr ariis
Ġoccid itur
Ġinim ico
Ġinim icit
Ġinteg ro
Ġcertam ina
Ġturp is
Ġquodam modo
Ġsulpic io
Ġsepult us
Ġexort um
Ġobsec ro
l ae
s im
Ġs ot
ur iae
Ġper ipat
Ġco etu
Ġpl aus
Ġlib erat
Ġhab ebatur
Ġrom ulus
Ġcor usc
Ġinc ub
ric um
Ġpet ens
Ġpet iuit
Ġpraes entium
ill o
Ġarm atus
Ġregn are
Ġcapt iuis
Ġmir ari
Ġnunt ium
Ġbarb are
Ġsequ ens
Ġalb o
Ġdoct issimus
Ġorn atum
Ġmerc urius
Ġaer ario
Ġdefunc ti
Ġverecund ia
Ġgel u
d udum
Ġp ug
Ġn actus
Ġl eto
Ġut atur
Ġper fici
Ġr od
Ġer o
Ġme herc
Ġvid ens
ess i
Ġmar io
Ġnost i
Ġcomp ut
Ġmor iens
Ġch am
Ġpraes tab
Ġfec und
Ġdomin a
Ġcogn itum
Ġcapt o
Ġuniuers o
Ġfelic itas
Ġard or
Ġnig ro
Ġinsign em
Ġfig urae
Ġvolupt atis
Ġconsili orum
Ġfrig ore
Ġaliquot iens
Ġdiscrim ina
Ġperfect um
Ġcoel o
Ġdolab ella
Ġmam ert
Ġcurr ere
Ġlapid ibus
en it
ic ius
ar t
Ġad uert
Ġb urg
ui orum
ig er
Ġhab endi
Ġleg atione
Ġoc ius
Ġreg iae
Ġcomm issum
Ġres on
Ġmed ici
Ġcre ta
Ġposs imus
Ġduc tor
Ġgrat is
Ġdiu inis
Ġem ere
Ġadm in
Ġpugn as
Ġpraeter itum
Ġcat eru
âĢ º
Ġdiff ert
Ġvinc i
ĠâĢ ¹
Ġintelleg itur
Ġdesc endere
Ġlux uria
Ġaene a
Ġvent os
Ġtheat ro
Ġrost ris
Ġdere lic
erosol ym
' :
h e
v el
Ġm anda
Ġet ym
Ġac rius
Ġac etum
Ġdic tam
Ġar us
Ġu idit
Ġsol uere
Ġsub n
Ġcomm inus
ebat que
Ġcr ast
Ġneg auit
Ġmis erat
Ġcet erae
Ġpraec lar
Ġcommun es
Ġaed ilis
Ġtab ula
Ġcong redi
Ġscel erat
Ġadi it
Ġexs ol
Ġadulesc ent
Ġtar pe
Ġpond era
Ġoptim is
Ġrip is
Ġsca en
itter ent
nec ess
Ġthess ali
Ġcognomin e
Ġpariet es
Ġexercit ui
ĠÎº Î±Î¹
Ġell eb
d ub
Ġm itis
ur arum
Ġex eg
Ġcon ch
uer imus
Ġr ara
Ġquam que
lic e
Ġam issa
Ġor atores
Ġag rorum
dit as
Ġau ibus
Ġaud isset
Ġacc iperet
Ġinu oc
Ġas sign
Ġsal u
Ġga uius
Ġprod it
Ġarbit ratu
Ġdict urus
Ġfund itus
Ġfem in
Ġtriumph i
Ġsatur nus
Ġsubst itut
Ġcomper ta
Ġtrist e
Ïģ Î±
Ġdid uc
Ġprosper is
Ġobnox ia
Ġion ath
m un
s unt
er sit
es is
ra xit
ot on
Ġdi ur
Ġam bi
Ġst ella
Ġal te
Ġvir idi
ull um
Ġter ren
Ġcap iunt
Ġcap uam
Ġconst et
Ġaud eat
Ġmor itur
Ġexp rob
Ġcens um
Ġess emus
rac tus
Ġfut t
Ġrelig ionibus
Ġseuer o
Ġexs ult
Ġpraefect i
Ġdest it
Ġhered itatis
Ġhort atur
Ġgrammat icum
Ġconiug em
Ġtyrann um
irent ur
Ġignob ilis
Ġolymp ia
8 2
Ġ omen
Ġs ulc
Ġd atam
Ġf ret
im onium
Ġl ut
op at
end e
ip sum
Ġb yz
Ġcons angu
ect e
Ġu e
Ġvid erat
ans que
Ġsim ilibus
ric us
ern is
Ġlong ior
Ġdomin ae
Ġsup pos
Ġeorum que
Ġmon et
Ġtab ulae
Ġfelic es
Ġmetu ens
Ġmart yr
Ġmund us
Ġpulch er
Ġaem ili
Ġtract u
Ġcomper tum
Ġinterpret atio
Ġtoll it
Ġtransf ug
Ġpontific es
Ġvehem entius
Ġrip as
Ġaetern um
Ġdepos itio
Ġinsp ect
Ġabsur dum
m ae
qu iri
Ġe ug
Ġe di
us i
Ġs au
Ġm imo
Ġv ot
ent as
un a
Ġut ar
ens as
Ġver res
Ġpar ce
Ġob oed
Ġvoc amus
ient iae
Ġau us
Ġaud itu
Ġinu estig
Ġdisc ret
Ġfec ere
Ġvest er
Ġgl ori
Ġseru ata
Ġ4 5
Ġsimul que
Ġadm ou
Ġcel eri
Ġarm atos
Ġsoc ia
Ġprob ari
pl or
Ġpont um
Ġmiser am
Ġsapient es
Ġmaced oniae
Ġrecip i
Ġmerced em
Ġinan es
Ġepic urus
Ġtranst ulit
Ġmineru ae
s ol
Î ¸
Ġm ell
Ġt y
Ġf ures
id iae
oc li
ac ius
ac io
Ġex itu
se pt
ult i
ig i
Ġleg io
Ġgen itus
Ġiudic iorum
Ġrem isit
Ġlit is
Ġpet rus
Ġlat inam
Ġch il
Ġvest es
Ġamic a
Ġeg redi
Ġpal ma
Ġiust us
Ġsignific atio
Ġmagist ris
Ġmiss o
Ġtheod ericus
Ġpraecip iti
Ġmaior i
Ġantiqu ae
Ġsapient iam
Ġinim icis
Ġinim icos
Ġhannib ale
Ġgerman ia
Ġpraepos itio
Ġpraecept is
Ġeb ri
Ġpercont atus
Ġsuauit ate
2 5
Ġc ari
Ġre os
Ġdic erem
Ġsc or
Ġid ibus
Ġor i
Ġinter itu
ri or
Ġsuper os
Ġprim itus
Ġter rest
Ġcap itur
Ġven enis
Ġfort i
Ġmil li
Ġmil libus
Ġdisc ordia
Ġappell atae
Ġpatr oni
Ġeu ang
Ġpoen orum
Ġviu us
Ġdilig entius
Ġiuli o
Ġquot idie
Ġtib erium
Ġverborum que
Ġcupid itas
Ġalt itudine
Ġpontific is
Ġtutel am
Ġadri anus
Ġvolg us
a ulus
Ġi os
Ġp ind
Ġt ect
Ġt ing
Ġin hib
Ġpr ag
ib unda
ta l
Ġsc iant
Ġst ruc
Ġinter fici
Ġsp on
Ġsit is
Ġdix eris
ionem que
Ġrep ut
Ġnomin um
Ġpraes ag
Ġfam em
Ġlab ori
Ġiust in
Ġpugn auit
Ġsanc to
Ġpriu ati
Ġdiuers ae
Ġindic tione
Ġparent e
Ġpret ii
Ġquaer imus
Ġpon itur
Ġarbitr antur
Ġcoep isse
Ġglad i
Ġobt emper
Ġtar t
Ġconsp ir
Ġutil itate
Ġfacult ates
Ġsuspic ione
Ġiur are
Ġvent orum
Ġpontific um
Ġtog a
Ġacceper at
Ġappare at
i rare
Ġqu erim
Ġm uri
Ġg y
Ġquid quam
Ġpar uum
Ġcor onis
Ġverb era
Ġapp rop
Ġmo es
Ġpet is
Ġtra xit
ann is
Ġord inibus
Ġcontin etur
Ġpont e
Ġlud i
Ġdilig entissime
Ġindic io
Ġfelic em
Ġcan ere
Ġanimad uerter
Ġuoc e
Ġargum enta
Ġduod ec
Ġsallust ii
Ġsat ell
Ġillust ris
Ġsamn itium
Ġinh on
Ġinfin itum
8 5
Î ²
Ġi ec
Ġt ae
ul erant
Ġcon qui
Ġdi omed
iss ae
Ġb ina
Ġsed ens
Ġprae pon
Ġtr iennium
Ġlib rarum
iu am
Ġser g
Ġiam dudum
Ġscrip toribus
Ġman c
erent ia
Ġaud ias
Ġius sum
Ġred empt
Ġinst at
Ġfab ul
Ġmens ae
Ġiuli anum
ĠâĢ ł
Ġinsign i
Ġinop iam
Ġsuspic ionem
Ġfast id
Ġsur c
Ġchal dae
Ġcim b
Ġaesc h
t ores
t iones
u inus
Ġin ert
Ġl oque
Ġcons urg
Ġsc isc
rat ae
Ġfl a
ag esimo
Ġcl er
Ġven is
Ġmagn os
Ġconc ilio
Ġconf ert
Ġfec erint
Ġign ot
Ġdiu ini
Ġmut ari
Ġtim et
Ġdiss erit
ocl es
Ġuir tus
Ġterr orem
Ġmarc ello
Ġstat uta
Ġconstit erit
Ġcommod is
Ġvac at
Ġturp iter
Ġeur y
Ġperd ere
Ġterm inos
Ġdecern it
Ġcarthagini ensibus
Ġquadrag es
Ġvall um
Ġhibern a
Ġincommod a
Ġillyric um
Ġsententi arum
Ġh odi
se ll
io t
el lin
Ġar de
Ġag erent
Ġdec uit
Ġvoc andi
ios os
Ġcert ior
Ġcogn ito
Ġseru at
Ġ5 5
Ġlac er
Ġsept im
Ġaccep isset
Ġfre tus
Ġcorn ibus
Ġnoc ere
Ġplurim as
Ġdelic ta
Ġqual itate
Ġcla ustra
Ġhorosc opo
i atis
p em
u oque
Ġv index
Ġin ha
im per
ar on
ul issent
Ġex itio
Ġint rep
Ġsc rup
Ġsuper i
Ġpo li
Ġcomp ens
Ġpet itum
Ġlong am
Ġped est
erem ur
Ġpauc orum
uic esimo
Ġinueni es
Ġcohort ibus
Ġcaeter a
rup it
Ġmaiest atem
Ġsepulc ro
n orum
Ġv eg
en orum
Ġex super
and ro
Ġsc and
Ġab eunt
Ġloc utum
Ġmod ice
Ġsuper fl
Ġth an
Ġdeb uisse
Ġvet eri
Ġcol oribus
Ġmort ui
Ġprob i
Ġtest atur
Ġlac u
Ġinde f
Ġplac ent
Ġhor rid
Ġaff lic
Ġextrem is
enum ero
Ġpronunt iare
Ġinstitut o
Ġsar m
Ġgallic anus
Ġobsequ io
Ġthess al
Ġrosc io
Ġlongin qua
Ġber eng
b e
c am
i ari
u go
Ġs itum
Ġex ult
op otam
el eb
Ġpl enus
Ġpl uui
Ġhab uerunt
Ġcap itibus
Ġscrip ti
Ġven erant
Ġph as
ient ur
Ġrep os
Ġnomin i
Ġlong i
Ġvest ros
Ġcae lius
Ġaet oli
Ġmemor at
Ġstud iose
Ġtim ere
Ġuir o
Ġnesc is
Ġceleb errim
Ġast u
Ġchrist iani
Ġcass io
Ġinterfect o
Ġrip a
Ġbritann iam
Ġtard ius
Ġinstruc ta
Ġdomest icis
Ġmiseric ordiam
Ġplag a
Ġsib imet
Ġbrach ia
Ġfef ellit
Ġeus eb
" ?
s up
ul are
Ġcon sequi
Ġut ilius
itur ae
Ġam m
ex isse
Ġanim as
Ġvol es
Ġcomp le
Ġnihil que
Ġconc urr
Ġlat ron
Ġch ir
Ġpraes entem
Ġtrans itum
Ġ5 0
Ġgal ba
Ġcoll um
Ġsex tus
Ġtur c
Ġscrib endum
Ġarc a
Ġmuli eri
Ġmitt unt
Ġpre st
Ġdiffic ilis
Ġnobil itas
Ġfall ere
Ġfacult atibus
Ġinterrog auit
Ġignob iles
quad rig
Ġoctog inta
Ġhot an
n s
u endum
os e
Ġut iles
Ġut imur
Ġco ag
ist e
Ġtemp or
Ġdec oc
Ġmagn itudinis
Ġnull ae
Ġluc t
Ġdeb ell
Ġmed ull
Ġfec issent
Ġcaes elli
Ġvest em
Ġcoll es
Ġplac itum
Ġpraest itit
Ġmer idie
Ġmol es
Ġiuli i
Ġfund i
Ġmart em
Ġnol uisse
Ġconueni ret
Ġdiuis it
Ġcad ere
Ġcohort is
Ġerud iti
Ġherod es
Ġhast am
Ġapr il
Ġmarty rum
Ġvariet ate
Ġcle opat
Ġhasdrub al
Ġa iebat
Ġc yr
Ġd og
Ġn ih
Ġv n
Ġf eris
ic arum
Ġre or
Ġsc ut
Ġsc imus
Ġab sit
Ġhab uere
Ġal uum
Ġant oni
Ġvir id
Ġreg ressus
Ġcur uli
Ġmult isque
Ġsuper auit
Ġvol ebat
Ġph yl
Ġaud eret
Ġaud itum
ric o
Ġconsul ere
Ġfr ui
Ġquant umque
Ġseru ili
Ġmilit ares
Ġhum i
Ġlac tis
Ġnomen que
Ġmut uo
Ġusque quaque
Ġfab ulis
Ġfab ulas
Ġcapt is
Ġnunt ios
Ġpass um
Ġclar issimi
Ġobseru atione
Ġgalli en
Ġtriumph us
Ġcicer on
Ġpossess ionis
Ġcamp i
Ġconueni unt
Ġfin xit
Ġobt rect
Ġtempest as
Ġdelect at
Ġimmorta libus
Ġserp ens
Ġradic e
Ġdepreh end
Ġanc illa
p ra
Ġp anis
Ġt eret
Ġad itum
ac uli
Ġcon par
Ġg eg
Ġpl eno
Ġob n
Ġqua libet
Ġsol ebant
Ġsub ueni
Ġcl adem
Ġven und
Ġth em
Ġnecess ariis
Ġconu entum
Ġdim idium
Ġcontin entur
Ġquad ri
Ġintra uit
Ġperpet uam
Ġmater iae
Ġscript ura
Ġvac uum
Ġsar rac
Ġtumult um
Ġauxili is
Ġpraecl ara
Ġantec ed
9 0
Ġm amm
et ibus
Ġl ustra
al as
ens os
ob ard
and er
Ġer og
Ġimper i
Ġfl ores
Ġvoc auit
Ġscrip tam
Ġsen io
Ġrep raes
Ġquos que
Ġcuius libet
Ġcol ores
Ġcast ella
Ġpers ae
Ġciu ilia
Ġdet erm
Ġsept en
Ġmut a
Ġauctor itates
Ġcapt iuit
if orm
Ġcausam que
Ġaus ter
Ġvig ili
Ġbarb a
Ġpud oris
Ġpraem iis
Ġpraeb ere
Ġsaep enumero
Ġsubi ecta
Ġmas in
Ġdolab ellam
Ġcac um
r ut
Ġa ren
Ġqu ati
ic ii
an ea
Ġse v
Ġsc ito
Ġu iam
Ġcont ex
Ġsub egit
Ġag ath
Ġsuper que
Ġmin as
Ġgr andi
Ġsum ere
Ġocc idi
Ġcar th
Ġexp ress
Ġsem ine
Ġdiu inam
Ġcol ch
Ġcae p
Ġcert atim
Ġrerum que
Ġprob atur
Ġded isti
Ġaeg er
Ġindic at
Ġquaest ionis
Ġquar tam
Ġquaes ita
Ġantiqu itatis
Ġcogit atione
Ġtempest ates
Ġcant u
Ġpropin quis
Ġaegypt i
Ġcass ium
Ġpla ust
Ġambig uum
Ġurg et
Ġsuffrag ium
Ġrescrip sit
Ġpulcherrim a
Ġcall ist
Ġantiquit as
Ġstrag e
Ġrepper i
Ġdemoc ritus
Ġfacillim e
Ġexer ce
Ġperipat et
f ul
h inc
p en
Ġa go
Ġa sell
am ini
Ġv ec
Ġt ectum
id en
Ġl xxx
Ġex orn
Ġg enti
ect as
Ġprae g
Ġor am
Ġal am
Ġsub urb
Ġmar ium
Ġau xit
Ġnihil ominus
Ġfer o
fect um
Ġconsul ares
Ġvest is
Ġcogn itis
Ġconstant iam
Ġdon atum
Ġcred as
Ġvii ii
Ġperpet uae
Ġverg ili
Ġson o
Ġnig rum
Ġfrequent ia
Ġsag unt
Ġdext ram
Ġtempest atibus
Ġvict orem
Ġasc endit
Ġsuspic io
Ġobi ecta
Ġeccles iam
Ġdii udic
prim e
Ġsard inia
Ġincon dit
Ġintent ionem
Ġscop ulos
Ġiohann i
Ġpraeu al
Ġsenec a
Ġbrundis ium
l ong
x erat
en ia
Ġpr ona
est or
ens u
lic is
Ġpl or
Ġam issis
Ġqua erunt
Ġappell atione
Ġduc eret
Ġep ir
Ġund ecim
Ġomnes que
Ġdem ens
Ġle on
Ġspec i
Ġfur to
Ġaccip iat
Ġgem mis
Ġuic tus
Ġtit ulum
Ġuoc ant
Ġnobil itate
Ġfall it
Ġincip iunt
Ġfranc is
Ġiact ura
Ġlegit ima
Ġincend ia
Ġlibid inis
Ġmaiest as
Ġben edic
Ġcecid erunt
Ġpasch a
p ae
s anc
u ent
Ġd aem
in are
ur s
et que
ul ere
Ġg erit
Ġcons tern
Ġar uis
Ġpl u
Ġnec non
Ġinter emit
Ġcomm otus
ient er
Ġinf eros
Ġfuer is
Ġvit iorum
Ġconsul aribus
Ġposs es
Ġcae lio
Ġnou os
Ġcal efac
Ġlaud ari
Ġsignific aret
rent i
Ġ6 2
Ġdon atus
Ġaequ itate
Ġull is
Ġvolunt ates
Ġtor menta
Ġreliqu erunt
Ġinsign es
Ġpossess iones
Ġic tum
Ġmemin imus
Ġsubt ili
Ġbel g
Ġnub ila
Ġprem it
Ġmess alae
Ġadulter io
Ġuictor iam
Ġgreg es
Ġomnim odo
6 0
a ug
f ur
Ġn arb
Ġex in
ab ula
itat os
Ġpl ant
uli mus
Ġsit us
Ġsuper atus
Ġmin is
Ġhon ori
Ġub ert
Ġnos que
ras set
Ġeff emin
Ġscrib endi
Ġcong ress
Ġturb am
Ġproxim i
Ġgest ae
Ġadi ecit
Ġexs ecut
Ġdia lis
Ġpecc atis
Ġsuas it
Ġerr oribus
Ġrel ata
Ġrecept um
Ġdefin it
Ġpisc es
Ġferi as
Ġmurm ure
Ġcus p
m entum
t uti
x erit
er itur
Ġcon sed
Ġper ite
Ġr ug
Ġr itus
Ġfac tu
Ġcom as
Ġsol emn
iis se
Ġfl os
Ġfort assis
Ġdeb ebit
Ġmem ores
Ġtot os
Ġ4 7
Ġiub ere
Ġhor ren
Ġgem ina
Ġuir is
Ġinp ortun
Ġreper iri
Ġantiqu iores
Ġstatu as
Ġdefens ionem
Ġoccas u
Ġsaep issime
Ġnota ui
Ġatheni ensis
Ġrud es
Ġbritann ia
Ġresist ere
Ġsinc er
men on
Ġeurip ides
Ġmedic ina
Ġeuad ere
Ġuell et
Ġpericl it
e atis
f est
m um
Ġ Ïĥ
er rab
Ġp elli
Ġn ect
ent ii
op e
ra rent
Ġr im
Ġac eto
Ġsed ere
Ġprae p
Ġu ere
emp li
Ġinc o
Ġiu rec
Ġdisc essit
Ġcaes is
Ġ3 8
Ġtrans it
Ġfur orem
Ġiub ebat
Ġmuli eribus
Ġdiff er
Ġprot eg
Ġrap ta
Ġsax is
Ġprud entiam
Ġmou etur
iac i
Ġpatri e
Ġsubs idium
Ġproduc ta
Ġpati untur
Ġclem entiam
Ġfrug ibus
Ġpuell am
Ġcresc ere
Ġaeth era
reb ant
Ġnoctur na
Ġeuas it
Ġpoem atis
Ġscor p
r ym
v al
Ġi uri
Ġc e
Ġh et
Ġde lin
op i
Ġu ali
ari e
Ġhab ito
Ġcont urb
Ġleg itur
Ġag untur
Ġcl o
Ġgr andis
Ġimp ar
Ġimp ortun
ing ere
Ġrec tum
Ġmaxim ae
Ġcert i
Ġtrib uta
Ġprob abilius
Ġiust ae
Ġcoll is
Ġdel ata
Ġpecun iis
Ġuer a
Ġceleb rata
Ġvult um
Ġprud enter
Ġot ia
Ġuid eri
Ġconui uia
Ġsubt il
Ġseruit ute
Ġimb er
Ġtub er
Ġtub ero
Ġlam b
Ġsacrific ium
Ġliberal itate
Ġcomme atus
____ ____
Ġcomplex us
fam ilias
e on
us o
at iusque
Ġex empli
Ġcon quis
ore t
ist ae
Ġcom itibus
uis que
ad is
Ġcor repta
Ġcomm in
Ġtum ulo
Ġduc tu
Ġput a
Ġtrans itus
pl eb
Ġdis ert
Ġfaci enda
Ġult imo
Ġact ionis
Ġpron ep
Ġcommod ius
Ġlabor at
Ġfu isti
Ġpu re
Ġseruit utis
Ġiucund um
Ġflamm as
Ġmans it
Ġsolo ecism
Ġcresc it
Ġobli uis
Ġquinc tio
Ġhisp ani
Ġhym enae
Ġstomach um
Ġc eph
Ġv otum
il ae
Ġat ra
Ġan gu
Ġpl enam
iu orum
Ġleg ione
Ġinc onsult
Ġimp ia
Ġres crib
Ġrec essit
Ġcuius cumque
og raph
Ġmat hem
Ġel abor
Ġsae u
Ġuer b
Ġpont em
Ġmer g
Ġsequ atur
Ġquaes iuit
Ġaper ta
Ġon er
Ġeffic itur
Ġgrammat icorum
Ġaccid ens
Ġhosp itio
Ġom is
Ġtro iae
Ġsaec ulis
Ġspar t
Ġapost oli
Ġsyracus is
Ġceper unt
Ġnonnull a
Ġtutel ae
Ġdemosth enis
y e
er x
on ea
Ġn atis
Ġl em
ac ibus
Ġut ebatur
Ġca uc
Ġca rent
Ġat eius
Ġan an
Ġor g
Ġor atoris
Ġvoc ationem
Ġaud ax
ationem que
Ġpraes entiam
Ġep i
Ġred de
Ġind utus
Ġel ap
Ġmet aph
Ġsus cepta
Ġliber ales
Ġprom ou
Ġcapt ae
Ġaur ig
Ġalexand ria
Ġadu ol
Ġuir os
Ġantiqu o
Ġxii ii
Ġprud entiae
Ġpel opon
Ġnobil itatis
Ġpy ren
Ïħ ÏĢ
Ġtro ia
Ġvend idit
con f
Ġvetust as
Ġsci endum
Ġcalam itate
Ġmagistrat uum
Ġpatric io
Ġdoctr inae
Ġpatrim onium
Ġoffend imus
Ġstipend ia
Ġpestil entia
3 3
Ġp ura
Ġv endere
Ġt utus
iam ur
Ġli que
and umque
Ġer rasse
ig ere
Ġvid ebat
Ġlib yc
Ġpat eretur
Ġsub eunt
ad a
Ġag r
esc o
Ġimp rud
Ġmor atus
Ġcre dam
Ġub icumque
Ġius sis
Ġconf er
Ġput e
Ġdiu ort
uti arum
Ġsoc ius
ont es
Ġost ia
Ġcred eret
Ġcas p
Ġdim is
Ġsy ph
Ġfut uram
Ġaqu ile
Ġlud orum
Ġreper tum
Ġstat ua
Ġconstit ui
Ġfra us
Ġsuccess ionem
Ġsomn um
Ġlim en
ago g
Ġspoli is
Ġauf erre
prim is
Ġpraecl are
Ġdomit ius
Ġmes opotam
Ġpelag i
Ġincor rupt
Ġdoctrin arum
d ec
g l
i oma
k ei
re is
Ġd as
Ġd abatur
es us
ar iter
Ġut erentur
Ġdic et
Ġar am
Ġcom ite
Ġam ori
Ġvid erent
ess a
ess um
Ġleg ionem
Ġun icum
ian e
Ġpub li
Ġquis nam
Ġmor d
Ġfi ebat
Ġcast ren
Ġpraet orum
Ġimm ob
Ġfortun e
Ġveni entes
Ġoppid is
Ġdiscip ulus
Ġtali onem
Ġvers ari
Ġtrad untur
Ġredd eret
Ġsapient is
Ġdisp end
Ġhuman itate
Ġsubst antiae
Ġmus a
Ġappar atus
Ġposc it
Ġlign a
Ġincend ium
Ġpign ora
Ġreuers i
Ġnumm os
Ġplaut o
Ġmurm ur
Ġiohann es
Ġnih ili
k oi
Ġs tabat
Ġd eri
Ġd amus
Ġf usc
ul f
Ġpr id
Ġl ati
Ġex i
Ġper empt
Ġr atum
Ġan s
Ġomn ipot
Ġpot um
Ġenim uero
Ġdec imum
Ġgen itum
Ġman eat
Ġmagn e
Ġimp ati
Ġau o
Ġcar us
Ġvide ar
Ġhost ili
Ġconc lam
Ġdiu idit
Ġcast rum
Ġvis o
Ġhum o
Ġeg ere
Ġabs entem
Ġsignific ationem
Ġpom a
Ġprofect um
Ġadf ert
Ġvig or
Ġhere de
Ġquaest ionum
Ġtor mentis
Ġnunt iata
Ġbarb arum
Ġbarb ara
Ġinteg er
Ġpostul auit
Ġnut u
Ġcrudel is
Ġpest is
Ġfont ibus
ef act
Ġcompreh end
Ġrestitu ere
Ġexh ered
Ġequest ri
Ġlabe onem
Ġvestib ulum
Ġpompon ius
6 5
Ġc ym
Ġn anc
Ġm ug
in itate
ib ant
Ġdi rexit
Ġac eru
Ġco gitur
Ġdic etur
Ġcom is
Ġcom itatu
Ġrom ulo
Ġleg ebatur
Ġcap iat
Ġtant as
Ġinf ert
Ġdisc ord
Ġvest imenta
Ġseru ilius
Ġregn at
Ġpatr oc
Ġpatr ono
Ġdet ulit
Ġdep ren
Ġsept ing
Ġprof ecta
ach i
Ġcog i
Ġflu uio
Ġproxim am
Ġgrau ia
Ġmand atis
Ġalt itudinem
Ġpraef in
Ġuen erunt
Ġsid us
Ġtul erit
Ġcrud eli
Ġbl anda
Ġexter na
Ġvend id
Ġbe atus
Ġruf us
Î· Î½
Ġfeb ru
Ġtang it
Ġeurip idi
uig il
i atus
k on
l eo
Ġe ub
Ġv ili
Ġt endit
Ġt aet
Ġre fic
il c
Ġco al
Ġpar as
Ġu as
Ġhab ui
Ġpost ulas
Ġag ente
Ġag eretur
Ġmod ico
Ġsec retum
Ġman lio
ias que
Ġinu ali
Ġluc rum
Ġpet ita
ici at
Ġred uxit
Ġmet ellum
iones que
ont em
Ġquint i
Ġiust inus
Ġtur res
Ġnot am
Ġfut uris
Ġtrium uir
Ġreliqu isse
Ġscel era
Ġinim icorum
Ġtriumph os
Ġvolupt ati
Ġcondic ionis
Ġimb ec
Ġnepot is
Ġheb et
Ġdot e
Ġrad iis
Ġadscrip si
Ġindoc ti
Ġpudic itia
Ġdiog enes
Ġligust icum
m ate
u el
Ġp io
at t
os ae
id entes
Ġg elli
ens ae
Ġsed it
pt i
Ġpar ibus
Ġu ag
Ġap h
Ġhab uisset
quam ur
Ġpos itam
Ġsol iti
Ġsub leu
Ġtu e
ian am
Ġvol c
Ġconst ruc
Ġing entis
Ġluc ri
Ġdeb eri
Ġref eram
Ġprod idit
Ġexistim aui
rab ant
Ġvolunt ati
Ġod ore
Ġfut uro
Ġmir acula
Î± Î½
Ġreliqu erit
Ġfelic i
Ġmarc elli
Ġvix isse
Ġrespond erit
Ġtul isse
Ġtrist es
Ġnub e
Ġmanifest o
Ġerud it
Ġpisc ibus
Ġmolest e
Ġclad is
Ġconsider andum
Ġhell esp
Ġsuppl em
Ġanastas ius
Ġrecon cili
Ġpromont orium
Ġarus pic
Ġrepraes ent
Ġhellesp ont
m ed
qu ar
Ġa v
is teret
Ġp unc
Ġp aret
Ġc ibi
or sus
ac o
Ġg et
Ġse i
Ġdic entem
are que
eb ar
Ġvid ete
Ġob j
Ġins an
Ġimp un
Ġvi ueret
Ġappell atos
Ġalter c
Ġput are
Ġdiu inum
Ġcogn itio
Ġseru io
Ġ5 4
Ġnecess ariam
Ġamb itus
Ġkal on
Ġnegot iat
Ġplus c
Ġiun ius
Ġher bis
Ġpret erea
Ġpraedic tum
Ġdoct orum
Ġepiscop is
Ġsort is
Ġadhib ere
Ġmonst rum
Ġobst in
Ġrecept us
Ġrid ic
Ġperuen erunt
Ġinstrum enta
Ġlucret ius
Ġvolum ina
f ug
m yr
Ġp ip
at enus
Ġt udit
Ġcon cepta
Ġsi r
Ġsc ena
Ġfl orem
Ġvoc atum
Ġapp ius
Ġaud iuimus
Ġocc urrere
Ġmor ae
Ġfid ibus
Ġel ectus
Ġem ic
Ġfug ientes
Ġliber am
Ġpatr ologia
Ġpom is
Ġdub ie
iant es
Ġingen iis
Ġceleb rat
Ġparent i
Ġquot ies
Ġredd itur
Ġaure lio
Ġpraesid ii
Ġcustod iri
Ġvarr one
Ġruf i
Ġfrug es
Ġlam ent
Ġgoth i
Ġmach in
Ġincolum i
Ġcognom ento
Ġachill es
Ġnoll e
Ġpromuntur ium
praepet es
Ġapprop inqu
i ra
l ogism
p ec
r ibi
Ġa ia
it arum
li go
ant o
Ġde uo
Ġse lla
Ġac qui
Ġco etus
Ġcons tabat
and isque
ed o
issim umque
Ġor atorum
Ġcont endere
Ġsuper at
Ġgr amine
Ġfort issimus
Ġcar a
Ġconc ord
Ġlong itudinem
Ġpraec ell
Ġno v
Ġtim ens
Ġpriu atae
Ġhor atius
Ġbre uitate
Ġol ei
Ġclar o
ru xit
Ġaure um
Ġgalli arum
Ġnig ra
Ġgall um
Îµ Ïĥ
Ġcertam inibus
Ġconueni ens
Ġcond itum
Ġdulc i
Ġconsp ici
Ġexsp ecta
Ġcu imodi
Ġsaec ulo
Ġabsc ond
Ġcoel um
Ġlent ulus
Ġpaenit et
man ub
Ġky am
Ġafran ius
Ġtarqu inio
Ġandr ocl
s ap
it antem
Ġt omus
Ġf udit
ur ii
Ġpar uae
Ġmod ulis
Ġgen as
Ġven et
Ġven iant
Ġimp p
Ġimp ut
Ġaud ientibus
Ġocc isi
Ġfr onde
Ġep ulis
Ġel ud
Ġvest rorum
Ġamic e
osc i
Ġtest ium
Ġcal ce
Ġord inum
Ġdoc tis
Ġnot as
Ġform as
Ġepist ulas
Ġed ita
Ġseuer um
Ġha em
Ġcand ido
Ġpror og
Ġmemb rorum
Ġmeli ore
Ġostend eret
Ġmus ae
Ġmorb is
Ġgraui ora
Ġpun ico
Ġinterfect is
Ġaetern a
Ġsustin et
Ġsci ebat
Ġsull ae
Ġaddit is
Ġauar itiam
Ġuet eres
Ġiuuent utis
Ġdulced ine
Ġcallim achus
Ġgladi ator
' m
qu oniam
Ġd aretur
Ġn ationibus
Ġv oto
Ġh iis
Ġpr u
lic em
Ġam isso
Ġob prob
Ġimper ante
Ġcor r
tus que
Ġcur u
Ġcomm isit
Ġvol at
Ġven e
Ġfort issimi
int er
Ġrep on
Ġlat era
Ġit ur
ite at
Ġem itt
Ġequ itatus
Ġpac tum
Ġhom ic
Ġult imam
Ġtribun ali
iles que
Ġpoet as
Ġiac ere
Ġpau ore
Ġfin itur
Ġconsc end
Ġrob or
Ġnud us
Ġdatur um
Ġvetust ate
Ġhiem s
Ġpho ebus
Ġmonum entum
Ġrum or
Ġsaturn ini
Ġresponde as
pers onae
m io
Ġqu estus
Ġd entibus
Ġn ix
Ġf od
ent ura
Ġg u
Ġar rog
ort is
Ġquo usque
Ġinter iit
Ġpat iens
Ġsp ha
Ġcur iose
Ġsuper c
Ġimp ell
Ġing em
Ġconc ordiam
Ġpet ebat
oribus que
uri arum
Ġvocab atur
Ġret rah
Ġaff ectu
Ġaur ium
Ġsoli di
Ġlap ides
Ġobt ulit
Ġindign a
Ġclass ibus
Ġcondic ionibus
Ġsingul arem
Ġsenti unt
Â» ,
Ġparth orum
Ġimpos uit
- ,
c uius
l uc
m orta
r ys
s ec
x isse
is ia
Ġm ature
Ġf erit
Ġf erebant
ar di
Ġl ani
Ġad uenit
end oque
ob iscum
Ġma us
Ġat l
Ġu ult
Ġhab endum
Ġst imul
Ġpost modum
ita ui
Ġlit es
Ġing reditur
ass es
Ġgra uitas
Ġaduers arios
Ġfur tis
Ġhi er
Ġperm otus
Ġarbit ram
Ġvig ilia
Ġpraecip uum
Ġol e
Ġsapient er
Ġdia b
Ġlect i
Ġcommod o
Ġon ere
Ġcognosc it
Ġmit tis
Ġbib ere
Ġmaced ones
Ġearum que
Ġcant us
Ġcib orum
Ġdiuit iis
Ġpatern a
Ġadsid ue
Ġexh ort
Ġdesign atus
Ġanx ia
Ġcontig erit
Ġsaeuit ia
Ġconcup isc
Ġoss ibus
Ġbracch ia
a h
Ġd aed
Ġg ust
and rum
Ġu ulg
Ġlib ellos
Ġhab ebis
Ġob rep
Ġal f
Ġcont ion
Ġdec ora
Ġnost rarum
Ġsuper iores
Ġth ras
Ġfer endum
Ġfer rent
Ġcar o
Ġext inc
Ġexc id
Ġem erg
Ġaet atibus
Ġcred is
Ġscrib as
Ġiub eret
Ġpraest anti
Ġfre ta
Ġreper iuntur
Ġintelleg is
Ġindi ff
Ġnol ite
Ġfa en
Ġall eg
Ġsuccess orem
Ġgrad ibus
Ġaristotel em
Ġintr om
Ġdefunc tus
Ġcogno ui
Ġcapill os
Ġhorr ida
Ġventur um
Ġmanub iis
Ġincredib ili
Ġderi u
qu isi
Ġm entibus
Ġin plic
in ii
ae os
Ġqui etis
Ġver itus
ri is
Ġverb er
Ġtemp ta
Ġser um
Ġvol entes
Ġfili as
Ġvic ino
Ġmag isque
Ġnomin atus
Ġpet ro
Ġpet entibus
Ġput atis
Ġcaes i
ilis que
Ġcogn atos
Ġmis isse
Ġae quis
Ġarb orem
Ġfaci ebant
Ġcoll ecta
Ġ7 4
Ġpros e
Ġlin ea
Ġmaxime que
Ġcontin uis
Ġopin iones
Ġcan ibus
Ġoccid entem
Ġinim ica
Ġfoed eris
Ġaudi erat
Ġepiscop um
Ġscript as
Ġscript oris
Ġlap is
Ġglad ios
iac is
Ġenn io
Ġmorta le
Ġgener aliter
Ġoce anus
Ġpraecept or
Ġpign oris
Ġacceper unt
Ġadn ot
Ġreb elli
Ġsagitt as
Ġherb as
ĠÏĢ Ïģ
Ġvene fic
f er
k o
Ġm eros
Ġt us
Ġt ax
se que
ol on
ot em
Ġac r
Ġob e
Ġpot erunt
Ġcl and
Ġcomp rim
Ġinf itias
Ġmed ias
Ġval uit
Ġconc idit
Ġ3 9
Ġdomin am
Ġequ itatum
Ġpers is
Ġimm erito
Ġ6 5
Ġcens u
Ġtim oris
Ġsin it
Ġlud um
Ġepist olam
Ġceleb ri
Ġadulesc entium
Ġrelin que
Ġdefens ores
Ġinstitut is
Ġimag inibus
Ġcapit onis
Ġmom enta
Ġlibid inem
Ġidone us
Ġclaus a
Ġheb rae
Ġsa ul
Ġmenand er
Ġpelag us
Ġulp ianus
3 0
Ġi idem
Ġd abitur
Ġt act
Ġh est
id ens
ll as
ol aus
Ġper im
Ġst atione
Ġprop ort
erat o
Ġann ona
Ġsuper is
Ġpra erog
Ġquas s
sus que
Ġth uc
Ġconc inn
Ġcol oniam
Ġdon at
Ġaed iles
Ġfau orem
Ġiac ob
Ġceleb ratus
Ġbarb am
Ġinuen io
Ġconstitut ione
Ġinl ud
Ġou ium
Ġeleg it
Ġsax um
Ġmit teret
Ġfrig id
Ġfrig ida
Ġmemb rum
Ġapt us
Ġlau rent
Ġerud itus
Ġpyr g
Ġconuers us
Ġtene at
Ġindut ias
Ġeffig ies
Ġtha is
Ġpler asque
Ġcland est
t ra
t ionibus
or ii
Ġin ed
in iae
Ġh aren
Ġde plor
el o
Ġco acti
Ġver n
Ġcons en
Ġpar ati
und os
Ġtr oph
Ġvid endi
Ġor iens
Ġser io
erent is
Ġfr iu
Ġign ota
Ġind uit
Ġcorp or
Ġquant ae
Ġref rig
Ġref eruntur
Ġcal ore
Ġgem ini
Ġuir orum
Ġnesc ire
Ġlect is
Ġxxx iii
Ġobl ata
Ġprohib et
Ġprog eni
Ġgerman orum
Ġinterfect i
Ġfiduc iam
Ġmodest ia
Ġcontempt um
Ġcali d
Ġopul ent
Ġprost ern
l os
Ġp inn
ul atum
Ġad esset
ere i
Ġper enn
Ġfac erem
Ġpar is
Ġap ron
Ġop im
Ġvid erit
Ġst ant
Ġqua erebat
eri as
Ġleg atio
ex erat
Ġroman as
Ġvoc ata
Ġdisc endi
Ġpotest is
Ġnob ilibus
Ġtra iani
Ġgraec arum
Ġmat r
Ġcert iorem
rae tori
Ġaduers ario
Ġadm is
Ġciu ilium
Ġtur rim
Ġtur mas
Ġtribun al
Ġtert iae
Ġtim orem
Ġaequ itatis
tam en
Ġpol li
Ġreper ire
Ġquaes isse
Ġcertam inis
Ġconsc ius
Ġiuss isset
Ġgerman os
Ġmonst r
Ġpopul aris
Ġdup lici
Ġul lius
Ġcommend at
Ġradic es
Ġpan em
Ġetr uria
Ġhibern is
Ġmoder atione
Ġneb ul
Ġcarn ific
h ost
h omo
t ore
Ġe lix
Ġc iui
Ġqu eri
on en
Ġf reto
os in
Ġl ectus
Ġl usc
Ġde is
Ġg nae
io uis
Ġr ates
Ġvid ent
Ġob ed
Ġpos iti
Ġsp el
Ġser eno
Ġdec ore
Ġsuper are
Ġmin imo
Ġsup ell
Ġvis ere
Ġeu an
Ġdon um
Ġperic ulorum
Ġmut u
Ġmens a
Ġdim issis
Ġdim idiam
atam que
Ġanton ini
Ġinp ud
Ġaure os
ress is
Ġantiqu arum
Ġdisp ar
Ġstatu ere
Ġerr ores
Ġabst inere
Ġobst up
Ġreuoc are
Ġpossid ere
Ġdiuin arum
Ġdifferent iam
Ġseque batur
Ġsuscept us
opoli m
Ġcensor ii
Ġtransm itt
Ġrosc ius
Ġcaed ibus
Ġagrest es
homin es
Ġeun uch
3 8
y did
Ġa en
Ġe dix
Ġp ali
Ġin anis
Ġh ap
Ġh yr
Ġh ung
ll ae
Ġg ym
Ġse b
Ġver am
and iu
Ġill arum
Ġhab eatur
Ġfl eb
Ġimp oss
Ġfer ant
Ġlit e
Ġing ressi
Ġpet imus
Ġsign orum
Ġmal it
Ġcol ere
Ġext rah
Ġquant itatem
Ġseru atum
Ġnatur aliter
Ġle one
Ġliber aliter
Ġpraeter ito
Ġum eris
Ġret ic
Ġpraest ig
Ġpompe ii
Ġquaest ores
Ġadh ort
Ġpars imonia
Ġquar tus
Ġinm in
Ġflum inum
Ġfund us
Ġseuer itate
Ġpraesid is
Ġasper um
Ġclass es
Ġcarthag in
Ġdefens ione
Ġbib it
yl um
Ġapt um
Ġagit are
Ġnub ibus
Ġpontific em
Ġfrum ento
Ġimpl et
Ġnupt iarum
Ġsociet atis
Ġrapt us
Ġpisc ium
Ġangust iis
Ġstab ant
Ġconstantin opolit
Ġchristian is
Ġvall o
Ġpropinqu us
Ġdecret i
Ġresc ind
f ex
g e
t orem
t ura
er r
Ġi uram
Ġn id
Ġf om
ut on
Ġab rog
ari nt
Ġlib itum
Ġdec eat
ian s
Ġcur rit
Ġvol uisset
Ġmagn isque
Ġinf esta
Ġth ym
Ġpet at
Ġcaes us
Ġtrans iit
Ġliber atus
Ġplac uisse
Ġrebus que
Ġeu entum
Ġfortun is
Ġpros us
Ġexistim aret
Ġpriu atorum
Ġpleb ei
Ġexempl orum
Ġquaest orem
Ġimpet r
Ġdict orum
Ġgaud eo
Ġreliqu as
Ġpret ia
Ġgrau issima
Ġsupplic ia
Ġchrist um
Ġpulch ra
ga ius
Ġoccis um
Ġom issa
Ġincom modum
Ġvehem ens
Ġauspic io
Ġces arem
Ġiunc tis
Ġparth is
Ġram is
Ġpernic ie
Ġsenect ae
Ġstrep itu
Ġpacu uius
Ġinfre quens
Ġcarth ago
Ġiurec onsult
i endis
m ei
o ueri
v en
Ġ _
Ġm act
or on
em sp
en ius
se i
Ġb ac
Ġu ox
Ġor ph
inc ip
Ġvir tuti
Ġcap ua
Ġsum it
Ġlit uo
Ġlit uus
ric i
Ġnob ile
Ġprincip atus
Ġabs entis
Ġini quo
Ġhor ae
rac tum
Ġiuli um
Ġnesc ius
Ġanton ii
Ġinp ed
Ġtac ita
Ġconstitut o
Ġconstitut is
Ġstatim que
Ġuid eretur
Ġpecc ata
Ġprouincia libus
Ġrepet it
Ġsomn us
Ïħ ÏĦ
Ġchar t
Ġhiem em
Ġsimplic i
Ġmatrim onii
Ġrede o
Ġrust ic
Ġindig et
Ġcomoed iarum
Ġampli or
Ġcomme atu
Ġrepper it
Ġdor so
Ġprouerb ium
Ġanch is
b ib
h is
Ġc x
Ġd atae
Ġin e
Ġf ud
Ġf aut
Ġh eri
Ġre quis
Ġex ub
Ġg ellius
Ġper uers
ell aria
Ġinter empt
Ġsol eo
Ġsp ati
Ġcor rec
Ġag is
ag e
ag i
Ġcur io
Ġins ult
Ġprim as
Ġprim oribus
Ġcomm odi
Ġcomp onere
Ġk ath
Ġing rat
Ġrep ell
Ġcirc o
Ġcirc ulum
Ġput ent
Ġopp ressa
Ġcol onis
Ġsoc er
Ġarb iter
Ġspec ulum
Ġcop iarum
Ġcred endum
Ġfur ius
Ġtib eri
Ġpau or
Ġdig est
Ġinl ep
Ġasp icit
Ġdext rum
umb ere
Ġperson arum
Ġcondit ae
Ġexter nis
Ġmorb um
Ġmom entum
Ġinsol ens
Ġfont is
Ġvad imonium
Ġhyp othec
Ġcapita li
Ġtene atur
Ġindulg entia
Ġrepent ina
Ġsati et
Ġcorinth um
Ġmatron ae
Ġaduerb ium
Ġthuc ydid
f rat
s id
Ġe uert
Ġp red
Ġin prop
ic ias
an ium
Ġpr iui
Ġex itia
Ġg il
Ġsc yph
Ġfac ilem
Ġpl eni
Ġpl aud
Ġer ratum
Ġob uius
Ġser a
Ġins ub
Ġter es
Ġsen atorum
Ġrem un
Ġurb an
Ġk a
Ġlit eris
Ġcar nis
entes imum
Ġten ues
iti em
Ġ4 8
Ġaduers arii
Ġeg reditur
Ġplac eat
Ġdep osc
Ġlin qu
Ġcommun iter
Ġvig ore
Ġdict as
Ġampl a
Ġpraetor i
Ġdia con
Ġspect acula
Ġmart io
Ġorn atu
Ġiug era
Ġmerit orum
Ġappar eret
Ġpropin qui
Ġces aris
Ġvestig io
Ġsubl ato
Ġornam entis
Ġconsequ ens
Ġconcept um
Ġappos ui
Ġnonnull is
Ġbid uo
Ġspel unc
2 0
f ero
r ere
t urum
in itatem
Ġf ossa
Ġh en
Ġh irc
Ġh Ã¦
ib o
Ġl ectum
Ġad eunt
Ġut iliter
Ġam az
Ġop ta
Ġhab iti
Ġhab entur
Ġtu arum
Ġinc ensa
ita li
Ġins imul
Ġman ente
Ġdeb il
Ġval eret
Ġconc in
Ġpraes ent
Ġign aui
Ġcogn itionem
ill ae
Ġnecess itatibus
Ġped is
Ġini quis
Ġdiss ert
Ġinp ati
Ġlect or
Ġuid ebatur
Ġsab inis
Ġsollic itudinem
Ġsym pos
Ġconui uiis
Ġmus is
Ġinterrog atus
Ġced o
Ġfrum enta
quo ad
Ġapollin arem
Ġcoron ae
Ġmom ento
Ġaedific ia
Ġprior i
Ġvideb is
Ġpig et
Ġlacedaem onios
Ġremed ia
Ġris u
Ġceper at
Ġsacram ento
Ġcontemn ere
Ġxxxv i
Ġder id
Ġtarent um
Ġpraesum pt
Ġarbitrab atur
Ġdal m
Ġpriui gn
Ġ q
Ġ ÏħÏĢ
Ġp us
Ġc edit
or di
es a
in itas
Ġf erebatur
Ġsu et
Ġut ilem
Ġper isse
Ġca ute
ter etur
ter tio
Ġid ent
und itur
Ġpot uerint
Ġsol utus
Ġleg ationem
up it
Ġau ia
Ġluc ul
Ġvide amus
lin um
Ġalter nis
Ġcol oniae
Ġlab ris
Ġdet eg
Ġconstant er
Ġnim iam
Ġfur oris
Ġhos ce
Ġtab ell
Ġquando quidem
Ġintra re
Ġceleb res
Ġobseru are
Ġredd at
Ġiuu eni
Ġcupid itatem
Ġcicer oni
Ġasp iciens
Ġtit ulis
Ġlap sus
Ġmou ent
Ġfact uros
Ġphili p
Ġpere unt
Ġdulc es
Ġic tibus
Ġmorta lis
errim e
Ġobi ectum
Ġcec in
Ġdid icit
Ġcib os
Ġimprob e
Ġsump s
Ġprocur ator
Ġsuffic ere
Ġand ron
Ġuis um
Ġaeth iop
Ġsull am
Ġinlust rium
Ġparth os
Ġdomest ica
Ġcunct orum
Ġcin eres
Ġtrec entis
Ġpatrim onii
Ġexh aus
Ġiras ci
Ġconuic tus
Ġfideicomm issum
Ġlasc iu
Ġlasc iui
Ġagrip pa
Ġstagn a
Ġdelub ra
Ġcyp ri
Ġies u
Ġcastric ius
Ġcelt ib
Ġdeterm in
f uit
y re
Ġp eli
on on
Ġn eri
Ġm ire
Ġh oti
Ġad iac
od orus
Ġtr actum
Ġap ion
Ġhab uerint
Ġpot ero
Ġsub iac
Ġcur atores
Ġgen iturae
Ġpart hen
Ġval ente
Ġappell abatur
Ġduc ebat
Ġconf ite
Ġgraec us
Ġind um
Ġstud ii
Ġiust am
Ġult ionem
Ġsanc te
Ġcup iunt
Ġnot ata
Ġpuer per
Ġod ii
Ġrelig ios
Ġnunt iis
Ġherc uli
Ġreper ias
Ġseuer i
Ġpud orem
Ġdil ect
Ġloqu ac
Ġque unt
Ġlect ione
Ġdig itos
Ġequit em
Ġmerit i
Ġeffic i
Ġfrequent es
Ġtul erunt
Ġumb ram
Ġdid ici
Ġterm inum
Ġimprob us
Ġpollic itus
Ġpossid et
Ġillust res
Ġseque bantur
Ġgoth is
Ġcrass um
Ġauar itiae
Ġcontrac tus
Ġmenand ro
Ġcomiti orum
Ġsagit ta
Ġtout on
e ug
m ent
Ġc ereb
re ph
Ġt ons
ae orum
ic inum
Ġcon ati
Ġg am
ol li
uer as
Ġint endere
Ġlib ellis
Ġob ici
Ġal ma
Ġcont enti
Ġcont enta
Ġcont erm
Ġpat imur
Ġpost eris
Ġag imus
urb es
Ġsec ura
Ġnum a
Ġfort ibus
Ġvic isse
Ġaud et
Ġth eo
Ġing entia
Ġposs emus
Ġdes i
Ġconf lig
Ġopp ressit
Ġsac rae
Ġamic itias
Ġfug ientem
Ġdet estab
Ġdub itauit
Ġfur t
Ġnot itia
ane um
ane is
Ġret ract
Ġiac ent
Ġquaest u
Ġvers atus
Ġreliqu ae
Ġcompos ito
Ġarbitr atus
Ġrelic tus
Ġtel orum
Ġrob ust
Ġpy th
Ġpun ica
Ġexim ia
Ġsca ena
Ġech ei
Ġfic ta
Ġplen ius
Ġsard iniam
Ġinsequ itur
2 3
m ature
Ġe ip
us um
Ġt red
Ġin und
Ġf ulc
Ġl atum
Ġde am
Ġg ig
Ġac u
ii ug
Ġprae pet
Ġu lix
unc ulis
Ġvid erunt
Ġinter nec
Ġpot ior
Ġpat ientiam
Ġips umque
Ġinc onst
Ġag as
Ġmod os
Ġroman e
Ġter re
rim a
Ġacc end
Ġexp rom
Ġconc id
Ġconf lu
Ġga z
Ġprou eni
Ġopp ressus
Ġmilit are
Ġra dix
Ġcel erius
Ġref ut
Ġcal ab
Ġarg os
Ġcop iose
Ġtur ribus
Ġfur tim
Ġfab ium
Ġsens erit
Ġfal si
Ġgest orum
Ġuniuers am
Ġconstitut ionibus
Ġadi unc
Ġpraetor ii
Ġtib erii
Ġhonest is
Ġloqu endo
Î¹ Îº
Ġsupplic iis
Ġparum per
Ġlun am
Ġdelic tum
Ġmanum iss
Ġpati atur
Ġimb res
Ġdeu or
Ġfrug i
Ġdispos itis
Ġdifferent iae
Ġadulter ium
Ġprosp ect
dim idiam
Ġpuell as
Ġagg ere
Ġinlust r
Ġadministr ationem
pa enit
Ġquadrig arii
Ġedit os
Ġram os
Ġris us
Ġcalumn ia
Ġuall um
Ġpuerit ia
sept entr
1 9
m ur
s olo
or ig
Ġv o
in laud
ic ol
ic eretur
an io
ac er
Ġde diderunt
Ġdi at
Ġr uris
Ġqui rin
ob r
Ġali isque
omn ia
Ġsc iam
Ġst oli
eret is
Ġpot entiae
Ġleg ationes
Ġdec oris
Ġmult oque
Ġman ent
Ġven io
Ġaliqu ibus
Ġcomp ed
Ġdeb eas
Ġvide at
Ġconc it
Ġpraes idem
Ġvet era
Ġga i
Ġseru auit
Ġexc ol
Ġnou issime
Ġsatis que
Ġost endi
Ġexistim ationem
Ġcong ressus
Ġinp rimis
Ġantiqu os
Ġrelin quit
Ġsaec uli
Ġexcept o
Ġconsist it
Ġceru icibus
Ġpatric ius
Ġcentur iones
Ġapost olorum
Ġgrand ia
Ġsyn logism
Ġpalm ae
Ġpatrim onia
Ġmuc r
Ġadg redi
Ġantist reph
Ġcatili nae
vest ri
Ġpronunti andum
Ġbass o
Ġsugg est
Ġterg um
Ġscept ra
Ġsollem ni
obnox ius
Ġburg und
Ġconsangu ine
f ort
g raph
h as
u istis
Ġ Ã¦
Ġc ro
nt ur
at rix
li xit
ut it
Ġre uis
Ġde esset
Ġg es
Ġab erat
Ġpl e
Ġhab entem
Ġsub ici
Ġleg ata
Ġimper atum
Ġcur are
Ġsuper bus
Ġvol ueris
ric em
Ġpotest ates
Ġput atur
Ġ5 7
pr om
Ġpul uerem
Ġini qua
Ġprof undo
Ġscrib unt
Ġiub eat
Ġviu os
Ġvictor iis
Ġclar issimo
Ġard ore
Ġpraefect urae
Ġadulesc entis
Ġcustod ibus
Ġfirm um
Ġchrist us
Ġflag rant
Ġedic ti
Ġful uio
Ġpartic eps
Ġplat on
Ġadmon endi
Ġsacerdot um
Ġdefin itione
Ġuest ra
Ġpatric ii
Ġconsum m
Ġindust riam
Ġvenust ate
Ġthrac ia
Ġianu arii
Ġbreu em
Ġpriuileg ia
Ġeut ych
Ġsacros anc
Ġmeherc ule
y si
er ici
um o
Ġp endere
ar icus
Ġl u
ac os
Ġcon n
Ġg od
Ġper actis
Ġli gu
Ġab hinc
Ġlib ra
Ġor atore
Ġal es
Ġpos itae
Ġpot entem
Ġsol emus
Ġsp ad
Ġant ias
Ġvir idis
Ġag entibus
Ġgen itura
Ġimp pp
Ġnum quid
ph y
Ġexp osc
ern ae
Ġ4 6
Ġ4 9
Ġtest ator
Ġliber ali
Ġimm ut
Ġeff ecit
Ġdon ationem
Ġcic atric
Ġport ione
Ġads unt
Ġ13 8
Ġpopulo que
Ġbarb arus
Ġreliqu erat
Ġiuu are
Ġcompos itis
Ġdesc i
Ġepiscop os
Ġon eris
Ġobsid ibus
Ġsollic itudine
Ġobsc ure
Ġnar rat
Ġadhib ita
Ġfall ac
Ġvent ris
Ġiucund ius
Ġtestim onia
Ġdefin itio
Ġsta ret
Ġmom enti
Ġsuad et
Ġtog ae
Ġsurg it
Ġtun icis
Ġuirtut is
Ġpythagor as
Ġadolesc ens
Ġcaud a
Ġrost ra
Ġbreu ibus
Ġalue o
Ġhanib al
m uli
is um
Ġp ila
Ġqu erc
Ġad em
ra d
Ġb all
el eg
Ġal bus
Ġpot entes
Ġvol n
ret is
Ġgr atus
Ġvic to
Ġluc tum
Ġrep ort
Ġas se
Ġvest ras
Ġpatr onum
Ġsil uius
Ġviu um
Ġepist olae
Ġrespond etur
Ġtit ulos
Ġdiffic ili
Ġfun est
Ġtyr rh
Ġobl ect
Ġhort ari
Ġconsc ia
Ġcarthag inis
Ġfraud is
Ġlaet itiam
Ġtestim oniis
Ġrecept o
Ġincert o
81 66
Ġobli u
Ġtun ica
Ġsinist ro
Ġping u
Ġfidel iter
Ġiniqu um
Ġplaut um
Ġinuad it
Ġiudae orum
Ġinterdic tum
Ġfideicomm iss
Ġhadri anus
Ġeurop a
Ġanalog ia
Ġinimicit ias
â Ĺ
at ici
Ġqu ominus
Ġv num
es ima
in en
ul su
Ġex cepit
Ġco eunt
Ġali menta
and ri
Ġam n
Ġsub rog
Ġvir ilem
Ġag atur
Ġsuper bi
Ġvol entibus
Ġo uis
Ġmem orem
Ġnomin at
Ġpet erent
Ġduc unt
Ġlat eribus
Ġvet at
Ġput em
Ġind idem
Ġproc li
Ġra uc
Ġeg omet
Ġost ium
Ġprof unda
Ġhabet is
Ġvocab antur
Ġfab ii
ux isset
Ġpont us
Ġadf erre
Ġmer eri
Ġaqu ili
Ġfal sam
Ġiuli ae
Ġsor ore
Ġexs ilio
Ġstat utum
Ġfoed a
Ġcond on
Ġobt runc
Ġpropr ii
Ġvari os
Ġdecre uerunt
Ġcogit ationes
Ġnobil issimus
Ġtyrann o
Ġrecept is
Ġpyr r
Ġcrudel itate
Ġcrudel itatem
Ġcin na
Ġfidel is
Ġmunicip ia
Ġmultip lex
Ġaust rum
Ġrepent ino
Ġinut ilis
Ġproph et
âĹ ¦
g t
u in
u untur
y nt
er uit
Ġt iti
im ini
Ġad qui
ot eron
Ġint im
Ġquam libet
Ġnec is
Ġag entes
erat or
Ġdix ere
Ġtant umque
Ġlit oribus
Ġvest ibus
Ġmis eros
Ġfaci endam
Ġimm emor
Ġdon ati
Ġprof essus
Ġperm issum
Ġpleb es
Ġquad r
Ġmol em
Ġloqu eretur
Ġast ris
Ġredi ret
Ġhered is
Ġexig ere
Ġfrequent i
Ġpatri is
Ġsyll ogism
Ġsollic itus
Ġhosp ites
Ġdiut urn
Ġbo um
Ġdefin itionem
Ġsocrat is
Ġcrudel itatis
Ġlign i
Ġpollic e
Ġmess ala
Ġleui ora
Ġsyracus as
Ġris um
Ġintent ione
Ġdemet rius
Ġmithrid ates
Ġfacin oris
Ġvisc eribus
mar cus
Ġcaer ule
Ġvatic in
h os
u issem
Ġs ut
Ġp ent
Ġd in
Ġn ili
Ġad sit
ia cum
ac ro
Ġex que
Ġg erebat
Ġpro que
Ġst ationes
Ġrom e
Ġx erx
Ġverb erari
Ġfl atu
Ġcur ulem
Ġann e
Ġinf eres
Ġrem ota
Ġluc i
Ġas crip
Ġnomin antur
Ġsal uum
Ġga ium
Ġind emn
Ġcr ines
Ġel eu
Ġcol orum
Ġexc edere
Ġle ones
Ġliber auit
Ġpal lio
Ġlac rym
Ġamb itum
Ġport icus
Ġexistim atur
Ġarc u
Ġux oribus
Ġoport un
Ġdilig entiae
Ġuic it
Ġconstitut io
Ġseuer itatem
Ġhonest atis
Ġfig uras
Ġhuman itas
Ġcamp us
Ġtar rac
Ġvert ere
Ġdur o
yl us
Ġsuperb um
Ġexst itit
Ġvent rem
Ġfranc i
Ġterm inus
Ġisdem que
Ġsis enna
Ġconsec uti
Ġsect atores
Ġimmorta l
Ġarti fex
Ġconfess oris
Ġaddit o
Ġadministr atione
Ġcubic uli
Ġfulm ina
Ġlacedaem onii
Ġperu ulg
Ġperit issimus
Ġincommod is
Ġexprim ere
Ġseptentr ione
Ġelem enta
Ġhaes it
Ġino ffic
Ġios eph
Ġtred ecim
2 4
m ina
s que
u ino
Ġd abis
Ġt ecto
ul so
Ġre is
Ġut ili
eg reg
Ġdic entes
ui ra
ist as
itur am
Ġhab enda
Ġimper et
ug i
Ġsic que
Ġmult umque
Ġcomm ilit
ate que
Ġmagn orum
Ġconc edere
Ġduc enta
Ġmilit arem
Ġresp ublica
Ġiust is
Ġposse d
Ġprof er
Ġcup ere
Ġlae tum
Ġexistim as
Ġiure iur
Ġintell ectus
Ġintell exit
Ġfut urae
Ġopin atus
Ġgem inos
Ġnunt ii
Ġpass a
Ġreliqu orum
Ġclar issimum
Ġflum inibus
Ġgrau issimis
Ġvin dem
Ġhonest as
Ġrespon di
Ġtempl orum
Ġinteg ris
Ġcer tare
Ġsuccess or
Ġger ens
Ġdeduc i
Ġpiet atem
Ġpontific e
Ġabsol utum
Ġambig ua
Ġinterf uit
Ġuis a
Ġhabit ant
Ġconting at
Ġeph rem
Ġpe ius
Ġxxxv ii
Ġmedic inae
Ġprand ium
Ġpelopon nes
Ġeub o
b arb
d eb
p op
is ta
Ġd otis
Ġin ane
Ġcon sedit
Ġg au
al um
al ter
uer se
Ġca uill
eret que
Ġpat ef
Ġprop erat
Ġoc ce
rem ur
Ġfl oribus
Ġcomm em
Ġus itat
Ġinf ans
Ġrem otis
Ġaud istis
di es
di fic
Ġdeb iti
Ġante pon
entis que
Ġten entur
Ġconf ut
Ġpec oris
Ġlong itudine
Ġext im
Ġcet h
Ġauc up
Ġmun itum
Ġdol ori
ord ecim
Ġpom pa
Ġprof erre
Ġdoc tum
Ġatt igit
Ġhi erosolym
Ġperm ans
Ġpen uria
rac tis
Ġdiff ug
ereb am
Ġobseru atio
Ġoccid ent
fac ta
resc ere
Ġretin ent
ceper it
Ġsatur ni
Ġall oqu
Ġsollic it
Ġargum ent
Ġcomment arium
Ġaccid isset
Ġsallust ium
Ġnuper rime
Ġpraepos itione
Ġcaeter um
Ġiunc ti
Ġhabit are
Ġpic ta
Ġmirab ile
Ġdeclar at
Ġthess alia
Ġquing entos
Ġcecid isse
Ġxl v
Ġcampan iae
Ġdifficult ate
Ġatting ere
Ġcauc as
a gn
m ag
s crip
qu ando
Ġa selli
Ġe de
Ġs om
Ġin pet
ent ias
ib it
al t
Ġper uol
Ġop is
Ġinter itus
Ġinter diu
Ġal it
Ġpos uisse
Ġpat ere
Ġsub iug
Ġmar ti
Ġun ice
Ġte li
Ġsen e
Ġmed iter
Ġcre auit
ass um
Ġch l
Ġnos met
Ġcel o
Ġno uerit
ator ia
Ġdel it
Ġdet errim
Ġtur ris
Ġprof und
Ġthe op
Ġaed ilem
Ġcong ruit
Ġdei ectus
Ġterr itus
Ġaccus atore
Ġantiqu um
Ġaper tis
Ġsoli da
Ġon era
Ġdefens ionis
Ġgrammat ico
Ġextra ordin
Ġaudac ter
Ġpropin qua
Ġpropin quo
Ġexst at
Ġbal de
ĠÎ ·
Ġinterpret ari
Ġtro iam
Ġposc ere
Ġconsec uta
Ġinlust ris
Ġperueni unt
Ġprompt u
Ġtransl ata
Ġfic tum
Ġioann i
Ġplan ius
Ġcampan ia
Ġpraetere unt
Ġcamill us
Ġquaesi uerunt
Ġadort us
Ġbibliothec a
Ġcham ae
Ġiureiur ando
Å ĵ
Ġm um
Ġv isi
Ġf ust
ut ionem
ul erint
ent issimo
Ġad es
ia p
Ġsu co
Ġex orta
Ġg eruntur
op us
Ġper or
Ġr isit
Ġb ern
ist or
Ġab it
Ġfac ilia
Ġinter n
Ġcor uus
Ġverb eribus
Ġreg inae
Ġcur ulis
Ġcomm iss
Ġcomm isso
Ġcar itate
Ġpet enti
Ġpet ron
Ġduc at
Ġlat er
Ġext ran
Ġem isse
Ġdim in
Ġdiff erunt
Ġaqu ila
Ġdiuers os
Ġmol lia
Ġdist at
Ġtor o
Ġgest us
Ġgaud ent
Ġfund it
Ġoccid ente
Ġpraedic atur
Ġexig uum
Ġlum inis
Ġgrammat icos
yn d
Ġlim ite
Ġduod e
Ġtransf er
Ġbe atum
Ġanimaduert ere
Ġcrass i
Ġconfect um
Ġadg ressus
Ġoccur s
Ġrespons o
Ġrauen nae
Ġdan ub
Ġtrac tare
Ġaia x
Ġhyr c
Ġa ul
Ġm ant
Ġm eru
en on
ar orum
ul ento
ec uta
od r
Ġcon lig
il uit
Ġper cept
Ġac tor
Ġca peret
and arum
pt am
Ġpar abat
Ġme arum
Ġhab eretur
Ġfl ux
Ġreg it
Ġins u
Ġhost iis
Ġtot umque
Ġduc itur
Ġlat ium
Ġten uerunt
Ġel atus
Ġsac ras
Ġtrans itu
yr am
Ġexc essit
Ġaduers ariis
Ġadm issum
Ġtest atoris
ym em
Ġprod itum
Ġprod ire
Ġpugn andi
Ġplac ido
Ġcat ullus
Ġpoen os
Ġhi eron
Ġaed ilium
Ġmagist ros
Ġvinc it
Ġcrim inos
Ġgem ino
Ġdilig ens
Î± Ïģ
Ġmiser ae
Ġed itus
Ġpass io
Ġreliqu o
Ġvirg inum
Ġhonest o
Ġcy c
Ġrap uit
Ġnig ri
enn io
Ġaudi endi
Ġvac ua
Ġinsc itia
Ġleu ia
Ġian ua
Ġtransf erre
Ġexcus ationem
Ġsimil lim
Ġbritann iae
Ġpeper isse
Ġadopt ionem
fl au
Ġmoll is
Ġech o
Ġcontend unt
Ġconfect o
Ġinept um
Ġinstrum entum
Ġpalud es
Ġsenect utem
Ġequest ris
Ġherm und
Ġloquent em
Ġspectab ilis
Ġtrid uo
Ġeueni at
Ġfunc tus
Ġlatr ones
Ġdefect ionem
Ġgalb am
2 6
y ta
Ġe pe
Ġn est
Ġt endere
Ġf ax
ac ulorum
ip es
ir on
Ġac ut
Ġcons obr
Ġint endit
Ġsc uto
Ġid onea
Ġer ra
Ġlib ellum
Ġhab iturum
Ġen ni
Ġsol ui
Ġleg endo
Ġprop ior
Ġsic ulorum
ex um
Ġvoc if
Ġfort issime
Ġexerc itio
Ġamic tus
iti es
Ġseru ium
omen os
Ġmun erum
Ġeg red
Ġdep rim
Ġcred unt
Ġatt icus
Ġport ionem
Ġexistim atum
Ġsil uae
Ġpuer orum
Ġlibert i
Ġdiss id
Ġdict atore
Ġspect aculo
Ġeffic iunt
Ġaem ulari
Ġrepet ere
Ġinstitut us
Ġcomper i
Ġcohort e
Ġtol li
Ġimpl ere
Ġeloquent iam
Ġruf o
Ġfrug um
Ġconfess us
Ġsuscept um
Ġassid uis
Ġsequent ibus
Ġrup es
Ġdiuid itur
Ġps yll
Ġremed io
Ġiuuent ae
Ġcapill um
Ġtent oria
Ġcontrac tum
Ġsollemn ia
Ġpren di
Ġrati ocin
Ġhare na
nost ri
Ġadip isc
Ġfaui lla
Ġpraedit i
Ġtheop omp
g is
i ep
v os
Ġs es
Ġc erc
re am
Ġt ess
en u
Ġad que
Ġad itu
uc in
Ġma ii
Ġma lim
Ġim a
Ġar go
Ġfac ient
Ġprae li
Ġcom itio
Ġam ans
Ġvid erint
Ġhab entibus
Ġsub e
Ġmar ch
Ġtu enda
Ġsic uli
Ġmo uisse
Ġappell abant
Ġconf ecta
Ġep ul
Ġsent iam
Ġext ulit
Ġcogn it
Ġcel sa
Ġprob ra
Ġpac ta
Ġ5 3
Ġaug ere
Ġcal p
Ġcal or
Ġdol et
Ġcens et
Ġamb ros
Ġprof undum
Ġarbit ris
Ġkal end
Ġaeg ro
Ġscrips erat
Ġcaec ilium
Ġorig inis
Ġla od
Ġxxx iv
Ġall a
Ġinueni et
Ġadd itum
Ġcomment ariorum
Ġdiut ina
Ġprol et
Ġpostrem a
Ġian uam
Ġsar mat
Ġinterpret atus
Ġgerman iae
Ġperd ita
Ġsaep ta
Ġced at
Ġstell is
Ġadduc i
Ġlibid ines
Ġinnoc entia
Ġquer itur
Ġexplic are
Ġsepar atim
Ġvad is
Ġping ui
Ġelegant ius
Ġungu ibus
Ġnequit ia
Ġsert orio
Ġsuperior i
Ġeae dem
Ġtell ure
Ġnis u
Ġpecud es
Ġident idem
c as
Ġs ulp
Ġp se
Ġc anum
Ġd anda
Ġn ate
Ġm igne
ol arum
Ġut rob
el us
Ġco op
Ġaut on
and orum
Ġsc utum
st it
Ġop to
Ġlib ram
Ġen sis
Ġcont amin
Ġfl etu
Ġo nt
Ġo en
Ġvic tos
Ġdisc rep
Ġpet itione
Ġfr acta
Ġfid ius
Ġsal is
Ġput amus
Ġomnia que
Ġind ia
Ġcr inibus
Ġprob lem
Ġliber ius
Ġsanc tus
Ġatt amen
Ġport ae
Ġscrib o
Ġmens uram
Ġiub ent
Ġdim ittere
Ġsucc edit
Ġaff ectum
Ġinp un
Ġseuer itas
Ġaccus are
Ġdia l
Ġou ans
Ġhispan ias
Ġcaec us
Ġot ii
Ġinuit is
-- --
Ġdeduc ere
Ġcib is
Ġsimil itudo
Ġpercus sus
Ġuictor iae
Ġfing ere
prae ter
Î¼ ÎµÎ½
Ġcalli d
Ġlug d
Ġincred ibile
Ġpin nis
Ġemolum entum
Ġmulieb ri
Ġdal mat
Ġinser ui
Ġcycl op
Ġbalde w
1 3
b os
c ult
m ut
x ere
Ġ /
er iam
Ġp ans
ar os
Ġl ymph
Ġde uol
ot os
ir ique
Ġca per
Ġver rius
Ġcons ign
Ġsc iunt
Ġtr in
rat en
Ġsol eat
Ġleg ationis
Ġdec ep
Ġins ulis
pe p
Ġexp ressit
Ġten ebant
Ġpraes ide
ma xim
Ġput arem
Ġfam os
ora ui
Ġquant ulum
Ġarm ata
Ġsoc io
Ġcoll e
Ġdel atum
Ġcapt iui
Ġperm issa
Ġpen nis
Ġhor rib
Ġsucc ur
Ġcrim inum
Ġ10 4
Ġath l
Ġtac tus
Ġsequ eretur
Ġcan it
Ġpraetor ibus
Ġdisp ens
Ġpron o
Ġcustod iae
Ġfin ita
Ġinuit i
Ġcen ae
Ġutil itatibus
Ġsubs id
Ġsumpt is
Ġantioch ia
Ġpup pis
Ġlegit imo
Ġsenti ret
Ġcruc em
Ġpest em
Ġclad ibus
Ġperfect o
Ġsuffrag io
Ġcing ar
Ġconiect ura
Ġiuuent ute
Ġprist inam
Ġpythagor ae
Ġabsur de
Ġstipend ium
Ġtrid uum
Ġterrib ilis
Ġoud e
Ġpapir ius
Ġulcisc endi
Ġutrob ique
f uturum
s as
Ġs osp
at issime
Ġv obiscum
Ġf ilo
Ġad ia
al dus
Ġb ur
Ġpl ana
Ġu eli
Ġreg ulam
Ġprim ic
Ġapp reh
Ġtant os
Ġven erint
Ġsen atoribus
Ġmaxim os
Ġmaxim inus
Ġdef uisse
Ġexp ulit
Ġval erii
Ġdomin orum
Ġext itit
Ġsac rarum
Ġdel euit
Ġabs con
rab o
Ġrh eni
Ġadf ines
Ġpraed iis
Ġdict urum
Ġprot ulit
Ġard ens
Ġcompl uribus
rid ens
Ġcaec ili
Ġvac are
Ġpopulus que
Ġlep idus
ceper at
Ġtestam enta
Ġvert itur
Ġoccas us
Ġfront is
Ġcomper to
Ġlau inia
Ġdiuit es
Ġdissim ilis
Ġarch iep
Ġsuffic iat
Ġvas ta
Ġpis onem
Ġsequent es
Ġnumm i
Ġvill ae
Ġba io
Ġtantis per
Ġlup us
Ġseg es
Ġmuc ius
Ġanx ius
Ġsecur itatem
Ġphryg ia
Ġminister ium
Ġliquid o
amb ul
Ġgad it
Ġpraedi orum
f ecta
f ront
g el
Ġd ido
Ġn und
Ġf anum
ur orum
ec imus
Ġpro au
Ġsc ab
Ġsub u
Ġinc it
Ġag endo
Ġvol us
ch o
Ġpotest ati
Ġas sequi
Ġval ete
Ġconc ordiae
Ġpet entes
Ġdes ist
Ġch lam
Ġexerc uit
Ġdom ibus
Ġcogn ati
Ġtrans u
Ġaduers arium
Ġarm atum
Ġno uitate
Ġanti quam
Ġfaci endo
Ġcoll ectis
Ġeff eru
Ġsignific ans
iet ate
Ġ7 5
Ġded uxit
Ġdiscip ulos
Ġafric anum
Ġinp ense
Ġuniuers ae
Ġfund amenta
Ġquot annis
Ġprouincia les
iac o
Ġpert ulit
Ġadd itur
Ġhannib ali
Ġfat eri
Ġleu ibus
Ġaccid erat
Ġcolleg ium
Ġsort itus
Ġtrah ens
Ġincert us
Ġvener abilis
Ġinstit ui
Ġhiem is
Ġmisc ere
Ġsto icorum
Ġner one
Ġsca urus
Ġmedioc riter
Ġvill as
Ġartific es
Ġtrec enti
Ġtranqui lla
Ġprodig ia
Ġpraecl arum
Ġdexter am
Ġclod ius
Ġfist ula
Ġtell uris
Ġbrum a
Ġkar thag
Ġcrit olaus
p ut
Ġ }
Ġa eb
Ġd ente
Ġm ellis
Ġt egit
ae b
om on
op ond
ot ae
Ġb iennio
Ġsi et
el aus
Ġac ui
Ġomn ique
Ġsc ind
Ġop tare
Ġlib entius
Ġob ru
Ġob uium
Ġen uc
ine a
Ġsp icula
Ġoc ulo
Ġinc eleb
Ġquibus cumque
Ġiud a
Ġph aed
Ġcomp ita
Ġis a
Ġiudic auit
Ġdeb ebat
Ġpet isse
itas que
Ġgra uitatem
Ġred egit
Ġmet rop
Ġgl om
act ae
Ġomnibus que
yr os
Ġsan xerunt
Ġresp ectu
Ġresp icit
Ġhum um
atos que
Ġsex c
Ġdep end
Ġunde uicesimo
Ġveni entem
Ġsil entia
Ġdim isso
Ġtut ius
Ġalien us
Ġpossit is
tae que
Ġquaer eret
Ġcy pr
Ġoccid erat
Ġnoc ens
Ġexper i
Ġcaec ina
Ġflag itia
Ġdeduc tus
Ġcomper imus
Ġlacrim ae
Ġpup illi
Ġcot ta
Ġplat one
Ġconsist unt
Ġconsens us
Ġvag a
Ġtruc es
Ġreuert itur
Ġlus us
Ġconiunc ta
Ġinept e
Ġcul men
Ġceter arum
Ġexact os
Ġdetrah i
Ġarmen iam
Ġhar und
Ġfix a
Ġbalne is
Ġexag g
Ġcircums crip
Ġdomic ilium
Ġcodici ll
Ġtae ter
Ġfla uius
2 7
2 8
a ff
g it
Ġp ii
Ġp oni
Ġd ro
Ġd abant
os ce
as a
Ġde uen
Ġex equ
Ġper uas
iam bis
el es
Ġver m
Ġdic erentur
ub a
and aque
Ġpar are
Ġob itum
Ġst ili
Ġst atura
Ġal uo
Ġsol utum
Ġpost erior
Ġleg eremus
Ġetiam tum
Ġsit i
Ġsec reto
enti que
Ġmor su
Ġpet itionem
Ġappell amus
Ġlat eri
Ġub era
ap io
Ġsem in
Ġconf orm
Ġdiu os
Ġdomin io
Ġtrib ui
Ġtrib utum
Ġprob ros
Ġeg erit
Ġpatr on
Ġpal us
Ġsatis d
Ġdoc ent
Ġglor iosum
Ġsil uam
Ġlibert o
Ġintell ectum
Ġcrim ini
Ġuir go
Ġiun xit
Ġpol y
Ġampl issimi
Ġaccus ationem
Ġhonest ate
Ġru re
Ġha eres
Ġextrem am
Ġcaec a
Ġscript orem
Ġcognosc itur
Ġfu f
Ġignor are
Ġadd ere
Ġcess at
Ġcreb ra
Ġdelect atus
Ġflam in
Ġapollin em
Ġsect ae
Ġfrug al
ind ut
Ġpall as
Ġpatern o
Ġparc ere
Ġinfam iam
Ġstult itiae
Ġsublim is
Ġdoctr inam
Ġindust riae
Ġnoctur no
Ġmultip lici
Ġliberal itas
Ġxxxv iii
Ġconcur su
Ġalc ib
Ġfef ell
Ġhonorific e
Ġpipp inus
Ġuestig ia
Ġionath as
Ġcusp ide
Ġdiuort ium
c al
c oni
i ast
r asti
v ex
Ġa ulam
Ġn edum
Ġin quin
en io
ic iis
ib ili
Ġre fici
ia li
Ġde pic
Ġg erunt
Ġper rexit
Ġcum primis
iss c
Ġb ali
Ġco acta
Ġli l
Ġpl ate
Ġu ex
Ġor bi
Ġsol it
Ġsp opond
Ġsub uen
rem a
Ġdec edere
ian arum
Ġsuper ueni
Ġsuper iora
Ġgen ua
Ġgr andem
Ġpa ide
Ġau ide
Ġth y
Ġvi ui
Ġdeb erent
Ġrep osc
ap p
Ġpec udum
Ġpac ti
Ġprod ita
Ġplac id
Ġsignific ent
Ġcop ios
Ġdub itat
Ġnau e
Ġcas ta
Ġcapt os
Ġexistim ans
Ġaeg rum
Ġret ulit
Ġadf uit
Ġalexand riae
Ġvers atur
Ġaugust ae
Ġgaud ere
Ġdei ecit
Ġquaer endum
red o
Ġhonest i
Î¹ Î½
Ġmitt itur
Ġorig ines
Ġignor as
Ġsab ino
Ġdemonst rare
Ġiuss ione
Ġsubs idia
Ġegreg io
Ġconl atis
Ġsuperb o
Ġexst inc
Ġcep isset
Ġinterfect um
sc rib
Ġcoeper ant
Ġadduc ti
Ġsustin uit
Ġsymm ach
Ġdispos uit
Ġconuers a
Ġperuen isset
Ġprisc o
Ġcollig ere
Ġak ro
Ġhel uet
Ġpatrim onio
Ġampli fic
Ġexcip it
Ġquing entis
Ġsubd iac
Ġhil ar
Ġfinit imis
Ġdemet rium
Ġclod io
Ġconsim iliter
pat er
Ġincogn ita
Ġdeli qu
Ġcarne ades
Ġconflic t
Ġbritt ann
Ġrecogn osc
Ġinsidi arum
h an
qu ali
Ġa ulae
Ġs omp
Ġp ium
Ġqu es
Ġn atione
Ġn atam
Ġn atae
ar im
Ġpr iorum
ib vs
Ġad ici
unt on
Ġr arius
Ġca ua
Ġsc ort
Ġnec e
Ġsit im
Ġcl us
Ġcl are
Ġapp io
Ġcap itum
Ġmagn oque
Ġph antas
Ġimp ulit
Ġeum dem
Ġmed icos
Ġdes unt
Ġcogn itione
Ġlaud auit
Ġdet racta
Ġpoen ico
Ġdim idiatum
Ġtut e
Ġlud us
Ġproeli orum
Ġed ere
Ġherc ul
Ġaure am
Ġvirg a
Ġmarc ius
Ġcer ui
Ġla urus
Ġpecc ati
Ġanimad uersum
Ġobt entu
Ġretin eri
Ġlep idum
Ġsuccess ione
Ġobsc urum
Ġcess auit
Ġcern ens
Ġir ru
Ġtyrann idem
Ġpatern i
Ġvestig ium
Ġhyp o
Ġrequir it
Ġelig ere
Ġlate que
Ġrosc ium
Ġmall e
Ġinan em
Ġtorqu atus
Ġconsue uit
Ġlys im
Ġconm ent
Ġveg et
Ġalam ann
Ġadia ph
b identes
i rauit
n isi
u uium
Ġin fic
Ġin ique
ae dit
ar as
ent issima
Ġre fect
Ġr atis
Ġac res
Ġma did
Ġat ei
ell at
Ġsunt o
Ġcont em
Ġsol ae
de o
Ġins tare
Ġmil one
Ġconst ring
Ġpublic orum
Ġtra l
Ġind oct
Ġregn is
Ġnecess arios
Ġ6 4
Ġini uriarum
Ġcat uli
ix i
Ġpopuli que
Ġarc t
Ġaeg ra
Î± ÏĤ
ĠÂ §
ang uis
Ġdil ectum
Ġbenefic i
Ġvult is
Ġcy ri
Ġpraedic ta
Ġmetu enda
Ġalt ior
Ġcaec i
Ġast r
Ġvindic tam
Ġfun eris
Ġstip endi
Ġdiuis ionem
Ġsym b
Ġfall or
Ġrob ora
Ġrursus que
Ġterm inis
Ġioc o
Ġpis onis
Ġgallic um
Ġner onem
Ġagg redi
Ġerip uit
Ġsoph ist
Ġplut arch
Ġaust ri
Ġdomn i
Ġpriuileg iis
Ġfacin ora
Ġmarg ar
prof lig
idane ae
Ġdecemuir os
Ġmim iambis
Ġprens ionem
Ġpali n
septentr iones
solo ecism
Ġarchiep iscop
h unc
h anc
r ui
r aec
Î ¾
Ġ ud
Ġa eo
Ġe uit
Ġc ab
Ġc ata
Ġv m
Ġf esta
ul ter
ul eris
om as
Ġad ium
Ġex ec
ta retur
ab ere
Ġac ris
Ġver ter
Ġcom a
Ġvel ox
Ġimper iis
ad um
Ġvir us
Ġun anim
ag um
Ġsuper um
Ġmagn opere
Ġrem issa
Ġaud iente
Ġacc el
Ġing ratus
Ġdeb ito
Ġhost ias
Ġmal os
Ġdum modo
Ġ4 3
Ġadm itti
Ġarm enta
Ġsanc tam
Ġcat ulus
Ġfab ulos
Ġsens i
quent es
Ġfut uros
Ġbre ues
ationibus que
Ġfelic itatem
Ġclar issimus
Ġinuen isse
Ġmarc ianus
Ġnig er
Ġinsign iter
Ġpre lio
Ġsax onum
Ġincl usa
Ġdest itit
Ġdiuis um
Ġumb ris
Ġexsp ectab
Ġhosp it
atiu us
Ġsuperb iae
Ġseruit io
Ġnub em
Ġarch it
Ġexcept ione
Ġacerb e
Ġment iri
Ġsto icus
Ġquer cus
Ġax ioma
Ġrequir ere
Ġacced at
Ġseg reg
Ġadt rib
Ġnept uni
Ġminister ia
Ġnymph ae
Ġdecess erit
Ġvolum ine
Ġineunt e
ĠhÃ¦ c
Ġcalp urn
2 1
8 9
d isc
Ġp rep
Ġv or
Ġt yri
Ġf ric
ia lem
od us
ac iae
Ġg ang
Ġb ra
ist ens
Ġcom itum
Ġer yth
Ġam antes
Ġam aro
Ġob sedit
Ġsol as
Ġsol acia
Ġant ro
Ġcl odi
Ġvol uisti
Ġsum i
ina x
Ġconst ric
Ġau idus
Ġis se
Ġmed icis
eli um
Ġign otus
Ġel us
Ġcol libus
Ġmet uo
Ġmilit aria
ecta que
Ġnou issima
Ġpul li
Ġpul si
Ġpul su
Ġcens orum
Ġamb obus
Ġcog ere
Ġdim idi
Ġact urus
Ġserm ocin
Ġmir anda
Ġvinc tum
Ġpraed onum
Ġgaud eat
Ġampl issimum
Ġpret ios
Ġoff erre
Ġiuu enta
Ġru unt
Ġnoc et
Ġasp ice
Ġobsid ionem
Ġstatu ae
Ġexig uo
Ġexsp ecto
Ġsomn ia
Ġmorb os
Ġperg e
Ġces are
Ġrud i
Ġdepos ita
Ġintro iuit
Ġagnosc ere
Ġoct ing
Ġsest ertia
Ġsenect ute
Ġlug ub
Ġaquas grani
Ġstren ue
Ġtermin antur
Ġfren a
Ġappare bat
Ġtrai ecit
Ġtrac tab
Ġmonaster ium
Ġancill am
Ġcunt a
i ebatur
Ġ Î¿
Ġi lia
Ġp ice
Ġd yr
in iano
Ġpr omin
om ann
Ġex emptus
Ġco itu
Ġcons taret
Ġali osque
Ġcom itatus
Ġpar uus
und ere
Ġer uc
Ġam ari
unc tus
eri is
iu oc
Ġx lii
Ġser ia
Ġreg ionum
Ġcl arius
Ġvol uissent
Ġapp i
Ġvide am
Ġcre uit
Ġtot i
Ġgra ph
Ġpraes ump
Ġbon itate
itis que
Ġmet e
Ġcae dic
Ġmun itiones
ren do
Ġpraeter que
Ġsex agesimum
Ġdep onere
Ġcog itat
Ġexistim ari
Ġoport ebit
Ġalien ig
Ġret ine
Ġdiuers itas
Ġgem inis
Ġass ent
Ġtac itur
Ġaure us
Ġcontr arias
Ġgall o
Ġinteg ram
Ġrespond et
Ġpropri as
Ġexig it
Ġdefens io
Ġdiuis io
Ġlingu as
Ġmorta lia
Ġtransf erri
Ġcep isse
Ġincom modo
Ġperi erunt
Ġsat ius
Ġpest if
Ġinsol entia
Ġperuen isse
Ġmatur a
Ġinsp ici
Ġagg ressus
Ġinlust res
Ġvendit or
Ġdiscess um
Ġdot ibus
Ġfulm en
Ġlent ulo
Ġpulcherrim um
Ġdescrip sit
Ġsolid os
Ġcadauer a
Ġcurs im
Ġadort i
Ġimprouis o
Ġligu res
Ġlil yb
c ic
d en
m ine
o qui
s eru
v oc
x isset
Ġt ana
ar ae
ib ulum
ant ias
Ġex egit
al orum
Ġr ic
Ġcons oc
Ġim us
Ġar p
Ġob duc
Ġdec idit
Ġcl aris
Ġhomin umque
Ġvol uerint
Ġimp ot
Ġcomp ress
Ġis s
Ġvic iss
Ġvi uis
enti e
Ġist arum
Ġcre ari
Ġas su
Ġnomin auit
Ġtot as
Ġel og
Ġquant is
iens i
Ġord ini
Ġpraeter itis
Ġcat h
Ġprof ut
Ġprof uit
Ġveni et
Ġded itus
Ġnot os
Ġdim issa
Ġsucc edere
Ġmer uisse
Ġceleb re
Ġmarc ellin
Ġeiusdem que
Ġadulesc entia
Ġpossess or
Ġexig ua
Ġinuit um
Ġuen isset
Ġclass i
Ġcondic iones
Ġnar ibus
Ġnobil itatem
Ġantioch i
Ġmus arum
Ġtrah ere
Ġocta ua
Ġpyr rus
Ġconfirm at
Ġgallic a
Ġdispos itione
Ġpign ore
Ġrequi em
Ġassid ua
Ġfum o
Ġcredit e
Ġlocup l
Ġmediol ano
Ġalp ibus
Ġboeot ia
Ġbi en
Ġthucydid es
a qu
f erre
Ġa uertit
um a
Ġp anae
re as
or iis
Ġv at
Ġh aed
im orum
om ene
Ġre leu
Ġad icies
Ġex cepta
Ġex uui
Ġca up
Ġdic ente
Ġsed ulo
Ġar ri
lic um
Ġpar ant
Ġob pugn
Ġor aculum
Ġinter cept
Ġinc ons
Ġcur ator
iter ant
Ġfort ia
Ġfort itudo
Ġinf a
Ġaud itus
Ġfer us
Ġluc ullus
Ġduc entos
Ġten ore
Ġund arum
Ġmet ri
Ġdign itates
ulos us
pr idem
Ġabs unt
Ġdol um
Ġcat enis
Ġcog antur
Ġarc um
Ġcontin ua
Ġintell ectu
Ġdiff erat
Ġviu unt
Ġmiser ia
Ġrelig ionum
Ġed itum
Ġed uxit
Ġintelleg it
Ġaure lius
Ġclam orem
Ġtib er
Ġiuuen ibus
Ġaper tum
Ġsoli o
Ġeleg antiam
Ġinuit a
Ġhort is
Ġretin uit
Ġdemonst ra
Ġconsp ex
Ġumb rae
Ġsollic ite
Ġcess ante
Ġapt ius
Ġintellig ere
Ġreuoc auit
Ġrel atum
Ġmanifest i
Ġflamm ae
Ġgar r
Ġsubl atis
Ġsinist rum
Ġfidel es
Ġexpos uit
Ġaust ro
Ġincommod e
Ġuirtut em
Ġsegn ius
Ġinstrum entis
Ġpythagor am
Ġherac li
Ġcorrig ere
Ġarmen iae
Ġnequit iam
Ġaeli i
Ġeurop ae
Ġdenunt i
Ġcontempl atione
Ġrauen nam
Ġpraetere undum
Ġtram ite
Ġbeneuol entia
Ġfreg it
Ġspat iis
Ġprag mat
8 8
a es
a uisse
v et
Ġc i
Ġc uic
Ġf essus
Ġad essent
Ġcon did
Ġnon is
Ġdi uert
est o
Ġb or
Ġb aet
Ġma esta
ell es
Ġar n
Ġprae lium
lic a
Ġhab endam
Ġob sed
Ġqua ere
Ġsol itudines
Ġsol acium
