{"<|endoftext|>":0,"<|pad|>":1,"!":2,"\"":3,"#":4,"$":5,"%":6,"&":7,"'":8,"(":9,")":10,"*":11,"+":12,",":13,"-":14,".":15,"/":16,"0":17,"1":18,"2":19,"3":20,"4":21,"5":22,"6":23,"7":24,"8":25,"9":26,":":27,";":28,"<":29,"=":30,">":31,"?":32,"@":33,"A":34,"B":35,"C":36,"D":37,"E":38,"F":39,"G":40,"H":41,"I":42,"J":43,"K":44,"L":45,"M":46,"N":47,"O":48,"P":49,"Q":50,"R":51,"S":52,"T":53,"U":54,"V":55,"W":56,"X":57,"Y":58,"Z":59,"[":60,"\\":61,"]":62,"^":63,"_":64,"`":65,"a":66,"b":67,"c":68,"d":69,"e":70,"f":71,"g":72,"h":73,"i":74,"j":75,"k":76,"l":77,"m":78,"n":79,"o":80,"p":81,"q":82,"r":83,"s":84,"t":85,"u":86,"v":87,"w":88,"x":89,"y":90,"z":91,"{":92,"|":93,"}":94,"~":95,"¡":96,"¢":97,"£":98,"¤":99,"¥":100,"¦":101,"§":102,"¨":103,"©":104,"ª":105,"«":106,"¬":107,"®":108,"¯":109,"°":110,"±":111,"²":112,"³":113,"´":114,"µ":115,"¶":116,"·":117,"¸":118,"¹":119,"º":120,"»":121,"¼":122,"½":123,"¾":124,"¿":125,"À":126,"Á":127,"Â":128,"Ã":129,"Ä":130,"Å":131,"Æ":132,"Ç":133,"È":134,"É":135,"Ê":136,"Ë":137,"Ì":138,"Í":139,"Î":140,"Ï":141,"Ð":142,"Ñ":143,"Ò":144,"Ó":145,"Ô":146,"Õ":147,"Ö":148,"×":149,"Ø":150,"Ù":151,"Ú":152,"Û":153,"Ü":154,"Ý":155,"Þ":156,"ß":157,"à":158,"á":159,"â":160,"ã":161,"ä":162,"å":163,"æ":164,"ç":165,"è":166,"é":167,"ê":168,"ë":169,"ì":170,"í":171,"î":172,"ï":173,"ð":174,"ñ":175,"ò":176,"ó":177,"ô":178,"õ":179,"ö":180,"÷":181,"ø":182,"ù":183,"ú":184,"û":185,"ü":186,"ý":187,"þ":188,"ÿ":189,"Ā":190,"ā":191,"Ă":192,"ă":193,"Ą":194,"ą":195,"Ć":196,"ć":197,"Ĉ":198,"ĉ":199,"Ċ":200,"ċ":201,"Č":202,"č":203,"Ď":204,"ď":205,"Đ":206,"đ":207,"Ē":208,"ē":209,"Ĕ":210,"ĕ":211,"Ė":212,"ė":213,"Ę":214,"ę":215,"Ě":216,"ě":217,"Ĝ":218,"ĝ":219,"Ğ":220,"ğ":221,"Ġ":222,"ġ":223,"Ģ":224,"ģ":225,"Ĥ":226,"ĥ":227,"Ħ":228,"ħ":229,"Ĩ":230,"ĩ":231,"Ī":232,"ī":233,"Ĭ":234,"ĭ":235,"Į":236,"į":237,"İ":238,"ı":239,"Ĳ":240,"ĳ":241,"Ĵ":242,"ĵ":243,"Ķ":244,"ķ":245,"ĸ":246,"Ĺ":247,"ĺ":248,"Ļ":249,"ļ":250,"Ľ":251,"ľ":252,"Ŀ":253,"ŀ":254,"Ł":255,"ł":256,"Ń":257,"Ġe":258,"er":259,"Ġs":260,"Ġi":261,"um":262,"qu":263,"ti":264,"Ġa":265,"us":266,"Ġp":267,"is":268,"it":269,"Ġc":270,"en":271,"Ġd":272,"on":273,"Ġu":274,"Ġqu":275,"or":276,"at":277,"em":278,"es":279,"Ġn":280,"am":281,"Ġin":282,"an":283,"Ġm":284,"li":285,"Ġet":286,"ae":287,"ur":288,"in":289,"os":290,"Ġt":291,"ic":292,"Ġf":293,"re":294,"un":295,"om":296,"Ġh":297,"Ġpr":298,"ar":299,"Ġde":300,"im":301,"et":302,"st":303,"ati":304,"ul":305,"ec":306,"id":307,"as":308,"ent":309,"que":310,"od":311,"Ġest":312,"Ġcon":313,"ut":314,"Ġad":315,"Ġl":316,"bus":317,"ac":318,"Ġqui":319,"Ġsu":320,"oc":321,"unt":322,"Ġnon":323,"Ġre":324,"ol":325,"al":326,"el":327,"Ġse":328,"ant":329,"ud":330,"op":331,"ere":332,"ab":333,"ri":334,"Ġex":335,"Ġper":336,"enti":337,"Ġdi":338,"Ġut":339,"Ġg":340,"ter":341,"orum":342,"ius":343,"se":344,"ta":345,"ci":346,"Ġr":347,"tr":348,"uer":349,"ens":350,"uit":351,"Ġsi":352,"Ġb":353,"omin":354,"ir":355,"end":356,"Ġquod":357,"gn":358,"Ġ.":359,"Ġan":360,"per":361,"tis":362,"il":363,"ob":364,"Ġil":365,"ia":366,"omn":367,"Ġcum":368,"Ġdic":369,"ibus":370,"Ġsed":371,"Ġomn":372,"ation":373,"atur":374,"Ġuer":375,"ot":376,"Ġaut":377,"bi":378,"di":379,"itur":380,"ili":381,"Ġill":382,"Ġme":383,"Ġali":384,"uc":385,"Ġquae":386,"ui":387,"ra":388,"Ġab":389,"Ġun":390,"Ġpos":391,"lic":392,"te":393,"Ġac":394,"ps":395,"Ġes":396,"Ġer":397,"tum":398,"de":399,"Ġprae":400,"ris":401,"are":402,"Ġnos":403,"ap":404,"Ġpro":405,"and":406,"ari":407,"Ġdomin":408,"tus":409,"Ġim":410,"ce":411,"atis":412,"tion":413,"fic":414,"eg":415,"anc":416,"eb":417,"Ġap":418,"Ġen":419,"Ġfac":420,"itat":421,"iss":422,"Ġma":423,"Ġquia":424,"Ġch":425,"Ġuel":426,"Ġcom":427,"Ġsp":428,"Ġcons":429,"Ġhab":430,"to":431,"Ġcor":432,"Ġenim":433,"Ġsunt":434,"imus":435,"Ġco":436,"Ġips":437,"est":438,"ium":439,"ess":440,"tin":441,"Ġautem":442,"go":443,"und":444,"Ġhoc":445,"cip":446,"Ġquam":447,"Ġquid":448,"Ġprop":449,"isc":450,"Ġtu":451,"ĠÎ":452,"Ġpar":453,"io":454,"Ġnec":455,"ore":456,"tiam":457,"iam":458,"cl":459,"Ġsic":460,"unc":461,"Ġop":462,"Ġquo":463,"emp":464,"Ġsanc":465,"Ġeius":466,"Ġli":467,"Ġesse":468,"Ġne":469,"Ġsub":470,"Ġuid":471,"tit":472,"Ġar":473,"Ġui":474,"Ġid":475,"Ġor":476,"Ġpat":477,"dic":478,"ion":479,"Ġat":480,"ine":481,"Ġec":482,"ell":483,"Ġam":484,"Ġpl":485,"tra":486,"Ġchris":487,"ii":488,"Ġter":489,"arum":490,"iter":491,"Ġfili":492,"aec":493,"Ġob":494,"uis":495,"Î±":496,"Ġal":497,"Ġsc":498,"Ġinter":499,"Ġqua":500,"Î¹":501,"atus":502,"Ġsol":503,"etur":504,"tim":505,"hi":506,"Ġuir":507,"eni":508,"Î¿":509,"Ġpot":510,"Ġetiam":511,"ata":512,"Ġca":513,"quam":514,"Ġdei":515,"lig":516,"Ġmor":517,"uers":518,"Î½":519,"entes":520,"Ġtam":521,"Ġres":522,"Ġsuper":523,"cles":524,"ans":525,"Ġep":526,"ÏĦ":527,"Ġeccles":528,"Ġsec":529,"Ġser":530,"fer":531,"Ġfr":532,"atum":533,"ub":534,"Ġpra":535,"obis":536,"Ġita":537,"tor":538,"Ġtr":539,"Ġhomin":540,"Ġfor":541,"Ġtemp":542,"Ġiud":543,"uius":544,"Ġreg":545,"Ġanim":546,"Ġpec":547,"tu":548,"atione":549,"antur":550,"dit":551,"Ġsit":552,"ali":553,"Ġdes":554,"Ġlib":555,"Ġfid":556,"au":557,"Ġcar":558,"Ġuol":559,"Ġgr":560,"eri":561,"Ġoc":562,"Îµ":563,"Ġcre":564,"Ġman":565,"Ġint":566,"auit":567,"ad":568,"ue":569,"Ġst":570,"entia":571,"Ġmul":572,"ate":573,"Ġposs":574,"anti":575,"up":576,"Ġimp":577,"itate":578,"Ġte":579,"tur":580,"itus":581,"erit":582,"Ġleg":583,"uin":584,"ug":585,"iscop":586,"tem":587,"Ġbon":588,"Ġuero":589,"la":590,"Ġatque":591,"oris":592,"iae":593,"Ġius":594,"cep":595,"Ġergo":596,"ern":597,"ost":598,"Ġdis":599,"Ġ,":600,"Ġloc":601,"Ġcomm":602,"Ġspir":603,"odo":604,"tio":605,"Ġaliqu":606,"Ġsal":607,"Ġsac":608,"Ġsicut":609,"Ġpo":610,"erunt":611,"atio":612,"Ġsim":613,"rip":614,"fec":615,"Ġeum":616,"Ġues":617,"isi":618,"ene":619,"eret":620,"Ġnostr":621,"Ġas":622,"Ġpost":623,"orem":624,"Ġo":625,"uli":626,"Ġinc":627,"int":628,"Ġpecc":629,"Ġno":630,"Ġcorp":631,"itas":632,"Ġmon":633,"Ġdeus":634,"Ġann":635,"Ġsum":636,"Ġhaec":637,"Ġcap":638,"Ġuit":639,"inis":640,"Ġdu":641,"Ġepiscop":642,"eli":643,"Ġgen":644,"ag":645,"le":646,"Ġdix":647,"Ġquibus":648,"Ïħ":649,"itatem":650,"pr":651,"entis":652,"ationem":653,"Ġinu":654,"Ġdec":655,"Ġtamen":656,"Ġuen":657,"Ġpraes":658,"rum":659,"ando":660,"Ġsecund":661,"Ġprim":662,"Ġins":663,"aud":664,"untur":665,"Ġconf":666,"entur":667,"ang":668,"itum":669,"Ġpotest":670,"Ġaud":671,"Ġnul":672,"Ġag":673,"uerit":674,"Ġip":675,"Ġquem":676,"hil":677,"Ġmi":678,"Ġeo":679,"Ġsci":680,"amus":681,"Ġnobis":682,"Ġiam":683,"ro":684,"Ġsem":685,"ed":686,"Ġcl":687,"Ġipse":688,"Ġmal":689,"Ġus":690,"Ġnam":691,"Ġuoc":692,"pon":693,"ores":694,"Ġdeb":695,"Ġuerb":696,"Ġquas":697,"tione":698,"eris":699,"Ġiudic":700,"itatis":701,"Ġfi":702,"ente":703,"rib":704,"Ġtant":705,"Ġchristi":706,"gni":707,"Ġinf":708,"Ġnisi":709,"ua":710,"ux":711,"Ġni":712,"Ġhis":713,"Ġilli":714,"Ġdominus":715,"Ġrec":716,"Ġmar":717,"Ġti":718,"ÏĤ":719,"Ġcur":720,"entiam":721,"pe":722,"tionem":723,"lec":724,"entibus":725,"ist":726,"licet":727,"Ġhum":728,"endum":729,"Ġdeo":730,"qui":731,"Ġist":732,"alis":733,"Ġquis":734,"ff":735,"inem":736,"Ġomnes":737,"Ġcomp":738,"Ġx":739,"Ġcol":740,"tia":741,"Ġfrat":742,"Ġomnia":743,"Ġterr":744,"eat":745,"Ġmis":746,"issim":747,"Ġcr":748,"Ġsus":749,"Ġeorum":750,"Ġis":751,"ass":752,"Ïģ":753,"tic":754,"Ġubi":755,"ort":756,"dem":757,"lor":758,"Ġbene":759,"uerunt":760,"ulo":761,"Ġci":762,"irm":763,"Ġpop":764,"Ïĥ":765,"entem":766,"atem":767,"Ġsibi":768,"ici":769,"era":770,"emus":771,"ulum":772,"ulis":773,"tibus":774,"erat":775,"Ġsecundum":776,"Ġgrati":777,"Ġdiuin":778,"ationis":779,"Ġfaci":780,"Ġdicit":781,"Ġdoc":782,"Ġess":783,"Î·":784,"sim":785,"dam":786,"Ġdomini":787,"gitur":788,"Ġpa":789,"Ġante":790,"gis":791,"tius":792,"git":793,"erum":794,"Ġapp":795,"lo":796,"Ġunde":797,"Ġnomin":798,"Ġego":799,"Ġtibi":800,"ex":801,"Ġscrip":802,"Ġeu":803,"Ġmihi":804,"Ġsep":805,"Ġeos":806,"Ġfec":807,"ani":808,"ffic":809,"ini":810,"Ġei":811,"entum":812,"Ġerat":813,"oribus":814,"Ġpon":815,"omo":816,"Ġocc":817,"Ġdie":818,"Ġea":819,"ÏĢ":820,"ebat":821,"ep":822,"Ġneque":823,"Ġcaus":824,"esc":825,"Ġcontra":826,"Ġnihil":827,"abil":828,"Ġquidem":829,"Ġomnibus":830,"tam":831,"Ġmin":832,"Ġaet":833,"ita":834,"Ġcred":835,"gr":836,"ch":837,"Ïī":838,"Ġsine":839,"si":840,"Ġnatur":841,"Ġnunc":842,"Ġpers":843,"odi":844,"ula":845,"Ġmagn":846,"Ġnum":847,"ing":848,"Ġmem":849,"cum":850,"Ġuic":851,"ora":852,"ann":853,"Ġille":854,"Ġred":855,"Ġcuius":856,"Ġrem":857,"Ġpraedic":858,"Ġcoel":859,"Ġmo":860,"Ġhic":861,"Ġten":862,"ei":863,"ite":864,"Ġquoque":865,"Ġprin":866,"cipi":867,"Ġord":868,"ĠÏĦ":869,"inc":870,"Ġrom":871,"Ġilla":872,"Ġcae":873,"Ġ:":874,"ulus":875,"Ġquon":876,"Ġimm":877,"itu":878,"ina":879,"Ġdeum":880,"pos":881,"enit":882,"Ġabs":883,"ione":884,"Ġimper":885,"quid":886,"Ġpet":887,"Ġsua":888,"Ġuos":889,"Ġquasi":890,"Ġmat":891,"Ġign":892,"Ġigitur":893,"Ġsup":894,"Ġusque":895,"Ġul":896,"lin":897,"ellig":898,"tae":899,"isse":900,"Ġuide":901,"Ġglor":902,"Ġcarn":903,"ato":904,"Ġcir":905,"Ġhuius":906,"lum":907,"Ġmagis":908,"Ġdicitur":909,"Ġdum":910,"Ġeis":911,"Ġapost":912,"Ġsuis":913,"tium":914,"Ġintellig":915,"Ġquos":916,"Ġpropter":917,"isset":918,"iis":919,"Ġtrans":920,"uo":921,"Ġconc":922,"xim":923,"endo":924,"Ġual":925,"antes":926,"Ġae":927,"Ġecclesiae":928,"Ġapostol":929,"Ġmun":930,"Ġsancti":931,"Ġuestr":932,"quit":933,"Ġth":934,"Ġcer":935,"uum":936,"tionis":937,"ator":938,"oli":939,"Ġspec":940,"Ġquant":941,"og":942,"Ġang":943,"str":944,"endi":945,"rec":946,"Ġuobis":947,"Ġtot":948,"Ġneg":949,"Ġmodo":950,"Ġait":951,"sum":952,"Ġquoniam":953,"deo":954,"Ġapud":955,"Ġhon":956,"Ġexc":957,"Ġillud":958,"entiae":959,"Ġhomo":960,"ionem":961,"Ġeam":962,"ced":963,"Ġalter":964,"Ġprincip":965,"ma":966,"Ġpropri":967,"rae":968,"Ġfer":969,"Ġuni":970,"enta":971,"Ġaudi":972,"alem":973,"ph":974,"Ġbe":975,"ensis":976,"Ġsiue":977,"ret":978,"Ġmiser":979,"Ġdomino":980,"Ġdign":981,"ib":982,"Ġlo":983,"osc":984,"Ġrep":985,"Ġluc":986,"Ġomni":987,"uisse":988,"Ġsap":989,"rem":990,"Ġtra":991,"Ġregn":992,"Ġacc":993,"Ġsemper":994,"Ġdon":995,"res":996,"Ġcogn":997,"Ġsuo":998,"Ġdixit":999,"Ġideo":1000,"enter":1001,"itud":1002,"Ġtunc":1003,"Ġtantum":1004,"Ġdef":1005,"Ġquando":1006,"Ġiusti":1007,"Ġipsa":1008,"Ġfuit":1009,"lius":1010,"tri":1011,"torum":1012,"--":1013,"Ġuul":1014,"Ġur":1015,"Ġproph":1016,"Ġies":1017,"Ġdom":1018,"Ġuolunt":1019,"ĠÎµ":1020,"Ġseru":1021,"Ġproc":1022,"Ġcui":1023,"Ġini":1024,"Ġio":1025,"Ġesset":1026,"Ġauc":1027,"gre":1028,"Ġsequ":1029,"ura":1030,"aliter":1031,"Ġueni":1032,"ast":1033,"Ġgra":1034,"Ġfl":1035,"atu":1036,"Ġliber":1037,"Ġspiritus":1038,"Ġle":1039,"osto":1040,"itt":1041,"Ġuti":1042,"Ġoper":1043,"Ġexs":1044,"aret":1045,"Ġmai":1046,"entium":1047,"mon":1048,"uid":1049,"Ġaposto":1050,"ias":1051,"Ġaetern":1052,"ath":1053,"Î»":1054,"ios":1055,"Ġunum":1056,"Ġfilius":1057,"Ġind":1058,"Ġlab":1059,"Ġciuit":1060,"Ġput":1061,"Ġuis":1062,"gnific":1063,"ale":1064,"Î¿Ïħ":1065,"andum":1066,"erc":1067,"enda":1068,"pec":1069,"Ġost":1070,"Ġaur":1071,"Ġmod":1072,"Ġsaec":1073,"aris":1074,"Ġlaud":1075,"Ġdisc":1076,"ord":1077,"Ġtim":1078,"Ġipsum":1079,"Ġsimil":1080,"Ġsapi":1081,"rig":1082,"Ġhos":1083,"tut":1084,"Ġha":1085,"sus":1086,"uere":1087,"ider":1088,"tissim":1089,"Ġsuum":1090,"Ġquin":1091,"ito":1092,"Ġsuam":1093,"Ġcontin":1094,"Ġconu":1095,"ffer":1096,"Î¼":1097,"Ġhabet":1098,"endit":1099,"Ġrespon":1100,"Ġpri":1101,"Ġ;":1102,"qua":1103,"Ġtempore":1104,"Ġsens":1105,"Ġsy":1106,"hib":1107,"Ġpater":1108,"Ġinquit":1109,"ĠÎ±":1110,"Ġsui":1111,"Ġobs":1112,"ante":1113,"Ġmund":1114,"ori":1115,"Ġecclesia":1116,"erd":1117,"ric":1118,"itter":1119,"uti":1120,"anus":1121,"ig":1122,"tos":1123,"Ġfuer":1124,"Ġauctor":1125,"Ġcont":1126,"Ġillum":1127,"erent":1128,"Ġillis":1129,"Ġlon":1130,"Ġuniuers":1131,"Ġuirtut":1132,"ach":1133,"Ġduc":1134,"xit":1135,"Ġtur":1136,"xx":1137,"omen":1138,"ana":1139,"Ġhac":1140,"Ġsacerd":1141,"Ġaduers":1142,"Ġtua":1143,"Ġpub":1144,"con":1145,"Ġcommun":1146,"Ġsolum":1147,"Ġibi":1148,"Ġsuae":1149,"plic":1150,"Ġeuang":1151,"ribus":1152,"Ġcan":1153,"Ġmaxim":1154,"Ġuerum":1155,"Ġdilig":1156,"ram":1157,"Î±Î¹":1158,"ile":1159,"mo":1160,"Ġfuerit":1161,"eretur":1162,"Ġprophet":1163,"Ġpac":1164,"Ġsalu":1165,"Ġerit":1166,"Ġchar":1167,"Ġsing":1168,"Ġloqu":1169,"idit":1170,"ationes":1171,"Ġomnium":1172,"Ġprom":1173,"sequ":1174,"ionis":1175,"Ġnecess":1176,"eru":1177,"Ġomnis":1178,"omodo":1179,"mis":1180,"ulos":1181,"inde":1182,"ust":1183,"eo":1184,"ano":1185,"quis":1186,"itis":1187,"Ġconstit":1188,"Ġspiritu":1189,"urg":1190,"Ġidem":1191,"Ġpau":1192,"iet":1193,"Ġsignific":1194,"Ġpass":1195,"andi":1196,"Ġfam":1197,"Ġtrib":1198,"ino":1199,"Ġmir":1200,"Ġaug":1201,"Ġsimul":1202,"ane":1203,"Ġhanc":1204,"Ġcal":1205,"ne":1206,"Ġurb":1207,"Îº":1208,"ero":1209,"ca":1210,"ales":1211,"Ġmedi":1212,"lis":1213,"Ġnomine":1214,"Ġprob":1215,"Ġaliquid":1216,"Ġdominum":1217,"Ġadh":1218,"Ġmil":1219,"Ġchristus":1220,"Ġabb":1221,"Ġterra":1222,"Ġnomen":1223,"Ġplur":1224,"Ġla":1225,"Ġcel":1226,"Ġquomodo":1227,"Ġloco":1228,"Ġmand":1229,"Ġhi":1230,"Ġem":1231,"lib":1232,"Ġfut":1233,"Ġuna":1234,"Ġitaque":1235,"esse":1236,"onis":1237,"abat":1238,"tas":1239,"tiae":1240,"ena":1241,"Ġto":1242,"Ġfal":1243,"Ġiu":1244,"ĠÎº":1245,"Ġconst":1246,"Ġsint":1247,"Ġdem":1248,"Ġanno":1249,"dum":1250,"Ġpre":1251,"Ġlitter":1252,"Ġiac":1253,"Ġtum":1254,"Ġcausa":1255,"th":1256,"ebant":1257,"Ġarg":1258,"Ġaliud":1259,"Ġintell":1260,"Ġipsi":1261,"Ġipso":1262,"Ġfilii":1263,"Ġnoc":1264,"Ġiudae":1265,"asc":1266,"duc":1267,"Ġetc":1268,"Ġchristo":1269,"Ġcaeter":1270,"Ġnostra":1271,"Ġsent":1272,"Ġph":1273,"cc":1274,"Ġspeci":1275,"Ġnostri":1276,"Ġcorpus":1277,"pic":1278,"tific":1279,"ento":1280,"Ġillo":1281,"Ġpor":1282,"leg":1283,"cap":1284,"adem":1285,"Ġstud":1286,"Î¿Î½":1287,"Ġiur":1288,"Ġscilicet":1289,"Ġass":1290,"anum":1291,"isti":1292,"abit":1293,"Ġmea":1294,"Ġapostolic":1295,"Ġuitae":1296,"Ġmemor":1297,"Ġaccep":1298,"Ġdol":1299,"Ġplac":1300,"Ġlong":1301,"Ġalia":1302,"enus":1303,"Ġuita":1304,"mi":1305,"Ġdicens":1306,"Ġduo":1307,"Ġdiscip":1308,"na":1309,"tes":1310,"Ġnun":1311,"ĠÏĢ":1312,"Ġfilium":1313,"Ġsalut":1314,"Ġarc":1315,"tare":1316,"Ġipsius":1317,"Ġbap":1318,"aria":1319,"Ġpraecep":1320,"Ġsign":1321,"Ġdam":1322,"Ġdies":1323,"Ġuirg":1324,"Ġcul":1325,"Ġillius":1326,"Ġau":1327,"emo":1328,"Ġpe":1329,"one":1330,"uxta":1331,"Ġunus":1332,"Ġinde":1333,"Ġepiscopus":1334,"Ġpati":1335,"pet":1336,"Å¿":1337,"Ġgratia":1338,"Ġperfec":1339,"anis":1340,"estim":1341,"Ġista":1342,"Ġarb":1343,"Ġaliis":1344,"Ġiuxta":1345,"lia":1346,"Ġpatri":1347,"Ġpertin":1348,"Ġmet":1349,"Ġcunc":1350,"Ġnull":1351,"istol":1352,"Ġir":1353,"titud":1354,"ensi":1355,"uet":1356,"antia":1357,"sa":1358,"ffec":1359,"Ġrex":1360,"Ġquorum":1361,"Ġiter":1362,"ys":1363,"Ġpal":1364,"Ġfecit":1365,"tere":1366,"Ġmiseric":1367,"oll":1368,"Ġsupra":1369,"Ġsae":1370,"Ġsang":1371,"Ġreli":1372,"Ġhabere":1373,"Ġchristum":1374,"uic":1375,"ill":1376,"utus":1377,"iti":1378,"ilis":1379,"ationibus":1380,"Ġmonast":1381,"sal":1382,"uci":1383,"Ġordin":1384,"Ġprof":1385,"yp":1386,"arium":1387,"Ġform":1388,"anae":1389,"Ġmens":1390,"Ġadhuc":1391,"Ġgaud":1392,"Ġgener":1393,"if":1394,"Ġhomines":1395,"Ġtest":1396,"Ġeadem":1397,"Ġuet":1398,"Ġecclesiam":1399,"Ġhominum":1400,"uam":1401,"Ġperm":1402,"Ġinn":1403,"edi":1404,"Ġdim":1405,"Ġterram":1406,"Ġprius":1407,"Ġappell":1408,"erem":1409,"odem":1410,"Ġuerbum":1411,"Ġpul":1412,"Ġdictum":1413,"Ġconsili":1414,"idem":1415,"Ġfutur":1416,"ym":1417,"Ġlat":1418,"Ġbenedic":1419,"Ġfieri":1420,"Ġdiuers":1421,"Ġscriptur":1422,"min":1423,"Ġindi":1424,"Ġquantum":1425,"ign":1426,"Ġcircum":1427,"Ġcontr":1428,"Ġaper":1429,"Ġdomine":1430,"urr":1431,"ebr":1432,"Ġeuangeli":1433,"ugn":1434,"Ġpoter":1435,"Ġexp":1436,"Ġpres":1437,"Ġamp":1438,"eres":1439,"Ġisrae":1440,"rim":1441,"Ġfidem":1442,"Ġuiu":1443,"Ġcath":1444,"Ġdilec":1445,"Ġdesc":1446,"antibus":1447,"abili":1448,"Ġanti":1449,"Ġsubst":1450,"Ġuitam":1451,"esti":1452,"Ġnol":1453,"Ġexerc":1454,"Ġcogit":1455,"Ġhominem":1456,"Ġfidei":1457,"Ġprimum":1458,"Ġexemp":1459,"atibus":1460,"ueni":1461,"uen":1462,"Ġpraeter":1463,"Ġsoc":1464,"Ġperson":1465,"rag":1466,"alia":1467,"Ġminis":1468,"Ġpsal":1469,"ulit":1470,"Ġsex":1471,"Ġing":1472,"uta":1473,"Ġmonaster":1474,"lici":1475,"Ġoffic":1476,"Ġinfer":1477,"Ġaequ":1478,"umque":1479,"Ġecce":1480,"Ġlac":1481,"Ġfug":1482,"odum":1483,"reh":1484,"alibus":1485,"Ġuig":1486,"ates":1487,"Ġmuli":1488,"ÎµÎ¹":1489,"ordi":1490,"Ġparte":1491,"Ġaeg":1492,"Ġsen":1493,"Ġbona":1494,"Ġeodem":1495,"Ġnou":1496,"Ġbonum":1497,"Ġanima":1498,"Ġioann":1499,"idi":1500,"ÏīÎ½":1501,"dis":1502,"ni":1503,"Ġlicet":1504,"ario":1505,"Ġamb":1506,"Ġcust":1507,"cus":1508,"Ġisrael":1509,"ĠÎ¿":1510,"Ġrelig":1511,"Ġdep":1512,"Ġk":1513,"eant":1514,"Ġquaes":1515,"Ġposse":1516,"Î¸":1517,"Ġpatris":1518,"Ġlae":1519,"greg":1520,"Ġapostolus":1521,"Ġrerum":1522,"anda":1523,"Ġfuisse":1524,"Ã¾":1525,"rep":1526,"ica":1527,"Ġangel":1528,"Ġmulti":1529,"Ġhaere":1530,"elic":1531,"Ġhunc":1532,"erus":1533,"Ġuener":1534,"Ġhominis":1535,"uerat":1536,"oni":1537,"Ġnulla":1538,"Ġpros":1539,"Ġbell":1540,"Ġfacta":1541,"Ġaqu":1542,"ppe":1543,"Ġerant":1544,"Ġasc":1545,"par":1546,"umb":1547,"atim":1548,"Ġerr":1549,"Ġnim":1550,"Ġuerba":1551,"atorum":1552,"Ġtuum":1553,"Ġepistol":1554,"Ġtempus":1555,"Ġpoenit":1556,"Ġlin":1557,"Ġmer":1558,"Ġadj":1559,"uri":1560,"Ġuidetur":1561,"uoc":1562,"Ġfratres":1563,"onem":1564,"Ġaff":1565,"co":1566,"Ġcorpore":1567,"atam":1568,"Ġlati":1569,"Ġintr":1570,"Î³":1571,"gress":1572,"dus":1573,"ty":1574,"Ġdamn":1575,"Ġostend":1576,"Ġcorporis":1577,"Ġserui":1578,"Ġatt":1579,"Ġitem":1580,"Ġsermon":1581,"Ġpossit":1582,"Ġpublic":1583,"Ġadm":1584,"Ġuin":1585,"Ġquippe":1586,"Ġfactum":1587,"Ġmundi":1588,"Ġcas":1589,"Ġbeati":1590,"olic":1591,"cili":1592,"Ġmulta":1593,"orm":1594,"tig":1595,"Ġsatis":1596,"Ġmiss":1597,"sit":1598,"da":1599,"libet":1600,"antem":1601,"Ġfacere":1602,"Ġmut":1603,"fici":1604,"Ġcup":1605,"ip":1606,"Ġtri":1607,"Ġsubj":1608,"Ġpropos":1609,"Ġinueni":1610,"Ġlic":1611,"tiones":1612,"Ġpresb":1613,"Ġux":1614,"lim":1615,"Ġfirm":1616,"ues":1617,"inta":1618,"Ġforte":1619,"Ġhinc":1620,"Ġmale":1621,"Ġuidelicet":1622,"bat":1623,"Ġuenit":1624,"Ġperpet":1625,"unque":1626,"arius":1627,"Ġtan":1628,"lex":1629,"Ġquidam":1630,"Ġcast":1631,"Ġsucc":1632,"Ġsanctus":1633,"Ġmanif":1634,"non":1635,"Ġinfirm":1636,"Ġtuam":1637,"Ġelec":1638,"Ġcognosc":1639,"Ġaugus":1640,"uper":1641,"Ġnatura":1642,"Ġopus":1643,"Ġmeum":1644,"Ġod":1645,"arii":1646,"âĢ":1647,"Ġscrib":1648,"let":1649,"Ġger":1650,"Ġredd":1651,"Ġscriptum":1652,"abilis":1653,"umus":1654,"Ġos":1655,"Ġpap":1656,"Ġpontific":1657,"Ġreuer":1658,"Ġped":1659,"Ġgal":1660,"Ġlocum":1661,"etis":1662,"Ġquaer":1663,"Ġcanon":1664,"Ġsanctae":1665,"Ġdicere":1666,"Ġmortu":1667,"Ġdiab":1668,"Ġconuers":1669,"Î¿ÏĤ":1670,"Ġseu":1671,"pot":1672,"Ġinim":1673,"Ġfide":1674,"Ġmarty":1675,"cipit":1676,"Ġrefer":1677,"nam":1678,"ult":1679,"Ġdeinde":1680,"Ġtuae":1681,"Ġindic":1682,"icus":1683,"Ġomne":1684,"tea":1685,"Ġlum":1686,"rips":1687,"Ġpotius":1688,"Ġuinc":1689,"Ġrebus":1690,"Ġmerit":1691,"Ġmanus":1692,"Ġdesider":1693,"Ġfruc":1694,"yter":1695,"Ġnostrum":1696,"atos":1697,"estis":1698,"Ġprimo":1699,"titur":1700,"atores":1701,"ulorum":1702,"Ġprod":1703,"Ġpatre":1704,"Ġhor":1705,"Ġsacri":1706,"Ġii":1707,"Ġregis":1708,"Ġpatrem":1709,"Ġeiusdem":1710,"uimus":1711,"icis":1712,"Ġsumus":1713,"Ġintellec":1714,"terea":1715,"Ġminus":1716,"Ġnemo":1717,"Ġsanctorum":1718,"Ġuiri":1719,"unti":1720,"Ġmali":1721,"Ġnostrae":1722,"Ġfilio":1723,"Ġdedit":1724,"essit":1725,"Ġz":1726,"abitur":1727,"quir":1728,"rup":1729,"Ġcatholic":1730,"Ġalii":1731,"Ġillam":1732,"Ġuers":1733,"Ġfacit":1734,"Ġiub":1735,"Ġsubs":1736,"Ġpen":1737,"Ġpriu":1738,"Ġtui":1739,"Ġfur":1740,"ber":1741,"Ġpostea":1742,"prob":1743,"oth":1744,"ulg":1745,"Ġsuos":1746,"ÎµÎ½":1747,"Ġomnem":1748,"uisset":1749,"Ġspiritum":1750,"Ġque":1751,"Ġagn":1752,"endam":1753,"Ġdoctr":1754,"atae":1755,"Ġpuer":1756,"Ġutrum":1757,"Ġuno":1758,"Ġtrad":1759,"Ġgratiam":1760,"Ġlec":1761,"Ġmortem":1762,"modi":1763,"Ġarbit":1764,"Ġling":1765,"Ġinterp":1766,".,":1767,"Ġiterum":1768,"aui":1769,"Ġnostris":1770,"rog":1771,"erint":1772,"Ġecclesias":1773,"ilia":1774,"Ġregnum":1775,"Ġcla":1776,"abant":1777,"Ġsoli":1778,"Ġpresbyter":1779,"Ġiniqu":1780,"Ġ-":1781,"fac":1782,"ebatur":1783,"Ġalio":1784,"ix":1785,"Ġuo":1786,"Ġnob":1787,"abo":1788,"Ġconfirm":1789,"Ġdau":1790,"Ġiesu":1791,"Ġaccipi":1792,"Ġutique":1793,"Ġmemb":1794,"uae":1795,"Ġfund":1796,"Ġmari":1797,"Ġtestim":1798,"oph":1799,"Î±Î½":1800,"iones":1801,"Ġnot":1802,"Ġomnino":1803,"Ġpauper":1804,"Ġconj":1805,"Ġmei":1806,"Ġpraem":1807,"Ġsor":1808,"Ġoport":1809,"Ġterrae":1810,"ĠÎºÎ±Î¹":1811,"Ġtuo":1812,"Ġfidel":1813,"Ġresur":1814,"Ġclam":1815,"icum":1816,"Ġnoster":1817,"Ġrei":1818,"ros":1819,"Ġquad":1820,"Ġtestimon":1821,"Ġpeccatum":1822,"Ġopera":1823,"Ġdiss":1824,"ĠÎ´":1825,"amur":1826,"Ġfig":1827,"Ġsacram":1828,"Ġtanquam":1829,"esci":1830,"Ġdisp":1831,"atoris":1832,"ire":1833,"Ġconfess":1834,"Ġcaput":1835,"Ġsanctum":1836,"Ġ?":1837,"Ġthe":1838,"Ġprofec":1839,"Ġmanu":1840,"caput":1841,"asse":1842,"Ġdauid":1843,"Ġsequitur":1844,"Ġfit":1845,"Ġnostro":1846,"udo":1847,"Ġsancto":1848,"sed":1849,"Ġcorde":1850,"Ġda":1851,"Ġconsul":1852,"Ġhumil":1853,"dec":1854,"aretur":1855,"Ġquat":1856,"inam":1857,"Ġepiscopi":1858,"mus":1859,"Ġquamuis":1860,"Ġuerbis":1861,"Ġra":1862,"Ġpossunt":1863,"Ġtem":1864,"Ġmater":1865,"Ġiste":1866,"Ġsil":1867,"Ġmaxime":1868,"tinus":1869,"Ġhominibus":1870,"Ġsacerdot":1871,"rus":1872,"Ġinstit":1873,"Ġturb":1874,"Ġeff":1875,"Ġsenti":1876,"Î´":1877,"no":1878,"inum":1879,"Ġillos":1880,"Ġuestra":1881,"Ġel":1882,"Ġspon":1883,"Ġdiuina":1884,"Ġlap":1885,"issent":1886,"Ġref":1887,"Ġw":1888,"Ġiesus":1889,"eti":1890,"Ġipsis":1891,"Ġnesci":1892,"uel":1893,"arent":1894,"Ġratione":1895,"Ġmagna":1896,"Ġinj":1897,"Ġignor":1898,"Ġnullus":1899,"Ġtotum":1900,"modum":1901,"Ġnamque":1902,"Ġquare":1903,"inae":1904,"uent":1905,"Ġphil":1906,"arg":1907,"Ġanimam":1908,"Ġdebet":1909,"Ġmeam":1910,"tiis":1911,"Î±ÏĦ":1912,"Ġpiet":1913,"Ġbre":1914,"inus":1915,"Ġanimae":1916,"Ġrap":1917,"Ġmultis":1918,"Ġgloria":1919,"Ġplurim":1920,"Ġcoep":1921,"Ġhabent":1922,"ung":1923,"Ġfactus":1924,"Ġcop":1925,"uinci":1926,"reg":1927,"endere":1928,"estin":1929,"antis":1930,"Ġaduersus":1931,"utum":1932,"Ġorb":1933,"Ġsper":1934,"uat":1935,"Ġgenus":1936,"tionibus":1937,"Ġdiem":1938,"erant":1939,"ceper":1940,"Ġmeus":1941,"Ġrur":1942,"Ïĩ":1943,"asti":1944,"dific":1945,"Ġdiffer":1946,"Ġuictor":1947,"ulam":1948,"Ġproxim":1949,"Ġinst":1950,"Ġsuscep":1951,"Ġded":1952,"Ġinuen":1953,"Ġed":1954,"Ġmort":1955,"Ġcaes":1956,"ulc":1957,"elli":1958,"Ġkal":1959,"Ġcarnis":1960,"Ġport":1961,"itudinem":1962,"Ġconcili":1963,"..":1964,"Ġdiu":1965,"Ġcirca":1966,"Ġtab":1967,"Ġquaedam":1968,"Ġplus":1969,"Ġhabit":1970,"Ġcam":1971,"Ġperic":1972,"Ġdemon":1973,"enique":1974,"Ġarchi":1975,"Ġiudicium":1976,"cipere":1977,"itati":1978,"anorum":1979,"Ġmol":1980,"prim":1981,"Ġden":1982,"Ġtac":1983,"ebit":1984,"Ġprima":1985,"ines":1986,"Ġcrim":1987,"iu":1988,"Ġdex":1989,"acon":1990,"Ġdiebus":1991,"Ġcet":1992,"Ġbr":1993,"Ġtres":1994,"Ġlege":1995,"iii":1996,"Ġfo":1997,"uerint":1998,"Ġori":1999,"Ġuera":2000,"Ġrespond":2001,"Ġpraef":2002,"ĠÏĦÎ·":2003,"Ġsyn":2004,"Ġmot":2005,"Ġfre":2006,"Ġextr":2007,"auerunt":2008,"Ġxx":2009,"Ġobseru":2010,"omm":2011,"Ġuere":2012,"Ġcler":2013,"Ġrog":2014,"Ġinterpret":2015,"Ġlegis":2016,"Ġpopuli":2017,"Ġnecesse":2018,"Ġseptem":2019,"ceps":2020,"Ġinte":2021,"lect":2022,"Ġeffic":2023,"Ġprouinci":2024,"ha":2025,"Ġfideli":2026,"Ġpopulo":2027,"Ġbapti":2028,"enis":2029,"Ġaegyp":2030,"Ġsubi":2031,"ico":2032,"Ġcapit":2033,"Ġuirtu":2034,"Î¿Î¹":2035,"ÏĥÏĦ":2036,"ular":2037,"ÏĨ":2038,"aur":2039,"Ġminim":2040,"Ġgem":2041,"Ġquoti":2042,"antiam":2043,"Ġquatu":2044,"Ġepiscopo":2045,"ĠÎ¼":2046,"Ġquidquid":2047,"Ġnar":2048,"endis":2049,"Ġquar":2050,"Ġdomus":2051,"Ġconuer":2052,"Ġaliqua":2053,"Ġrecte":2054,"Ġmori":2055,"Ġclar":2056,"Ġmalum":2057,"Ġmy":2058,"loqu":2059,"usque":2060,"Ġfuerat":2061,"uas":2062,"Ġcongreg":2063,"Ġaffec":2064,"Ġeg":2065,"Ġregem":2066,"Ġillic":2067,"Ġdeser":2068,"Ġsan":2069,"Ġmisericordi":2070,"atorem":2071,"Ġbaptis":2072,"Ġdenique":2073,"Ġdub":2074,"Ġperd":2075,"Ġtuis":2076,"Ġmala":2077,"Ġheb":2078,"pl":2079,"Ġmeo":2080,"Ġsa":2081,"Ġtent":2082,"Ġaux":2083,"âĢĶ":2084,"lium":2085,"Ġcruc":2086,"Ġreper":2087,"Ġaedific":2088,"Ġpopulus":2089,"Ġiis":2090,"Ġpartem":2091,"Ġmanifes":2092,"abatur":2093,"alium":2094,"crip":2095,"tro":2096,"Ġcoll":2097,"ordia":2098,"undi":2099,"amm":2100,"Ġquic":2101,"ÏħÏĦ":2102,"Ġpraesum":2103,"Ġsaepe":2104,"Ġher":2105,"Ġsimiliter":2106,"Ġresurrec":2107,"entius":2108,"Ġdomum":2109,"Ġaus":2110,"Ġlegem":2111,"Ġhuiusmodi":2112,"Ġaliquando":2113,"Ġassum":2114,"uni":2115,"Ġpeccata":2116,"quidem":2117,"Ġoccid":2118,"andem":2119,"Ġiudicio":2120,"Ġquatuor":2121,"Ġtrac":2122,"imo":2123,"Ġpraecip":2124,"ron":2125,"item":2126,"Ġconi":2127,"num":2128,"Ġappar":2129,"quod":2130,"Ġsalutem":2131,"hae":2132,"Ġhuic":2133,"Ġprot":2134,"Ġuelut":2135,"Ġsancta":2136,"Ġcoram":2137,"Ġnaturae":2138,"Ġadd":2139,"Ġtran":2140,"pici":2141,"Ġtota":2142,"Ġpere":2143,"Ġoportet":2144,"Ġpars":2145,"Ġuult":2146,"Ġga":2147,"enum":2148,"Ġfilios":2149,"Ġ.--":2150,"tios":2151,"ga":2152,"Ġmac":2153,"ÏģÎ¹":2154,"Ġiii":2155,"Ġeas":2156,"Ġopp":2157,"Ġnullo":2158,"ariis":2159,"Ġfides":2160,"rop":2161,"Ġdiabol":2162,"linqu":2163,"Ġcontemp":2164,"Ġext":2165,"Ġtit":2166,"teri":2167,"Ġoffer":2168,"Ġcerte":2169,"Ġecclesiastic":2170,"Ġsanguin":2171,"Ġstat":2172,"nis":2173,"Ġdiuis":2174,"Ġunius":2175,"Ġconsequ":2176,"Ġsuas":2177,"Ġdecre":2178,"Ġpopulum":2179,"episcop":2180,"libus":2181,"erusalem":2182,"Ġcard":2183,"Ġbar":2184,"Ġore":2185,"Ġconsum":2186,"Ġnego":2187,"Ġgloriam":2188,"Ġomnipot":2189,"Ġannos":2190,"Ġauctoritate":2191,"Ġamen":2192,"Ġlun":2193,"eribus":2194,"Ġalios":2195,"Ġmultitud":2196,"Ġipsam":2197,"eno":2198,"Ġanimo":2199,"Ġcausam":2200,"Ġuac":2201,"Ġsacerdo":2202,"Ġfinem":2203,"Ġconsec":2204,"Ġconueni":2205,"inibus":2206,"Ġol":2207,"Ġfon":2208,"Ġbib":2209,"Ġregni":2210,"Ġcreatur":2211,"Ġcompar":2212,"Ġdico":2213,"itio":2214,"Ġposset":2215,"Ġintra":2216,"erentur":2217,"Ġpetri":2218,"Ġtor":2219,"Ġculp":2220,"Ġprud":2221,"Ġaliter":2222,"cis":2223,"Ġtanta":2224,"Ġdecem":2225,"Ġsumm":2226,"Ġgreg":2227,"eritis":2228,"uus":2229,"ice":2230,"Ġconsider":2231,"icae":2232,"Ġsuffic":2233,"cir":2234,"Ġmonach":2235,"ting":2236,"Ġbl":2237,"Ġpotuit":2238,"Ġlabor":2239,"Ġspirit":2240,"ida":2241,"Ġuirtute":2242,"antium":2243,"ÏĥÎ¹":2244,"ulas":2245,"Ġson":2246,"Ġmans":2247,"Ġpast":2248,"Ġfla":2249,"plici":2250,"enam":2251,"Ġeffec":2252,"ecum":2253,"Ġostendit":2254,"Ġequ":2255,"gredi":2256,"Ġpropheta":2257,"Ġpugn":2258,"Ġquanto":2259,"Ġsuperi":2260,"Ġcod":2261,"issime":2262,"Ġnostram":2263,"Ġfelic":2264,"Ġimag":2265,"Ġcirc":2266,"Ġstatim":2267,"Ġpublius":2268,"uia":2269,"Ġtestam":2270,"nul":2271,"Ġsin":2272,"Ġannis":2273,"Ġiure":2274,"Ġlux":2275,"Ġmentis":2276,"uol":2277,"Ġnunquam":2278,"Ġhonor":2279,"nec":2280,"uii":2281,"ete":2282,"Ġele":2283,"Ġdicat":2284,"Ġbaptiz":2285,"Ġpauc":2286,"Ġmorte":2287,"Ġuestrae":2288,"ense":2289,"Ġdubi":2290,"Ġtanto":2291,"Ġcoelo":2292,"Ġpartes":2293,"Ġfem":2294,"tores":2295,"Ġsacrific":2296,"anos":2297,"ard":2298,".--":2299,"Î±ÏĤ":2300,"pect":2301,"Ġuia":2302,"Ġdicunt":2303,"Ġiei":2304,"Ġfuerint":2305,"Ġgentes":2306,"entissim":2307,"Ġlonge":2308,"hem":2309,"Ġstr":2310,"Ġcelebr":2311,"Ġobl":2312,"Ġcustodi":2313,"Ġratio":2314,"imur":2315,"Ġsuccess":2316,"Ġexis":2317,"Ġant":2318,"Ġuirtus":2319,"clus":2320,"uium":2321,"ie":2322,"Ġmyst":2323,"uitur":2324,"Ġredi":2325,"escit":2326,"ella":2327,"Ġueritatis":2328,"Ġarchiepiscop":2329,"tias":2330,"enn":2331,"ulae":2332,"andam":2333,"Ġopin":2334,"Ġpag":2335,"Ġinterrog":2336,"psum":2337,"Ġauxili":2338,"eros":2339,"Ġsollic":2340,"Ġrequi":2341,"Ġmedio":2342,"ĠÏĦÎ¿Ïħ":2343,"Ġsab":2344,"Ġdisciplin":2345,"Ġdonec":2346,"Ġfrater":2347,"Ġfab":2348,"Ġdux":2349,"Ġcarne":2350,"Ġpraest":2351,"Ġmit":2352,"Ġpossid":2353,"Ġabra":2354,"Ġparti":2355,"Ġunam":2356,"Ġcommend":2357,"Ġessent":2358,"Ġtribus":2359,"Ġmortis":2360,"issa":2361,"Ġfort":2362,"itudine":2363,"Ġuix":2364,"icos":2365,"Ġcruci":2366,"Ġexhib":2367,"Ġpulch":2368,"icem":2369,"Ġgraec":2370,"ara":2371,"Ġmox":2372,"Ġdist":2373,"Ġuindic":2374,"Ġtermin":2375,"iec":2376,"Ġnasc":2377,"Ġsuorum":2378,"Ġsententia":2379,"Ġdaem":2380,"ola":2381,"Ġpossess":2382,"Ġieiun":2383,"Ġnullum":2384,"Ġmundo":2385,"Ġcant":2386,"Ġcens":2387,"Ġsaeculi":2388,"Ġscel":2389,"ones":2390,"Ġadul":2391,"Ġphilos":2392,"Ġpraeb":2393,"Î±Ïģ":2394,"Ġdemonstr":2395,"Ġdicta":2396,"Ġbonis":2397,"Ġration":2398,"Ġconsuet":2399,"Ġcustod":2400,"Ġcarnem":2401,"Ġnaturam":2402,"Ġmur":2403,"Ġadmon":2404,"Ġmulto":2405,"Ġbenefic":2406,"ific":2407,"Ġaqua":2408,"yr":2409,"Ġprohib":2410,"Ġpas":2411,"Ġpostquam":2412,"tinere":2413,"uine":2414,"Ġillorum":2415,"Ġoculis":2416,"ĠÎ·":2417,"Ġcordis":2418,"Ġlibro":2419,"Ġquinque":2420,"Ġsepar":2421,"Ġpleb":2422,"Ġinnoc":2423,"les":2424,"Ġamplius":2425,"Ġoptim":2426,"Ġcapti":2427,"ensem":2428,"Ġhodi":2429,"istis":2430,"Ġapostoli":2431,"ites":2432,"Ġhuman":2433,"pectu":2434,"Ġmedic":2435,"itam":2436,"Ġard":2437,"Ġprouid":2438,"Ġfiat":2439,"Ġsolus":2440,"yl":2441,"Ġimpos":2442,"Ġib":2443,"Ġbeatus":2444,"Ġ--":2445,"admodum":2446,"Ġpeti":2447,"Ġredemp":2448,"Ġindign":2449,"Ġaccus":2450,"ionibus":2451,"Ġhaeretic":2452,"Ġtemporis":2453,"Ġsanctis":2454,"Ġcoelum":2455,"Ġtol":2456,"Ġdici":2457,"quae":2458,"ladi":2459,"Ġuuln":2460,"Ġcog":2461,"Ġprec":2462,"Ġpaulus":2463,"entus":2464,"Ġpariter":2465,"Ġalius":2466,"itates":2467,"Ġoff":2468,"cumque":2469,"tini":2470,"Ġmerito":2471,"Ġperf":2472,"Ġquatenus":2473,"dita":2474,"Ġstatu":2475,"Ġoculos":2476,"Ġtrin":2477,"Ġloquitur":2478,"issima":2479,"Ġmelius":2480,"Ġsignificat":2481,"Ġaufer":2482,"Ġcess":2483,"Ġnumero":2484,"Ġpostul":2485,"Ġfrequ":2486,"Ġsapientia":2487,"Ġalb":2488,"Ġpersec":2489,"Ġestis":2490,"Ġaliquo":2491,"Ġsententiam":2492,"Ġsensus":2493,"Ġcat":2494,"Ġextra":2495,"Ġtoto":2496,"Ġmed":2497,"icorum":2498,"rium":2499,"quo":2500,"lu":2501,"Ġsola":2502,"Ġtotius":2503,"Ġconcup":2504,"Ġpetrus":2505,"Ġquemadmodum":2506,"Ġiustitia":2507,"Ġuiam":2508,"Ġsur":2509,"Ġret":2510,"iens":2511,"ueris":2512,"Ġiacob":2513,"Ġsimplic":2514,"Ġpur":2515,"Ġueritas":2516,"Ġhistor":2517,"Ġlign":2518,"rare":2519,"Ġnau":2520,"Ġgenere":2521,"ilem":2522,"Ġscrips":2523,"iorum":2524,"Ġiustitiam":2525,"esta":2526,"Ġforma":2527,"Ġministr":2528,"och":2529,"Ġmanibus":2530,"emur":2531,"Ġcoron":2532,"Ġcaro":2533,"Ġpol":2534,"Ġcogno":2535,"Ġtamquam":2536,"Ġmente":2537,"cunque":2538,"Ġmodum":2539,"antiae":2540,"Ġuoce":2541,"Ġrationem":2542,"Ġepiscopum":2543,"udinem":2544,"Ġpeccatorum":2545,"ebantur":2546,"Ġsermo":2547,"Ġfiliis":2548,"Ġuerbo":2549,"Ġapostolorum":2550,"Ġioannes":2551,"Ġepistola":2552,"Ġobedi":2553,"Ġdelect":2554,"Ġhabeat":2555,"tinc":2556,"Ġoccas":2557,"cibus":2558,"Ġarm":2559,"itae":2560,"iunt":2561,"Ġbas":2562,"titia":2563,"prae":2564,"Ġgladi":2565,"Ġsubjec":2566,"atissim":2567,"Ġsolem":2568,"Ġrecep":2569,"Ġboni":2570,"aginta":2571,"uisti":2572,"ĠÏĥ":2573,"abunt":2574,"Ġabsque":2575,"Ġue":2576,"Ġuest":2577,"Ġanimi":2578,"Ġbeat":2579,"Ġcunctis":2580,"Ġlex":2581,"iles":2582,"Ġeuangelio":2583,"Ġingen":2584,"Ġabsol":2585,"auerit":2586,"Ġuoluit":2587,"endas":2588,"uxit":2589,"abiliter":2590,"abile":2591,"circo":2592,"Ġlocus":2593,"Ġdomo":2594,"Ġlegi":2595,"Ġmisit":2596,"Ġconstitu":2597,"Ġconsci":2598,"Ġueritatem":2599,"Ġnati":2600,"Ġfuerunt":2601,"Ġdicuntur":2602,"Ġpeccato":2603,"Ġclem":2604,"ereb":2605,"Ġcib":2606,"Ġdiuinae":2607,"Ġdiui":2608,"Ġiug":2609,"iit":2610,"Ġtris":2611,"Ġabi":2612,"enim":2613,"Ġutil":2614,"Ġuas":2615,"Ġsedis":2616,"Ġlapid":2617,"Ġapostolicae":2618,"arn":2619,"issimi":2620,"Ġmaior":2621,"ÎµÏģ":2622,"Ġmyster":2623,"Ġador":2624,"tii":2625,"Ġoperibus":2626,"Ġminister":2627,"Ġtandem":2628,"simus":2629,"Ġpropria":2630,"emor":2631,"ham":2632,"Ġordine":2633,"Ġprimus":2634,"Ġmare":2635,"Ġmundum":2636,"enae":2637,"Ġaccid":2638,"Ġtemporibus":2639,"Ġdeuo":2640,"sis":2641,"Ġduobus":2642,"su":2643,"Ġcuncta":2644,"Ġfau":2645,"Ġcoeles":2646,"uitate":2647,"Ġconstan":2648,"uiii":2649,"Ġpropterea":2650,"Ġnatus":2651,"Ġultim":2652,"Ġfigur":2653,"tore":2654,"Ġlitteris":2655,"Ġrestit":2656,"Ġon":2657,"Ġtrium":2658,"uenit":2659,"Ġcondi":2660,"Ġlocis":2661,"Ġmeae":2662,"Ġgentium":2663,"atas":2664,"Ġmeis":2665,"Ġmili":2666,"Ġpraec":2667,"Ġidcirco":2668,"Ġiustitiae":2669,"Ġcontem":2670,"Ġpraed":2671,"Ġsane":2672,"Ġdicimus":2673,"Ġsti":2674,"Ġperse":2675,"Ġopere":2676,"Ġdiuid":2677,"Ġignis":2678,"ustr":2679,"Ġetsi":2680,"Ġuirum":2681,"Ġaliquis":2682,"Ġimpet":2683,"olog":2684,"Ġciuitatem":2685,"Ġcompos":2686,"Ġconcess":2687,"ll":2688,"Ġuestris":2689,"Ġmanum":2690,"Ġcaeteris":2691,"Ġfra":2692,"Ġpotestatem":2693,"Ġpacem":2694,"Ġuoluntate":2695,"Ġuoluntatem":2696,"Ġfratribus":2697,"Ġierusalem":2698,"pir":2699,"Ġpossumus":2700,"Ġnondum":2701,"ima":2702,"Ġiesum":2703,"entio":2704,"Ġhomine":2705,"Ġdiximus":2706,"Ġerunt":2707,"Ġcern":2708,"Ġadeo":2709,"Ġexper":2710,"Ġstul":2711,"eum":2712,"clud":2713,"Ġmultum":2714,"Ġfamili":2715,"Ġmeli":2716,"Ġexistim":2717,"Ġambul":2718,"Ġpedes":2719,"Ġmitt":2720,"exand":2721,"Ġdubit":2722,"Ġultra":2723,"Ġpud":2724,"abis":2725,"Ġtempor":2726,"unic":2727,"Ġsubstantia":2728,"Ġcorrup":2729,"Ġimpl":2730,"Ġdiff":2731,"Ġisa":2732,"Ġuocem":2733,"Ġamore":2734,"Ġsanguine":2735,"Ġanni":2736,"ual":2737,"Ġpan":2738,"Ġhodie":2739,"Ġlarg":2740,"Ġrursus":2741,"eth":2742,"Ġdesign":2743,"Ġoccul":2744,"Ġminime":2745,"Ġtuus":2746,"Ġste":2747,"Ġpasch":2748,"Ġaeternum":2749,"ÏīÏĤ":2750,"Ġgerm":2751,"Ġnocte":2752,"Ġrob":2753,"Ġseruus":2754,"ese":2755,"Ġuidit":2756,"Ġpeccati":2757,"Ġaf":2758,"Ġuiol":2759,"Ġdiffic":2760,"Ġmoys":2761,"iamus":2762,"Ġdefini":2763,"Ġcongr":2764,"press":2765,"Ġscriptura":2766,"cit":2767,"tioni":2768,"Ġflu":2769,"Ġspecies":2770,"gressus":2771,"sec":2772,"Ġmag":2773,"so":2774,"Ġnub":2775,"Ġinuicem":2776,"arch":2777,"elis":2778,"Ġaccepit":2779,"Ġconstr":2780,"edit":2781,"Ġmors":2782,"Ġdiacon":2783,"Ġbo":2784,"aus":2785,"Ġquotidi":2786,"Ġfaciem":2787,"Ġpecun":2788,"Ġsubiec":2789,"Ġdet":2790,"Ġrel":2791,"Ġgeneris":2792,"itudo":2793,"osa":2794,"posi":2795,"abilem":2796,"Ġuolup":2797,"Ġsuperb":2798,"Ġconcupisc":2799,"Ġpari":2800,"do":2801,"endus":2802,"ido":2803,"Ġurbem":2804,"Ġtalis":2805,"Ġcumque":2806,"Ġtoll":2807,"Ġargum":2808,"Ġmembra":2809,"Ġuidere":2810,"pi":2811,"Ġdixi":2812,"Ġcardin":2813,"eas":2814,"\\.":2815,"Ġrelinqu":2816,"Ġmisericordiam":2817,"Ġios":2818,"Ġdup":2819,"eph":2820,"modo":2821,"Ġalterum":2822,"Ġtestimonium":2823,"Ġalexand":2824,"Ġimperator":2825,"issimum":2826,"isit":2827,"olis":2828,"quin":2829,"Ġflum":2830,"Ġreliqu":2831,"Ġfaciunt":2832,"ationi":2833,"Ġmisericordia":2834,"Ġsacr":2835,"Ġduos":2836,"Ġuari":2837,"Ġpotestate":2838,"Ġconsilio":2839,"Ġreuoc":2840,"titer":2841,"andus":2842,"Ġduod":2843,"Ġuirtutum":2844,"Ġpatr":2845,"ationum":2846,"Ġinuid":2847,"Ġconfer":2848,"Ġquadrag":2849,"Ġreuel":2850,"quaquam":2851,"Ġteneb":2852,"Ġsomn":2853,"asset":2854,"Ġxxx":2855,"udine":2856,"Ġfine":2857,"tat":2858,"Ġj":2859,"Ġmend":2860,"Ġcond":2861,"Ġpaulo":2862,"Ġorig":2863,"Ġpersona":2864,"auimus":2865,"Ġhabuit":2866,"Ġagnosc":2867,"Ġciuitate":2868,"Ġgratiae":2869,"Ġinstr":2870,"Ġconced":2871,"arem":2872,"Ġfacile":2873,"Ġrege":2874,"Ġperueni":2875,"clar":2876,"Ġdel":2877,"Ġnut":2878,"aculum":2879,"Ġbeni":2880,"Ġquibusdam":2881,"Ġperman":2882,"gra":2883,"Ġisti":2884,"Ġsecundo":2885,"ileg":2886,"cuius":2887,"Ġuiro":2888,"Ġsustin":2889,"Ġsolis":2890,"nus":2891,"Ġast":2892,"Ġpromiss":2893,"gne":2894,"trah":2895,"Ġdor":2896,"prop":2897,"Ġcec":2898,"ubi":2899,"andis":2900,"turb":2901,"Ġabbas":2902,"Ġciuitatis":2903,"Ġtempora":2904,"rehend":2905,"cedit":2906,"Ġordinem":2907,"itor":2908,"rex":2909,"ecim":2910,"rio":2911,"Ġuirtutem":2912,"inistr":2913,"ilius":2914,"Ġconsens":2915,"Ġirr":2916,"nae":2917,"Ġfortun":2918,"Ġmultiplic":2919,"iscum":2920,"cur":2921,"Ġobtin":2922,"Ġdiceret":2923,"Ġuestrum":2924,"Ġueritate":2925,"Ġalias":2926,"Ġuox":2927,"abiles":2928,"iderunt":2929,"Ġapostolica":2930,"Ġdur":2931,"Ġregno":2932,"Ġtheod":2933,"Ġeleg":2934,"Ġaffirm":2935,"Ġdata":2936,"istere":2937,"Ġpraepar":2938,"anter":2939,"Ġcad":2940,"rexit":2941,"Ġualde":2942,"Ġcurr":2943,"Ġrequir":2944,"Ġgenti":2945,"Ġiuuen":2946,"Ġetenim":2947,"Ġlibert":2948,"Ġcoeli":2949,"Ġeloqu":2950,"Ġproced":2951,"Ġarbitr":2952,"Ġfranc":2953,"Ġascend":2954,"Ġexpe":2955,"Ġconsol":2956,"Ġglorios":2957,"entorum":2958,"tissime":2959,"Ġconsilium":2960,"Ġiustus":2961,"eper":2962,"Ġambi":2963,"Ġnequaquam":2964,"Ġelig":2965,"Ġsumma":2966,"Ġdescend":2967,"Ġpoenitentiam":2968,"Ġmarcus":2969,"ĠÎµÎ½":2970,"Ġgentibus":2971,"ea":2972,"Ġro":2973,"iat":2974,"uiter":2975,"Ġreligios":2976,"ĠÎ¸":2977,"Ġmariae":2978,"Ġdestr":2979,"Ġnarr":2980,"Ġuerbi":2981,"Ġrecipi":2982,"Ġhonore":2983,"Ġcoepit":2984,"Ġcorpora":2985,"Ġrespondit":2986,"Ġumb":2987,"Ġprofer":2988,"Ġphilosoph":2989,"Ġuenire":2990,"Ġpeccatis":2991,"anam":2992,"Ġaeterna":2993,"Ġexig":2994,"Ġtertio":2995,"Î¼ÎµÎ½":2996,"Ġipsos":2997,"olum":2998,"issimo":2999,"Ġcollig":3000,"Ġtribul":3001,"Ġantequam":3002,"Ġearum":3003,"idum":3004,"Ġtemplum":3005,"Ġtract":3006,"Ġdelic":3007,"Ġpriuileg":3008,"Ġprofecto":3009,"Ġpartibus":3010,"crips":3011,"Ġporro":3012,"Ġnem":3013,"tamen":3014,"Ġagere":3015,"ior":3016,"Ġmonasterio":3017,"mum":3018,"Ġsam":3019,"Ġcaec":3020,"Ġimit":3021,"Ġhumili":3022,"Ġscripta":3023,"Ġpraesid":3024,"Ġren":3025,"Ġmagnum":3026,"Ġiuli":3027,"Ġiuda":3028,"Ġall":3029,"Ġmenti":3030,"Ġsei":3031,"Ġconstat":3032,"Ġanimal":3033,"rac":3034,"Ġparu":3035,"Ġquisque":3036,"Ġobt":3037,"Ġsingulis":3038,"anim":3039,"Ġcaetera":3040,"Ġseptim":3041,"Ġpoterit":3042,"Ġfaciat":3043,"Ġlumen":3044,"deb":3045,"Ġdexter":3046,"Ġperc":3047,"Ġoccup":3048,"Ġpom":3049,"Ġmonasterium":3050,"Ġalterius":3051,"Ġplures":3052,"onum":3053,"utis":3054,"Ġromae":3055,"Ġdil":3056,"Ġepiscopis":3057,"Ġiudaeorum":3058,"Ġabund":3059,"Ġpapae":3060,"Ġaccip":3061,"Ġsuscipi":3062,"Ġhorum":3063,"Ġincer":3064,"uto":3065,"Ġsecum":3066,"Ġregi":3067,"Ġgrae":3068,"Ġqual":3069,"Ġincon":3070,"Ġerud":3071,"Ġfuturum":3072,"Ġnonnul":3073,"ditum":3074,"Ġoccurr":3075,"Ġhaeres":3076,"Ġamici":3077,"Ġpatrum":3078,"Ġcura":3079,"Ġcorpor":3080,"Ġdare":3081,"Ġseruit":3082,"toris":3083,"Ġflor":3084,"bile":3085,"Ġsalutis":3086,"Ġsuperius":3087,"Ġmerc":3088,"Ġconseru":3089,"sic":3090,"Ġsiquidem":3091,"Ġian":3092,"ĠÏĢÏģ":3093,"trac":3094,"Ġpror":3095,"Ġmaiest":3096,"Ġsepul":3097,"Ġintelligi":3098,"Ġuestram":3099,"Ġpenitus":3100,"Ġolim":3101,"Ġuirtutis":3102,"ĠÃ¾":3103,"Ġclaud":3104,"des":3105,"ria":3106,"Ġurbe":3107,"eamus":3108,"Ġdisput":3109,"Ġmore":3110,"Ġsch":3111,"Ġflag":3112,"pro":3113,"Ġcy":3114,"Ġextrem":3115,"Ġacced":3116,"undum":3117,"Ġabscon":3118,"Ġnup":3119,"Ġpacis":3120,"Ġlingua":3121,"Ġcogni":3122,"Ġpapa":3123,"Ġquodam":3124,"Ġprincipes":3125,"Ġformam":3126,"Î²":3127,"Ġclaus":3128,"Ġmulier":3129,"__":3130,"tici":3131,"abantur":3132,"xxx":3133,"Ġfall":3134,"icam":3135,"Ġgaius":3136,"Ġsuff":3137,"ax":3138,"illa":3139,"Ġduas":3140,"Ġlocutus":3141,"Ġaestim":3142,"Ġbono":3143,"Ġsanctit":3144,"ania":3145,"Ġprocul":3146,"Ġexemplum":3147,"Ġhom":3148,"Ġincarn":3149,"Ġmaledic":3150,"Ġcupid":3151,"Ġmagno":3152,"Ġlitteras":3153,"Ġscire":3154,"ittit":3155,"Ġcontempl":3156,"Ġbellum":3157,"Ġdebemus":3158,"Ġtenebr":3159,"ditur":3160,"escere":3161,"uerant":3162,"Ġarch":3163,"Ġsese":3164,"Ġuoluntas":3165,"Ġdesid":3166,"Ġtrah":3167,"Ġsignum":3168,"Ġhumana":3169,"Ġgratias":3170,"Ġsanctific":3171,"Ġocta":3172,"arentur":3173,"Ġaulus":3174,"Ġorn":3175,"Ġurbis":3176,"Ġtene":3177,"Ġmanduc":3178,"Î·ÏĤ":3179,"Ġinuit":3180,"Ġconsecr":3181,"Ġnud":3182,"Ġadam":3183,"Ġnomina":3184,"Ġdat":3185,"Ġalium":3186,"ech":3187,"Ġpraeterea":3188,"Ġsemeti":3189,"irum":3190,"Ġconfit":3191,"Ġhonorem":3192,"Ġcand":3193,"Ġpron":3194,"Ġdixerunt":3195,"enas":3196,"Ġuxorem":3197,"Ġdid":3198,"Ġaliam":3199,"hann":3200,"ute":3201,"Ġexspect":3202,"Ġexor":3203,"tissimi":3204,"ulari":3205,"ai":3206,"Ġsecre":3207,"Ġfin":3208,"Ġsar":3209,"Ġnulli":3210,"Ġhomini":3211,"Ġfidelium":3212,"Ġmortuus":3213,"Ġabraham":3214,"ĠÏħ":3215,"Ġexi":3216,"ebunt":3217,"Ġuii":3218,"Ġmotus":3219,"Ġtabern":3220,"Ġuidentur":3221,"pp":3222,"olit":3223,"Ġimo":3224,"Ġlegitur":3225,"Ġintelleg":3226,"Ġquan":3227,"Ġcommemor":3228,"quisque":3229,"Ġpraesenti":3230,"Ġsecur":3231,"Ġgregor":3232,"Ġsapientiae":3233,"Ġmalis":3234,"Ġiun":3235,"Ġperegr":3236,"Ġeidem":3237,"Ġciu":3238,"endae":3239,"Ġsupplici":3240,"Ġpurg":3241,"lus":3242,"ÏĢÎ¿":3243,"Ġalibi":3244,"Ġbonorum":3245,"Ġiustific":3246,"Ġuolupt":3247,"Ġgrau":3248,"Ġpercus":3249,"Ġanimum":3250,"Ġdecimus":3251,"uos":3252,"Ġspect":3253,"Ġconspectu":3254,"Ġsuperbi":3255,"onia":3256,"Ġari":3257,"nic":3258,"Ġbal":3259,"Ġdoctrina":3260,"ĠÎ³":3261,"Ġutrumque":3262,"Ġspecie":3263,"Ġuiuere":3264,"Ġpatern":3265,"Ġdefens":3266,"ĠÎ±ÏħÏĦ":3267,"Ġbonus":3268,"Ġpel":3269,"ellis":3270,"entiis":3271,"ortun":3272,"Ġconjug":3273,"Ġnumquam":3274,"Ġretin":3275,"Ġsag":3276,"Ġuocab":3277,"Ġdomn":3278,"Ġgl":3279,"acula":3280,"Ġpatres":3281,"Ġpoterat":3282,"Ġmendac":3283,"ho":3284,"ÎµÏĦ":3285,"uens":3286,"ĠÅ¿":3287,"Ġpossint":3288,"Ġeb":3289,"Ġeumdem":3290,"Ġmonasterii":3291,"atore":3292,"Ġneglig":3293,"Ġexter":3294,"Ġmalo":3295,"rehens":3296,"Ġantiqu":3297,"Âª":3298,"Ġutri":3299,"Ġindig":3300,"Ġdecim":3301,"Ġsemel":3302,"atium":3303,"Ġfere":3304,"ĠâĢĶ":3305,"idus":3306,"Ġexpon":3307,"inti":3308,"Ġnominis":3309,"Ġadhib":3310,"Ġdicendum":3311,"Ġsalom":3312,"ÏħÎ½":3313,"Ġintellectus":3314,"iÂª":3315,"Ġaltera":3316,"ĠÏĦÎ·ÏĤ":3317,"Ġusus":3318,"Î·Î½":3319,"issimus":3320,"Ġofficium":3321,"Ġfortitud":3322,"dere":3323,"Ġfuisset":3324,"Ġagit":3325,"Ġtertia":3326,"Ġcompl":3327,"Ġsensum":3328,"Ġsacerdotes":3329,"essus":3330,"Ġexcep":3331,"Ġstudio":3332,"fl":3333,"Ġuocatur":3334,"Ġpraecepta":3335,"Ġcapite":3336,"amentum":3337,"Ġnonne":3338,"Ġspl":3339,"ittere":3340,"Ġsecunda":3341,"atoribus":3342,"unde":3343,"titiam":3344,"Ġfraud":3345,"Ġimpr":3346,"Ġscientia":3347,"iarum":3348,"Ġsabb":3349,"Ġloca":3350,"Ġpotentia":3351,"Ġannum":3352,"Ġproprium":3353,"Ġparticip":3354,"utor":3355,"Ġabbati":3356,"ubern":3357,"Ġhebrae":3358,"Ġuirtutes":3359,"itatibus":3360,"Ġdeclar":3361,"dibus":3362,"Ġsemp":3363,"uitatem":3364,"Ġmultos":3365,"isque":3366,"Ġloci":3367,"uatur":3368,"rauit":3369,"utione":3370,"arunt":3371,"Ġinfid":3372,"ueri":3373,"Ġfratrem":3374,"Ġquanta":3375,"Ġuideatur":3376,"Ġulla":3377,"Ġtalia":3378,"Ġadi":3379,"Ġpasc":3380,"Ġubique":3381,"Ġcamp":3382,"Ġsanguinem":3383,"Ġduodecim":3384,"Ġiohann":3385,"Ġpertinet":3386,"endos":3387,"Ġfiunt":3388,"ĠÎµÏĢ":3389,"lem":3390,"Ġcoelestis":3391,"Ġconstantin":3392,"Ġmagistr":3393,"Ġthes":3394,"Ġira":3395,"Ġsermone":3396,"Ġdul":3397,"Ġcontradic":3398,"Ġquondam":3399,"Ġunusquisque":3400,"ĠÎ´Î¹":3401,"Ġarma":3402,"Ġserp":3403,"Ġhora":3404,"Ġacceper":3405,"tissimum":3406,"itos":3407,"Ġsplend":3408,"Ġuiii":3409,"Ġobli":3410,"Ġbeatit":3411,"ĠÎ±Î½":3412,"Ġprior":3413,"Ġmundus":3414,"ĠÎµÎ¹":3415,"Ġfructus":3416,"Ġcorda":3417,"Ġads":3418,"fr":3419,"Ġaliorum":3420,"titit":3421,"Ġlacr":3422,"pend":3423,"Ġhort":3424,"Ġuestri":3425,"haec":3426,"Ġaeternam":3427,"Ġibidem":3428,"abuntur":3429,"Ġnimirum":3430,"Ġmus":3431,"Ġfoed":3432,"Ġcrud":3433,"Ġsacerdos":3434,"Ġdein":3435,"Ġlau":3436,"Ġcrucis":3437,"Ġreges":3438,"Ġadulter":3439,"men":3440,"Ġipsorum":3441,"gen":3442,"Ġhas":3443,"Ġnumquid":3444,"eron":3445,"Ġprophe":3446,"Ġsaeculo":3447,"tauit":3448,"Ġnat":3449,"Ġcorn":3450,"Ġlig":3451,"Ġmentem":3452,"Ġhuc":3453,"Ġuelle":3454,"Ġfacti":3455,"Ġfulg":3456,"Ġlud":3457,"Ġuim":3458,"Ġintro":3459,"utionem":3460,"aph":3461,"Ġualet":3462,"tif":3463,"Ġqualiter":3464,"Ġdatur":3465,"ularis":3466,"Ġhabebat":3467,"Ġbarb":3468,"Ġsigna":3469,"Ġlam":3470,"Ġsurg":3471,"Ġprinceps":3472,"Ġquot":3473,"Ġillumin":3474,"amque":3475,"Ġquotidie":3476,"Ġnoui":3477,"Ġprol":3478,"Ġinjus":3479,"Ġconsumm":3480,"Ġsis":3481,"Ġfron":3482,"Ġsociet":3483,"Ġangus":3484,"ies":3485,"Ġattend":3486,"estum":3487,"ares":3488,"Ġmaria":3489,"Ġprofic":3490,"Ġcanti":3491,"Ġeuangelium":3492,"Ġposuit":3493,"Ġdeter":3494,"Ġpraepos":3495,"inqu":3496,"Ġspem":3497,"Ġinterfec":3498,"Ġtar":3499,"Ġrelic":3500,"Ġtales":3501,"Ġhabens":3502,"Ġferre":3503,"Ġnostrorum":3504,"Ġuigil":3505,"Ġexam":3506,"Ġadmir":3507,"Î¾":3508,"tior":3509,"Ġdeu":3510,"Ġaris":3511,"Ġalt":3512,"Ġuentur":3513,"Ġpraeced":3514,"Ġgalli":3515,"Ġmodis":3516,"queb":3517,"nos":3518,"Ġuehem":3519,"Ġcoeper":3520,"Ġprincipio":3521,"Ġangeli":3522,"tionum":3523,"Ġocto":3524,"Ġced":3525,"Ġsaecula":3526,"Ġpax":3527,"Ġfrig":3528,"Ġbasili":3529,"Ġoperis":3530,"Ġproposi":3531,"Ġasser":3532,"Ġromani":3533,"Ġexcus":3534,"Ġseni":3535,"Ġglori":3536,"Ġlegitim":3537,"Ġpietatis":3538,"ibi":3539,"rix":3540,"Ġposter":3541,"Ġexal":3542,"Ġdebere":3543,"Ġafric":3544,"crib":3545,"Ġdefec":3546,"Ġtali":3547,"Ġceleb":3548,"Ġnumerus":3549,"uitatis":3550,"torem":3551,"Ġdicentes":3552,"cr":3553,"Ġinjur":3554,"Ġful":3555,"Ġiussit":3556,"Ġtes":3557,"Ġcontemn":3558,"Ġnolite":3559,"eu":3560,"ciper":3561,"Ġconcep":3562,"Ġfiliorum":3563,"Ġamor":3564,"Ġpoena":3565,"Ġexaud":3566,"Ġdispens":3567,"Ġcarc":3568,"Ġna":3569,"Ġxii":3570,"Ġaquae":3571,"Ġsedem":3572,"Ġnox":3573,"Ġfratrum":3574,"Ġaquam":3575,"Ġaltare":3576,"hic":3577,"Ġge":3578,"Ġpace":3579,"Ġtemper":3580,"rorum":3581,"Ġsensu":3582,"Ġinterim":3583,"Ġhaud":3584,"Ġasper":3585,"lam":3586,"ditus":3587,"Ġcredere":3588,"Ġhumanae":3589,"Ġremo":3590,"Ġexpos":3591,"inas":3592,"Ġexist":3593,"Ġindulg":3594,"tura":3595,"Ġdepos":3596,"Ġcub":3597,"Ġioannis":3598,"ona":3599,"Ġfutura":3600,"Ġsacra":3601,"Ġperseuer":3602,"Ġpoll":3603,"Ġfestin":3604,"Ġaccipere":3605,"Ġiustum":3606,"ominus":3607,"Ġinuis":3608,"uentum":3609,"Ġperuen":3610,"Ġscand":3611,"Ġsempiter":3612,"ulerunt":3613,"Ġiudaei":3614,"Ġanath":3615,"Ġprophetae":3616,"Ġquadam":3617,"Ġofficio":3618,"ommunic":3619,"Ġinqui":3620,"Ġepiscoporum":3621,"Ġpu":3622,"Ġdeclin":3623,"Ġdebeat":3624,"Ġaudire":3625,"Ġhisp":3626,"Ġuine":3627,"uitas":3628,"atque":3629,"Ġspes":3630,"Ġmonte":3631,"ensum":3632,"Ġquer":3633,"Ġuidet":3634,"Ġuiui":3635,"Ġigne":3636,"asci":3637,"Ġtrig":3638,"Ġemend":3639,"Ġcrucif":3640,"auc":3641,"dix":3642,"Ġhosp":3643,"Ġnimis":3644,"isci":3645,"Ġfuerant":3646,"Ġgubern":3647,"Ġtale":3648,"Ġexercitu":3649,"Ġpossib":3650,"Ġsteph":3651,"Ġexplic":3652,"Ġfrag":3653,"Ġfilia":3654,"Ġuiginti":3655,"Ġprorsus":3656,"Ġluna":3657,"Ġromanae":3658,"Ġbenign":3659,"Ġinfra":3660,"psit":3661,"Ġmagister":3662,"Ġdecern":3663,"Ġaudit":3664,"mar":3665,"Ġath":3666,"Ġrede":3667,"Ġuniuersa":3668,"Ġciuitas":3669,"Ġsatur":3670,"mina":3671,"Ġuestig":3672,"Ġster":3673,"Ġignem":3674,"Ġreuers":3675,"Ġgloriae":3676,"utio":3677,"Ġquum":3678,"Ġmeritis":3679,"Ġtriumph":3680,"Ġfructum":3681,"Ġ+":3682,"Ġconfus":3683,"Ġfratern":3684,"Ġaquil":3685,"Ġiudicii":3686,"Ġsaltem":3687,"oec":3688,"Ġcontum":3689,"tiorum":3690,"Ġprosper":3691,"turus":3692,"Ġuestim":3693,"Ġhabemus":3694,"Ġmecum":3695,"Ġinterpretatur":3696,"Ġnouum":3697,"Ġterris":3698,"eam":3699,"Ġinfin":3700,"Ġum":3701,"Ġdicam":3702,"Ġsublim":3703,"Ġconuenit":3704,"arios":3705,"Ġreligionis":3706,"Ġnuncup":3707,"Ġimb":3708,"Ġloqui":3709,"Ġfals":3710,"ela":3711,"ariam":3712,"Ġsax":3713,"asque":3714,"ropter":3715,"Ġconting":3716,"apropter":3717,"Ġlegimus":3718,"Ġanathem":3719,"Ġanimus":3720,"Ġactu":3721,"Ġturp":3722,"Ġomnipotens":3723,"Ġsupplic":3724,"Ġtotam":3725,"Ġaliquam":3726,"Ġspe":3727,"Ġexcell":3728,"retur":3729,"Ġmetu":3730,"Ġplen":3731,"ah":3732,"Ġuiuit":3733,"plex":3734,"Ġincor":3735,"Ġexcommunic":3736,"Ġdiscre":3737,"Ġdiligenter":3738,"Ġuirgo":3739,"Ġordo":3740,"Ġlucem":3741,"Ġpatet":3742,"Ġmanifest":3743,"Ġimperium":3744,"Ġdeduc":3745,"Ġpauli":3746,"raque":3747,"Ġsolet":3748,"Ġcredit":3749,"ĠÎµÎº":3750,"Ġdubio":3751,"Ġung":3752,"Ġpraedestin":3753,"Ġuolumus":3754,"Ġbab":3755,"Ġliceat":3756,"Ġconsenti":3757,"Ġintus":3758,"Ġregum":3759,"Ġdocet":3760,"Ġrub":3761,"Ġconclus":3762,"Ġsat":3763,"Ġdiabolus":3764,"tasse":3765,"uissent":3766,"Ġoratio":3767,"Ġaugustinus":3768,"Î¹Î½":3769,"Î±Î»":3770,"timus":3771,"Ġiuris":3772,"cia":3773,"Ġmateria":3774,"Ġquarum":3775,"Ġeamdem":3776,"hor":3777,"Ġmillia":3778,"Ġsimilitudinem":3779,"Ġnoua":3780,"Ġsolemn":3781,"Ġioseph":3782,"tric":3783,"itatum":3784,"Ġangelus":3785,"Ġnunti":3786,"Ġiura":3787,"tent":3788,"adis":3789,"eatur":3790,"Ġexcel":3791,"ÎµÎ¹Î½":3792,"Ġhabes":3793,"Ġbello":3794,"Ġmatris":3795,"Ġnumerum":3796,"peti":3797,"Ġremiss":3798,"Ġcentum":3799,"eus":3800,"Ġdere":3801,"Ġtuos":3802,"eriis":3803,"ueret":3804,"Ġexemplo":3805,"lix":3806,"eram":3807,"Ġperi":3808,"tica":3809,"uar":3810,"elix":3811,"Ġseptu":3812,"Ġcharitas":3813,"Ġfinis":3814,"uram":3815,"Ġimmort":3816,"Ġdormi":3817,"Ġnullam":3818,"Ġtimore":3819,"Ġistis":3820,"Ġlang":3821,"ichae":3822,"ago":3823,"Â·":3824,"Î¹Îº":3825,"Ġcorrig":3826,"Ġproprie":3827,"Ġfacult":3828,"Ġisto":3829,"Ġpatriarch":3830,"Ġuiros":3831,"Ġrh":3832,"Ġprimi":3833,"unda":3834,"Ġabstin":3835,"aci":3836,"ĠÎ»":3837,"demn":3838,"ustra":3839,"quisi":3840,"red":3841,"Ġfornic":3842,"eunt":3843,"ellum":3844,"Ġaduent":3845,"ger":3846,"Ġuoluntatis":3847,"Ġprocur":3848,"Ġinduc":3849,"Ġdicatur":3850,"cam":3851,"Ġuent":3852,"Ġpraesens":3853,"antum":3854,"Ġmedium":3855,"Ġinsign":3856,"Ġintenti":3857,"Ġnil":3858,"Ġinh":3859,"ariae":3860,"Ġrecon":3861,"asph":3862,"Ġopt":3863,"Ġdisper":3864,"me":3865,"Ġnef":3866,"Ġsump":3867,"Ġquinqu":3868,"hoc":3869,"Ġdeos":3870,"Ġuideb":3871,"enses":3872,"Ġdicebat":3873,"Ġprope":3874,"Ġtang":3875,"Ġsepulc":3876,"Ġspeciem":3877,"Ġdona":3878,"Ġbabyl":3879,"Ġiudaeis":3880,"Ġfacie":3881,"hort":3882,"Ġtria":3883,"Ġprincipium":3884,"Ġobsequ":3885,"Ġdebent":3886,"Ġaci":3887,"Ġnic":3888,"Ġom":3889,"Ġtranse":3890,"Ġnouit":3891,"Ġuideri":3892,"Ġtribu":3893,"Ġcastra":3894,"Ġsapientiam":3895,"ide":3896,"Ġcredimus":3897,"uem":3898,"Ġimple":3899,"Ġcharitatis":3900,"iud":3901,"tarum":3902,"Ġdeprec":3903,"Ġeph":3904,"Ġpetro":3905,"Ġcic":3906,"entias":3907,"issimis":3908,"ostes":3909,"Ġare":3910,"Ġnecessitate":3911,"Ġaeternae":3912,"Ġdefer":3913,"Ġhil":3914,"Ġuirginis":3915,"Ġinferi":3916,"Ġsid":3917,"Ġradic":3918,"Ġuiribus":3919,"Ġmoyses":3920,"Ġueniam":3921,"pere":3922,"Ġeli":3923,"Ġuiris":3924,"bris":3925,"Ġcommunic":3926,"Ġsuspic":3927,"Ġimaginem":3928,"Ġpraesentia":3929,"Ġprofess":3930,"Ġpene":3931,"Ġdiuino":3932,"Ġerga":3933,"Ġmagnific":3934,"aei":3935,"Ġiuss":3936,"Ġcondit":3937,"Ġdissim":3938,"Ġpic":3939,"Ġub":3940,"Ġprophetam":3941,"Ġnaui":3942,"jec":3943,"Ġtyr":3944,"Ġplag":3945,"Ġdiuersis":3946,"Ġhabeant":3947,"Ġdiuersa":3948,"Ġuirtutibus":3949,"Ġabl":3950,"Ġnecessaria":3951,"tot":3952,"Ġsaluatoris":3953,"inter":3954,"Ġecclesiis":3955,"Ġdignum":3956,"Ġapostolicam":3957,"ÎµÎ»":3958,"aut":3959,"oniam":3960,"Ġcolleg":3961,"Ġdixerit":3962,"Ġmense":3963,"Ġline":3964,"Ġplenit":3965,"Ġmemoria":3966,"epistol":3967,"tifex":3968,"Ġsacris":3969,"Ġreprob":3970,"Ġinsid":3971,"Ġueluti":3972,"Ġepiscopos":3973,"Ġdiscipulis":3974,"Î·Ïĥ":3975,"Ġuulg":3976,"Ġgraui":3977,"Ġabbatis":3978,"atiua":3979,"Ġcollec":3980,"Ġcatholicae":3981,"anas":3982,"Ġfat":3983,"Ġseruorum":3984,"udinis":3985,"Ġueli":3986,"Ġadduc":3987,"Ġuoluerit":3988,"idis":3989,"Ġpraecepit":3990,"ĠÎ´Îµ":3991,"Ġpisc":3992,"Ġintelligere":3993,"Ġfecerit":3994,"Ġsubstantiam":3995,"Ġsede":3996,"Ġreliqua":3997,"Ġsatisfac":3998,"Ġlibris":3999,"sign":4000,"Ġiuste":4001,"ras":4002,"Ġcondemn":4003,"itudinis":4004,"Ġpretios":4005,"Ġblasph":4006,"ith":4007,"Ġadol":4008,"Ġfideles":4009,"Ġuestro":4010,"Ġua":4011,"urus":4012,"escat":4013,"Ġmel":4014,"Ġnequi":4015,"Ġbonae":4016,"Ġprouoc":4017,"Ġaliquod":4018,"Ġquoc":4019,"Ġutraque":4020,"Ġparum":4021,"Ġadju":4022,"Ġpersequ":4023,"Ġdefunc":4024,"Ġinimici":4025,"Ġinuenit":4026,"Ġinuoc":4027,"Ġsaep":4028,"eremus":4029,"Ġexercitus":4030,"Ġpraeceptum":4031,"nas":4032,"Ġplena":4033,"Ġnescio":4034,"Ġinquam":4035,"ensa":4036,"Ġix":4037,"Ġfortasse":4038,"Ġrecord":4039,"ertim":4040,"Ġpropriet":4041,"Ġtecum":4042,"clam":4043,"erea":4044,"Ġconcilio":4045,"Ġfun":4046,"Ġdeinceps":4047,"Ġcomed":4048,"acta":4049,"Ġfidelibus":4050,"Ġinclin":4051,"Ġelem":4052,"Ġsug":4053,"Ġqualis":4054,"Ġfieret":4055,"Ġnouem":4056,"Ġmagnus":4057,"Ġanimas":4058,"Ġdicis":4059,"Ġinitio":4060,"Ġcomes":4061,"Ġassump":4062,"Ġauer":4063,"Ġpi":4064,"Ġtalem":4065,"ule":4066,"Ġexprim":4067,"undus":4068,"Ġdiaboli":4069,"Ġfacto":4070,"Ġplura":4071,"Ġmou":4072,"esim":4073,"Ġsuc":4074,"Ġinsuper":4075,"mine":4076,"Ġconfid":4077,"ilium":4078,"Ġuill":4079,"Ġmane":4080,"Ġprem":4081,"iri":4082,"Ġactus":4083,"Ġdispon":4084,"Ġauxilium":4085,"Ġdioec":4086,"Ġsolo":4087,"Ġluce":4088,"Ġton":4089,"toribus":4090,"atenus":4091,"Ġsubstantiae":4092,"Ġber":4093,"Ġnoli":4094,"yri":4095,"Ġdiuinis":4096,"Ġmatrem":4097,"Ġrursum":4098,"Ġtec":4099,"Î¿Î»":4100,"Ġuersus":4101,"tatur":4102,"Ġtemporum":4103,"Ġpedibus":4104,"Ġintegr":4105,"Ġpotestas":4106,"lae":4107,"Ġinteri":4108,"Ġconui":4109,"abilia":4110,"ote":4111,"Ġgenuit":4112,"Ġsemen":4113,"ustri":4114,"Ġuisi":4115,"Ġblasphem":4116,"aculo":4117,"Ġfore":4118,"Ġfalsa":4119,"Ġunquam":4120,"Ġabst":4121,"Ġmorta":4122,"Ġdistinc":4123,"Ġromam":4124,"Ġpropon":4125,"Ġsubscrips":4126,"undo":4127,"Ġforis":4128,"Ġfecerunt":4129,"Ġascendit":4130,"Ġperuers":4131,"Ġquisquam":4132,"cae":4133,"Ġdirig":4134,"Ġperg":4135,"Ġintelligitur":4136,"Ġsimilis":4137,"Ġantea":4138,"Ġobscur":4139,"Ġorbis":4140,"Ġnostros":4141,"Ġproprio":4142,"Ġsynod":4143,"Ġstu":4144,"Ġtuorum":4145,"Ġinop":4146,"Ġplane":4147,"Ġcuram":4148,"Ġmemoriae":4149,"Ġistam":4150,"Ġarmis":4151,"Ġsacramentum":4152,"liber":4153,"Ġnobil":4154,"ba":4155,"Ġmagni":4156,"Ġprecibus":4157,"Ġuinum":4158,"Ġgu":4159,"Ġmaris":4160,"Ġtalibus":4161,"Ġimperii":4162,"ebam":4163,"thag":4164,"errim":4165,"Ġuex":4166,"post":4167,"Ġsanguinis":4168,"aciter":4169,"Ġsacrificium":4170,"Ġleges":4171,"Ġaures":4172,"Ġdog":4173,"Ġpanem":4174,"Ġproduc":4175,"Ġminor":4176,"Ġaurum":4177,"Ġcolloc":4178,"Ġaffer":4179,"Ġillustr":4180,"Ġphili":4181,"Ġdidic":4182,"Ġculpa":4183,"ĠÎ¿Ïħ":4184,"Ġsubito":4185,"cor":4186,"Ġlibri":4187,"Ġecclesiarum":4188,"Ġscientiam":4189,"urum":4190,"Ġconstantinop":4191,"Ġfic":4192,"ellam":4193,"Ġuitia":4194,"Ġdedi":4195,"ximus":4196,"amini":4197,"onium":4198,"eta":4199,"Ġmeos":4200,"Ġalicuius":4201,"andae":4202,"tris":4203,"Ġtenebris":4204,"osi":4205,"Ġfluc":4206,"Ġcolumb":4207,"Ġimpiet":4208,"arus":4209,"ellae":4210,"Ġtransl":4211,"Ġquisquis":4212,"Ġperpetuum":4213,"irent":4214,"Ġcommiss":4215,"erumque":4216,"ello":4217,"Ġdesper":4218,"Ġdicente":4219,"Ġoratione":4220,"Ġtotus":4221,"Ġidus":4222,"Ġlibid":4223,"Ġcoelis":4224,"Ġdiei":4225,"Ġgenera":4226,"Ġdescendit":4227,"Ġresurg":4228,"ĠÏĦÎ·Î½":4229,"Ġtradi":4230,"Ġcoen":4231,"Ġuolo":4232,"Ġquaerit":4233,"Ġobsec":4234,"Ġmemoriam":4235,"Ġdeput":4236,"Ġannorum":4237,"Ġfidelis":4238,"Ġcertam":4239,"Ġthesaur":4240,"Ġsubdi":4241,"ardus":4242,"Ġimpossi":4243,"Ġhabitat":4244,"Ġand":4245,"Ġire":4246,"utionis":4247,"Ġoculi":4248,"Ġiubet":4249,"Ġordinis":4250,"Ġtyrann":4251,"Ġdoctrinam":4252,"Ġpaul":4253,"Ġmandata":4254,"Ġnota":4255,"Ġiob":4256,"Ġ..":4257,"sae":4258,"otus":4259,"Ġperhib":4260,"Ġpraefec":4261,"Ġpraesertim":4262,"Ġnit":4263,"Ġistud":4264,"Ġludo":4265,"Ġfrustra":4266,"Ġleu":4267,"Ġcommuni":4268,"achi":4269,"Ġmonstr":4270,"ĠÏĦÏīÎ½":4271,"Ġuerborum":4272,"Ġquapropter":4273,"Ġteg":4274,"Ġreliqui":4275,"fi":4276,"Ġpraesentis":4277,"Ġideoque":4278,"Ġistius":4279,"udum":4280,"Ġdispos":4281,"Ġeuid":4282,"andos":4283,"Ġcoelorum":4284,"roque":4285,"Ġutriusque":4286,"Ġpetrum":4287,"Ġfiduci":4288,"eles":4289,"ÏĦÎ¹":4290,"Ġlug":4291,"Ġpartic":4292,"ensium":4293,"onius":4294,"Ġpostr":4295,"Ġduae":4296,"Ġimmo":4297,"Î±Ïĥ":4298,"Ġsuffrag":4299,"Ġreced":4300,"Ġobst":4301,"uch":4302,"Ġmanet":4303,"illel":4304,"Ġhaberet":4305,"Ġinfl":4306,"Ġtorm":4307,"Ġtertium":4308,"ĠÂ":4309,"Ġreman":4310,"Î¿Î¹ÏĤ":4311,"Ġmoribus":4312,"Ġmetrop":4313,"Ġmedit":4314,"Ġaliquem":4315,"Ġueniens":4316,"Ġmalorum":4317,"Ġorbem":4318,"Ġingredi":4319,"ellus":4320,"Ġquadr":4321,"Ġsuscepit":4322,"aeus":4323,"Ġxi":4324,"Ġquadraginta":4325,"Ġcommo":4326,"olo":4327,"Ġangelis":4328,"usc":4329,"Ġoccis":4330,"emos":4331,"Ġterrarum":4332,"Ġuetus":4333,"Ġmanifestum":4334,"Ġprout":4335,"ocin":4336,"Ġlumine":4337,"Ġoperum":4338,"Ġpluribus":4339,"Ġdominicae":4340,"Ġpropriis":4341,"Ġinnum":4342,"Ġscientiae":4343,"Ġeuangelii":4344,"Ġcito":4345,"Ġmartyris":4346,"hinc":4347,"tinum":4348,"Ġperduc":4349,"ĠÏĦÎ¿":4350,"Ġhumani":4351,"Ġsermonem":4352,"Ġhy":4353,"Ġcharitate":4354,"Ġdulc":4355,"Ġgenit":4356,"Ġscripsit":4357,"Ġtemplo":4358,"Ġuires":4359,"prom":4360,"Ġaltitud":4361,"Ġintim":4362,"Ġprincipis":4363,"otum":4364,"Ġtransfer":4365,"ibilis":4366,"Ġfati":4367,"Ġbis":4368,"Ġflam":4369,"Ġmaxima":4370,"ionum":4371,"Ġuenerunt":4372,"Ġleui":4373,"Ġedi":4374,"Ġdatum":4375,"esi":4376,"Ġincipi":4377,"iliter":4378,"Ġuend":4379,"orte":4380,"Ġsacerdotum":4381,"Ġgest":4382,"Ġsaluator":4383,"Ġannunti":4384,"aniae":4385,"tissima":4386,"Ġmartyrum":4387,"Ġgaudium":4388,"Ġperturb":4389,"cui":4390,"Ġsummo":4391,"Ġprodi":4392,"Ġeisdem":4393,"Ġdiuinitatis":4394,"etus":4395,"uero":4396,"bo":4397,"Ġfas":4398,"ĠÎ¸Îµ":4399,"epistola":4400,"Ġuesper":4401,"Ġplacet":4402,"Ġuast":4403,"ioni":4404,"Ġretrib":4405,"orsum":4406,"auerat":4407,"Ġcausas":4408,"Ġtoti":4409,"acia":4410,"Ġquosdam":4411,"inos":4412,"Ġpossent":4413,"Ġangelorum":4414,"Ġdoctrinae":4415,"Ġexsult":4416,"Ġtribun":4417,"Ġpsalmis":4418,"Ġhabentes":4419,"sam":4420,"Ġdefend":4421,"uunt":4422,"Ġchal":4423,"Ġfacies":4424,"Ġdestin":4425,"Ġtriginta":4426,"rii":4427,"Ġpsalmo":4428,"Ġgladio":4429,"Ġmensis":4430,"Ġsalub":4431,"Ġmunere":4432,"Ġhostes":4433,"Ġora":4434,"Ġtuas":4435,"Ġadha":4436,"Ġdiabolo":4437,"ectus":4438,"Ġlup":4439,"Ġlabore":4440,"Ġdistric":4441,"Ġdescrib":4442,"erim":4443,"Ġintellectum":4444,"Ġinteg":4445,"Ġinsin":4446,"Ġpostmodum":4447,"Ġcapi":4448,"Ġfini":4449,"Ġmemin":4450,"Ġitali":4451,"Ġrig":4452,"Ġcent":4453,"Ġpastor":4454,"idium":4455,"istit":4456,"Ġmaiorem":4457,"Ġmere":4458,"Ġimperio":4459,"Ġtantummodo":4460,"Ġdonum":4461,"umentum":4462,"Ġromanorum":4463,"Ġmontem":4464,"Ġuxor":4465,"abus":4466,"uio":4467,"aturus":4468,"Ġcalc":4469,"escunt":4470,"Ġanimos":4471,"Ġcommod":4472,"Ġsocr":4473,"Ġsolid":4474,"Ġimpon":4475,"Ġlit":4476,"uncta":4477,"Ġsubstanti":4478,"Ġpraecipue":4479,"Ġpersonam":4480,"Ġiudices":4481,"dique":4482,"Ġsalute":4483,"Ġproinde":4484,"sequi":4485,"Ġscr":4486,"Ġuideo":4487,"Ġmerce":4488,"ĠâĢ":4489,"Ġpontifex":4490,"Ġincend":4491,"Ġconsor":4492,"Ġcorr":4493,"Ġintellectu":4494,"iuit":4495,"Ġleo":4496,"Ġreduc":4497,"Ġuisum":4498,"Ġnumer":4499,"Ġseptuaginta":4500,"amenta":4501,"Ġmarc":4502,"Ġfratri":4503,"ĠÏĨ":4504,"Ġfratris":4505,"Ġpend":4506,"Ġmoy":4507,"Ġauari":4508,"Ġfaciam":4509,"Ġtoler":4510,"Ġruin":4511,"erosol":4512,"Ġorationem":4513,"Ġaperte":4514,"Ġuelit":4515,"Ġhae":4516,"Ġuerus":4517,"Ġeuangelic":4518,"Ġgesta":4519,"Ġtenet":4520,"ticum":4521,"Ġadministr":4522,"Ġcardinalis":4523,"Ġaetate":4524,"Ġresurrectionem":4525,"Ġaem":4526,"Ġuan":4527,"Ġconiug":4528,"Ġcreatura":4529,"Ġscripturarum":4530,"Ġilluc":4531,"pso":4532,"Ġmunera":4533,"Ġlaudem":4534,"Ġmirum":4535,"emosy":4536,"Ġsanctam":4537,"Ġtom":4538,"tex":4539,"Ġtempest":4540,"tino":4541,"Ġsym":4542,"Ġaliena":4543,"aco":4544,"Ġpelag":4545,"Ġscio":4546,"Ġapostolis":4547,"Ġeiusque":4548,"Ġmoritur":4549,"Ġaduersum":4550,"tinam":4551,"Ġcalum":4552,"Ġpeper":4553,"Ġsanguis":4554,"hab":4555,"Ġhieron":4556,"¿½":4557,"ï¿½":4558,"Ġanimarum":4559,"lio":4560,"Ġimmol":4561,"Ġexpedi":4562,"decim":4563,"Ġcausis":4564,"Ġopportun":4565,"Ġdiligit":4566,"Ġincrep":4567,"Ġadolesc":4568,"Ġapostolum":4569,"Ġundique":4570,"Ġinitium":4571,"uf":4572,"umenta":4573,"Ġlxx":4574,"Ġresp":4575,"Ġimperatoris":4576,"Ġhabetur":4577,"olus":4578,"Ġusur":4579,"datum":4580,"Ġmortuis":4581,"orus":4582,"Ġuiuific":4583,"xi":4584,"Ġillas":4585,"his":4586,"Ġsati":4587,"Ġconuen":4588,"Ġmom":4589,"Ġapparuit":4590,"Ġappare":4591,"Ġintu":4592,"Ġfigura":4593,"Ġsupers":4594,"Ġusum":4595,"Ġadim":4596,"Ġaccess":4597,"Ġxu":4598,"Î»Î·":4599,"Ġtradidit":4600,"til":4601,"Ġactum":4602,"Ġapprob":4603,"Ġfaceret":4604,"Ġpronunti":4605,"Ġperuenit":4606,"Ġmille":4607,"Ġpoenam":4608,"Ġglorific":4609,"Ġeleemosy":4610,"rius":4611,"Ġoppos":4612,"Ġcompon":4613,"Ġdiscipuli":4614,"Ġtestamenti":4615,"Ġpollic":4616,"Ġmisericordiae":4617,"Ġosc":4618,"Ġrespic":4619,"Ġterm":4620,"tice":4621,"Ġcausae":4622,"Ġlatere":4623,"Ġquaeque":4624,"Ġiudex":4625,"Ġnecessarium":4626,"Ġassid":4627,"Ġpassionis":4628,"Ġoperatur":4629,"Ġrus":4630,"Ġcontraria":4631,"Ġuenerabilis":4632,"Ġtestatur":4633,"onio":4634,"ogn":4635,"Ġplerumque":4636,"Ġeduc":4637,"hiae":4638,"Ġdissol":4639,"erebat":4640,"Ġcircumcis":4641,"ocr":4642,"dixit":4643,"Ġprimis":4644,"Ġlucius":4645,"Ġmunus":4646,"ins":4647,"ensus":4648,"quem":4649,"Ġadop":4650,"Ġfalsum":4651,"Ġfrancorum":4652,"Ġcomper":4653,"ilibus":4654,"Ġplacuit":4655,"Ġcatholica":4656,"Ġsig":4657,"Ġgraeci":4658,"Ġsimpliciter":4659,"Ġapostolo":4660,"Ġinser":4661,"Ġlaet":4662,"Ġsolent":4663,"tenus":4664,"Ġquantit":4665,"ÏĦÎµ":4666,"Ġhabeo":4667,"Ġpanis":4668,"onibus":4669,"ĠÎ¹":4670,"Ġsingula":4671,"mur":4672,"Ġamorem":4673,"Ġpraecipi":4674,"entii":4675,"Ġuellet":4676,"Ġtanti":4677,"Ġmilit":4678,"rump":4679,"Ġuirgine":4680,"Ġaduer":4681,"tigit":4682,"insec":4683,"Ġplant":4684,"Ġdierum":4685,"Ġtrem":4686,"Ġcorporum":4687,"Ġuidemus":4688,"Ġintellex":4689,"Ġdiscern":4690,"Ġfama":4691,"Ġly":4692,"Ġcontinuo":4693,"Ġaristot":4694,"aron":4695,"Ġetiamsi":4696,"Ġlatit":4697,"Ġantec":4698,"Ġapparet":4699,"Ġimmin":4700,"Ġauro":4701,"Ġbenedictionem":4702,"lorum":4703,"Ġsene":4704,"Ġsedes":4705,"aug":4706,"Ġmysterium":4707,"Ġmos":4708,"etum":4709,"Ġplurimum":4710,"ĠÎµÏĢÎ¹":4711,"Ġbelli":4712,"Ġconstituit":4713,"Ġbreui":4714,"Ġuali":4715,"Ġpeccatores":4716,"uir":4717,"nunc":4718,"iudic":4719,"Ġsord":4720,"Ġintend":4721,"Ġgrat":4722,"ymis":4723,"titis":4724,"Ġuirgin":4725,"Ġdiaconus":4726,"Ġcrucifix":4727,"Ġreb":4728,"Ġoues":4729,"Ġferi":4730,"itatus":4731,"Ġinuenitur":4732,"aeque":4733,"Ġpassus":4734,"po":4735,"ittitur":4736,"ĠÎºÎ±ÏĦ":4737,"Ġcredo":4738,"Ġcalam":4739,"Ġmultitudo":4740,"Ġfesti":4741,"estus":4742,"Ġutroque":4743,"itione":4744,"Ġpern":4745,"Ġ/":4746,"Ġtul":4747,"Ġhorr":4748,"Ġaltero":4749,"Ġrespons":4750,"Ġmilites":4751,"Ġpersonae":4752,"itorum":4753,"osque":4754,"tib":4755,"Ġaquis":4756,"Ġposteri":4757,"sub":4758,"Ġobsid":4759,"Ġmandatum":4760,"Ġmontes":4761,"ser":4762,"Ġuidi":4763,"uitu":4764,"Ġputant":4765,"Ġquicumque":4766,"Ġfrequenter":4767,"Ġmultorum":4768,"Ġuideretur":4769,"Ġpaucis":4770,"usa":4771,"Ġseuer":4772,"Ġmembris":4773,"Ġegreg":4774,"Ġlibera":4775,"diu":4776,"Ġapri":4777,"Ġdogm":4778,"Ġcastit":4779,"Ġabsit":4780,"Ġradi":4781,"Ġdictus":4782,"Ġsapiens":4783,"Ġcerta":4784,"Ġinstrum":4785,"Ġauctoritatem":4786,"Ġcommune":4787,"Ġpatribus":4788,"Ġanci":4789,"Ġmatth":4790,"uistis":4791,"Ġnostras":4792,"itte":4793,"Ġuisc":4794,"Ġexer":4795,"Ġduabus":4796,"empe":4797,"Ġadf":4798,"Ġaduentum":4799,"Ġuisit":4800,"Ġsalus":4801,"Ġuocant":4802,"Ġlibrum":4803,"Ġscripturis":4804,"Ġsemin":4805,"Ġpotestatis":4806,"Ġmores":4807,"petit":4808,"Ġturba":4809,"issem":4810,"Ġsinc":4811,"Ġpascha":4812,"Ġnatum":4813,"Ġchristiani":4814,"Î¿ÏħÏĤ":4815,"Ġcontenti":4816,"Ġuides":4817,"Ġueram":4818,"erimus":4819,"decess":4820,"Ġxiii":4821,"Ġallel":4822,"Ġferu":4823,"ulare":4824,"Ġuolum":4825,"Ġquaecunque":4826,"Ġmaius":4827,"Ġpenet":4828,"uria":4829,"Ġdistrib":4830,"Ġsyl":4831,"Ġregna":4832,"Ġlibros":4833,"Ġremedi":4834,"Ġformid":4835,"Ġlacrym":4836,"Ġpossum":4837,"Ġconscientia":4838,"Ġdemum":4839,"Ġposita":4840,"Ġprocess":4841,"Ġspoli":4842,"Ġquarta":4843,"Ġuirorum":4844,"Ġamar":4845,"Ġinquir":4846,"Ġparc":4847,"Ġexempla":4848,"ebi":4849,"Ġparadis":4850,"Ġueniat":4851,"ĠÏĢÏģÎ¿":4852,"Ġpertinere":4853,"Ġtempli":4854,"ÏģÎ±":4855,"Ġaetatis":4856,"Ġauctoritas":4857,"Ġcarthag":4858,"Ġuocat":4859,"Ġhostis":4860,"Ġmissus":4861,"leta":4862,"Ġcharitatem":4863,"Ġstudium":4864,"Ġdeorum":4865,"Ġperfecta":4866,"Ġfugi":4867,"Ġanimad":4868,"Ġlibenter":4869,"ĠÏĦÎ±":4870,"Ġmonst":4871,"Ġbella":4872,"Ġgrad":4873,"Ġsanctos":4874,"Ġrum":4875,"Ġerub":4876,"Ġconfund":4877,"Ġluci":4878,"Ġincipit":4879,"Ġciuitates":4880,"aculis":4881,"Ġunitatem":4882,"Ġfatig":4883,"Ġpueri":4884,"Ġpess":4885,"iderit":4886,"Ġcordibus":4887,"Ġterrena":4888,"Ġhostium":4889,"Ġsacrileg":4890,"Ġsiti":4891,"abor":4892,"Ġmigne":4893,"Ġcontumeli":4894,"Ġarte":4895,"Ġcau":4896,"Ġtranqu":4897,"Ġhyp":4898,"Ġiah":4899,"ĠÏĢÎ±Ïģ":4900,"Ġfuturo":4901,"Ġsubscripsi":4902,"Ġappellatur":4903,"aribus":4904,"amento":4905,"Ġtrinitatis":4906,"Ġrot":4907,"Ġprael":4908,"Ġepistolam":4909,"Ġadjutor":4910,"Ġmateri":4911,"quebatur":4912,"Ġexteri":4913,"Ġuenerit":4914,"Ġdefici":4915,"Ġuitiis":4916,"Ġregula":4917,"Ġexalt":4918,"Ġmach":4919,"Ġpublica":4920,"Ġconsue":4921,"Ġdiuini":4922,"Ġsupr":4923,"tissimo":4924,"Ġnobiscum":4925,"Ġsponte":4926,"cin":4927,"Ġfortis":4928,"cons":4929,"Ġine":4930,"Ġscit":4931,"Ġpalm":4932,"uaric":4933,"Ġss":4934,"Ġram":4935,"Ġdecep":4936,"Ġcolum":4937,"Ġiram":4938,"Ġtransm":4939,"Ġros":4940,"Ġueloc":4941,"Ġhactenus":4942,"riae":4943,"Ġdig":4944,"Ġsion":4945,"issis":4946,"Ġconspic":4947,"Ġuidens":4948,"Ġexcit":4949,"Ġiuc":4950,"Ġullo":4951,"Ġmalign":4952,"Ġdirec":4953,"Ġsaeculorum":4954,"Ġaegr":4955,"Ġpuni":4956,"Ġfructu":4957,"Ġresurrectionis":4958,"Ġurg":4959,"Ġuota":4960,"Ġingressus":4961,"Ġeffectus":4962,"Ġlegibus":4963,"Ġfecisse":4964,"Ġaliae":4965,"Ġnata":4966,"Ġaquas":4967,"Ġimprob":4968,"oto":4969,"Ġpraecipit":4970,"Ġiudicia":4971,"Ġistum":4972,"Ġnihilominus":4973,"entissime":4974,"Ġagitur":4975,"Ġpopulis":4976,"Ġpropositum":4977,"Ġperdi":4978,"misit":4979,"Ġzel":4980,"âŁ":4981,"atia":4982,"Ġcetera":4983,"Ġcreditur":4984,"Ġorbe":4985,"Ġmagnam":4986,"Ġdictis":4987,"Ġcommut":4988,"Ġimmut":4989,"Ġinui":4990,"esimo":4991,"arr":4992,"Ġactibus":4993,"Ġtex":4994,"Ġconcilium":4995,"Ġmys":4996,"ÎµÏħ":4997,"Ġfabric":4998,"Ġpraeuaric":4999,"Ġscripturae":5000,"Ġidone":5001,"Ġdolore":5002,"Ġusu":5003,"Ġsubl":5004,"pa":5005,"Ġaest":5006,"aequ":5007,"Ġsaeculum":5008,"Ġsaepius":5009,"Ġpris":5010,"Ġtenere":5011,"Ġhec":5012,"Ġtransi":5013,"Ġpotes":5014,"Ġdetermin":5015,"Ġfacilius":5016,"Ġoct":5017,"Ġafflic":5018,"Ġuag":5019,"Ġingress":5020,"Ġhere":5021,"Ġpraedecess":5022,"ÎµÎ³":5023,"Ġutero":5024,"Ġceteris":5025,"ariorum":5026,"Ġidol":5027,"Ġsod":5028,"Ġcertum":5029,"urrit":5030,"Ġintrod":5031,"acum":5032,"itionem":5033,"Ġuenerabili":5034,"Ġpreces":5035,"Ġdisting":5036,"enes":5037,"etas":5038,"Ġquicunque":5039,"Ġambig":5040,"Ġlitterarum":5041,"ĠÏĩ":5042,"Ġproiec":5043,"actus":5044,"Ġastr":5045,"Ġmatrim":5046,"Ġuidebatur":5047,"Ġic":5048,"ister":5049,"Ġaffectu":5050,"Ġnuper":5051,"Ġdixisse":5052,"Ġbeatissim":5053,"Ġerrore":5054,"Ġtemere":5055,"Ġmedia":5056,"Ġabrahae":5057,"turam":5058,"Ġpuls":5059,"Ġfiant":5060,"Ġrepugn":5061,"Ġsugg":5062,"Ġpetit":5063,"Ġpossibile":5064,"Ġdignitate":5065,"Ġcin":5066,"Ġdubium":5067,"Ġinterdum":5068,"ich":5069,"Ġhumanum":5070,"Ġsynodo":5071,"Ġiusta":5072,"equ":5073,"Ġiniquitatem":5074,"Ġsole":5075,"Ġpun":5076,"Ġreuert":5077,"Ġredim":5078,"Ġprincipem":5079,"enos":5080,"Ġmeas":5081,"Ġsuperbia":5082,"Ġprotec":5083,"Ġnempe":5084,"Ġsob":5085,"Ġperag":5086,"Ġperfic":5087,"Ġsenex":5088,"Ġnunquid":5089,"Ġeffici":5090,"Ġnascitur":5091,"Ġiact":5092,"Ġprouinciae":5093,"Ġprophetarum":5094,"Ġepistolae":5095,"Ġbreuiter":5096,"Ġsta":5097,"raes":5098,"Ġtestamentum":5099,"Ġsupradic":5100,"Ġpens":5101,"aniam":5102,"Ġcoenob":5103,"Ġdigna":5104,"Ġdignus":5105,"pat":5106,"Ġoporte":5107,"Ġsusp":5108,"Ġtut":5109,"Ġpromp":5110,"tico":5111,"oss":5112,"Ġreconcili":5113,"Ġcep":5114,"Ġtend":5115,"obiscum":5116,"bili":5117,"Ġantioch":5118,"Ġapostolos":5119,"Ġsuscit":5120,"Ġpartim":5121,"eatis":5122,"nago":5123,"Ġpercipi":5124,"Ġreno":5125,"Ġualeat":5126,"cess":5127,"ÏĥÎ¹Î½":5128,"Ġresid":5129,"Ġsaeui":5130,"Ġperuenire":5131,"Ġhomic":5132,"Ġlaur":5133,"alitatem":5134,"Ġexhort":5135,"dom":5136,"Ġfaciet":5137,"Ġexercitum":5138,"Ġcrudel":5139,"Ġregulam":5140,"Ġquaecumque":5141,"Ġueri":5142,"Ġperspic":5143,"Ġesto":5144,"Ġlaque":5145,"Ġlucis":5146,"Ġtenebras":5147,"Ġpassionem":5148,"Ġrationis":5149,"ÎµÏĥ":5150,"Ġpertinent":5151,"Ġaed":5152,"Ġmess":5153,"Ġhonori":5154,"Ġtemer":5155,"Ġtumul":5156,"Ġaegypto":5157,"Ġprincipum":5158,"Ġinterdic":5159,"ublic":5160,"Ġputo":5161,"Ġpositum":5162,"Ġerip":5163,"Ġuniuersis":5164,"Ġtantam":5165,"tiarum":5166,"Ġnosc":5167,"Ġsacramenta":5168,"Ġnecessitas":5169,"Ġconuert":5170,"Ġueteris":5171,"Ġbeth":5172,"etem":5173,"Ġbaptismum":5174,"Ġuisus":5175,"Ġsequi":5176,"Ġuester":5177,"bant":5178,"Ġponitur":5179,"insecus":5180,"Ġorationis":5181,"Ġiung":5182,"Ġgradus":5183,"Ġacer":5184,"Ġamoris":5185,"Ġincertus":5186,"Ġpietate":5187,"Ġprimam":5188,"Ġdixerat":5189,"Ġalteri":5190,"Ġprotinus":5191,"Ġri":5192,"Ġuobiscum":5193,"Ġquarto":5194,"Ġsententiae":5195,"issimam":5196,"Ġcommunis":5197,"Ġquidquam":5198,"Ġconsensu":5199,"Ġrecta":5200,"Ġlaps":5201,"Ġreseru":5202,"Ġexpl":5203,"Ġbaptism":5204,"Ġsingular":5205,"abimus":5206,"Ġnauig":5207,"Ġostenditur":5208,"Ġdepon":5209,"turi":5210,"issum":5211,"Ġcass":5212,"Ġdiac":5213,"Ġpotentiam":5214,"Ġaere":5215,"osus":5216,"uinc":5217,"aldus":5218,"abam":5219,"itata":5220,"Î¼Î±ÏĦ":5221,"Ġpraemia":5222,"Ġliberum":5223,"Ġcaelum":5224,"Ġdisced":5225,"Ġarbitrio":5226,"Ġconjunc":5227,"Ġgregorius":5228,"Ġincorrup":5229,"uuntur":5230,"Ġpoenitentiae":5231,"Ġpatitur":5232,"Ġpatriam":5233,"Ġpharis":5234,"Ġnouo":5235,"Ġmatur":5236,"yn":5237,"ef":5238,"Î±Î¸":5239,"Ġeleu":5240,"esto":5241,"Ġtrip":5242,"amb":5243,"Ġreddit":5244,"Ġdesin":5245,"Ġauribus":5246,"Ġinm":5247,"Ġleonis":5248,"elle":5249,"Ġumbra":5250,"Ġder":5251,"Ġantis":5252,"Ġpraedicatur":5253,"atori":5254,"debat":5255,"Ġdifferentia":5256,"Ġmultitudine":5257,"Ġdisciplina":5258,"sitan":5259,"Ġquaeritur":5260,"Ġcogitationes":5261,"Ġimpossibile":5262,"Ġpraefer":5263,"undem":5264,"Ġfines":5265,"Ġsuarum":5266,"ĠÎ±ÏĢÎ¿":5267,"Ġpatriae":5268,"Ġambo":5269,"Ġillae":5270,"ors":5271,"Ġincomm":5272,"fus":5273,"Ġoperam":5274,"ammodo":5275,"Ġdiues":5276,"Ġmortui":5277,"Ġceler":5278,"Ġstudios":5279,"andiu":5280,"Ġsummum":5281,"Ġapol":5282,"Ġcorrip":5283,"Ġdesiderium":5284,"Ġministerium":5285,"Ġneminem":5286,"quia":5287,"Ġconclud":5288,"Ġdolor":5289,"Ġphilipp":5290,"arias":5291,"Ġsenec":5292,"Ġdignitatem":5293,"Ġuil":5294,"Ġez":5295,"uiam":5296,"Ġfus":5297,"Ġnimium":5298,"Ġuino":5299,"Ġpassione":5300,"Ġpresbyteri":5301,"Ġcontend":5302,"Ġobiec":5303,"itti":5304,"Ġromana":5305,"Ġcaelo":5306,"Ġioannem":5307,"por":5308,"Ġuehementer":5309,"Ġq":5310,"Ġegredi":5311,"eccles":5312,"Ġplu":5313,"Ġfideliter":5314,"...":5315,"Ġuolens":5316,"Ġrepar":5317,"ticus":5318,"Ġpil":5319,"Ġsacerdotibus":5320,"Ġtimor":5321,"aces":5322,"Ġdiscrim":5323,"Ġinstruc":5324,"ueritis":5325,"anno":5326,"Ġfiliam":5327,"haer":5328,"Ġremans":5329,"Ġpho":5330,"Ġisaac":5331,"Ġsingulos":5332,"Ġpericulum":5333,"Ġseduc":5334,"uique":5335,"Ġdiuinam":5336,"Ġsynago":5337,"Ġperegrin":5338,"Ġfecisti":5339,"Ġquodammodo":5340,"auctor":5341,"Ġlonga":5342,"eis":5343,"Ġpoti":5344,"Ġlongit":5345,"Ġcrucem":5346,"Ġarchiepiscopo":5347,"los":5348,"Ġimpedi":5349,"Ġdabit":5350,"inn":5351,"licem":5352,"Ġcaesar":5353,"Ġinimicos":5354,"Ġuoces":5355,"Ġueniet":5356,"Ġquaerere":5357,"Ġcopul":5358,"Ġpsalmus":5359,"Ġmultitudinem":5360,"Ġhonoris":5361,"Ġaegypti":5362,"mentum":5363,"onii":5364,"Ġlatina":5365,"Ġspecialiter":5366,"Ġdedic":5367,"ebo":5368,"ologia":5369,"oniae":5370,"Ġdiuit":5371,"ĠÎ±Î³":5372,"Ġsuccessoribus":5373,"Ġambros":5374,"____":5375,"Ġuasa":5376,"idia":5377,"Ġcong":5378,"Ġdebeant":5379,"Ġcompell":5380,"aro":5381,"Ġclass":5382,"Ġuestigia":5383,"Ġpoterant":5384,"Ġgaudia":5385,"Ġcorrec":5386,"Ġpotens":5387,"Ġdemonst":5388,"Ġacta":5389,"Ġnecessario":5390,"Ġuilla":5391,"Ġmoder":5392,"Ġpercep":5393,"Ġincarnationis":5394,"Ġdecet":5395,"Ġpsalm":5396,"alitate":5397,"Ġuocauit":5398,"Ġromanis":5399,"Ġsermonis":5400,"Ġpopulos":5401,"Ġalioquin":5402,"Ġdefic":5403,"Ġcrimen":5404,"Ġalteram":5405,"Ġconsc":5406,"Ġincur":5407,"Ġlitterae":5408,"osum":5409,"Ġabbatem":5410,"Ġdignatus":5411,"greditur":5412,"Ġuariis":5413,"Ġuitiorum":5414,"Ġdicamus":5415,"Ġpraesump":5416,"Î¼Î±":5417,"Ġcontrarium":5418,"Ġsequuntur":5419,"Ġexpress":5420,"Ġappet":5421,"Ġuter":5422,"Ġmodus":5423,"Ġproximum":5424,"Ġbel":5425,"Ġsimplici":5426,"Ġincom":5427,"Ġcommunione":5428,"Ġpontificis":5429,"Ġuitium":5430,"ĠÎ²":5431,"Ġmotu":5432,"Ġsufficit":5433,"tuor":5434,"Ġfrug":5435,"Ġtantae":5436,"Ġdimitt":5437,"Ġpernici":5438,"Ġpriusquam":5439,"com":5440,"Ġepi":5441,"Ġoffend":5442,"Ġmatre":5443,"Ġxiu":5444,"Ġaudiuit":5445,"Î¿Î³":5446,"Ġincho":5447,"Ġreddere":5448,"Ġpulchr":5449,"imentum":5450,"Ġtradit":5451,"Ġquicquid":5452,"Ġdextera":5453,"ÏģÏī":5454,"ĠÎ·Î¼":5455,"Ġou":5456,"Ġfortuna":5457,"turum":5458,"Ġoris":5459,"odis":5460,"Ġpositus":5461,"Ġforsitan":5462,"Ġierem":5463,"Ġalleluia":5464,"sanc":5465,"Ġpraesci":5466,"eras":5467,"Ġmass":5468,"Ġmultas":5469,"Î·ÏĦ":5470,"bertus":5471,"Ġexac":5472,"Ġnullis":5473,"Ġdexteram":5474,"Ġiudicem":5475,"Ġnaturaliter":5476,"Ġmansuet":5477,"Ġamo":5478,"Ġpublice":5479,"Ġuias":5480,"Ġconsuetudinem":5481,"ciperet":5482,"Ġdabo":5483,"pex":5484,"Ġinuenire":5485,"Ġlibertatem":5486,"Ġgaudio":5487,"Ġesuri":5488,"Ġsubm":5489,"Ġsemine":5490,"hel":5491,"Ġsciens":5492,"Ġfelix":5493,"Ġsacrae":5494,"uth":5495,"Ġsubjun":5496,"Ġsubd":5497,"iteri":5498,"Ġsenatus":5499,"Ġfaciant":5500,"Ġauri":5501,"Ġhierusalem":5502,"Ġrefert":5503,"dae":5504,"redi":5505,"Ġsuffici":5506,"uetur":5507,"Ġcali":5508,"Ġmoysi":5509,"Ġmulieres":5510,"Ġiustis":5511,"Ġaccipit":5512,"Ġparentes":5513,"Ġpauca":5514,"Ġtulit":5515,"Ġsaul":5516,"Ġprofici":5517,"Ġpia":5518,"Ġdeg":5519,"Ġsimile":5520,"bis":5521,"laud":5522,"Ġquamquam":5523,"Ġobiit":5524,"Ġauctore":5525,"Ġdion":5526,"Ġexsec":5527,"Ġtestes":5528,"Ġrepet":5529,"Ġapprop":5530,"Ġseruum":5531,"Ġcorporibus":5532,"Ġmisc":5533,"Ġmanichae":5534,"utae":5535,"Ġpromo":5536,"Ġterras":5537,"Ġaduoc":5538,"alitas":5539,"Ġfoli":5540,"ardi":5541,"Ġhabitus":5542,"Ġdari":5543,"Ġflamm":5544,"Ġiudaeos":5545,"Ġimago":5546,"Ġpotuerunt":5547,"Ġpatria":5548,"Ġmaced":5549,"Ġcruce":5550,"Ġpretium":5551,"Ġpauperes":5552,"uig":5553,"Ġconsid":5554,"Ġmeridi":5555,"eos":5556,"Ġdesiderio":5557,"iz":5558,"Ġmeritum":5559,"efac":5560,"esque":5561,"Ġponit":5562,"entu":5563,"Ġhonest":5564,"Ġdelici":5565,"Ġexinde":5566,"Ġdefin":5567,"Ġmilitum":5568,"Ġretro":5569,"Ġba":5570,"Ġbenedictus":5571,"trum":5572,"Ġscribit":5573,"Ġperpetuo":5574,"onensis":5575,"Ġping":5576,"Ġsicuti":5577,"Ġdo":5578,"uant":5579,"Ġdocuit":5580,"Ġpontificatus":5581,"ellas":5582,"ebis":5583,"Ġseruos":5584,"Ġcasu":5585,"Ġbonos":5586,"Ġpectore":5587,"arc":5588,"psos":5589,"Ġcreb":5590,"Ġnullatenus":5591,"Ġpis":5592,"esset":5593,"ĠÏĦÎ¿Î½":5594,"Ġdisposi":5595,"Ġuesti":5596,"Ġianu":5597,"Ġprouincia":5598,"Ġcibum":5599,"Ġaeque":5600,"Ġlaude":5601,"bit":5602,"Ġsubdit":5603,"Ġuictoria":5604,"ilio":5605,"Ġlinguae":5606,"ticis":5607,"Ġcompet":5608,"Ġofficia":5609,"Ġaaron":5610,"Ġrid":5611,"Ġhym":5612,"ala":5613,"Ġmaii":5614,"Ġchristianorum":5615,"Ġcathed":5616,"Ġtranst":5617,"Ġromano":5618,"Ġpraesentibus":5619,"Ġcompreh":5620,"Ġangelos":5621,"Ġunitate":5622,"Ġerroris":5623,"Ġquaestio":5624,"Ġecclesiastica":5625,"Ġtransf":5626,"uorum":5627,"Ġanimalia":5628,"Ġxui":5629,"Ġmerita":5630,"Ġeri":5631,"Ġingr":5632,"Ġnoctis":5633,"Ġbrit":5634,"ft":5635,"Ġsimilia":5636,"Ġcommon":5637,"Ġduce":5638,"Ġnonnulli":5639,"Ġorth":5640,"Ġdixisset":5641,"Î±Î½ÏĦ":5642,"Ġmaiestatis":5643,"Ġcresc":5644,"Ġhaereticorum":5645,"udit":5646,"Ġaquarum":5647,"Ġperfectum":5648,"Ġty":5649,"Ġprocedit":5650,"Ġmaiores":5651,"Ġbenedicti":5652,"Ġresponde":5653,"Ġindiuid":5654,"uarum":5655,"Ġstare":5656,"Ġlucern":5657,"ymus":5658,"Ġseruare":5659,"terius":5660,"Ġproeli":5661,"entos":5662,"arit":5663,"Ġuidete":5664,"Ġfiliae":5665,"Ġuerumtamen":5666,"Ġbeato":5667,"Ġnotandum":5668,"Ġmelior":5669,"Ġmagnis":5670,"Ġnecnon":5671,"Ġprincipibus":5672,"Ġhostibus":5673,"Ġquique":5674,"Ġpermitt":5675,"Ġuideamus":5676,"Ġorient":5677,"Ġfactis":5678,"Ġuultus":5679,"Ġsib":5680,"Ġcomprob":5681,"Ġostendere":5682,"Ġtet":5683,"Ġuad":5684,"Ġlaus":5685,"Ġpalam":5686,"Ġuae":5687,"Ġsemetipsum":5688,"Ġpietas":5689,"uare":5690,"Ġresist":5691,"Ġrepente":5692,"Ġrobor":5693,"Ġprophetas":5694,"alitatis":5695,"psi":5696,"iiae":5697,"Ġdulced":5698,"Ġcoop":5699,"Ġhaeretici":5700,"Ġsecundus":5701,"Ġreput":5702,"Ġampli":5703,"Ġmoysen":5704,"Ġdiuinitus":5705,"logis":5706,"temp":5707,"yth":5708,"illi":5709,"Ġpecuniam":5710,"Ġadueni":5711,"ditatem":5712,"ulta":5713,"ille":5714,"Ġrecipit":5715,"Ġuitio":5716,"acul":5717,"Ġspatium":5718,"Ġoccidit":5719,"Ġprimae":5720,"Ġodio":5721,"eto":5722,"Ġiuuent":5723,"Ġpatientia":5724,"uantur":5725,"Ġdescrip":5726,"antius":5727,"Ġassign":5728,"Î±Îº":5729,"Ġerig":5730,"Ġsimili":5731,"Ġbeatum":5732,"Ġcapitulo":5733,"Ġbonam":5734,"Ġtrep":5735,"Ġclari":5736,"Ġmenses":5737,"Ġfeci":5738,"ensibus":5739,"leuit":5740,"oro":5741,"Ġpaulum":5742,"Ġsuauit":5743,"tul":5744,"Ġcorrep":5745,"Ġsensibus":5746,"Ġnosse":5747,"Ġrud":5748,"Ġcoelestia":5749,"rent":5750,"dium":5751,"Ġunc":5752,"Ġindustri":5753,"Ġarbitror":5754,"Ġregim":5755,"Ġfratre":5756,"Ġlignum":5757,"Ġlaudibus":5758,"Ġartific":5759,"Ġhol":5760,"Ġincid":5761,"Ġcapitis":5762,"Ġseipsum":5763,"titiae":5764,"Ġpacific":5765,"Ġeffectum":5766,"Ġmartini":5767,"Ġbes":5768,"capit":5769,"Ġcredi":5770,"Ġmoles":5771,"Ġunic":5772,"Ġhabitu":5773,"Ġumquam":5774,"Ġpraen":5775,"Ġfol":5776,"echi":5777,"ÏĪ":5778,"ecit":5779,"Ġrab":5780,"Ġmulierem":5781,"Ġrefug":5782,"Ġparentibus":5783,"Ġquattuor":5784,"Î¶":5785,"Ġmiseri":5786,"Ġmaximi":5787,"lii":5788,"Ġquoddam":5789,"Ġapr":5790,"Ġaliqui":5791,"Ġbesti":5792,"Ġsustent":5793,"Ġlacrim":5794,"Ġmentes":5795,"Ġfinibus":5796,"Ġquolibet":5797,"Ġprimog":5798,"Ġdono":5799,"Ġcaeteri":5800,"Ġgentis":5801,"Ġdicti":5802,"Ġrest":5803,"Ġrespici":5804,"Ġstup":5805,"Ġfate":5806,"Ġorationibus":5807,"Ġplebem":5808,"essum":5809,"Ġoccasione":5810,"Ġgens":5811,"Ġsubsequ":5812,"Ġpoenitentia":5813,"Ġmontis":5814,"Ġauxilio":5815,"ande":5816,"Ġtestis":5817,"Ġerrorem":5818,"Ġcupi":5819,"icas":5820,"Ġlunae":5821,"Ġdetr":5822,"Ġimperatorem":5823,"Ġnoctem":5824,"Ġsermones":5825,"Ġinspir":5826,"Ġsuad":5827,"Ġforas":5828,"Ġnoluit":5829,"car":5830,"Ġprofectus":5831,"Ġalleg":5832,"Ġpurp":5833,"ricis":5834,"Ġoppress":5835,"Ġdominica":5836,"Ġcoelesti":5837,"iem":5838,"Ġuerae":5839,"Ġbeata":5840,"Ġreliquit":5841,"Ġossa":5842,"Ġintelligit":5843,"Ġpoenas":5844,"Ġcodic":5845,"Ġquandoque":5846,"Ġplurima":5847,"entiarum":5848,"Ġbac":5849,"Ġmodi":5850,"Ġquaeso":5851,"Ġlate":5852,"Ġuice":5853,"Ġcael":5854,"etate":5855,"Ġhen":5856,"nox":5857,"andas":5858,"Ġuber":5859,"Ġregibus":5860,"Ġfaciens":5861,"pectum":5862,"Ġmorum":5863,"Ġexamin":5864,"ties":5865,"Ġmercedem":5866,"Ġedic":5867,"Ġpropriam":5868,"erebant":5869,"Ġdudum":5870,"Ġhaeredit":5871,"Ġaugusti":5872,"Ġconiunc":5873,"Ġmonachi":5874,"Ġconcord":5875,"Ġmortuum":5876,"Ġitin":5877,"Ġquale":5878,"Ġiusto":5879,"Ġmeruit":5880,"Ġprudentia":5881,"Ġexordi":5882,"Ġperfici":5883,"Ġiohannes":5884,"Ġdiuitias":5885,"rat":5886,"sunt":5887,"Ġstatum":5888,"atius":5889,"Ġlaudes":5890,"Ġpauci":5891,"estig":5892,"Ġhumilitate":5893,"Ġusurp":5894,"Ġpraeceptis":5895,"iosa":5896,"Ġsacros":5897,"Ġdisciplinam":5898,"Ġliqu":5899,"Ġhumilitatis":5900,"Ġgign":5901,"cio":5902,"Ġargentum":5903,"Ġcreaturae":5904,"Ġnominibus":5905,"Ġnutri":5906,"Ġsimus":5907,"Ġhumilitatem":5908,"Ġpericulo":5909,"Ġoccurrit":5910,"Ġfrang":5911,"Ġhumanis":5912,"Ġmaiora":5913,"Ġrecus":5914,"Ġueniunt":5915,"utur":5916,"tulit":5917,"Ġpersuas":5918,"Ġofficii":5919,"Ġpostremo":5920,"Ġdionys":5921,"Ġpropinqu":5922,"Ġphara":5923,"Ġsimiles":5924,"Ġphilosop":5925,"Ġromanos":5926,"Ġtestimonio":5927,"Ġgoth":5928,"Ġagni":5929,"Ġpig":5930,"Ġexclud":5931,"Ġaddidit":5932,"Ġdisciplinae":5933,"Ġmysteria":5934,"Ġdoctor":5935,"Ġnullius":5936,"Ġdeuor":5937,"Ġroma":5938,"Ġeuangelis":5939,"Ġexim":5940,"adius":5941,"ego":5942,"Ġlaborem":5943,"ers":5944,"Ġinp":5945,"Ġmasc":5946,"Ġarchidi":5947,"lat":5948,"Ġbrach":5949,"Ġpompe":5950,"Ġueteri":5951,"Ġredit":5952,"Ġarbitrium":5953,"Ġmancip":5954,"Ġdoctores":5955,"Ġhiem":5956,"Î¿ÏĦ":5957,"Ġconfessione":5958,"Ġfran":5959,"Ġaccidens":5960,"Ġhonorific":5961,"Ġmalitia":5962,"Ġcanc":5963,"Ġinsip":5964,"Ġelecti":5965,"Ġhistoria":5966,"Ġferunt":5967,"Ġquinquaginta":5968,"Ġcaeterum":5969,"Ġinterea":5970,"Ġconfec":5971,"Ġsimplex":5972,"Ġfonte":5973,"Ġomnipotentis":5974,"Ġseren":5975,"Ġcognoscere":5976,"Ġparua":5977,"Ġlocorum":5978,"Ġabbate":5979,"Ġdisser":5980,"Ġsalomon":5981,"Ġlep":5982,"Ġrup":5983,"Ġhabuerit":5984,"Ġeuangelista":5985,"Ġsect":5986,"Ġpign":5987,"Ġnihilo":5988,"Ġperpetr":5989,"Ġitinere":5990,"Ġmilia":5991,"Ġcontinetur":5992,"Ġimpend":5993,"Ġutinam":5994,"Ġmen":5995,"Ġciues":5996,"Ġegress":5997,"Ġaequi":5998,"Ġpecunia":5999,"Ġmonachorum":6000,"Ġingenio":6001,"Ġaer":6002,"Ġadip":6003,"cebat":6004,"Ġlinguam":6005,"Ġsocrates":6006,"Ġuniuersalis":6007,"Ġresurrectione":6008,"Ġquanquam":6009,"Ġaduentu":6010,"Ġsul":6011,"Ġanimaduer":6012,"Ġdecimo":6013,"entior":6014,"Ġueraciter":6015,"Ġcorrump":6016,"Ġlim":6017,"Ġreliquis":6018,"Ġrequiem":6019,"Ġrau":6020,"Ġtrec":6021,"Ġtestimonia":6022,"Ġtro":6023,"Ġmora":6024,"Ġiord":6025,"uari":6026,"idisse":6027,"tich":6028,"Ġhierosol":6029,"alum":6030,"Ġguillel":6031,"atura":6032,"Ġhabitum":6033,"Ġsepeli":6034,"Ġsyll":6035,"Ġpeccare":6036,"Ġlapis":6037,"Ġregular":6038,"Ġhumano":6039,"Ġeffus":6040,"illum":6041,"Ġpublicae":6042,"das":6043,"Ġuideantur":6044,"Ġpossimus":6045,"Ġinfirmitate":6046,"Ġdecus":6047,"Ġtantis":6048,"ecti":6049,"Ġpermans":6050,"Î±Î³":6051,"ceperunt":6052,"Î¿Î¼ÎµÎ½":6053,"Ġdebita":6054,"Ġsinistr":6055,"emin":6056,"Ġsuscip":6057,"Ġmetropolit":6058,"Ġproximi":6059,"estem":6060,"Ġpraesentiam":6061,"Ġpersonis":6062,"Ġconcilii":6063,"Ġextend":6064,"Ġtimorem":6065,"Ġnonn":6066,"Ġcru":6067,"olim":6068,"Ġreligione":6069,"Ġuterque":6070,"Ġdeleg":6071,"Ġauctorem":6072,"Ġpossessiones":6073,"Ġaccepta":6074,"Ġnotitia":6075,"Ġducem":6076,"Ġiunc":6077,"Ġdii":6078,"bitis":6079,"Ġoppon":6080,"Ġsignis":6081,"Ġcontinet":6082,"Ġmorti":6083,"Ġlaetitia":6084,"Ġens":6085,"Ġimpud":6086,"Ġdilectionem":6087,"Ġalieni":6088,"Ġcc":6089,"issimae":6090,"ten":6091,"Ġipsas":6092,"Ġstip":6093,"Ġfix":6094,"Ġmalos":6095,"ism":6096,"Ġquintus":6097,"Ġioc":6098,"Ġunicuique":6099,"Ġpup":6100,"Ġuigili":6101,"Ġlapides":6102,"Ġornam":6103,"Ġprobatur":6104,"Ġlitteram":6105,"Ġdesiderat":6106,"gi":6107,"Ġmanere":6108,"Ġascens":6109,"Ġregione":6110,"Ġcaue":6111,"Ġineff":6112,"Ġemin":6113,"Ġcontig":6114,"Ġbern":6115,"pexit":6116,"Ġxl":6117,"Ġscimus":6118,"Ġexempl":6119,"Ġbeneficium":6120,"Ġclericis":6121,"Ġibique":6122,"emini":6123,"Ġpell":6124,"Ġconstituta":6125,"Ġremun":6126,"Ġpraeual":6127,"Ġpartis":6128,"Ġiudicare":6129,"Ġprincipi":6130,"Ġcharissimi":6131,"Ġpraemium":6132,"Ġdecreta":6133,"Ġunigen":6134,"Ġreuersus":6135,"trans":6136,"ĠÏĥÏħÎ½":6137,"titerit":6138,"Ġfa":6139,"riam":6140,"Ġinnot":6141,"Ġcastig":6142,"Ġcecidit":6143,"Ġpropin":6144,"Ġpassio":6145,"Ġnus":6146,"bilia":6147,"Ġconcordi":6148,"Ġcredentes":6149,"Ġseruire":6150,"Ġcredidit":6151,"Ġquoties":6152,"Ġcastris":6153,"Ġintroduc":6154,"Ġferro":6155,"ener":6156,"Ġpartium":6157,"Ġdecor":6158,"Ġmaximum":6159,"Ġducis":6160,"Ġdiuinum":6161,"Ġsalua":6162,"Ġhostem":6163,"Ġdeneg":6164,"Ġaduen":6165,"Ġsancte":6166,"Ġuell":6167,"Ġconstruc":6168,"Ġelegit":6169,"Ġuirginem":6170,"Ġarca":6171,"Ġpotuisse":6172,"amen":6173,"Ġaiunt":6174,"Ġconsist":6175,"icit":6176,"Ġcaeli":6177,"Ġdomi":6178,"Ġdiscipulos":6179,"Ġpropag":6180,"Ġoblig":6181,"Ġoleum":6182,"Ġplebis":6183,"Ġhumiliter":6184,"Ġaetas":6185,"ĠÏĦÏī":6186,"icere":6187,"Ġaddit":6188,"Ġscriptis":6189,"det":6190,"isso":6191,"Ġuiderunt":6192,"Ġfertur":6193,"Ġhebra":6194,"Ġeris":6195,"Ġdani":6196,"all":6197,"Ġsyllogis":6198,"Ġfugit":6199,"Ġprophetis":6200,"Ġludouic":6201,"Ġbi":6202,"Ġcredunt":6203,"Ġduces":6204,"teret":6205,"Ġmortuos":6206,"Ġtranquill":6207,"Ġaureli":6208,"Ġinfidel":6209,"Ġrecipere":6210,"Ġfiet":6211,"Ġregina":6212,"Ġelectus":6213,"Ġdicentem":6214,"Ġparisi":6215,"Ġreperi":6216,"Ġmultae":6217,"Ġtransire":6218,"letum":6219,"Ġpraedicationis":6220,"Ġsimulac":6221,"Ġfuturi":6222,"Ġsexta":6223,"Ġpauperibus":6224,"Ġsacramento":6225,"Ġcrimine":6226,"Ġsubjac":6227,"Ġdomni":6228,"Ġero":6229,"Ġdissip":6230,"Ġcontingit":6231,"ertus":6232,"Ġbeneficia":6233,"Ġdonati":6234,"ĠÏĦÎ¿ÏħÏĦ":6235,"orumque":6236,"Ġeffug":6237,"Ġbeatae":6238,"Ġfons":6239,"Ġarchiepiscopus":6240,"az":6241,"Ġsacro":6242,"Ġdioeces":6243,"Ġliberi":6244,"Ġporta":6245,"ularum":6246,"Ġcras":6247,"Ġostium":6248,"Ġoperi":6249,"posita":6250,"Ġputas":6251,"Ġcomment":6252,"Ġmissa":6253,"set":6254,"Ġcyp":6255,"yg":6256,"Ġreus":6257,"ebas":6258,"Ġpeccator":6259,"uris":6260,"tori":6261,"Ġaeth":6262,"utos":6263,"idae":6264,"Ġmaioris":6265,"Ġgratis":6266,"Ġtenuit":6267,"Ġdignitatis":6268,"tunc":6269,"Ġconscrip":6270,"Ġangelic":6271,"Ġlapidem":6272,"Ġluxur":6273,"Ġargumentum":6274,"utam":6275,"Ġlx":6276,"Ġcasus":6277,"Ġeccl":6278,"Ġsuscipere":6279,"Ġtestamento":6280,"Ġnecdum":6281,"Ġregia":6282,"Ġeiusmodi":6283,"Ġregnauit":6284,"sci":6285,"Ġiniquitate":6286,"Ġcustodia":6287,"pes":6288,"Ġincrem":6289,"ogra":6290,"Ġgraece":6291,"Ġtal":6292,"Ġchristianae":6293,"Ġagens":6294,"Ġdolorem":6295,"Ġsupersti":6296,"piam":6297,"Ġabiit":6298,"Ġtenebrae":6299,"Ġpius":6300,"Ġfecerat":6301,"can":6302,"Ġquales":6303,"Ġomnim":6304,"Ġfebr":6305,"Ġreuerentia":6306,"etatem":6307,"imini":6308,"Ġresol":6309,"Ġrecens":6310,"Ġmittit":6311,"Ġsicque":6312,"Ġnotum":6313,"Ġreform":6314,"Ġdicto":6315,"ĠÏĢÎµ":6316,"Ġsop":6317,"Ġiustorum":6318,"Ġnotitiam":6319,"Ġaudiens":6320,"Ġlatr":6321,"Ġincolum":6322,"Ġdiutius":6323,"Ġputat":6324,"Ġreprom":6325,"Ġinimicus":6326,"Ġuestras":6327,"Ġrogo":6328,"Ġduorum":6329,"Ġchristianis":6330,"Ġtaur":6331,"Ġoleo":6332,"Ġessentia":6333,"Ġaugustini":6334,"bilis":6335,"Ġuale":6336,"Ġuxore":6337,"Ġmaiore":6338,"Ġimmacul":6339,"etes":6340,"Ġduplic":6341,"Ġrip":6342,"Ġmiracula":6343,"Ġadep":6344,"idam":6345,"Ġindictione":6346,"uerimus":6347,"Ġpopulorum":6348,"Ġredire":6349,"Ġaperi":6350,"Ġpontificum":6351,"domin":6352,"Ġtomus":6353,"Ġcomprehend":6354,"Ġregio":6355,"Ġinuentus":6356,"Ġcommis":6357,"Ġcalli":6358,"ÎµÏīÏĤ":6359,"Ġcommin":6360,"Ġadmodum":6361,"psa":6362,"Ġsuperfl":6363,"Ġcomput":6364,"Ġeosdem":6365,"occ":6366,"Ġdebitum":6367,"Ġexplor":6368,"Ġseptimo":6369,"Ġtertius":6370,"Ġliter":6371,"Ġinuol":6372,"ticae":6373,"Ġstudiis":6374,"Ġclericorum":6375,"tant":6376,"utem":6377,"Ġproper":6378,"Ġholoc":6379,"Ġterminos":6380,"uad":6381,"lax":6382,"Ġposc":6383,"Ġligno":6384,"Ġlar":6385,"Ġsuppon":6386,"Ġconcub":6387,"Ġtard":6388,"Ġcare":6389,"Ġacquir":6390,"pserit":6391,"Ġinex":6392,"Ġeuad":6393,"Ġaduersa":6394,"elam":6395,"Ġfactam":6396,"Ġgrauiter":6397,"Ġlongum":6398,"Ġmortuorum":6399,"Ġaffectus":6400,"actis":6401,"enia":6402,"Ġinuestig":6403,"Ġpersonas":6404,"ultas":6405,"Ġsummi":6406,"Ġpraesentem":6407,"ele":6408,"Ġamat":6409,"geni":6410,"Ġherc":6411,"Ġaliquot":6412,"Ġtimere":6413,"ides":6414,"Ġcoelestibus":6415,"Ġcoeperunt":6416,"Ġprincipe":6417,"Ġrespondere":6418,"Ġterminum":6419,"Ġquemdam":6420,"uisc":6421,"Ġhumilis":6422,"Ġuerec":6423,"Ġculpam":6424,"Ġcognouit":6425,"rom":6426,"Ġhar":6427,"actum":6428,"Ġperp":6429,"Ġdilectione":6430,"Ġcatholicam":6431,"Ġhumanam":6432,"Ġgali":6433,"Ġintelligendum":6434,"Ġmiles":6435,"Ġcalig":6436,"Ġintegra":6437,"Ġpunc":6438,"Ġinterfic":6439,"Ġcorpori":6440,"Ġextoll":6441,"iturus":6442,"Ġparab":6443,"Ġmanifesta":6444,"Ġzach":6445,"Ġunitas":6446,"Ġirac":6447,"sc":6448,"olas":6449,"ĠÏħÏĢ":6450,"Ġcognos":6451,"Ġlittera":6452,"Ġexpugn":6453,"asi":6454,"Ġprodest":6455,"Ġanimis":6456,"Ġcopia":6457,"ĠÎ±Î»":6458,"Ġaequalis":6459,"Î¸Î±Î¹":6460,"Ġiuni":6461,"Ġlangu":6462,"Ġiniur":6463,"Ġbritann":6464,"Ġseruis":6465,"Ġtribuit":6466,"Ġner":6467,"Ġdicebant":6468,"Ġsuperbiam":6469,"Ġepist":6470,"Ġinfam":6471,"uls":6472,"Ġsigno":6473,"Ġperpetua":6474,"Ġcoronam":6475,"Ġbur":6476,"Ġquinto":6477,"Ġtre":6478,"Ġinform":6479,"Ġalbum":6480,"Ġfacis":6481,"Ġnescit":6482,"ilitatem":6483,"Ġaffectum":6484,"psis":6485,"Ġcoelos":6486,"Ġdilectionis":6487,"Ġodor":6488,"Ġinan":6489,"Ġlaudis":6490,"ciam":6491,"Ġappropinqu":6492,"Ġodi":6493,"Ġsapientes":6494,"Ġpuerum":6495,"Ġdc":6496,"Ġmendacium":6497,"tiua":6498,"erius":6499,"Ġinuti":6500,"Ġmeorum":6501,"Ġhabebant":6502,"Ġponere":6503,"Ġconcessa":6504,"Ġrecogn":6505,"Ġconuenire":6506,"tora":6507,"Ġlacrymis":6508,"Ġuulnera":6509,"Ġsynodus":6510,"Ġigni":6511,"Ġuec":6512,"Ġrefec":6513,"Ġdilectio":6514,"gal":6515,"Ġirae":6516,"etae":6517,"aturum":6518,"opere":6519,"Ġobnox":6520,"Ġalta":6521,"ĠÎµÏħ":6522,"Ġueteres":6523,"Ġattrib":6524,"Ġmonachus":6525,"Ġsummam":6526,"Ġgentem":6527,"Ġspar":6528,"Ġcapita":6529,"Ġcerto":6530,"Ġmanifeste":6531,"Ġdiceretur":6532,"loc":6533,"Ġfirma":6534,"Ġdicant":6535,"Ġiniquitas":6536,"Ġpie":6537,"luc":6538,"Ġcrediderunt":6539,"Ġuade":6540,"Ġplacere":6541,"Ġsursum":6542,"Ġdeuotione":6543,"Ġdeserto":6544,"olae":6545,"Ġclerici":6546,"Ġnegotio":6547,"Ġsinu":6548,"Ġimplere":6549,"oque":6550,"Ġtrid":6551,"Ġstir":6552,"Ġsecutus":6553,"tina":6554,"turae":6555,"Ġequidem":6556,"Å¿Å¿":6557,"be":6558,"Ġeandem":6559,"tissimus":6560,"Ġnaturalis":6561,"Ġlongo":6562,"org":6563,"Ġnusquam":6564,"Ġuocis":6565,"Ġplenius":6566,"Ġproximo":6567,"Ġfemina":6568,"Ġcreauit":6569,"Ġuisa":6570,"Ġaprilis":6571,"Ġsolam":6572,"Ġcrass":6573,"Ġultimum":6574,"Ġconstantinopolit":6575,"Ġanus":6576,"Ġincred":6577,"Ġdaemones":6578,"Ġlatin":6579,"Ġsorti":6580,"Ġdilectissimi":6581,"Ġdetrah":6582,"aly":6583,"Ġimped":6584,"Ġfuturis":6585,"pote":6586,"Ġmeret":6587,"Ġdiligere":6588,"Ġcalumn":6589,"Ġduri":6590,"Ġcircumd":6591,"Ġmateriam":6592,"Ġuideat":6593,"Ġpropositio":6594,"Ġuenisse":6595,"istri":6596,"Ġpromis":6597,"Ġagno":6598,"atic":6599,"Ġdocere":6600,"Ġmissi":6601,"Ġspiritalis":6602,"Ġexspec":6603,"Ġdiabolum":6604,"Ġlargi":6605,"Ġpropriae":6606,"Ġlen":6607,"Ġamare":6608,"Ġlater":6609,"Ġprouidentia":6610,"Ġoctob":6611,"Ġalicui":6612,"Ġegressus":6613,"Ġcircums":6614,"tissimis":6615,"Ġsanctitatis":6616,"Ġebri":6617,"Ġhebdom":6618,"ĠÎ´Î¹Î±":6619,"egit":6620,"Ġpersonarum":6621,"Ġinimicis":6622,"Ġpent":6623,"Ġperfectus":6624,"Ġdicendo":6625,"Ġaegyptum":6626,"Ġceruic":6627,"Ġexsting":6628,"Ġhosti":6629,"Ġsoci":6630,"Ġgladium":6631,"Ġconcurr":6632,"Ġuident":6633,"Ġpercuss":6634,"Ġspern":6635,"Ġoli":6636,"Â§":6637,"Ġhir":6638,"ĠÎ±ÏĢ":6639,"Ġcursu":6640,"Ġcommunionem":6641,"Ġdifficile":6642,"Ġstephani":6643,"alog":6644,"illis":6645,"Ġalienum":6646,"Ġmix":6647,"Ġinnumer":6648,"Ġfacias":6649,"Ġsynodum":6650,"ons":6651,"aculi":6652,"Ġinno":6653,"Ġuultis":6654,"ricus":6655,"Ġmensura":6656,"umentis":6657,"Ġfing":6658,"Ġconn":6659,"Ġquilibet":6660,"Ġdebuit":6661,"Ġunanim":6662,"Ġforet":6663,"Ġconuoc":6664,"Ġtertiam":6665,"Ġcanones":6666,"Ġpraesumat":6667,"Ġfluuium":6668,"ecta":6669,"iali":6670,"Ġnegare":6671,"Ġconstitutus":6672,"Ġafflig":6673,"ilitate":6674,"Ġsubiectum":6675,"Ġlicentia":6676,"Ġpraestare":6677,"Ġapplic":6678,"Ġutilitatem":6679,"Ġmaioribus":6680,"Ġandre":6681,"Ġinuas":6682,"Ġpraedicta":6683,"Ġappeti":6684,"Ġcreaturam":6685,"Ġconfessionem":6686,"inarum":6687,"lexit":6688,"erg":6689,"Ġcarcere":6690,"Ġris":6691,"Ġsucced":6692,"Ġpraepon":6693,"Ġeuangel":6694,"Ġezechi":6695,"Ġqualibet":6696,"Ġantiqui":6697,"Ġflumina":6698,"menta":6699,"Ġsinguli":6700,"Ġpauperum":6701,"Ġintentione":6702,"Ġimperatore":6703,"Ġnegotium":6704,"Ġgradu":6705,"antas":6706,"Ġquamdam":6707,"Ġministerio":6708,"Ġinuidia":6709,"erique":6710,"Ġpeccat":6711,"Ġfeliciter":6712,"Ġdilu":6713,"Ġnesc":6714,"uerum":6715,"Ġuictus":6716,"Ġhabuisse":6717,"Ġparentum":6718,"escens":6719,"Ġmurmur":6720,"Ġdomes":6721,"Ġiouis":6722,"Ġherb":6723,"Ġoptime":6724,"Ġfiguram":6725,"Ġmob":6726,"Ġequi":6727,"Ġsubaud":6728,"Ġchristianus":6729,"Ġuictoriam":6730,"Ġdetest":6731,"Ġlaes":6732,"Ġformae":6733,"Ġaene":6734,"Ġmons":6735,"Ġclau":6736,"Ġdifficult":6737,"Ġrecess":6738,"Ġnumeros":6739,"respon":6740,"sol":6741,"uendum":6742,"aeum":6743,"ebitur":6744,"Ġotios":6745,"Ġsciendum":6746,"idio":6747,"edia":6748,"Ġsilentio":6749,"Ġmotum":6750,"Ġpesti":6751,"Ġamplex":6752,"Ġsermonibus":6753,"Ġiugum":6754,"Ġqualem":6755,"Ġauid":6756,"ĠÎ½":6757,"Ġinsol":6758,"Ġdomos":6759,"Ġipsae":6760,"Ġcuiuslibet":6761,"Ġpretio":6762,"Ġpraesul":6763,"Ġconfug":6764,"Ġurbes":6765,"Ġantich":6766,"Ġaudac":6767,"este":6768,"Ġartic":6769,"Ġmalus":6770,"Ġpropor":6771,"Ġmonachis":6772,"Ġiniquitatis":6773,"Ġfui":6774,"super":6775,"Ġspatio":6776,"Ġbeneuol":6777,"Ġualenti":6778,"Ġspecul":6779,"Ġlabores":6780,"Ġkalendas":6781,"Ġedoc":6782,"Ġulterius":6783,"Ġpotuerit":6784,"Ġcommunem":6785,"Ġiisdem":6786,"Ġantichris":6787,"alam":6788,"Ġuenti":6789,"Ġpectus":6790,"itteret":6791,"erium":6792,"Ġcomitis":6793,"Ġconuersus":6794,"imenta":6795,"Ġhabetis":6796,"Ġcuiusdam":6797,"Ġlegatos":6798,"abilibus":6799,"Ġalien":6800,"Ġmatu":6801,"Ġexemplis":6802,"Ġinjuriam":6803,"Ġcorint":6804,"Ġnecessitatem":6805,"Ġparadiso":6806,"Ġpand":6807,"Ġsubsist":6808,"Ġuestimenta":6809,"Ġamic":6810,"Ġallig":6811,"Ġpoen":6812,"Ġnumeri":6813,"Ġpromisit":6814,"Ġeundem":6815,"ularibus":6816,"Ġheli":6817,"Ġlatus":6818,"bene":6819,"hum":6820,"Ġsentire":6821,"Ġrelin":6822,"Ġpraecl":6823,"Ġferia":6824,"Ġchristianos":6825,"Ġmoer":6826,"ĠÎ¼Î·":6827,"Ġonus":6828,"Ġhabebit":6829,"Ġimpugn":6830,"Ġuestros":6831,"Ġdestruc":6832,"Ġintegrum":6833,"Ġargente":6834,"Î¿ÏĢ":6835,"Ġiuuenis":6836,"Ġromanus":6837,"Ġregnat":6838,"Î¹ÏĥÏĦ":6839,"Ġfortitudo":6840,"Ġprosequ":6841,"Ġholocaus":6842,"Ġstim":6843,"imento":6844,"erio":6845,"itura":6846,"Ġdemonstrat":6847,"Ġcypri":6848,"Ġgraue":6849,"Ġsacerdotis":6850,"Ġattin":6851,"Ġcircuitu":6852,"Ġconturb":6853,"Î»Î±":6854,"Ġlaboris":6855,"Ġlibertate":6856,"br":6857,"Ġit":6858,"Ġxuii":6859,"Ġuidentes":6860,"Ġnatale":6861,"hac":6862,"dio":6863,"Ġangelum":6864,"Ġquemquam":6865,"Ġhabita":6866,"Ġitaliam":6867,"astis":6868,"Ġfortiter":6869,"Ġoculus":6870,"Ġpraescrip":6871,"Ġmarg":6872,"Ġproposito":6873,"Ġuictim":6874,"Ġeffund":6875,"Ġitalia":6876,"Ġultro":6877,"Ġseruo":6878,"temper":6879,"ump":6880,"Ġromanum":6881,"Ġtitulo":6882,"Ġion":6883,"Ġconsilii":6884,"Î¸ÎµÎ½":6885,"Ġnoctur":6886,"Ġgab":6887,"Ġauferre":6888,"Ġfacin":6889,"Ġcitius":6890,"Ġchr":6891,"Ġsubtrah":6892,"Ġorator":6893,"ueh":6894,"Ġconuic":6895,"istae":6896,"Ġubic":6897,"Ġiudicis":6898,"Ġducit":6899,"Ġamicus":6900,"debant":6901,"Ġseg":6902,"ulisse":6903,"Ġthom":6904,"Ġuniuersi":6905,"bium":6906,"Ġoffens":6907,"Ġuocibus":6908,"Ġsecus":6909,"Ġneut":6910,"ellit":6911,"Ġcomplex":6912,"Ġpatientiam":6913,"Ġtrinitas":6914,"Ġerec":6915,"Ġapollin":6916,"riter":6917,"Ġorigin":6918,"uita":6919,"Ġhoram":6920,"arie":6921,"Ġampl":6922,"Ġsedi":6923,"Ġmagistri":6924,"iculum":6925,"Ġadest":6926,"Ġexst":6927,"Ġmensuram":6928,"Ġconsuetudine":6929,"Ġdeliber":6930,"Ġmodicum":6931,"achus":6932,"Ġgeneraliter":6933,"Ġbaptist":6934,"esima":6935,"Ġpassim":6936,"Ġpredic":6937,"Ġopprob":6938,"Ġpondere":6939,"Ġpress":6940,"Ġirasc":6941,"Ġplenum":6942,"Ġloquebatur":6943,"Ġloth":6944,"Ġaliquibus":6945,"ilitas":6946,"Ġsolummodo":6947,"Ġpossis":6948,"tram":6949,"uerent":6950,"Ġuocantur":6951,"Ġinhabit":6952,"Ġuillam":6953,"uentes":6954,"Ġidque":6955,"Ġpersol":6956,"Ġpraedictum":6957,"Ġaliquant":6958,"Ġy":6959,"Ġpondus":6960,"Ġscripturas":6961,"Ġinsidias":6962,"Ġdecima":6963,"Ġdigni":6964,"Ġinueniri":6965,"Ġpatrologia":6966,"Ġliquid":6967,"Ġequit":6968,"Ġtorr":6969,"Ġlatine":6970,"Ġpraeterm":6971,"Ġterminus":6972,"Ġanathema":6973,"illo":6974,"Ġodium":6975,"Ġecclesiasticis":6976,"Ġscrut":6977,"Ġai":6978,"Ġofficiis":6979,"itudines":6980,"Ġcaesaris":6981,"imet":6982,"Ġpond":6983,"Ġnegat":6984,"Ġmandamus":6985,"assent":6986,"Ġuultu":6987,"Ġnuptias":6988,"tiores":6989,"Ġfaciendum":6990,"Ġpraecon":6991,"Ġmandatis":6992,"omnia":6993,"Ġstatuit":6994,"Ġabn":6995,"ebri":6996,"Ġnor":6997,"Ġaccipiat":6998,"estor":6999,"Ġmilitibus":7000,"Ġrecit":7001,"aque":7002,"Ġmittere":7003,"Ġlan":7004,"Ġpsalmista":7005,"Ġportam":7006,"amine":7007,"Ġdigit":7008,"pres":7009,"Ġeug":7010,"Ġplenus":7011,"Ġlicentiam":7012,"Ġsinis":7013,"Ġscribere":7014,"Ġsuperioribus":7015,"Ġsamuel":7016,"Ġquaerunt":7017,"Ġadesse":7018,"Ġuenisset":7019,"migne":7020,"Ġeus":7021,"Ġedit":7022,"Ġuana":7023,"Ġarchidiacon":7024,"Ġsepultus":7025,"Ġmaiori":7026,"Ġerror":7027,"Ġincurr":7028,"Ġpuri":7029,"Ġcus":7030,"ulerit":7031,"Ġaeris":7032,"Ġpertinentiis":7033,"limus":7034,"Ġquinta":7035,"Ġplenitudo":7036,"isses":7037,"Ġmuneribus":7038,"Ġuinculis":7039,"sem":7040,"Ġcontigit":7041,"die":7042,"Ġxuiii":7043,"Ġuirga":7044,"bur":7045,"atii":7046,"Ġduximus":7047,"tract":7048,"Ġcondic":7049,"tisque":7050,"Ġuirgines":7051,"aulus":7052,"Ġfasti":7053,"Ġgente":7054,"Ġclero":7055,"Ġremissionem":7056,"Ġso":7057,"Ġretinere":7058,"Ġconstituti":7059,"leti":7060,"Ġpotissimum":7061,"Ġancill":7062,"Ġordines":7063,"Ġcontro":7064,"cid":7065,"Ġinesse":7066,"elici":7067,"Ġquicquam":7068,"oso":7069,"Ġquaesumus":7070,"Ġnoe":7071,"Ġinterual":7072,"Ġresponsum":7073,"Ġaccepimus":7074,"Ġargenti":7075,"Ġuxores":7076,"ergo":7077,"Ġtorqu":7078,"Ġconter":7079,"iani":7080,"uenti":7081,"Ġtyp":7082,"Ġexaudi":7083,"Ġquac":7084,"Ġacqui":7085,"Ġsexto":7086,"tag":7087,"Ġmiserere":7088,"quantum":7089,"Ġthron":7090,"Ġces":7091,"Ġpositi":7092,"chris":7093,"Ġconfirmat":7094,"Ġdeli":7095,"Ġabjec":7096,"Ġpotuisset":7097,"Ġmorem":7098,"Ġnouimus":7099,"Ġgramm":7100,"Ġnig":7101,"Ġaccidit":7102,"Ġmediol":7103,"Ġcibo":7104,"Ġultima":7105,"Ġsecreta":7106,"Ġhieronymus":7107,"Ġgraeco":7108,"Ġpotentiae":7109,"Ġsustinere":7110,"Ġsubli":7111,"Ġfame":7112,"Ġstatuta":7113,"Ġmagnae":7114,"osis":7115,"une":7116,"Ġpetra":7117,"Ġpriuilegium":7118,"Ġamicos":7119,"Ġaspic":7120,"Ġagro":7121,"undis":7122,"Ġrationes":7123,"ĠâĢĵ":7124,"Ġconci":7125,"Ġistae":7126,"Ġsoror":7127,"Ġbeneficio":7128,"Ġactio":7129,"Ġfronte":7130,"Ġegit":7131,"Ġobj":7132,"Ġdenunti":7133,"Ġmoue":7134,"Ġuincula":7135,"orta":7136,"olam":7137,"Ġconsuetudo":7138,"Ġextremum":7139,"Ġreddidit":7140,"Ġterrenis":7141,"pectus":7142,"Ġprimogen":7143,"ueretur":7144,"Ġnab":7145,"Ġeut":7146,"Ġquoad":7147,"Ġuoluc":7148,"ibilem":7149,"Ġbaptismo":7150,"Ġprobat":7151,"ĠÐ":7152,"Ġsitis":7153,"ulsus":7154,"Ġregener":7155,"Ġrite":7156,"Ġimpetr":7157,"urs":7158,"olat":7159,"Ġinuenimus":7160,"capitulum":7161,"Ġscip":7162,"ograph":7163,"loqui":7164,"Ġquamdiu":7165,"Ġsaluti":7166,"Ġistos":7167,"Ġsingulorum":7168,"Ġcanonice":7169,"Ġopes":7170,"Ġuideret":7171,"Ġcit":7172,"Ġinstituta":7173,"Ġnubes":7174,"auri":7175,"Ġcontrario":7176,"Ġconstitutum":7177,"Ġmulieris":7178,"Ġpotestis":7179,"Ġcognitionem":7180,"Ġgratul":7181,"Ġredemptoris":7182,"Ġtormenta":7183,"Ġcx":7184,"Ġduxit":7185,"Ġnasci":7186,"Ġmartyres":7187,"Ġchil":7188,"Ġsubiecto":7189,"uenire":7190,"Ġsequenti":7191,"Ġgrauis":7192,"Ġoccasionem":7193,"Ġtabernaculum":7194,"Ġfontem":7195,"Ġhaereticos":7196,"Ġdecipi":7197,"Ġdilex":7198,"Ġannus":7199,"Ġcoelestium":7200,"Ġagric":7201,"Ġpacto":7202,"Ġhaereditatem":7203,"Ġnobilis":7204,"ĠÎ³Î±Ïģ":7205,"Ġpus":7206,"Ġpane":7207,"Ġflamma":7208,"frag":7209,"Ġelis":7210,"Ġprimiti":7211,"Ġcogitare":7212,"Ġcurrit":7213,"cem":7214,"erata":7215,"Ġuiae":7216,"Ġobjec":7217,"Ġreligionem":7218,"Ġpedum":7219,"mag":7220,"Ġueris":7221,"Ġquaestionem":7222,"Ġcanonum":7223,"Ġperfectionem":7224,"eantur":7225,"Ġdorm":7226,"Ġiulii":7227,"Ġaudite":7228,"Ġcrimina":7229,"Ġcorona":7230,"cas":7231,"Ġmichae":7232,"Ġportas":7233,"Ġactione":7234,"Ġcapere":7235,"ibile":7236,"ibit":7237,"Î¿Î½ÏĦ":7238,"Ġpontificem":7239,"alter":7240,"Ġgestis":7241,"Ġuniuersum":7242,"Ġmarci":7243,"ÏĥÎº":7244,"Ġpersecut":7245,"Ġobsecro":7246,"nt":7247,"Ġgratiarum":7248,"Ġadjun":7249,"Ġdenuo":7250,"Ġhel":7251,"Ġexstitit":7252,"Ġelectorum":7253,"Ġcommendat":7254,"Ġdelinqu":7255,"Ġiugiter":7256,"Ġaristoteles":7257,"Ġamicis":7258,"Ġmanuum":7259,"tui":7260,"ge":7261,"ochi":7262,"Ġperfid":7263,"Ġprisc":7264,"Ġaetatem":7265,"Ġtenebrarum":7266,"Ġsubtil":7267,"Ġoculorum":7268,"Ġcommor":7269,"Ġreprehend":7270,"Ġdiaconi":7271,"Ġdicitis":7272,"Ġmaur":7273,"Ġcursum":7274,"Ġimmundi":7275,"Ġinfideli":7276,"Ġinuenta":7277,"Ġremuner":7278,"Ġcredid":7279,"Ġhabitare":7280,"for":7281,"Ġconfite":7282,"astas":7283,"anensis":7284,"Ġabomin":7285,"Ġopprim":7286,"Ġfundamentum":7287,"comm":7288,"ren":7289,"deus":7290,"Ġrecepit":7291,"Ġutitur":7292,"Ġcontrouers":7293,"Ġrenunti":7294,"Ġdura":7295,"Ġdigne":7296,"sequitur":7297,"Ġaudeat":7298,"Ġappellat":7299,"ind":7300,"Ġplat":7301,"Ġconditione":7302,"Ġadimpl":7303,"Ġmaximo":7304,"Ġharum":7305,"Ġaccessit":7306,"escant":7307,"Ġcaesare":7308,"erito":7309,"mae":7310,"Ġsingulas":7311,"Ġostenderet":7312,"Ġnicola":7313,"Ġuiscera":7314,"Ġtae":7315,"Ġinstar":7316,"Ġpraeuid":7317,"Ġtheodos":7318,"Ġdecernimus":7319,"Ġmira":7320,"Ġpessim":7321,"Ġatr":7322,"undia":7323,"Ġocculta":7324,"Ġsignificant":7325,"ordin":7326,"Ġstudia":7327,"Ġbul":7328,"Ġdestit":7329,"Ġioanne":7330,"Ġoppidum":7331,"Ġimpii":7332,"ades":7333,"Ġcontulit":7334,"Ġinius":7335,"Ġtitus":7336,"Ġemp":7337,"Ġsuppl":7338,"Ġmisericord":7339,"Ġimmun":7340,"Ġclementia":7341,"Ġobtulit":7342,"Ġaspici":7343,"Ġcastrum":7344,"stes":7345,"Ġexposi":7346,"Ġinse":7347,"acensis":7348,"Ġben":7349,"Ġforo":7350,"Ġdicas":7351,"Ġutpote":7352,"Ġpromulg":7353,"Ġexced":7354,"Ġhaberi":7355,"Ġcolloqu":7356,"Ġconsilia":7357,"Ġuoluntati":7358,"Ġpraedix":7359,"alo":7360,"Ġmagnitudine":7361,"Ġimperfec":7362,"Ġspiritualis":7363,"Ġpaululum":7364,"odox":7365,"rici":7366,"Ġstetit":7367,"Ġinuiol":7368,"Ġpp":7369,"Ġingens":7370,"Ġaz":7371,"Ġmontibus":7372,"Ġuocatus":7373,"Ġcustodiam":7374,"Ġgess":7375,"Ġcredentium":7376,"Ġiudaea":7377,"Ġquandoquidem":7378,"Ġsalutare":7379,"Ġuini":7380,"Ġtaliter":7381,"Ġdiis":7382,"Ġars":7383,"Ġsciat":7384,"Ġstatus":7385,"Ġlaboribus":7386,"euit":7387,"Ġpoc":7388,"Ġenum":7389,"Ġinsidi":7390,"Ġprocre":7391,"Ġephes":7392,"Ġtel":7393,"Ġdetin":7394,"Ġcultum":7395,"Ġfacio":7396,"ticam":7397,"Ġappon":7398,"chis":7399,"Ġobsc":7400,"Ġcos":7401,"Ġuiderit":7402,"Ġadmitt":7403,"Ġtransgress":7404,"ulibus":7405,"Ġpromitt":7406,"Ġdesideriis":7407,"Ġ//":7408,"uante":7409,"Ġaffic":7410,"Ġorare":7411,"Ġsacrum":7412,"Ġsata":7413,"Ġiudas":7414,"Ġortus":7415,"Ġsau":7416,"Ġalbus":7417,"Ġmalefic":7418,"Ġtruc":7419,"ila":7420,"Ġhaberent":7421,"Ġisaias":7422,"Ġenunti":7423,"Ġfactae":7424,"Ġfugam":7425,"Ġplan":7426,"Ġdisplic":7427,"Ġoriente":7428,"Ġchristiana":7429,"Ġnegoti":7430,"Ġsud":7431,"atiue":7432,"Ġconfessio":7433,"Ġaudiui":7434,"ilo":7435,"Ġcomit":7436,"Ġbibli":7437,"Ġexpect":7438,"Ġconqu":7439,"Ġcris":7440,"Ġresurrexit":7441,"ĠÎºÎ±ÏĦÎ±":7442,"Ġsupp":7443,"ulatus":7444,"ularium":7445,"Ġimplic":7446,"Ġciuium":7447,"Ġcanticum":7448,"Ġpsall":7449,"Ġconsequens":7450,"jan":7451,"Ġcuc":7452,"Ġieiunium":7453,"Ġpraedicare":7454,"Ġcontrist":7455,"Ġpraetor":7456,"Ġcognoscitur":7457,"Ġremedium":7458,"Ġauctoritatis":7459,"Ġuenerat":7460,"Ġsidera":7461,"sicut":7462,"Ġapoc":7463,"Ġuidimus":7464,"Ġuolentes":7465,"Ġhe":7466,"Ġpromissa":7467,"cop":7468,"Ġhug":7469,"Ġoctauo":7470,"cn":7471,"ring":7472,"Ġdimic":7473,"hen":7474,"Ġdiuinitatem":7475,"Ġligna":7476,"Ġpip":7477,"urb":7478,"Î¹Î±":7479,"ique":7480,"Ġpraesentium":7481,"Ġrestat":7482,"itarum":7483,"othec":7484,"Ġplurimis":7485,"Ġsabbati":7486,"Ġpaulatim":7487,"Ġcli":7488,"atiuum":7489,"Ġpraeiudic":7490,"issus":7491,"ardo":7492,"Ġcyri":7493,"Ġartis":7494,"Ġbarbar":7495,"Ġaltaris":7496,"Ġalac":7497,"Ġhistoriam":7498,"Ġiucund":7499,"Ġquandiu":7500,"Ġcoc":7501,"Ġpeculi":7502,"Ġausus":7503,"Ġreferre":7504,"Ġkalend":7505,"acem":7506,"Ġproi":7507,"Ġnegatio":7508,"Ġuenientes":7509,"Ġnefas":7510,"ect":7511,"Ġlongius":7512,"Ġeuer":7513,"Ġinquisi":7514,"uxerunt":7515,"ellarum":7516,"Ġpraesent":7517,"Ġidi":7518,"Ġgre":7519,"ciae":7520,"abas":7521,"Ġobtemper":7522,"Ġperfecte":7523,"Ġgrand":7524,"Ġsagit":7525,"Ġfiducia":7526,"Ġhebdomad":7527,"Ġ!":7528,"Ġinterius":7529,"Ġamicum":7530,"Ġphantas":7531,"Ġgut":7532,"Ġualeant":7533,"Ġsacratissim":7534,"Ġschism":7535,"Ġpicta":7536,"uentur":7537,"Ġintentio":7538,"Ġcomple":7539,"Ġaudiuimus":7540,"Ġtrinitate":7541,"Ġpassiones":7542,"dun":7543,"Ġquaelibet":7544,"Ġlibere":7545,"obrem":7546,"Ġterrib":7547,"Ġsacerdotem":7548,"Ġlub":7549,"Ġsurrexit":7550,"Ġdiligentius":7551,"erti":7552,"Ġplang":7553,"Ġincl":7554,"Ġmilitiae":7555,"Ġfacultatem":7556,"erebatur":7557,"Ġuulgo":7558,"Ġpossessionem":7559,"Ġintrare":7560,"tol":7561,"Ġgrauius":7562,"ĠÏĢÎµÏģÎ¹":7563,"Ġpatric":7564,"Ġdesideria":7565,"Ġdiuinitas":7566,"Ġsuau":7567,"Ġintelligentiam":7568,"Ġoperari":7569,"Ġexperi":7570,"Ġinsipi":7571,"Ġcultu":7572,"Ġuenite":7573,"Ġconfiteri":7574,"Ġcharta":7575,"ÎµÎ¹ÏĤ":7576,"Ġcicer":7577,"Ġmaiorum":7578,"Ġabsur":7579,"Ġscandali":7580,"Ġsabbato":7581,"obus":7582,"Ġfuga":7583,"Ġproteg":7584,"Ġafrica":7585,"Ġpraedicatione":7586,"Ġaccipitur":7587,"Ġassyri":7588,"Ġdesuper":7589,"gite":7590,"Ġcredendum":7591,"Ġconscientiam":7592,"Ġconson":7593,"Ġcogitatione":7594,"Ġlus":7595,"Ġdamna":7596,"Ġpaupert":7597,"Ġalienis":7598,"Ġabys":7599,"Ġtransc":7600,"Ġfaciamus":7601,"ĠÎµÎ¹ÏĤ":7602,"Ġaltum":7603,"Ġdignosc":7604,"Ġcepit":7605,"Ġ>":7606,"ectum":7607,"corum":7608,"Ġserua":7609,"Ġdedisti":7610,"Ġprouinciam":7611,"Ġfum":7612,"Ġmensibus":7613,"Ġgus":7614,"Î¿Ïģ":7615,"idie":7616,"Ġuinculo":7617,"quamur":7618,"uendi":7619,"Ġuelis":7620,"Ġaduentus":7621,"Ġeuas":7622,"Ġeueni":7623,"Ġpresbyterum":7624,"Ġsepulcrum":7625,"Ġmentibus":7626,"Ġcaeles":7627,"Ġuotis":7628,"Ġexistere":7629,"Ġiudicat":7630,"Ġnegotiis":7631,"Ġlegum":7632,"Ġtiber":7633,"ode":7634,"Ġcredentibus":7635,"Ġpraedicatores":7636,"Ġmagistrum":7637,"Ġnatalis":7638,"iÃ¾":7639,"Ġlegati":7640,"Ġfacinus":7641,"Ġnaturali":7642,"igur":7643,"Ġage":7644,"Ġsequentibus":7645,"Ġrespondens":7646,"Ġopem":7647,"Ġcada":7648,"ricem":7649,"acti":7650,"Ġscelus":7651,"Ġhaereticis":7652,"ceperat":7653,"Ġsuperna":7654,"Ġdederit":7655,"Ġcibus":7656,"Ġperdit":7657,"Ġprolix":7658,"Ġsicc":7659,"Ġuicem":7660,"Ġmoli":7661,"Ġgentiles":7662,"Ġpanes":7663,"Ġinterm":7664,"Ġhonores":7665,"col":7666,"ceperit":7667,"Ġparoch":7668,"Ġfuissent":7669,"Ġflumen":7670,"Ġpraecipimus":7671,"Ġquasdam":7672,"Ġutile":7673,"Ġsuprem":7674,"Ġsimilitudo":7675,"Ġpossidet":7676,"Ġadiu":7677,"Ġcuiusque":7678,"Ġquartum":7679,"oratio":7680,"Ġmaximus":7681,"Ġimmob":7682,"Ġliberos":7683,"Ġanimalium":7684,"Ġsuperbiae":7685,"Ġdaret":7686,"Ġoportere":7687,"Ġdextra":7688,"Ġalexandr":7689,"Ġconsurg":7690,"issimos":7691,"Ġmembrorum":7692,"Ġkar":7693,"Ġproficisc":7694,"umento":7695,"Ġmouet":7696,"Ġpsalmi":7697,"auerint":7698,"sac":7699,"Ġiustos":7700,"Ġiacobus":7701,"Ġmortuo":7702,"Ġruf":7703,"Ġuenus":7704,"Ġcognoscit":7705,"Ġfuturam":7706,"plur":7707,"Ġeuidenter":7708,"etu":7709,"timur":7710,"Ġperfecti":7711,"Ġnolo":7712,"Ġfurore":7713,"Ġagunt":7714,"Ġpraep":7715,"Ġprodesse":7716,"Ġopinionem":7717,"gere":7718,"iturum":7719,"Ġsuble":7720,"Ġcommitt":7721,"ose":7722,"Ġpotui":7723,"assis":7724,"he":7725,"ÏĦÎµÏĤ":7726,"pis":7727,"Ġaliquos":7728,"Ġintelligimus":7729,"Ġrecip":7730,"Ġuocati":7731,"Ġuocari":7732,"Ġexhibere":7733,"ĠÎ±ÏħÏĦÎ¿Ïħ":7734,"Ġabj":7735,"Ġdatus":7736,"Ġsimilem":7737,"rid":7738,"Ġpropi":7739,"stanti":7740,"Ġsue":7741,"Ġacies":7742,"Ġhib":7743,"Ġagimus":7744,"Ġiussu":7745,"Ġcognomin":7746,"Ġnobili":7747,"Ġuulner":7748,"Ġorationes":7749,"Ġinclus":7750,"Ġcalicem":7751,"Ġimperi":7752,"Ġblandi":7753,"Ġsubdiacon":7754,"Î¿Î´":7755,"Ġhospit":7756,"Ġpeperit":7757,"Ġingenii":7758,"Ġsubter":7759,"Ġcoepiscop":7760,"Ġcorneli":7761,"Ġdixisti":7762,"Ġauctores":7763,"Ġaccipiunt":7764,"ure":7765,"Ġgalilae":7766,"las":7767,"Ġimpiorum":7768,"Ġnouam":7769,"Ġsexus":7770,"Ġinteritum":7771,"Ġsignificare":7772,"Ġtristitia":7773,"Ġalto":7774,"Ġpublicam":7775,"acto":7776,"Ġindicat":7777,"Ġspei":7778,"Ġuiuunt":7779,"Ġsorte":7780,"Ġtenta":7781,"Ġauers":7782,"Ġuap":7783,"Ġpraecepto":7784,"ebris":7785,"Ġdiuersas":7786,"Ġdaemonum":7787,"Ġcell":7788,"alec":7789,"Ġsedit":7790,"Ġnominatur":7791,"Ġfamilia":7792,"Ġrenou":7793,"Ġdilectus":7794,"Ġhistoriae":7795,"Ġuaria":7796,"Ġrespectu":7797,"Ġsemina":7798,"quaque":7799,"Ġclericos":7800,"Ġfamiliar":7801,"Ġpaschae":7802,"untes":7803,"Ġreuera":7804,"Ġtrepid":7805,"Ġfacite":7806,"Ġconuertit":7807,"Ġnimia":7808,"Ġuideant":7809,"Ġefficitur":7810,"Ġdecretum":7811,"Ġscandalum":7812,"Ġsubti":7813,"Ġplerique":7814,"Î¹Î±Î½":7815,"Ġingenti":7816,"Ġconsistit":7817,"inf":7818,"Ġrepeti":7819,"Ġcolor":7820,"Ġrepreh":7821,"Ġuetust":7822,"Ġuxoris":7823,"Ġuidebantur":7824,"Ġsacerdotium":7825,"Ġtric":7826,"Ġgenerationem":7827,"Ġacceperunt":7828,"Ġrectum":7829,"amina":7830,"Ġuoluerunt":7831,"Ġdederunt":7832,"Ġnaz":7833,"Ġpudici":7834,"Ġmagistro":7835,"Ġtransit":7836,"Ġcopios":7837,"Ġdiffini":7838,"Ġgradum":7839,"Ġprofit":7840,"decimus":7841,"ulares":7842,"Ġuocabulo":7843,"Ġagendum":7844,"Ġcing":7845,"onae":7846,"Ġredem":7847,"Ġalti":7848,"Ġueste":7849,"Ġaccend":7850,"Ġtimoth":7851,"Ġlacer":7852,"Ġutrique":7853,"Ġtuarum":7854,"ellere":7855,"Ġextrema":7856,"Ġsuus":7857,"Ġimput":7858,"Ġueniret":7859,"Ġreligio":7860,"Ġcomitem":7861,"Ġcontri":7862,"Ġcertamen":7863,"Ġfuturae":7864,"ommod":7865,"Ġbaptismi":7866,"Ġingenium":7867,"Ġaccedere":7868,"lla":7869,"Ġobedientiam":7870,"Ġinest":7871,"Ġdilat":7872,"Ġdissimul":7873,"Ġsecuti":7874,"Ġprodig":7875,"Ġelementa":7876,"Ġquodque":7877,"Ġuindictam":7878,"Ġreip":7879,"Ġuestrorum":7880,"Ġsomno":7881,"Ġier":7882,"Ġcun":7883,"Ġinced":7884,"Ġstren":7885,"Ġbaptismatis":7886,"Ġciuitatibus":7887,"Ġpietatem":7888,"Ġsubuer":7889,"igitur":7890,"Ġappos":7891,"Ġimpetu":7892,"aeter":7893,"Ġreuol":7894,"Ġueritati":7895,"ÏīÏĦ":7896,"Ġcaeteros":7897,"ht":7898,"Ġremitt":7899,"Ġinob":7900,"Ġinquis":7901,"Ġconcupiscentia":7902,"Ġferrum":7903,"Ġactionis":7904,"Ġeumque":7905,"Ġobsequium":7906,"ulp":7907,"oria":7908,"Ġfuere":7909,"Î±Î¼":7910,"ortes":7911,"ĠÎµÎ¾":7912,"Ġsocietate":7913,"Ġaperuit":7914,"Ġfelicis":7915,"Ġcontinentur":7916,"âŁ¨":7917,"udi":7918,"Ġdespici":7919,"âŁ©":7920,"Ġdiutur":7921,"Ġpropiti":7922,"Î¹Î±ÏĤ":7923,"Ġcarnes":7924,"Ġfecimus":7925,"Ġirre":7926,"Ġgeneratio":7927,"Ġiunii":7928,"Ġaquit":7929,"Ġarrog":7930,"Ġintrauit":7931,"pore":7932,"Ġepiscopatus":7933,"Ġaeterno":7934,"onos":7935,"Ġgraecis":7936,"Ġliberat":7937,"Ġfueris":7938,"Ġlatron":7939,"Ġuocabulum":7940,"uendo":7941,"erere":7942,"Ġaltari":7943,"Ġcancell":7944,"Ġ...":7945,"Ġangelo":7946,"ibunt":7947,"ĠÎ±Î¹":7948,"Ġestote":7949,"Ġburg":7950,"Ġexercit":7951,"Ġlapidibus":7952,"Ġsedet":7953,"Ġsaluatorem":7954,"Ġquaesi":7955,"Ġpraestat":7956,"Ġhumanitatis":7957,"taret":7958,"Ġmisericors":7959,"bet":7960,"Ġaccommod":7961,"Ġpassi":7962,"Ġfoue":7963,"Ġtotidem":7964,"Ġadri":7965,"Ġmaneat":7966,"Ġportae":7967,"Ġanteced":7968,"orius":7969,"Ġcreator":7970,"Ġofferre":7971,"Ġrationibus":7972,"Î¿Î¼":7973,"Ġcanonicis":7974,"Ġnatiuitatis":7975,"Ġpromer":7976,"Ġiratus":7977,"Ġpraedicationem":7978,"Ġcalce":7979,"Ġscribitur":7980,"Ġaemul":7981,"Ġgrammati":7982,"Ġfar":7983,"Ġexpet":7984,"Ġobtinuit":7985,"Ġuniuersae":7986,"mix":7987,"Ġsali":7988,"Ġcursus":7989,"Ġrediit":7990,"xerunt":7991,"Ġsenatu":7992,"Ġgregorii":7993,"Ġnequ":7994,"Ġsaluus":7995,"amentis":7996,"Ġclamat":7997,"Ġconfessoris":7998,"Ġobliuisc":7999,"Ġbeatitudinis":8000,"itibus":8001,"enorum":8002,"Ġuniuerso":8003,"js":8004,"Ġirration":8005,"entissimus":8006,"Ġintercess":8007,"Ġanx":8008,"Ġinfirmitatem":8009,"Ġappareat":8010,"Ġgeneratione":8011,"man":8012,"Ġessem":8013,"Ġulc":8014,"Ġsecurus":8015,"Ġlinea":8016,"Ġpoenae":8017,"Ġdecess":8018,"Ġfeminae":8019,"ĠÏĦÎ¹":8020,"Ġcuique":8021,"Ġsimilitudine":8022,"Ġconscientiae":8023,"Ġabscondit":8024,"Ġiudice":8025,"Ġdimis":8026,"Ġterritor":8027,"Ġcarnalis":8028,"Ġinfirmitas":8029,"Ġluminis":8030,"Ġheu":8031,"Ġidola":8032,"Ġarchiepiscopum":8033,"Ġeffer":8034,"Ġinsula":8035,"Ġfluuius":8036,"erua":8037,"Ġpenes":8038,"Ġagri":8039,"Ġloquens":8040,"Ġinimicorum":8041,"Ġclericus":8042,"Ġincommut":8043,"Ġchriste":8044,"Ġminorem":8045,"Ġmiraculis":8046,"lit":8047,"mul":8048,"Ġuotum":8049,"elem":8050,"Ġconfort":8051,"Ġdiuites":8052,"Ġquousque":8053,"Ġsoluit":8054,"Ġexar":8055,"Ġaccedit":8056,"Ġpoteris":8057,"Ġpoenis":8058,"Ġdesignatur":8059,"Ġpotestates":8060,"Ġeuoc":8061,"gred":8062,"fo":8063,"Ġimpiis":8064,"Ġueterum":8065,"Ġcu":8066,"Ġmax":8067,"Ġthess":8068,"Ġgel":8069,"Ġlauac":8070,"Ġ)":8071,"Ġconfic":8072,"Ġobuiam":8073,"Ġpatron":8074,"Ġiup":8075,"idere":8076,"aberis":8077,"Ġexclam":8078,"Ġconstanti":8079,"Ġinstituit":8080,"Ġoriginem":8081,"Ġpersuad":8082,"Ġsequatur":8083,"Ġarbor":8084,"Ġpalatio":8085,"Ġhumilitas":8086,"ennae":8087,"Ġexclus":8088,"phona":8089,"Ġepistolas":8090,"Ġorientem":8091,"Ġeuty":8092,"erii":8093,"risque":8094,"Ġinuisibi":8095,"Ġmonachos":8096,"ribi":8097,"Ġcastr":8098,"Ġpermanere":8099,"Ġprocedere":8100,"Ġconcordia":8101,"hos":8102,"Ġprou":8103,"Ġmarti":8104,"Ġsignificatur":8105,"acius":8106,"Ġidololat":8107,"Ġrelax":8108,"Ġmerces":8109,"aremus":8110,"Ġcelebrare":8111,"enÅ¿":8112,"Ġchron":8113,"Ġsynodi":8114,"Ġpatrocin":8115,"Ġxxii":8116,"Ġexterius":8117,"Ġuenerabiles":8118,"ittimus":8119,"Ġuelim":8120,"Ġfiduciam":8121,"praedic":8122,"Ġsegreg":8123,"Ġhabeatur":8124,"Ġquamobrem":8125,"itemur":8126,"Ġoptimum":8127,"arumque":8128,"Î±ÏħÏĦ":8129,"ipse":8130,"Ġoccisus":8131,"Ġdilexit":8132,"Ġmuros":8133,"Ġstephanus":8134,"Ġsubditur":8135,"Ġfortes":8136,"Ġstella":8137,"Ġsuspend":8138,"Ġredarg":8139,"Ġdiligentia":8140,"Ġplebe":8141,"Ġpastores":8142,"form":8143,"alon":8144,"Ġcomiti":8145,"Ġgeneri":8146,"Ġaudiunt":8147,"Ġdiscipulus":8148,"Ġmartyr":8149,"Ġhortatur":8150,"Ġpontifice":8151,"Ġsentit":8152,"bum":8153,"Ġeth":8154,"Ġcili":8155,"Ġcert":8156,"Ġgallic":8157,"Ġsto":8158,"Ġincredi":8159,"Ġerudi":8160,"Ġeasdem":8161,"Ġtrop":8162,"gisse":8163,"Ġcomparatione":8164,"Ġpericulos":8165,"Ġcooper":8166,"Ġcultus":8167,"Ġbenedictione":8168,"Ġstra":8169,"Ġconsiliis":8170,"Ġnaues":8171,"Ġpercussit":8172,"Ġduplex":8173,"Ġarrip":8174,"itatu":8175,"Ġarab":8176,"ÎµÎ²":8177,"Ġconfitetur":8178,"Ġbeatitudinem":8179,"Ġquinquag":8180,"Î·Ïģ":8181,"Ġsupplicium":8182,"Ġteste":8183,"Ġtun":8184,"ceb":8185,"Ġxix":8186,"Ġmuni":8187,"Ġagnus":8188,"Ġinhaer":8189,"Ġanastas":8190,"Ġinterf":8191,"Ġstet":8192,"Ġignomin":8193,"Ġuenturus":8194,"Ġconcessit":8195,"Ġcustodire":8196,"Ġoccidere":8197,"Ġtestimoniis":8198,"oniis":8199,"Ġoppugn":8200,"Ġprioris":8201,"tari":8202,"Ġeram":8203,"Ġdoloris":8204,"Ġpresbytero":8205,"Ġconfessus":8206,"Ġreprehens":8207,"Ġsemetipso":8208,"Ġpublico":8209,"Ġphilosophus":8210,"Ġimmerito":8211,"Ġspiritui":8212,"ĠÏĢÏģÎ¿ÏĤ":8213,"chi":8214,"Ġperire":8215,"Ġloquor":8216,"Ġconduc":8217,"Ġreleg":8218,"Ġduci":8219,"Ġrefertur":8220,"Ġite":8221,"Ġprouis":8222,"Ġhierosolym":8223,"ÏīÏĥ":8224,"ricum":8225,"Ġexpedit":8226,"Ġdr":8227,"Ġeuac":8228,"quos":8229,"quot":8230,"Ġpy":8231,"Ġpann":8232,"Ġeur":8233,"Ġbitur":8234,"Ġquocumque":8235,"oci":8236,"Ġtheolog":8237,"Ġsonat":8238,"Ġmortific":8239,"ĠÎ¼ÎµÏĦ":8240,"Ġpaucos":8241,"Ġopinio":8242,"Ġitaliae":8243,"Ġpentec":8244,"Ġaeccles":8245,"Ġinterfici":8246,"Ġiniquitates":8247,"ugo":8248,"Ġobr":8249,"Ġsociis":8250,"Ġsollicitudine":8251,"Ġdonauit":8252,"Ġministri":8253,"Ġconueniunt":8254,"Ġdiuitiis":8255,"Ġmonet":8256,"Ġfamul":8257,"Ġhabuerunt":8258,"Ġcreatoris":8259,"berti":8260,"Ġdelicta":8261,"Ġfraude":8262,"Ġexerci":8263,"Ġnorm":8264,"Ġmagnitudinem":8265,"Ġobtinere":8266,"Ġaudientes":8267,"Ġloquar":8268,"Ġeuangeliz":8269,"Ġdextris":8270,"Ġarchiepiscopi":8271,"Ġorg":8272,"Ġbonif":8273,"Ġagat":8274,"Ġcognitio":8275,"Ġrobus":8276,"Ġsalomonis":8277,"Ġoporteat":8278,"Ġsecundam":8279,"auere":8280,"Ġnomini":8281,"unquam":8282,"Ġconuinc":8283,"Ġextor":8284,"Ġincumb":8285,"Ġmercur":8286,"Ġueneris":8287,"ĠÎ¿Î¼":8288,"ennium":8289,"Ġcompunc":8290,"Ġmatri":8291,"Ġpriuilegio":8292,"err":8293,"Ġsoph":8294,"icitur":8295,"Ġconuersatione":8296,"Ġbeneficiis":8297,"Ġsocietatem":8298,"Ġexcipi":8299,"Ġoccur":8300,"Ġeamque":8301,"Ġuiuens":8302,"ĠÏħÏĢÎ¿":8303,"Ġpuella":8304,"Ġindustria":8305,"Ġliberis":8306,"Ġdicentis":8307,"raret":8308,"Ġgaudere":8309,"Ġqualitate":8310,"imper":8311,"Ġpeccatoribus":8312,"Ġnouerat":8313,"Ġcrem":8314,"Ġlaz":8315,"Ġpoterunt":8316,"def":8317,"Ġlax":8318,"atiz":8319,"Ġinfelic":8320,"abitis":8321,"Ġpala":8322,"Ġplate":8323,"Ġcornu":8324,"Ġinterest":8325,"Ġinep":8326,"Ġfrem":8327,"ÏģÎ¿Î½":8328,"Ġcognoscat":8329,"bon":8330,"Ġeun":8331,"Ġartem":8332,"Ġobitum":8333,"Ġstabil":8334,"Ġdefinitio":8335,"Ġcalumni":8336,"anem":8337,"Ġaurem":8338,"Ġerrores":8339,"Ġsymb":8340,"cuiusque":8341,"Ġconce":8342,"Ġdebes":8343,"erna":8344,"rico":8345,"Ġspiritualiter":8346,"Ġsexaginta":8347,"Ġfle":8348,"acis":8349,"Ġoce":8350,"Ġquaeris":8351,"Ġfecund":8352,"Ġiuuenes":8353,"Ġparatus":8354,"Ġarcam":8355,"Ġnatiuitate":8356,"Ġcondidit":8357,"Ġsodom":8358,"cemodi":8359,"cium":8360,"uerim":8361,"Ġdict":8362,"Ġprofund":8363,"undiam":8364,"Ġcaptiuitatem":8365,"Ġianuarii":8366,"Ġhaus":8367,"ly":8368,"Ġdignetur":8369,"Ġaequaliter":8370,"Ġquandam":8371,"Ġpriori":8372,"Ġinjuste":8373,"Ġderelinqu":8374,"Ġques":8375,"Ġdeorsum":8376,"Ġpatrim":8377,"Ġquotiens":8378,"Ġmeminit":8379,"Ġreipublic":8380,"Ġnica":8381,"Ġspre":8382,"Ġtei":8383,"Ġpecuniae":8384,"Ġconcedimus":8385,"pul":8386,"Ġadn":8387,"Ġsoluere":8388,"Ġcaroli":8389,"Ġpetram":8390,"Ġlucas":8391,"Ġducere":8392,"Ġquorumdam":8393,"taur":8394,"fam":8395,"Ġexsul":8396,"Ġlectio":8397,"Ġfelici":8398,"Ġuelint":8399,"Ġfaus":8400,"Ġcommissa":8401,"Ġrepl":8402,"ĠÎ¿Î¹":8403,"Ġatting":8404,"Ġsaluum":8405,"Ġmoueri":8406,"Ġaudiat":8407,"Ġcadauer":8408,"aldi":8409,"Ġsaluos":8410,"Ġaperta":8411,"Ġmissis":8412,"sermo":8413,"Ġdelec":8414,"esceret":8415,"Ġdatis":8416,"Ġagnos":8417,"Ġabstulit":8418,"issione":8419,"ĠÎ»Î¿Î³":8420,"Ġdicerent":8421,"hiop":8422,"Ġflagell":8423,"Ġdiri":8424,"Ġdefl":8425,"Ġinfinita":8426,"Ġcadit":8427,"eda":8428,"sup":8429,"Ġinfinitum":8430,"Ġtenent":8431,"Ġmensur":8432,"Ġpercuti":8433,"Ġgladius":8434,"Ġscientes":8435,"Ġexsurg":8436,"Ġpede":8437,"Ġlibertatis":8438,"Ġaciem":8439,"Ġprofut":8440,"Ġdiscess":8441,"Ġcommuniter":8442,"Î¸ÏģÏī":8443,"ĠÂ§":8444,"olici":8445,"Ġdissens":8446,"Ġraim":8447,"Ġcrimin":8448,"Ġextrane":8449,"Ġquadragesim":8450,"Ġfung":8451,"Ġiudici":8452,"Ġconuentus":8453,"Ġillec":8454,"Ġsilentium":8455,"Ġimagin":8456,"jam":8457,"Ġcen":8458,"Ġscandaliz":8459,"Ġistorum":8460,"Ġmuliere":8461,"Ġredemptor":8462,"mate":8463,"Ġcense":8464,"Ġplor":8465,"Ġconsump":8466,"Ġpriorem":8467,"Ġappellatione":8468,"Î´Îµ":8469,"Ġsedere":8470,"Ġpraer":8471,"Ġrespondet":8472,"Ġciuibus":8473,"Ġsagitt":8474,"Î¿ÏħÎ½":8475,"Ġsingulari":8476,"Ġtribulatione":8477,"Ġdereli":8478,"Ġmortalium":8479,"Ġdetrac":8480,"Ġfuror":8481,"quoniam":8482,"untia":8483,"Ġcaritas":8484,"Ġconfestim":8485,"Ġpago":8486,"Ġconual":8487,"Ġauaritia":8488,"irca":8489,"Ġagrum":8490,"Ġuicit":8491,"Ġsubscrip":8492,"Ġlibertas":8493,"Ġcapitulum":8494,"enso":8495,"Ġpaene":8496,"Ġpossidere":8497,"Ġfluminis":8498,"Ġprouincias":8499,"praeterea":8500,"Ġecclesiasticae":8501,"Ġfestum":8502,"aturi":8503,"Ġcogitationibus":8504,"Ġperpetuam":8505,"Ġcicero":8506,"Ġdeberet":8507,"itr":8508,"Ġcaritate":8509,"Ġcontinu":8510,"ymp":8511,"Ġextremo":8512,"Ġpugna":8513,"Ġbaptizati":8514,"Ġconspici":8515,"Ġnarrat":8516,"erp":8517,"Ġloquuntur":8518,"Ġfacimus":8519,"Ġnouerit":8520,"Ġconsequenter":8521,"Ġlunam":8522,"Ġbeatorum":8523,"Ġnutr":8524,"aeo":8525,"Ġdignitas":8526,"Ġuenientem":8527,"Ġreuerentiam":8528,"ecce":8529,"Ġcondita":8530,"Ġprobare":8531,"Ġgaudet":8532,"titerunt":8533,"Ġaudita":8534,"Ġpraedicti":8535,"Ġbaptisma":8536,"Ġsufficere":8537,"Ġdilecto":8538,"Ġiner":8539,"Ġlegere":8540,"Ġinscrip":8541,"Ġinflamm":8542,"Ġiacet":8543,"Ġaccipe":8544,"Ġapprehend":8545,"Ġhoste":8546,"Ġantiquis":8547,"Ġuulnus":8548,"eunte":8549,"Ġsacrosanc":8550,"Ġot":8551,"Ġaurea":8552,"Ġsimulque":8553,"Ġsalutaris":8554,"Ġregionem":8555,"Ġpio":8556,"Ġdecimas":8557,"Ġcanis":8558,"Ġdimisit":8559,"Ġposterum":8560,"tamin":8561,"Ġreperitur":8562,"Ġconstitutis":8563,"Ġimagines":8564,"Ġfata":8565,"Ġasserit":8566,"tali":8567,"Ġprouer":8568,"Ġinuenti":8569,"Ġsuscipit":8570,"Ġcentur":8571,"Ġhes":8572,"Ġlumina":8573,"issi":8574,"Ġnoctu":8575,"Ġaugusto":8576,"Ġteneat":8577,"Ġterre":8578,"doc":8579,"xerit":8580,"Ġexire":8581,"Ġfacultas":8582,"Ġscis":8583,"Ġsusc":8584,"Ġcontrah":8585,"Ġdicantur":8586,"machus":8587,"Ġobi":8588,"Ġsempiternum":8589,"Ġignorat":8590,"Ġutr":8591,"Ġgentilium":8592,"Ġcupiditate":8593,"Ġcrucifixus":8594,"uiae":8595,"Ġlegit":8596,"Ġappend":8597,"Ġcoelestem":8598,"Ġlasci":8599,"Ġrug":8600,"Ġsuperest":8601,"Ġuituper":8602,"Ġintelligentia":8603,"Ġpetiit":8604,"Ġduplici":8605,"Ġlegitime":8606,"Ġresistere":8607,"Ġhuiuscemodi":8608,"Ġphys":8609,"Ġlxxx":8610,"psam":8611,"Ġmariam":8612,"Ġimpius":8613,"Ġquocunque":8614,"eriorum":8615,"Ġnouae":8616,"Ġtecta":8617,"Ġinsidiis":8618,"Ġinebri":8619,"Ġquaero":8620,"Ġcontex":8621,"Ġamplec":8622,"Ġprostr":8623,"Ġdeitatis":8624,"Ġperfer":8625,"Ġfuturorum":8626,"Ġmateriae":8627,"ifer":8628,"Ġcolla":8629,"Ġtenetur":8630,"Ġmeliora":8631,"Ġimitari":8632,"Ġfebru":8633,"arat":8634,"Ġdespic":8635,"Ġaugustus":8636,"Ġuniuscuiusque":8637,"Ġlacte":8638,"Ġmortale":8639,"Ġcodice":8640,"Ġdrac":8641,"Ġurbs":8642,"Ġplurimi":8643,"Ġcarolus":8644,"Ġsingularis":8645,"dei":8646,"Ġdesignat":8647,"Ġbasilica":8648,"Ġexitus":8649,"Ġullum":8650,"Ġrespicit":8651,"Ġcohib":8652,"Ġdesertum":8653,"Ġfors":8654,"Ġchristian":8655,"Ġremig":8656,"uenda":8657,"Ġperpend":8658,"estes":8659,"ĠÏĦÎ¿Î¹ÏĤ":8660,"Å¿t":8661,"scrip":8662,"amet":8663,"Ġpraedictis":8664,"Ġaera":8665,"Ġagros":8666,"Ġargento":8667,"Ġmolli":8668,"Ġconuerti":8669,"Ġoperationem":8670,"titisse":8671,"Ġcorinthi":8672,"xu":8673,"Ġdehinc":8674,"Ġparad":8675,"Ġamis":8676,"Ġaudiant":8677,"Ġuenturum":8678,"Ġsepulcro":8679,"Ġpericulis":8680,"Ġpraetere":8681,"Ġsicili":8682,"Ġforti":8683,"Ġmuneris":8684,"nihil":8685,"Ġorigine":8686,"Ġdetur":8687,"Ġcertis":8688,"Ġaccepto":8689,"Ġhaeresis":8690,"Ġcrucifig":8691,"marcus":8692,"cre":8693,"Ġcontag":8694,"Ġposuerunt":8695,"Ġscop":8696,"Ġregionibus":8697,"Ġconfl":8698,"Ġtotis":8699,"Ġinobedi":8700,"Ġpublicis":8701,"Ġliu":8702,"Ġromanam":8703,"Ġpulcherrim":8704,"Ġmartii":8705,"Ġcomprehens":8706,"Ġseruat":8707,"Ġsententias":8708,"Ġfortassis":8709,"Ġinsepar":8710,"Ġmorbo":8711,"Ġpoli":8712,"aneant":8713,"Ġsponsus":8714,"Ġpectora":8715,"ramque":8716,"Ġexercere":8717,"mat":8718,"ccc":8719,"Ġsolidos":8720,"Ġfateor":8721,"Ġphilosophi":8722,"Ġorta":8723,"Ġmysterio":8724,"Ġpei":8725,"Ġuiuo":8726,"crut":8727,"Ġaeterni":8728,"Ġuisione":8729,"Ġrhet":8730,"Ġorthodox":8731,"rific":8732,"Ġpraedicat":8733,"Ġsequentes":8734,"Ġmunda":8735,"Ġuiuat":8736,"horr":8737,"Ġcubi":8738,"Ġcatholici":8739,"ensque":8740,"Ġsecundae":8741,"Ġsuccessit":8742,"annus":8743,"Ġsecundi":8744,"Ġuidetis":8745,"Ġclarific":8746,"Ġtela":8747,"Ġundec":8748,"Ġlibero":8749,"Ġcirciter":8750,"Ġlass":8751,"Ġfacientes":8752,"Ġsupplicia":8753,"Ġprophetia":8754,"Ġplaga":8755,"Ġbibliothec":8756,"Ġsponsa":8757,"Ġguid":8758,"Ġignosc":8759,"Ġualere":8760,"Ġplebs":8761,"Ġimbec":8762,"Ġreliquias":8763,"gna":8764,"Ġpetere":8765,"Ġfalso":8766,"Ġmitte":8767,"Ġalexander":8768,"Ġuideris":8769,"Ġplurimos":8770,"odes":8771,"Ġexitum":8772,"Ġappetit":8773,"Ġcher":8774,"Ġmont":8775,"Ġopusc":8776,"Ġbreuis":8777,"tax":8778,"Ġinferre":8779,"Ġceterum":8780,"norum":8781,"tend":8782,"Ġpapam":8783,"Ġseruitutis":8784,"Ġsequens":8785,"Ġtimet":8786,"Ġmetus":8787,"Ġinuidiam":8788,"Ġflex":8789,"Ġregr":8790,"Ġie":8791,"Î±ÏĥÎ¹":8792,"Ġimplet":8793,"Ġreipublicae":8794,"Ġcreatorem":8795,"Ġdefendere":8796,"Ġepiscopatu":8797,"uz":8798,"Ġsaecularis":8799,"Ġimplor":8800,"Ġintelligentiae":8801,"utiones":8802,"Ġtristis":8803,"Ġresurrectio":8804,"Ġdiuisio":8805,"ulisti":8806,"Ġpericula":8807,"Ġpostulat":8808,"imum":8809,"Ġrectitud":8810,"Ġculpae":8811,"Ġgessit":8812,"Ġpedem":8813,"Ġsupernae":8814,"Ġuices":8815,"Ġcuiquam":8816,"Ġillustri":8817,"Ġusibus":8818,"Ġprioribus":8819,"Ġualentini":8820,"erare":8821,"Ġoblitus":8822,"Ġfortitudinem":8823,"Ġpertrans":8824,"Ġsecuri":8825,"Ġintulit":8826,"Ġprohibet":8827,"Ġconcordiam":8828,"her":8829,"Ġelectionem":8830,"Ġclara":8831,"Ġperdidit":8832,"augus":8833,"Ġinuic":8834,"Ġpermisit":8835,"Ġproxima":8836,"Ġuor":8837,"idas":8838,"Ġnonas":8839,"Ġcreata":8840,"ymph":8841,"imi":8842,"Ġarce":8843,"Ġplenam":8844,"Ġdebeamus":8845,"Ġfluctus":8846,"Ġodit":8847,"Ġmeritorum":8848,"Ġpse":8849,"ong":8850,"Ġortu":8851,"Ġstrep":8852,"Ġpresbyteris":8853,"Ġcapitula":8854,"ensu":8855,"Ġuultum":8856,"Ġspeciei":8857,"piter":8858,"Ġinquiunt":8859,"Ġdicendi":8860,"Ġspati":8861,"temus":8862,"pressit":8863,"Ġauditis":8864,"Ġmirabilia":8865,"Ġmulierum":8866,"Ġobd":8867,"Ġcapta":8868,"Ġrod":8869,"Ġrad":8870,"psal":8871,"Ð¾":8872,"essi":8873,"Ġalloqu":8874,"Ġstipend":8875,"Ġillico":8876,"Ġathanas":8877,"Ġtalium":8878,"Ġrecol":8879,"Ġconuersationis":8880,"Ġfontes":8881,"entissimo":8882,"Ġcertamine":8883,"Ġlabia":8884,"Ġmetal":8885,"itores":8886,"Ġbos":8887,"Ġnep":8888,"Ġpurific":8889,"Ġductus":8890,"Ġlocup":8891,"Ġcaptus":8892,"Ġprincipia":8893,"Ġsilu":8894,"Ġinclud":8895,"Ġadiec":8896,"Ġdato":8897,"Ġinfund":8898,"Ġuictum":8899,"Ġtumultu":8900,"Ġautum":8901,"Ġcarp":8902,"Ġessentiam":8903,"Ġtin":8904,"Ġcomites":8905,"Ġdilecti":8906,"Ġaltitudinem":8907,"pad":8908,"esit":8909,"essa":8910,"Ġcels":8911,"Ġsacrificia":8912,"Ġlitig":8913,"Ġattest":8914,"Ġconclusio":8915,"Ġmagnitudo":8916,"Ġsacrorum":8917,"Ġapocaly":8918,"Ġbonitate":8919,"Ġpraecess":8920,"Ġrati":8921,"Ġrestaur":8922,"ilitatis":8923,"Ġepistolis":8924,"Ġlector":8925,"Ġcurios":8926,"neque":8927,"Ġplacitum":8928,"abilius":8929,"Ġignorantia":8930,"Ġcaritatis":8931,"Ġsententiis":8932,"Ġdimitte":8933,"Ġinuenies":8934,"Ġretr":8935,"Ġprogeni":8936,"Ġartibus":8937,"Ġsanctitate":8938,"meti":8939,"Ġcircuit":8940,"Ġexplan":8941,"Ġindicium":8942,"Ġah":8943,"Ġspatia":8944,"Ġinsinu":8945,"Ġdomibus":8946,"Ġunda":8947,"Ġpraedam":8948,"Ġsubjici":8949,"Ġlibr":8950,"Ġeique":8951,"Ġmedioc":8952,"Ġcognitione":8953,"Ġparticipes":8954,"Ġacie":8955,"Ġgenitus":8956,"ĠÏĢÎ±Î½ÏĦ":8957,"Ġgeorg":8958,"ee":8959,"Ġuentum":8960,"Ġantiqua":8961,"Ġlinguis":8962,"Ġnationes":8963,"Ġchalced":8964,"ĠÎºÎ±Î¸":8965,"Ġiidem":8966,"Ġrationalis":8967,"ï¿½ï¿½":8968,"Ġammon":8969,"Ġministros":8970,"Ġpriuilegia":8971,"Ġcustos":8972,"Ġartes":8973,"Ġmaximam":8974,"Ġarelat":8975,"ĠÎ¸ÎµÎ¿Ïħ":8976,"Ġparochi":8977,"Ġamitt":8978,"pecta":8979,"Ġcunctos":8980,"Ġmensam":8981,"Ġassumpsit":8982,"Ġspiritali":8983,"Ġmouetur":8984,"Ġaccipiens":8985,"Ġuineam":8986,"Ġequus":8987,"Ġidolorum":8988,"Ġputa":8989,"Ġsani":8990,"Ġseque":8991,"Ġsapere":8992,"Ġdonis":8993,"Ġargument":8994,"Ġcarmina":8995,"Ġloquimur":8996,"Ġalexandri":8997,"Ġeloquia":8998,"Ġmarm":8999,"ĠÏĦÎµ":9000,"urrere":9001,"Ġoctog":9002,"Ġintelligatur":9003,"Ġabscond":9004,"Ġchrys":9005,"inensis":9006,"Ġaliunde":9007,"Ġund":9008,"Ġfacerent":9009,"Ġtram":9010,"Ġlibrorum":9011,"ert":9012,"Ġneb":9013,"Ġinuad":9014,"Ġrepell":9015,"Ġspiritualibus":9016,"ĠÎ±Ïģ":9017,"Ġpertinentibus":9018,"Ġadmonet":9019,"Ġobsecr":9020,"raim":9021,"Ġalterut":9022,"phil":9023,"Ġnepot":9024,"entesimo":9025,"Ġsalui":9026,"Ġcognita":9027,"Ġrecognosc":9028,"Ġhabentem":9029,"Ġregiae":9030,"Ġsacramenti":9031,"Ġpyr":9032,"osam":9033,"Ġregnare":9034,"Ġsperare":9035,"Ġcith":9036,"Ġexercituum":9037,"fecit":9038,"Ġradice":9039,"tinae":9040,"Ġcarnalibus":9041,"Ġquindecim":9042,"Ġprofundum":9043,"Ġutuntur":9044,"Ġuixit":9045,"Ġcaud":9046,"Ġoperatio":9047,"ÏģÎ¹ÏĥÏĦ":9048,"Ġstatuimus":9049,"Ġuoto":9050,"Ġexag":9051,"Ġchristianum":9052,"Ġuerg":9053,"Ġleonem":9054,"Ġuisio":9055,"Ġpublicum":9056,"Ġpontifices":9057,"Ġpuero":9058,"Ġfluctu":9059,"Ġtempestate":9060,"Ġmic":9061,"Ġutrisque":9062,"Ġfamam":9063,"Ġcommemorat":9064,"Ġuene":9065,"Ġlectione":9066,"Ġquocirca":9067,"Ġrecuper":9068,"Ġimperatori":9069,"Ġseruitutem":9070,"Ġderelic":9071,"Ġsynagog":9072,"uente":9073,"Ġepiscopatum":9074,"Ġnegotia":9075,"Ġarn":9076,"Ġuoluerint":9077,"Ġidipsum":9078,"xii":9079,"peret":9080,"Ġferri":9081,"Ġnolunt":9082,"Ġcorporaliter":9083,"Ġnouis":9084,"Ġrationabiliter":9085,"bas":9086,"uebat":9087,"Ġpaenit":9088,"Ġpropositiones":9089,"Ġinquiet":9090,"pra":9091,"Ġdicet":9092,"Ġuestibus":9093,"Ġdiuinitate":9094,"Ġfecisset":9095,"Ġordinatus":9096,"Ġquaestione":9097,"eius":9098,"ituri":9099,"Ġpositis":9100,"Ġsumpsit":9101,"Ġpraesente":9102,"Ġthalam":9103,"Ġdeserui":9104,"Ġrequies":9105,"Ġiohannis":9106,"Ġquiete":9107,"Ġidolis":9108,"Ġpraesidio":9109,"Ġconfirmamus":9110,"ursus":9111,"ularia":9112,"iderat":9113,"Ġortum":9114,"Ġaltius":9115,"Ġargumenta":9116,"Ġorat":9117,"Ġaethiop":9118,"Ġconsules":9119,"ericus":9120,"hibi":9121,"ede":9122,"Ġabdic":9123,"Ġpraua":9124,"Ġinterpell":9125,"Ġrapi":9126,"Ġpaterna":9127,"Ġuiuendi":9128,"Ġdifferentiam":9129,"Ġchristiano":9130,"Ġeorumque":9131,"Î±Î¹ÏĤ":9132,"Ġiugo":9133,"Ġindulgentiam":9134,"omet":9135,"Ġpraesentes":9136,"itaque":9137,"Ġperfectio":9138,"uici":9139,"Ġiiii":9140,"Ġmandauit":9141,"eremur":9142,"Ġnemini":9143,"Ġtus":9144,"Ġbland":9145,"Ġrobur":9146,"Ġrebell":9147,"Ġparadisi":9148,"Ġperdere":9149,"Ġmc":9150,"Ġsanctarum":9151,"Ġdesol":9152,"contra":9153,"oniorum":9154,"Ġcorrupti":9155,"aba":9156,"ĠÎµÏĥÏĦ":9157,"Ġuictoriae":9158,"Ġuellent":9159,"Ġgraecorum":9160,"enius":9161,"Ġdeuotionis":9162,"Ġamicitia":9163,"Ġmoenia":9164,"Ġcatholicis":9165,"Ġhumiles":9166,"Ġequos":9167,"Ġexcommunicationis":9168,"Ġuiti":9169,"Ġmulieribus":9170,"Î¸ÏģÏīÏĢ":9171,"Ġelectis":9172,"Ġexamine":9173,"Ġflec":9174,"tissimam":9175,"Ġelectione":9176,"Ġextermin":9177,"uac":9178,"Ġspirituali":9179,"Ġinuisibilis":9180,"Ġquietem":9181,"uerem":9182,"Ġcurae":9183,"Ġfugere":9184,"Ġelias":9185,"Ġmyr":9186,"onensi":9187,"Ġaudistis":9188,"Ġponam":9189,"citis":9190,"Ġdimittere":9191,"Ġlatet":9192,"Ġpaginam":9193,"Ġhumanitatem":9194,"sibus":9195,"Ġcreatus":9196,"Ġmissam":9197,"Ġscribens":9198,"Ġsubstit":9199,"Ġnascuntur":9200,"quebantur":9201,"Ġuniuersam":9202,"ueniens":9203,"Ġpenetr":9204,"Ġutramque":9205,"Ġseptent":9206,"Ġmortalis":9207,"una":9208,"Ġsempiterna":9209,"Ġ=":9210,"Ġparth":9211,"Ġostendens":9212,"Ġconjung":9213,"Ġpurpur":9214,"icula":9215,"Ġcredat":9216,"ÎºÎ»Î·":9217,"Ġuiuentium":9218,"Ġmortua":9219,"Ġierosol":9220,"Ġuom":9221,"Ġrefrig":9222,"uigil":9223,"Ġdirip":9224,"Ġmalam":9225,"Ġpraedicatum":9226,"Ġfirmiter":9227,"Ġbabylonis":9228,"Ġerog":9229,"Ġspel":9230,"Ġcupit":9231,"Ġantonius":9232,"Ġsubjecta":9233,".---":9234,"erae":9235,"Ġcomite":9236,"Ġpraedicari":9237,"Ġexcess":9238,"Ġpelagi":9239,"Ġsollici":9240,"Ġfaciebat":9241,"Ġmedicus":9242,"Ġparuulis":9243,"oda":9244,"Ġdeprehend":9245,"Ġxxi":9246,"Ġxxu":9247,"Ġdominico":9248,"Ġsummus":9249,"Ġequo":9250,"Ġpraesidium":9251,"Ġnauis":9252,"Ġerimus":9253,"Ġcoerc":9254,"Ġleon":9255,"Ġreddat":9256,"Ġcherub":9257,"Ġtempla":9258,"ÏģÎµ":9259,"Ġlumin":9260,"Ġreddi":9261,"Ġpriore":9262,"Ġcaetero":9263,"Ġcircumst":9264,"Ġnaufrag":9265,"Ġscripturam":9266,"Ġorigo":9267,"Ġfluctibus":9268,"tatus":9269,"Ġpatefac":9270,"Ġirrig":9271,"Ġfenes":9272,"Ġconsortio":9273,"otam":9274,"Ġabol":9275,"Ġpleni":9276,"uidam":9277,"Ġalieno":9278,"Ġreme":9279,"Ġepiph":9280,"quando":9281,"Ġfacienda":9282,"Ġfructibus":9283,"Ġreliquum":9284,"Ġdomnus":9285,"aldo":9286,"Ġquibuslibet":9287,"Ġfierent":9288,"Ġsocios":9289,"plac":9290,"Ġdixitque":9291,"Ġcoss":9292,"Ġsimon":9293,"Ġquaestiones":9294,"Ġelectos":9295,"Ġpatriarcha":9296,"Ġpisces":9297,"Ġquing":9298,"Ġundecim":9299,"Ġsumps":9300,"Ġcredamus":9301,"Ġnonnulla":9302,"Ġoctaua":9303,"Ġuert":9304,"Ġpriores":9305,"Ġcriminis":9306,"atiuam":9307,"Ġprincipatum":9308,"Ġfrequent":9309,"Ġcaesarem":9310,"hanc":9311,"Ġexprob":9312,"Ġfilias":9313,"ÏħÏģÎ¹":9314,"Ġpresbyteros":9315,"Ġsacramentis":9316,"Ġmatthaeus":9317,"Ġdominici":9318,"Ġpraedicto":9319,"Ġdulcis":9320,"ueram":9321,"Ġdiscus":9322,"Ġastra":9323,"Ġfortitudine":9324,"Ġgrem":9325,"Ġcuris":9326,"Ġhaeresim":9327,"Ġlangob":9328,"Ġdiscrep":9329,"Ġinimicum":9330,"etiam":9331,"Ġabsc":9332,"Ġinueniuntur":9333,"Ġcustodit":9334,"Ġconstantinus":9335,"Ġmentionem":9336,"Ġuniuersali":9337,"Ġdolo":9338,"Ġdimin":9339,"Ġstrid":9340,"Ġrelicta":9341,"Ġsugges":9342,"Ġpharisae":9343,"Ġitineris":9344,"Ġconsulibus":9345,"Ġextrinsecus":9346,"Ġexceptis":9347,"Ġmeri":9348,"Ġsuperfici":9349,"prin":9350,"Ġcerti":9351,"Ġapostolicis":9352,"Ġpalp":9353,"Ġconferre":9354,"Ġimpleuit":9355,"Ġimperat":9356,"Ġregiam":9357,"Ġuisu":9358,"Ġgregem":9359,"atui":9360,"Ġamico":9361,"Ġuolebat":9362,"Ġcontentus":9363,"Ġgeneralis":9364,"Ġappellant":9365,"Ġquadring":9366,"Ġunigenitus":9367,"Ġnestor":9368,"Ġrepon":9369,"Ġbonitatis":9370,"Ġdeserta":9371,"Ġquiddam":9372,"Ġmensa":9373,"Ġacceperit":9374,"Ġpatienter":9375,"Ġtabulis":9376,"Ġconsueuit":9377,"Ġomnimodis":9378,"quibus":9379,"Ġtantus":9380,"Ġexsecr":9381,"Ġpep":9382,"ingit":9383,"quaes":9384,"Ġrationale":9385,"Ġoportebat":9386,"Ġadipisci":9387,"Ġheri":9388,"Ġauspic":9389,"secundum":9390,"Ġrecessit":9391,"Ġbenedictio":9392,"Ġamput":9393,"liter":9394,"benedic":9395,"Ġlegatis":9396,"Ġuiuentes":9397,"ciperent":9398,"mos":9399,"Ġdirex":9400,"Ġpermanet":9401,"Ġadjutorium":9402,"disc":9403,"Ġago":9404,"Ġobstr":9405,"Ġuicissim":9406,"Ġproferre":9407,"Ġobseruare":9408,"Ġexsequ":9409,"Ġmontium":9410,"Ġaccepisse":9411,"Ġradix":9412,"Ġpraedicatio":9413,"Ġterminis":9414,"praes":9415,"Ġuidisset":9416,"Ġnesciunt":9417,"jur":9418,"yph":9419,"Ġnosti":9420,"iciis":9421,"Ġnaturalem":9422,"Ġnoluerunt":9423,"Ġsonus":9424,"Ġcarcerem":9425,"Ġcolumba":9426,"Ġnonnunquam":9427,"Ġeup":9428,"Ġeaque":9429,"tissimae":9430,"Ġmereamur":9431,"Ġeras":9432,"Ġinfelix":9433,"Ġueniant":9434,"Ġappellantur":9435,"Ġingem":9436,"Ġangli":9437,"Ġpersecutionem":9438,"Ġfortunae":9439,"Ġpale":9440,"Ġderi":9441,"Ġcogitatio":9442,"Ġflagr":9443,"don":9444,"Ġscelere":9445,"Ġhabentur":9446,"Ġcohor":9447,"Ġnobiles":9448,"Ġinuenerunt":9449,"Ġanimalibus":9450,"Ġflumine":9451,"Ġopinor":9452,"estr":9453,"Ġregnante":9454,"Ġodorem":9455,"Ġgermani":9456,"Ġdate":9457,"Ġimpetus":9458,"iculo":9459,"ulerat":9460,"Ġconform":9461,"Ġoccult":9462,"Ġanathematiz":9463,"Ġdonatist":9464,"isco":9465,"Ġconuentu":9466,"Ġcain":9467,"Ġsibimet":9468,"idos":9469,"Ġoritur":9470,"Ġuenia":9471,"Ġxli":9472,"Ġaudierunt":9473,"Ġtradita":9474,"Ġinterpre":9475,"Ġmaiestate":9476,"Ġequites":9477,"acium":9478,"ole":9479,"Ġsollicitudinem":9480,"ianus":9481,"Ġuati":9482,"licis":9483,"Ġproprii":9484,"Ġitemque":9485,"za":9486,"Ġope":9487,"Ġcredatur":9488,"Ġsuppos":9489,"Ġserpens":9490,"Ġredeunt":9491,"iste":9492,"Ġactiones":9493,"Ġdomina":9494,"Ġnof":9495,"Ġdiuinarum":9496,"Ġappreh":9497,"Ġpestil":9498,"orp":9499,"cipitur":9500,"Ġiussa":9501,"Ġmodern":9502,"Ġfundamenta":9503,"Ġexerce":9504,"Ġequis":9505,"Ġrelictis":9506,"pas":9507,"Ġcarnaliter":9508,"Ġsurge":9509,"ditate":9510,"Ġsynagoga":9511,"Ġuestem":9512,"Ġalum":9513,"Ġsitum":9514,"Ġdixerim":9515,"Ġclementiam":9516,"ĠÏī":9517,"Ġgar":9518,"Ġdominis":9519,"iamur":9520,"Ġlaetitiam":9521,"ĠÏĥÏħ":9522,"Ġuoluptas":9523,"Ġreuocare":9524,"Ġsecreto":9525,"Ġfuturus":9526,"Ġprofectum":9527,"cal":9528,"Ġminores":9529,"Ġdiligunt":9530,"minibus":9531,"Ġconsequentia":9532,"Ġsufficiat":9533,"fug":9534,"Ġopibus":9535,"Ġuisionem":9536,"Ġloqueretur":9537,"letus":9538,"Ġabundantia":9539,"Ġtestific":9540,"mento":9541,"Î±ÏĢ":9542,"Ġbenigne":9543,"Ġseptentri":9544,"Ġconfici":9545,"gnum":9546,"Ġporrig":9547,"Ġingeni":9548,"Ġdiabolic":9549,"Ġzelo":9550,"Ġfesto":9551,"Ġlepr":9552,"Ġhorre":9553,"Ġobliui":9554,"Ġtestibus":9555,"lli":9556,"son":9557,"Ġuertice":9558,"Ġperfectam":9559,"Ġconfessionis":9560,"Ġnauibus":9561,"Ġtheodor":9562,"ox":9563,"unci":9564,"Ġflux":9565,"Ġobsequio":9566,"Ġsponsi":9567,"itto":9568,"Ġbenedixit":9569,"Ġieiunio":9570,"Ġlapide":9571,"Ġaestu":9572,"eria":9573,"Ġceper":9574,"Ġdicebatur":9575,"Ġindignum":9576,"Ġiuu":9577,"taretur":9578,"Ġseruitio":9579,"Ġuidisse":9580,"Ġeademque":9581,"Ġueterem":9582,"Ġinferius":9583,"Ġministris":9584,"ulsa":9585,"Ġsedens":9586,"Ġparuo":9587,"Ġultimo":9588,"Ġmes":9589,"Ġsignificationem":9590,"Ġtollit":9591,"Ġhierony":9592,"Ġfirmamentum":9593,"Ġcaesari":9594,"Ġinjuria":9595,"tiuum":9596,"Ġcoti":9597,"Ġhonoribus":9598,"Ġexstinc":9599,"Ġuerius":9600,"Ġillarum":9601,"Ġregulae":9602,"Ġprimitus":9603,"Ġquartus":9604,"Ġhebraeos":9605,"Ġintrinsecus":9606,"axat":9607,"ĠÎ±Î³Î¹":9608,"aculorum":9609,"Ġstellae":9610,"Ġlocuti":9611,"hunc":9612,"Ġcaeci":9613,"Ġuniuersos":9614,"Ġtemporalia":9615,"Ġteneri":9616,"Ġconatus":9617,"Ġlibet":9618,"Ġscripsi":9619,"Ġoccasio":9620,"Ġproprietatem":9621,"Ġliberam":9622,"Ġcognouimus":9623,"Ġuentre":9624,"Ġaddic":9625,"Ġreginae":9626,"Ġpauperem":9627,"Ġsentiunt":9628,"Ġcopiis":9629,"mas":9630,"Ġcalix":9631,"Ġmetaph":9632,"Ġsolius":9633,"Ġdecreto":9634,"mata":9635,"Ġquamlibet":9636,"Ġpaulin":9637,"Ġpatiuntur":9638,"Ġconuersi":9639,"Ġconcessum":9640,"Ġbasilicam":9641,"Ġregionis":9642,"Ġleguntur":9643,"Ġiudicibus":9644,"Ġcolore":9645,"Ġbeatis":9646,"Ġprocessit":9647,"Ġsuperior":9648,"corp":9649,"ĠÏīÏĤ":9650,"Ġdicturus":9651,"Ġoperatus":9652,"Ġaedificauit":9653,"alb":9654,"Ġenc":9655,"Ġuidebunt":9656,"Ġequitum":9657,"Ġpuellae":9658,"Ġsinistra":9659,"Ġabstr":9660,"Ġpraedictus":9661,"Ġcaecus":9662,"Ġincogn":9663,"Ġcongrua":9664,"Ġseipso":9665,"Ġpura":9666,"Ġmalitiam":9667,"Ġcandel":9668,"itul":9669,"Ġpromittit":9670,"Ġerroribus":9671,"ficiorum":9672,"Ġacquisi":9673,"Ġportum":9674,"Ġgallia":9675,"Ġastu":9676,"Ġpiis":9677,"Ġunitatis":9678,"Ġreson":9679,"Ġpsalmum":9680,"Ġaequalem":9681,"Ġfunc":9682,"Ġrepraes":9683,"Ġcoeperit":9684,"Ġuulnere":9685,"Ġfamiliae":9686,"ÏģÎ·":9687,"Ġbibere":9688,"Ġaffirmatio":9689,"Ġexponit":9690,"Ġintentionem":9691,"minis":9692,"Ġconp":9693,"Ġneglec":9694,"Ġlaterani":9695,"Ġpipp":9696,"Ġimprim":9697,"Ġdoctorum":9698,"Ġcuncti":9699,"gregorius":9700,"Ġceciderunt":9701,"Ġinquiens":9702,"cii":9703,"Ġdolores":9704,"Ġpulchra":9705,"Ġby":9706,"ibiles":9707,"Ġpermittit":9708,"Ġtituli":9709,"Ġequum":9710,"Ġuulgus":9711,"Ġchaldae":9712,"Ġrepromiss":9713,"hus":9714,"Ġrectam":9715,"Ġparuuli":9716,"Ġcanonica":9717,"Ġesau":9718,"Ġsanctim":9719,"Ġterga":9720,"istam":9721,"Ġcomplec":9722,"Ġintelligamus":9723,"Ġmandato":9724,"ĠÏĢÏģÎ¿Ïĥ":9725,"uendis":9726,"Ġlumb":9727,"Ġillib":9728,"Ġmonasteria":9729,"Ġattende":9730,"Ġtermino":9731,"Ġlance":9732,"Ġdioc":9733,"Ġgraecos":9734,"Ġara":9735,"Ġaerum":9736,"Ġsumere":9737,"Ġpharisaei":9738,"inia":9739,"Ġimportun":9740,"Ġobedientia":9741,"Ġspelunc":9742,"ecto":9743,"Ġsenatum":9744,"aciam":9745,"deg":9746,"Ġeuenit":9747,"Ġmeminis":9748,"Ġprudens":9749,"Ġinuentum":9750,"Ġauditum":9751,"Ġmisere":9752,"Ġsceleris":9753,"Ġperfr":9754,"hon":9755,"Ġactionem":9756,"Ġenarr":9757,"Ġbonitas":9758,"Ġsummis":9759,"Ġloquendi":9760,"Ġdecembris":9761,"Ġrecto":9762,"Ġlabiis":9763,"ÎµÏĥÏĦ":9764,"Ġcontingere":9765,"Ġstirpe":9766,"Ġacceptum":9767,"Ġtemporalibus":9768,"Ġlacrymas":9769,"Ġattinet":9770,"Ġsero":9771,"Ġdebito":9772,"Ġomnipotentem":9773,"Ġexcepto":9774,"Ġcornua":9775,"iscus":9776,"Ġualent":9777,"Ġpalatium":9778,"Ġsolito":9779,"Ġqualitatem":9780,"________":9781,"Ġordinatione":9782,"Ġ-.":9783,"Ġcuria":9784,"Ġoppido":9785,"quomodo":9786,"inorum":9787,"Ġdele":9788,"Ġparatum":9789,"Ġiamque":9790,"illim":9791,"cle":9792,"Ġconiun":9793,"Ġsabbatum":9794,"Ġnis":9795,"Ġexin":9796,"turis":9797,"Ġliberauit":9798,"Ġhostiam":9799,"Ġquaerendum":9800,"Ġintuitu":9801,"ÏħÏĥ":9802,"Ġdeform":9803,"ĠÏĢÎ¿Î»":9804,"Ġinfirmitatis":9805,"Ġutilitas":9806,"Ġruinam":9807,"Ġescam":9808,"Ġinstaur":9809,"Ġprotulit":9810,"Ġfastig":9811,"Ġpermis":9812,"Ġappellari":9813,"ĠÎ¿ÏħÏĦ":9814,"Ġdamnum":9815,"gaius":9816,"ont":9817,"ulsi":9818,"Ġimpium":9819,"Ġof":9820,"Ġfames":9821,"Ġsanitatem":9822,"Ġtellus":9823,"Ġullam":9824,"Ġaues":9825,"Ġacceperat":9826,"Ġuinea":9827,"Ġquies":9828,"Ġprudentiam":9829,"Ġatheni":9830,"emque":9831,"oscop":9832,"Ġtrahit":9833,"Ġplato":9834,"Ġoculo":9835,"Ġouium":9836,"Ġgenerali":9837,"Ġcustodiat":9838,"Ġcognoscimus":9839,"Ġcolumbae":9840,"Ġiz":9841,"haere":9842,"Ġsingulariter":9843,"Ġquanti":9844,"Ġdices":9845,"Ġclamor":9846,"Ġdelictum":9847,"Ġquartam":9848,"Ġdiuitiae":9849,"Ġrefic":9850,"Ġbuc":9851,"Ġtep":9852,"Ġpermaneant":9853,"Ġisraeli":9854,"ĠÏĦÎ¿ÏħÏĤ":9855,"Ġses":9856,"Ġscep":9857,"issemus":9858,"Ġconculc":9859,"af":9860,"Ġconstet":9861,"Ġimmod":9862,"Ġdiscordi":9863,"Ġrelicto":9864,"Ġinl":9865,"Ġhoris":9866,"uh":9867,"Ġdabitur":9868,"Ġquendam":9869,"Ġdiiudic":9870,"Ġplene":9871,"Ġleuit":9872,"Ġdeclarat":9873,"Ġpridie":9874,"Ġactis":9875,"Ġintelligunt":9876,"Ġsenectut":9877,"Ġcampo":9878,"ï¬":9879,"Ġdeest":9880,"Ġattamen":9881,"Ġaquila":9882,"Ġdomno":9883,"Ġregiones":9884,"Ġiudicum":9885,"igni":9886,"Ġintem":9887,"Ġincol":9888,"Ġnecessitatibus":9889,"Ġconstantia":9890,"Ġgermin":9891,"Ġconjun":9892,"Ġoccident":9893,"Ġsollicite":9894,"Ġtub":9895,"Ġapte":9896,"Ġcurauit":9897,"Ġaure":9898,"Ġnatiuitas":9899,"Ġsubjungit":9900,"Ġmarch":9901,"Ġlatius":9902,"Ġlectum":9903,"nes":9904,"Ġimpro":9905,"Ġmouere":9906,"Ġnatali":9907,"Ġgau":9908,"Ġremota":9909,"Ġfeb":9910,"Ġparati":9911,"Ġmorietur":9912,"Ġax":9913,"Ġinteresse":9914,"Ġpotum":9915,"erisque":9916,"conf":9917,"Ġcriminibus":9918,"Ġdeteri":9919,"Ġdespon":9920,"Ġmalitiae":9921,"Ġopinione":9922,"Ġpersarum":9923,"Ġconsequi":9924,"Ġconsistere":9925,"Ġpugnam":9926,"Ġmeliorem":9927,"Ġocculte":9928,"esimum":9929,"Ġcodices":9930,"ÑĤ":9931,"Ġnouissima":9932,"ĠÏĦÎ±ÏħÏĦ":9933,"Ġpeccauit":9934,"Ġsciebat":9935,"Ġcontigerit":9936,"utionibus":9937,"ĠÏħÎ¼":9938,"Ġuar":9939,"Ġuiuis":9940,"Ġuolui":9941,"Ġincess":9942,"Ġhoroscop":9943,"Ġseptima":9944,"Ġassidue":9945,"Ġguillelmus":9946,"ja":9947,"Ġcatholicorum":9948,"Ġsarc":9949,"issimas":9950,"Ġferme":9951,"illos":9952,"Ġsanctitas":9953,"Ġhann":9954,"acio":9955,"Ġpactum":9956,"Ġcopiam":9957,"Ġcastitatis":9958,"Ġoperatione":9959,"Ġdiffert":9960,"Ġtitulus":9961,"Ġsos":9962,"Ġparac":9963,"Ġageret":9964,"Ġnouus":9965,"Ġantecess":9966,"usus":9967,"taque":9968,"Ġcompend":9969,"Ġwillel":9970,"Ġgemitus":9971,"Ġtrinitatem":9972,"untibus":9973,"acch":9974,"Ġaudito":9975,"Ġhebraeo":9976,"Ġflammis":9977,"Ġquatern":9978,"Ġdiuitiarum":9979,"ment":9980,"Ġerep":9981,"turos":9982,"Ġaequales":9983,"Î¸Î·":9984,"Ġdecretis":9985,"Ġeffectu":9986,"tern":9987,"Ġritu":9988,"Ġpastoris":9989,"Ġbaptizatus":9990,"Ġuentura":9991,"Ġperen":9992,"Ġcumul":9993,"estri":9994,"Ġpraecipitur":9995,"Ġmystice":9996,"Ġscitis":9997,"Ġrespondeb":9998,"Ġsuperiora":9999,"Ġaequiuoc":10000,"ÎºÎ»Î·ÏĥÎ¹":10001,"Ġreum":10002,"Ġsublimi":10003,"uata":10004,"Ġdiscuti":10005,"Ġaperire":10006,"Ġcanonici":10007,"spir":10008,"acensi":10009,"Ġfrum":10010,"Ġcaede":10011,"Ġintelligat":10012,"Ġhispania":10013,"Ġmercede":10014,"Ġcrescit":10015,"Ġignob":10016,"Ġlucrum":10017,"Ġmiraculum":10018,"Ġsuccessores":10019,"Ġieiuniis":10020,"Ġmatrimonium":10021,"huius":10022,"Ġinquantum":10023,"Ġmodes":10024,"Ġconsensum":10025,"ĠÎµÎºÎºÎ»Î·ÏĥÎ¹":10026,"Ġexordio":10027,"Ġoctobris":10028,"Ġphr":10029,"Ġformas":10030,"Ġlact":10031,"berto":10032,"Ġquadrup":10033,"Ġpraerog":10034,"Ġms":10035,"ebor":10036,"Ġlongin":10037,"Ġinnocens":10038,"anensi":10039,"Ġfalsis":10040,"Ġseruitute":10041,"Ġcontamin":10042,"Ġloquatur":10043,"Ġpraefati":10044,"Ġsaturn":10045,"Ġtranseunt":10046,"Ġerem":10047,"Ġlaudat":10048,"Ġprecor":10049,"Ġobedire":10050,"Ġfoedus":10051,"Ġfe":10052,"Ġscripto":10053,"Ġdefinitione":10054,"Ġtentauerit":10055,"sp":10056,"utit":10057,"Ġcohort":10058,"Ġopprobrium":10059,"cos":10060,"mut":10061,"Ġpatriarchae":10062,"Ġdeuic":10063,"Ġunicum":10064,"Ġcapiti":10065,"Ġgradi":10066,"Ġputet":10067,"Ġagnoscere":10068,"sep":10069,"tuli":10070,"Ġascendere":10071,"Ġimpietatis":10072,"Ġinterpos":10073,"Ġeoque":10074,"Ġtenebat":10075,"Ġprosec":10076,"entissimum":10077,"Ġplenitudinem":10078,"odonos":10079,"Ġdomui":10080,"Ġambulare":10081,"Ġ{":10082,"Ġostendat":10083,"Ġoccasum":10084,"Ġpab":10085,"ilii":10086,"Ġdiuinorum":10087,"abilium":10088,"Ġaequo":10089,"Ġinsinuat":10090,"Ġbethle":10091,"Ġhugo":10092,"Î±ÏĥÏĦ":10093,"Ġsita":10094,"Ġostent":10095,"Ġsuperiori":10096,"Ġmemento":10097,"Ġdiscipulorum":10098,"Ġmartyrium":10099,"Ð°":10100,"onias":10101,"Ġingreditur":10102,"terr":10103,"Ġhabeas":10104,"Ġnoctibus":10105,"Ġsanctitatem":10106,"Ġcontemplatione":10107,"Ġprophetiae":10108,"Ġdatam":10109,"Ġdedec":10110,"Ġrepos":10111,"issae":10112,"Ġeosque":10113,"anni":10114,"Ġiuuat":10115,"Ġdiuersae":10116,"Ġuincere":10117,"Ġaccipimus":10118,"etsi":10119,"Ġconsang":10120,"Ġimmedi":10121,"Ġcibos":10122,"Ġgeneribus":10123,"Ġtradere":10124,"Ġsortem":10125,"Ġuarietate":10126,"uct":10127,"Ġdicite":10128,"Ġprincipatus":10129,"Ġferoc":10130,"Ġlaeta":10131,"Ġsurrex":10132,"Ġtimoris":10133,"Ġdunt":10134,"Ġorientis":10135,"Ġefficit":10136,"Ġseniores":10137,"rebat":10138,"Ġperim":10139,"Ġordinibus":10140,"Ġbenjam":10141,"Ġsensit":10142,"Ġboues":10143,"Ġnabuch":10144,"Ġpridem":10145,"ules":10146,"Ġutilis":10147,"Ġcommunia":10148,"nix":10149,"Ġscelera":10150,"Ġpraebere":10151,"Ġuidendum":10152,"athan":10153,"Ġiubente":10154,"ilias":10155,"Ġeorumdem":10156,"Ġualle":10157,"Ġsensibi":10158,"Ġutilitate":10159,"Ġphilippus":10160,"Ġdens":10161,"Ġspiritaliter":10162,"quoque":10163,"Ġtrunc":10164,"Ġscias":10165,"Ġessemus":10166,"Ġcomplac":10167,"Ġuidebitur":10168,"Ġdebetur":10169,"ĠÏĢÎ±ÏĦ":10170,"Ġsplendor":10171,"Ðµ":10172,"atiuo":10173,"Ġlata":10174,"Ġducibus":10175,"illam":10176,"Ġsupplicio":10177,"Ġinfec":10178,"Ġdogmata":10179,"Ġuento":10180,"Î±ÏģÎ¹":10181,"Ġia":10182,"Ġcaret":10183,"Ġadae":10184,"Ġlegatus":10185,"ÎµÎ¹Î±ÏĤ":10186,"Ġabba":10187,"Ġtemporalis":10188,"Ġuoluptatem":10189,"Ġbeatitudo":10190,"Ġregulariter":10191,"Ġtunic":10192,"Ġdialec":10193,"Ġaudiamus":10194,"Î¿ÏħÏĥ":10195,"Ġconditionis":10196,"Ġmaiestatem":10197,"escente":10198,"the":10199,"Ġmembrum":10200,"Ġallegor":10201,"ilit":10202,"Ġundis":10203,"Ġocculto":10204,"Ġephraim":10205,"ardum":10206,"Ġcorusc":10207,"Ġlaudare":10208,"Ġludouici":10209,"Ġrepraesent":10210,"met":10211,"Ġcarmen":10212,"Ġfunditus":10213,"ogit":10214,"tumque":10215,"ĠÎ±Î½Î¸ÏģÏīÏĢ":10216,"Ġmortalibus":10217,"Ġnabuchodonos":10218,"Ġbibit":10219,"quaeque":10220,"Ġcompositum":10221,"Ġprotectione":10222,"Ġmeti":10223,"Ġpartus":10224,"Ġuestis":10225,"Ġpall":10226,"Ġconcipi":10227,"Ġperpetuae":10228,"Ġmansit":10229,"Ġnubibus":10230,"Ġconditor":10231,"cripsit":10232,"Ġnu":10233,"Ġprisci":10234,"Ġgressus":10235,"Ġdiscere":10236,"Ġcircumfer":10237,"Ġtraditur":10238,"Ġedidit":10239,"Ġredig":10240,"Ġduntaxat":10241,"dal":10242,"narum":10243,"uibus":10244,"Ġperhibetur":10245,"discip":10246,"Ġsimplices":10247,"Ġsatisfactione":10248,"Ġadjici":10249,"Ġiacobi":10250,"Ġcupiditas":10251,"Ġeuch":10252,"Ġsana":10253,"deinde":10254,"Ġpsalter":10255,"Ġmartyrii":10256,"Ġsorores":10257,"Ġrogamus":10258,"Ġrepenti":10259,"Ġinferno":10260,"Ġsenes":10261,"Ġsinistram":10262,"Ġintelliguntur":10263,"Ġuenient":10264,"Ġinfirmi":10265,"Ġconsortium":10266,"Ġaliarum":10267,"Ġuespere":10268,"Ġaliisque":10269,"Ġqualitas":10270,"Ġnuptiis":10271,"Ġnoscuntur":10272,"Ġpossessio":10273,"Ġexemplar":10274,"utas":10275,"Ġplenitudine":10276,"tibilis":10277,"Ġmisericorditer":10278,"uros":10279,"Ġdictae":10280,"Ġportu":10281,"Ġintegritate":10282,"unus":10283,"Ġsty":10284,"Ġcaecili":10285,"Ġanimabus":10286,"Ġthesauri":10287,"Ġperl":10288,"Ġrefici":10289,"Ġparric":10290,"Ġdan":10291,"Ġaccipiant":10292,"Ġeuers":10293,"Ġperit":10294,"Ġsanctissimi":10295,"Ġpraeterita":10296,"undiae":10297,"Ġexigit":10298,"homin":10299,"Ġidest":10300,"atumque":10301,"Ġanhel":10302,"Ġpueris":10303,"Ġdifferentiae":10304,"Ġnonnullis":10305,"Ġnouembris":10306,"ectis":10307,"Ġdamnationis":10308,"Ġcapituli":10309,"Ġdulci":10310,"byter":10311,"orb":10312,"inio":10313,"Ġalienus":10314,"Ġnimio":10315,"Ġtitulum":10316,"Ġhispani":10317,"Ġlibidinis":10318,"Ġambrosius":10319,"Ġiuppiter":10320,"idii":10321,"Ġpatiatur":10322,"Ġpericlit":10323,"Ġprodit":10324,"bri":10325,"Ġadmo":10326,"Ġdesit":10327,"Ġoculum":10328,"Ġaduersis":10329,"Ġsplendore":10330,"Ġinquin":10331,"Ġcharissime":10332,"Ġsororem":10333,"Ġmanducare":10334,"iamque":10335,"Ġmillibus":10336,"ĠÎ¿ÏĦÎ¹":10337,"Ġinsulam":10338,"Ġflore":10339,"uiis":10340,"Ġpossim":10341,"escet":10342,"Ġigno":10343,"Ġgraues":10344,"Ġconuerso":10345,"Ġhoras":10346,"Ġparticeps":10347,"Ġmam":10348,"Ġbenefac":10349,"Ġnocere":10350,"Ġforsan":10351,"natur":10352,"Ġpraeda":10353,"Ġamas":10354,"Ġcaut":10355,"Ġaudio":10356,"Ġdiluc":10357,"Î¹Ïĥ":10358,"Ġrecre":10359,"Ġbaptismate":10360,"dil":10361,"Ġproprias":10362,"Ġconceptus":10363,"Ġderog":10364,"imp":10365,"Ġcausarum":10366,"Ġspectat":10367,"Ġsignificatione":10368,"Ġdamnationem":10369,"Ġdiuisionem":10370,"Ġoblatione":10371,"ambul":10372,"Ġsubaudis":10373,"erto":10374,"umbr":10375,"hom":10376,"Ġuitios":10377,"Ġprudenter":10378,"Ġquati":10379,"Ġnegant":10380,"ĠÏĢÎ¹ÏĥÏĦ":10381,"Ġcunctorum":10382,"Ġuiuum":10383,"Ġmiserunt":10384,"Ġuirginum":10385,"Ġdimidium":10386,"Ġpoeniteat":10387,"Ġcrep":10388,"Ġamicitiam":10389,"Ġnostrarum":10390,"Ġmissum":10391,"Ġquotquot":10392,"Ġinterfecit":10393,"Ġdentes":10394,"undam":10395,"Ġresip":10396,"Ġtraduc":10397,"Ġpromissionis":10398,"Ġdecimam":10399,"Ġruti":10400,"cipe":10401,"Ġuoluptatis":10402,"Ġresponsio":10403,"Ġmurum":10404,"Î·Î¼":10405,"Ġmalae":10406,"Ġaperit":10407,"Ġsummae":10408,"Ġpraepositus":10409,"erer":10410,"Ġmoll":10411,"Ġgust":10412,"Ġuidebat":10413,"Ġatqui":10414,"Ġuiuimus":10415,"Ġmutuo":10416,"Ġlicere":10417,"Ġignorare":10418,"Ġsuperiore":10419,"Ġonera":10420,"Ġcongru":10421,"Ġcluni":10422,"Ġdiuiditur":10423,"Ġcomitatu":10424,"ubuit":10425,"Ġmigra":10426,"Ġportare":10427,"Ġaccipiet":10428,"Ġinaequ":10429,"uentus":10430,"Ġafricam":10431,"Ġdaniel":10432,"tamur":10433,"Ġsenem":10434,"Ġcognoui":10435,"inoc":10436,"uix":10437,"Ġpoeta":10438,"Ġuersu":10439,"Ġnutu":10440,"Ġnabuchodonosor":10441,"audi":10442,"Ġseptembris":10443,"Ġsollicitus":10444,"ÏĥÎºÎ¿ÏĢ":10445,"Ġprogress":10446,"Ġfeceris":10447,"Ġaugmentum":10448,"Ġdeliciis":10449,"amp":10450,"Ġsedibus":10451,"Ġefficere":10452,"entissima":10453,"Ġpulchre":10454,"Ġruina":10455,"Ġantistit":10456,"orium":10457,"ema":10458,"abar":10459,"Ġgrande":10460,"ularem":10461,"Ġphilosophorum":10462,"Ġnominum":10463,"Ġstric":10464,"Ġpraebuit":10465,"Ġpaternae":10466,"Ġprospera":10467,"Ġapostolici":10468,"Ġpermut":10469,"oram":10470,"eritas":10471,"Ġcommer":10472,"Ġtolet":10473,"Ġsanctu":10474,"Ġsolitudine":10475,"Ġmemores":10476,"Ġarbores":10477,"Ġoblata":10478,"Ġrauenn":10479,"Ġminimum":10480,"mir":10481,"orn":10482,"Ġparere":10483,"Ġfaciatis":10484,"Ġuniuersale":10485,"Ġwas":10486,"ĠÎ¼ÎµÎ½":10487,"Ġindignus":10488,"Ġtabernaculi":10489,"Ġuestimentum":10490,"oedi":10491,"Ġaduenit":10492,"Ġinfest":10493,"Ġric":10494,"Ġnecessitatis":10495,"Ġcodicibus":10496,"Ġtrucid":10497,"Ġps":10498,"Ġpatiens":10499,"Ġlaetus":10500,"Ġpersecutione":10501,"Ġconditoris":10502,"Ġperficere":10503,"aueris":10504,"Ġterg":10505,"demus":10506,"Ġdefensione":10507,"Ġpraenunti":10508,"utere":10509,"Ġdedisse":10510,"Ġsacerdotii":10511,"Ġgalliae":10512,"Ġreuersi":10513,"Ġmortali":10514,"Ġsalubriter":10515,"Ġcrebro":10516,"Ġubicumque":10517,"Ġmolesti":10518,"Ġtranstulit":10519,"Ġina":10520,"Ġeusebi":10521,"Ġamicorum":10522,"Ġpeccatoris":10523,"Ġgenua":10524,"Ġanglorum":10525,"Ġuentris":10526,"Ġdir":10527,"Ġniti":10528,"Ġintelligens":10529,"ĠÎ¼Î¿Î½":10530,"Ġbenjamin":10531,"Ġarchiep":10532,"Ġconditio":10533,"Ġancilla":10534,"ebamus":10535,"Ġmitig":10536,"Ġcanes":10537,"Ġpueros":10538,"Ġdeesse":10539,"omnes":10540,"Ġposito":10541,"Ġpotenti":10542,"poli":10543,"imentis":10544,"Ġaddi":10545,"Ġabduc":10546,"Ġtabernaculo":10547,"Ġfores":10548,"Ġuniuersaliter":10549,"onus":10550,"Ġuili":10551,"Ġadu":10552,"Ġuitis":10553,"Ġuesc":10554,"Ġiudiciis":10555,"Ġfert":10556,"Ġcanonicorum":10557,"Ġuacuum":10558,"Ġconueniat":10559,"Ġreliquiae":10560,"Ġnono":10561,"Ġeuol":10562,"Ġsaecularibus":10563,"Ġaltitudo":10564,"Ġlucerna":10565,"ĠâŁ¨":10566,"Ġiustini":10567,"Ġtradunt":10568,"Ġdominicam":10569,"Ġcomedit":10570,"Ġartus":10571,"Ġmetum":10572,"Ġsiluis":10573,"Ġpromissum":10574,"Ġproficit":10575,"ebimus":10576,"Ġcrux":10577,"Ġlugdun":10578,"Ġcareat":10579,"sent":10580,"Ġdal":10581,"Ġdiscep":10582,"Ġspiritualem":10583,"Ġecclesiasticam":10584,"Ġphilosophiae":10585,"Ġferat":10586,"Ġhast":10587,"Ġdirexit":10588,"Ġbonitatem":10589,"Ġindef":10590,"Ġconnex":10591,"Ġholocaustum":10592,"Ġexeunt":10593,"Ġru":10594,"Ġuinci":10595,"Ġbestiae":10596,"Ġexordium":10597,"Ġsubueni":10598,"Ġqualia":10599,"eruntur":10600,"Ġmitis":10601,"Ġullus":10602,"Ġfugiens":10603,"entissimi":10604,"uno":10605,"Ġdicemus":10606,"Ġarom":10607,"Ġcarolo":10608,"Ġanton":10609,"Ġnonnisi":10610,"Ġplaceat":10611,"Ġhibern":10612,"Ġsenior":10613,"Ġieremias":10614,"Ġpes":10615,"Ġexult":10616,"Ġsubrep":10617,"onam":10618,"osae":10619,"Ġredund":10620,"Ġcarnales":10621,"Ġarbitrii":10622,"Ġrecipiat":10623,"teg":10624,"ioann":10625,"Ġterrore":10626,"Ġconsideratione":10627,"Ġpiae":10628,"unum":10629,"Ġparens":10630,"tima":10631,"Ġinuenerit":10632,"Ġeuangelica":10633,"Ġcathedra":10634,"Ġgrata":10635,"Ġdispend":10636,"pol":10637,"Ġcuidam":10638,"Ġlustr":10639,"Ġmoab":10640,"Ġmotibus":10641,"Ġhospi":10642,"Ġnoctes":10643,"Ġlongi":10644,"Ġreuerti":10645,"Ġminima":10646,"Ġpraesumpserit":10647,"ĠÏĢÎ±ÏģÎ±":10648,"Ġlemo":10649,"Ġtermini":10650,"Ġludouicus":10651,"etarum":10652,"Ġach":10653,"Ġcontendit":10654,"Ġprouinciis":10655,"Ġianuam":10656,"dat":10657,"Ġuictoris":10658,"Ġomnipotenti":10659,"Ġingressi":10660,"Ġpropitius":10661,"Ġuocabitur":10662,"Ġproxime":10663,"Ġmittitur":10664,"Ġcoactus":10665,"tinis":10666,"esis":10667,"Ġcrede":10668,"ÏħÏĩ":10669,"Ġsubjecit":10670,"Ġlet":10671,"Ġdenomin":10672,"Ġcogitat":10673,"Ġuocare":10674,"Ġhabitauit":10675,"Ġaegrot":10676,"Ġappellauit":10677,"Ġiubetur":10678,"Ġposteaquam":10679,"Ġrefut":10680,"Ġpeccauerunt":10681,"Ġuenenum":10682,"Ġimperti":10683,"Ġnuncupatur":10684,"Ġamator":10685,"Ġagentes":10686,"Ġscripti":10687,"Ġcaptiuitate":10688,"Ġuisceribus":10689,"Ġconstitutionem":10690,"acus":10691,"Ġsoler":10692,"Ġnegauit":10693,"Ġxxiu":10694,"Ġhaeresi":10695,"ppi":10696,"Ġpraeclar":10697,"Ġpotentes":10698,"Ġfamem":10699,"Ġuenerabilem":10700,"Ġimagine":10701,"Ġrequirit":10702,"Ġmeriti":10703,"Ġparui":10704,"Ġmars":10705,"ĠÎµÎ»":10706,"Ġgradibus":10707,"Ġordinationem":10708,"itare":10709,"omnis":10710,"lico":10711,"Ġce":10712,"Ġcarnali":10713,"Ġclaritate":10714,"ÎµÎ¹Ïĥ":10715,"Ġredditur":10716,"Ġxxiii":10717,"Ġgenerationis":10718,"ĠÎ»ÎµÎ³":10719,"Ġatroc":10720,"Ġhabeamus":10721,"Ġmulc":10722,"Ġmonas":10723,"Ġidemque":10724,"antiphona":10725,"Ġlaetitiae":10726,"Ġpercipere":10727,"Ġiussus":10728,"signific":10729,"Ġcastellum":10730,"circum":10731,"Ġdefinitionem":10732,"Ġaes":10733,"Ġexquir":10734,"Ġproximus":10735,"Ġfacili":10736,"Ġuoluisse":10737,"Ġduarum":10738,"Ġcandelab":10739,"fis":10740,"Ġfrui":10741,"age":10742,"Ġcredis":10743,"Ġuentis":10744,"iscere":10745,"Ġanimorum":10746,"Ġimpios":10747,"ticos":10748,"Ġprostern":10749,"Ġhumanitas":10750,"ono":10751,"Ġrobore":10752,"Ġtenens":10753,"Ġspecios":10754,"Ġexprimitur":10755,"Ð¸":10756,"Ġapta":10757,"Ġinuent":10758,"Ġnititur":10759,"Î¿ÏħÏĥÎ¹":10760,"Ġreferuntur":10761,"Ġdiuisione":10762,"Ġgregis":10763,"Ġnex":10764,"Ġuindicare":10765,"ĠÎ±Î»Î»":10766,"roc":10767,"amenti":10768,"Ġcoaeter":10769,"Ġagi":10770,"Ġminoris":10771,"Ġarguit":10772,"Ġpatientiae":10773,"Ġinferos":10774,"Ġconuiuium":10775,"gaud":10776,"lica":10777,"Ġcarere":10778,"Ġiurisdic":10779,"Ġuerm":10780,"Ġiniquit":10781,"Ġconuersa":10782,"Ġxxui":10783,"Ġopul":10784,"Ġouis":10785,"Ġpuluere":10786,"Ġpermaneat":10787,"Ġgenitricis":10788,"anea":10789,"Ġsecretum":10790,"Ġmargar":10791,"Ġquietis":10792,"Ġuolati":10793,"Ġquispiam":10794,"Ġuicec":10795,"Ġdilectis":10796,"Ġattoll":10797,"Ġquaerens":10798,"Ġtorp":10799,"sio":10800,"Ġadsum":10801,"Ġadjecit":10802,"Ġspiritalem":10803,"epist":10804,"Ġconcupiscentiam":10805,"Ġuoluptatibus":10806,"quemque":10807,"Ġmiserum":10808,"Ġparuulos":10809,"Ġlament":10810,"Ġtractatus":10811,"Ġacerb":10812,"Ġeft":10813,"Ġaula":10814,"Ġpin":10815,"Ġperuer":10816,"Ġsuperueni":10817,"Ġdiuinus":10818,"Ġuoluntates":10819,"Ġmasculi":10820,"Ġperiit":10821,"Ġiouem":10822,"Ġleuis":10823,"Ġfeminam":10824,"Ġstulti":10825,"Ġtonitr":10826,"Ġfidelem":10827,"Ġstatutum":10828,"Ġrhetor":10829,"Ġimitat":10830,"Ġoperationis":10831,"Ġinfirmus":10832,"Ġpereat":10833,"ardorum":10834,"Ġcomposita":10835,"ĠÎ·Î¼ÏīÎ½":10836,"Ġmanens":10837,"Ġmutare":10838,"Ġstultus":10839,"Ġdubitare":10840,"tras":10841,"Ġpares":10842,"Ġcarmine":10843,"....":10844,"xerat":10845,"Ġdag":10846,"Ġgn":10847,"Ġpossitis":10848,"leo":10849,"Ġrector":10850,"Ġinferior":10851,"tidem":10852,"Ġuiis":10853,"Ġistas":10854,"Ġnumeris":10855,"Ġcalore":10856,"Ġwal":10857,"Ġcontingat":10858,"Ġnas":10859,"Ġnoll":10860,"Ġdecorem":10861,"Ġager":10862,"Ġprocons":10863,"Ġdescendere":10864,"Ġproposita":10865,"Ġpraemissa":10866,"Ġmedicina":10867,"Ġbeatissimi":10868,"Ġpraeueni":10869,"Ġpeius":10870,"Ġinstitutum":10871,"Ġindiget":10872,"Ġintegro":10873,"tie":10874,"Ġpraetex":10875,"Ġsolatium":10876,"Ġanimalis":10877,"Ġlibellum":10878,"Ġinduit":10879,"Ġnube":10880,"Ġincertum":10881,"Ġptol":10882,"ise":10883,"octa":10884,"Ġprogredi":10885,"Ġsciunt":10886,"Ġflos":10887,"Ġmandatorum":10888,"Ġdecimis":10889,"Ġpalaestin":10890,"Ġcaritatem":10891,"Ġincly":10892,"Ġfu":10893,"uerentur":10894,"Ġseriem":10895,"Ġindul":10896,"Ġcupiens":10897,"Ġrelinquere":10898,"Ġincons":10899,"Ġinsignia":10900,"Ġeritis":10901,"Ġcastro":10902,"Ġbituric":10903,"idisti":10904,"Ġtuba":10905,"uinus":10906,"Ġtheat":10907,"Ġinuitus":10908,"Ġsinus":10909,"Ġuidua":10910,"Ġpone":10911,"Ġaureum":10912,"Ġbeatam":10913,"seru":10914,"atiuae":10915,"Ġcorrum":10916,"Ġstellarum":10917,"Ġsacrificio":10918,"Ġgeni":10919,"Ġraro":10920,"ĠÎµÎ±ÏħÏĦ":10921,"Ġmultiplici":10922,"Ġinueniet":10923,"Ġinsignis":10924,"bilem":10925,"Ġhl":10926,"ÏĢÎµÏģ":10927,"Ġpraefatum":10928,"Ġdeficit":10929,"dos":10930,"huc":10931,"mor":10932,"Ġplebi":10933,"Ġcamer":10934,"Ġpectoris":10935,"Ġfecistis":10936,"Ġindub":10937,"Ġseruitium":10938,"Ġdicenda":10939,"Ġuern":10940,"Ġsolebat":10941,"Ġpetimus":10942,"Ġclamore":10943,"Ġoptima":10944,"Ġflores":10945,"Ġflaui":10946,"Ġtollere":10947,"ĠâĢ¢":10948,"Ġornamenta":10949,"Ġstans":10950,"Ġmedul":10951,"Ġresus":10952,"Ġtetigit":10953,"Ġauditu":10954,"Ġbasilicae":10955,"nc":10956,"Ġsignificans":10957,"Ġdiuersitas":10958,"Ġpraefatus":10959,"Ġmedius":10960,"Ġuarias":10961,"Ġdelictorum":10962,"Ġepisc":10963,"Ġsuperioris":10964,"ÎµÏĦÎ±Î¹":10965,"Ġpii":10966,"onom":10967,"Ġdepend":10968,"Ġhabitant":10969,"Ġuindicta":10970,"ĠÎ¿ÏħÎº":10971,"Ġhabitatores":10972,"Ġqueat":10973,"asius":10974,"Ġponi":10975,"Ġamicitiae":10976,"Ġunigenitum":10977,"Ġeloqui":10978,"Ġneglex":10979,"Ġsqu":10980,"cumb":10981,"Ġpetis":10982,"Ġlatini":10983,"Ġflagiti":10984,"emit":10985,"Ġinfr":10986,"Ġtib":10987,"Ġimpetum":10988,"Ġimmortalis":10989,"Ġapostolico":10990,"Ġperfectionis":10991,"Ġflagit":10992,"Ġcorporali":10993,"uini":10994,"Ġessenti":10995,"Ġimman":10996,"Ġabstinere":10997,"Ġmatron":10998,"Ġcertus":10999,"Ġdignos":11000,"Ġlecto":11001,"Ġdebetis":11002,"Ġmediam":11003,"Ġclementer":11004,"Ġduodec":11005,"Ġdidicit":11006,"Ġdant":11007,"Ġmentio":11008,"Ġsuscitauit":11009,"eratis":11010,"Ġprandi":11011,"Ġrectores":11012,"iderint":11013,"Ġsatag":11014,"Ġadfer":11015,"ĠÎ¿Î½":11016,"Ġcorporalis":11017,"Ġaderant":11018,"oraui":11019,"Ġinferni":11020,"dc":11021,"Ġepic":11022,"Ġdebitam":11023,"Ġconsule":11024,"Ġtolle":11025,"Ġdulce":11026,"Ġaspectu":11027,"Ġnaturas":11028,"Ġmirabiliter":11029,"Ġpraeli":11030,"Ġalc":11031,"Ġinspic":11032,"Ġcibi":11033,"Ġdiuerso":11034,"Ġardore":11035,"Ġinopia":11036,"Ġlaurentii":11037,"Ġpossem":11038,"Ġauctoris":11039,"Ġascrib":11040,"Ġnatiuitatem":11041,"Ġolei":11042,"Ġluxuria":11043,"Ġflagella":11044,"Ġdioecesis":11045,"Ġdignoscitur":11046,"adi":11047,"Ġcarni":11048,"Ġaequum":11049,"Ġtendit":11050,"Ġpraelio":11051,"trauit":11052,"istat":11053,"Ġmagnitudinis":11054,"Ġuiuus":11055,"Ġsurgens":11056,"ĠÏĩÏģÎ¹ÏĥÏĦ":11057,"iph":11058,"Ġnauem":11059,"acibus":11060,"Ġpotu":11061,"Ġmultarum":11062,"uxerat":11063,"Ġauris":11064,"Ġincendio":11065,"ÎµÏĥÎ¸Î±Î¹":11066,"princip":11067,"Ġiurg":11068,"Ġpae":11069,"Ġpertim":11070,"Ġpotestati":11071,"Ġiniuria":11072,"Ġantistes":11073,"Ġsimulacra":11074,"Ġscelerum":11075,"Ġuentus":11076,"Ġquibusque":11077,"Ġhonestum":11078,"Ġmissarum":11079,"Ġignorantiam":11080,"Ġdecreuit":11081,"Ġdaemonia":11082,"Ġceteri":11083,"Ġexiuit":11084,"fridus":11085,"Ġadde":11086,"Ġadire":11087,"Ġreceperunt":11088,"Ġuiduae":11089,"Ġasinus":11090,"Ġlaudate":11091,"Ġurbibus":11092,"Ġresurrex":11093,"Ġdederat":11094,"Ġcognouerunt":11095,"Ġconstantino":11096,"Ġgy":11097,"Ġquodcumque":11098,"Ġregit":11099,"Ġeuen":11100,"Ġiubil":11101,"Ġcollecta":11102,"Ġabel":11103,"Ġconstring":11104,"ferum":11105,"Ġcollo":11106,"Ġcardinales":11107,"Ġincongr":11108,"Ġlapsus":11109,"Ġeutych":11110,"homo":11111,"Ġera":11112,"teris":11113,"issam":11114,"adri":11115,"Ġretulit":11116,"Ġuellem":11117,"Ġparentis":11118,"Ġsapientem":11119,"Ġpontifici":11120,"Ġgaz":11121,"Ġquiesc":11122,"Ġgo":11123,"Ġsedebat":11124,"Ġpraedi":11125,"Ġregulas":11126,"Ġinueniatur":11127,"Ġbrachium":11128,"Ġfacturus":11129,"Ġmorb":11130,"Ġdepra":11131,"Ġpastorem":11132,"Ġhebraei":11133,"Ġproficere":11134,"Ġcontumeliam":11135,"Ġceleriter":11136,"asii":11137,"Ġadun":11138,"Ġdamnatus":11139,"Ġintellexit":11140,"Ġinstrumenta":11141,"Ġgunt":11142,"ands":11143,"iscit":11144,"Ġasse":11145,"Ġclarius":11146,"Ġioanni":11147,"Ġmitti":11148,"Ġillibata":11149,"Ġdiuer":11150,"Ġcuras":11151,"Ġaeternis":11152,"frat":11153,"Ġadulterium":11154,"inque":11155,"Ġuidebit":11156,"Ġherodes":11157,"Ġcorrigere":11158,"Ġregimen":11159,"ormis":11160,"Ġfenum":11161,"Ġdispar":11162,"Ġconcre":11163,"Ġmartyrio":11164,"scilicet":11165,"Ġmatern":11166,"Ġuideas":11167,"Ġquaerimus":11168,"Ġreferri":11169,"Ġcriminum":11170,"Ġprudentiae":11171,"Ġpaschalis":11172,"etam":11173,"Ġapt":11174,"Ġparuum":11175,"Ġalbi":11176,"Ġignes":11177,"Ġhumanitate":11178,"Ġstultitia":11179,"Ġouibus":11180,"taxat":11181,"Ġaccur":11182,"Ġxxuii":11183,"Ġprouidere":11184,"Ġfigurae":11185,"Ġadimp":11186,"ĠÎµÏĢÎ¹ÏĥÎºÎ¿ÏĢ":11187,"Ġiniqui":11188,"Ġpallium":11189,"Ġgerman":11190,"Ġdefensionem":11191,"Ġsaxa":11192,"Ġdioecesi":11193,"Ġdedign":11194,"Ġtoties":11195,"Ġhannib":11196,"mentis":11197,"ittam":11198,"Ġconflic":11199,"Ġseruata":11200,"Ġdefuncto":11201,"Î¿Ïĥ":11202,"Ġaugustino":11203,"Ġportat":11204,"Ġrationi":11205,"Ġimbecill":11206,"Ġremis":11207,"tissimos":11208,"Ġducitur":11209,"Ġhip":11210,"Ġconuersionem":11211,"Ġsortes":11212,"Ġperscrut":11213,"Ġfurorem":11214,"Ġdispositione":11215,"Ġuaticin":11216,"odus":11217,"uetis":11218,"rices":11219,"Ġspirituales":11220,"Ġtestantur":11221,"Ġinueniat":11222,"Ġtribunal":11223,"Ġdigito":11224,"Ġgrandi":11225,"Ġisdem":11226,"Ġcurrere":11227,"Ġtangit":11228,"Ġstabili":11229,"Ġremedia":11230,"Ġimmens":11231,"Ġindutus":11232,"Ġincomp":11233,"Ġprofutura":11234,"Ġperemp":11235,"Ġuite":11236,"Ġmemini":11237,"Ġhyd":11238,"Ġiordanem":11239,"augustinus":11240,"olom":11241,"lice":11242,"Ġaman":11243,"Ġaspir":11244,"atoria":11245,"Ġmediis":11246,"Ġabbates":11247,"Ġgala":11248,"Ġconfusione":11249,"riis":11250,"Ġsepten":11251,"Ġlaetific":11252,"Ġabire":11253,"Ġpignus":11254,"Ġdeprim":11255,"ulfus":11256,"Ġquodlibet":11257,"Ġundas":11258,"Ġconspir":11259,"Ġnequam":11260,"Ġcarb":11261,"Ġhercle":11262,"Ġconsiderandum":11263,"Ġtrab":11264,"erator":11265,"Ġsacerdote":11266,"Ġandreae":11267,"Ġcaduc":11268,"Ġdumtaxat":11269,"Ġcontest":11270,"Ġsacras":11271,"Ġgloriosa":11272,"Ġstom":11273,"Î´Î¹":11274,"Ġnescire":11275,"Ġgratum":11276,"Ġdebeo":11277,"Ġcupio":11278,"Ġliceret":11279,"Ġdiffund":11280,"Ġcongruit":11281,"Ġuadit":11282,"ascrip":11283,"Ġspons":11284,"xl":11285,"Ġcale":11286,"Ġdelib":11287,"Ġapparatus":11288,"Ġphilist":11289,"Ġerubesc":11290,"fum":11291,"Ġâ":11292,"Ġfasc":11293,"Ġmanna":11294,"Ġtransitum":11295,"Ġdesiderant":11296,"Ġindulgentia":11297,"tique":11298,"art":11299,"Ġhodiern":11300,"Ġconstantinopolim":11301,"Ġrespondeo":11302,"Ġdeut":11303,"Ġimpar":11304,"Ġnotam":11305,"Ġoportuit":11306,"Ġcurare":11307,"Ġcrescere":11308,"Ġauras":11309,"Ġhaereses":11310,"Ġinterced":11311,"Ġquosque":11312,"Ġbacch":11313,"onas":11314,"idius":11315,"Ġferens":11316,"Ġinibi":11317,"Ġaduersarius":11318,"Ġconsiderat":11319,"Ġquacumque":11320,"Ġuicecom":11321,"xiii":11322,"Ġfecerint":11323,"Ġmemoratur":11324,"Ġeodemque":11325,"Ġsono":11326,"spec":11327,"Ġcot":11328,"osos":11329,"rice":11330,"Ġrestituit":11331,"Ġeleemosynam":11332,"ecas":11333,"Ġsciant":11334,"Ġconstanter":11335,"Ġarcus":11336,"Ġuiuos":11337,"Ġdescendens":11338,"Ġlucri":11339,"Ġreperit":11340,"Ġfelicitas":11341,"Ġmenda":11342,"Ġexstr":11343,"Ġaudacia":11344,"Ġinfantes":11345,"Ġexple":11346,"Ġmortales":11347,"Ġgerit":11348,"Ġquaerat":11349,"Ġsuperbus":11350,"Ġuoluptate":11351,"Ġangustia":11352,"Ġsanus":11353,"Ġconuertitur":11354,"Ġconspectum":11355,"Î±Î¼ÎµÎ½":11356,"Î¿ÏħÎ¼ÎµÎ½":11357,"Ġeae":11358,"Ġpraeesse":11359,"Ġunumquemque":11360,"Ġpresbiter":11361,"Ġfontis":11362,"Ġauaritiam":11363,"Ġdecur":11364,"Ġapertius":11365,"Ġquaesiuit":11366,"Ġnequitiae":11367,"hr":11368,"Ġacti":11369,"Ġpraelium":11370,"Ġrogat":11371,"Ġuesperam":11372,"iare":11373,"Ġfalsi":11374,"Ġfelicitatis":11375,"ioannes":11376,"Ġmelle":11377,"Ġhauri":11378,"Ġpaci":11379,"Ġimpietatem":11380,"Ġremansit":11381,"Ġaliquas":11382,"Ġcomplet":11383,"rect":11384,"Ġsuscepta":11385,"Ġcorrob":11386,"Ġabneg":11387,"Ġapocalypsi":11388,"ÏĦÎ±":11389,"Ġsocii":11390,"Ġmole":11391,"Ġresponderunt":11392,"Ġpluuia":11393,".;":11394,"Ġprosc":11395,"Ġpraecedit":11396,"Ġuicina":11397,"Ġnegleg":11398,"Ġeuangelistae":11399,"imis":11400,"Ġmoech":11401,"Ġloquendo":11402,"Ġabsolute":11403,"Ġadjutorio":11404,"Ġpium":11405,"Ġlucul":11406,"iderant":11407,"Ġreddet":11408,"Ġsufficienter":11409,"urgit":11410,"Ġobuia":11411,"ÎµÎº":11412,"Ġaudisset":11413,"Ġsignificet":11414,"Ġmeruerunt":11415,"Ġdiscrimen":11416,"Ġeuadere":11417,"Ġfod":11418,"Ġrecurr":11419,"Ġsustinuit":11420,"Ġcampis":11421,"Ġlegitima":11422,"Ġfebruarii":11423,"Ġhabebis":11424,"Ġscab":11425,"Ġsapienter":11426,"ĠÎ±Îº":11427,"Ġdionysii":11428,"Ġpeto":11429,"Å¿cop":11430,"Ġconuersationem":11431,"Ġtranseat":11432,"Ġcellam":11433,"Ġconse":11434,"Ġmigr":11435,"Ġsept":11436,"Ġuasis":11437,"tate":11438,"aticum":11439,"ace":11440,"Ġrich":11441,"Ġnepos":11442,"Ġliberati":11443,"Ġtabernacula":11444,"bar":11445,"Ġrele":11446,"Ġamisit":11447,"ubstanti":11448,"Ġaugur":11449,"Ġlaicis":11450,"Ġpuluerem":11451,"Ġieiunia":11452,"emet":11453,"Ġomnesque":11454,"Ġnequeunt":11455,"Ġspeciali":11456,"Ġhier":11457,"Ġfauore":11458,"Ġoscul":11459,"Ġparochia":11460,"dia":11461,"Ġinhib":11462,"Ġans":11463,"Ġpalud":11464,"Ġcibis":11465,"Ġdeuotio":11466,"Ġhaereditas":11467,"aca":11468,"ellin":11469,"Ġlibido":11470,"simil":11471,"Ġdomic":11472,"Ġsonum":11473,"Ġillustris":11474,"Ġauaritiae":11475,"Ġimpia":11476,"Ġdecid":11477,"annis":11478,"Ġcle":11479,"Ġcontrari":11480,"Ġinfirma":11481,"Ġglob":11482,"nomin":11483,"pers":11484,"Ġamph":11485,"Ġputes":11486,"Ġmonasteriis":11487,"Ġmensem":11488,"Ġegest":11489,"Ġutilitatis":11490,"Ġpraefectus":11491,"bre":11492,"Ġadal":11493,"Ġurbani":11494,"Ġtransierunt":11495,"Ġappellatus":11496,"Ġdiuersitate":11497,"ÎµÎ¹Î±Î½":11498,"Ġconsolationem":11499,"Ġnudus":11500,"Ġtormentis":11501,"atrix":11502,"Ġmiseria":11503,"Ġaeternus":11504,"Ġarcana":11505,"quodque":11506,"Ġsanitas":11507,"Ġnuptiarum":11508,"Ġlibras":11509,"Ġimpati":11510,"Ġarbore":11511,"Ġpraemon":11512,"haus":11513,"Ġdiffusa":11514,"Ġdiaconum":11515,"Ġpraecedentibus":11516,"ĠÎ¼ÎµÏĦÎ±":11517,"Ġperinde":11518,"Ġchl":11519,"Ġnihilum":11520,"ĠÎºÏħÏģÎ¹":11521,"Ġlatera":11522,"Ġcogitationum":11523,"Ġgreges":11524,"enarius":11525,"aturos":11526,"Ġsollem":11527,"Ġminori":11528,"Ġquintum":11529,"Ġaugust":11530,"Ġcaeterorum":11531,"Ġmendacio":11532,"Ġobiectum":11533,"iano":11534,"atiuus":11535,"Ġgig":11536,"Ġpraecis":11537,"Ġplaus":11538,"Ġoccidi":11539,"Ġlaborare":11540,"Ġoctoginta":11541,"Ġceu":11542,"Ġdicetur":11543,"Ġlongae":11544,"Ġmacula":11545,"Ġcontemps":11546,"Ġanathematis":11547,"Ġiniuriam":11548,"Ġexcelsis":11549,"abimur":11550,"Ġpraedixit":11551,"Ġsolit":11552,"Ġaccept":11553,"Ġeffig":11554,"Ġapparere":11555,"Ġeloquio":11556,"Ġauis":11557,"Ġgenerat":11558,"Ġtribuat":11559,"Ġmoriatur":11560,"Ġdiuisa":11561,"Ġcustodes":11562,"Ġuentil":11563,"Ġredemit":11564,"Ġadin":11565,"aedific":11566,"ulisset":11567,"Ġexiit":11568,"Ġuolueris":11569,"Ġlegiones":11570,"Ġcanonibus":11571,"namque":11572,"Ġobseruari":11573,"Ġprimogenitus":11574,"Ġquom":11575,"riti":11576,"Ġperrexit":11577,"enig":11578,"Ġdixeris":11579,"Ġmysteriis":11580,"Ġoderunt":11581,"Ġpraemissis":11582,"Ġcongregatione":11583,"Ġpereunt":11584,"Ġcomparatur":11585,"Ġconsuetud":11586,"Ġconsidera":11587,"of":11588,"Ġaa":11589,"Ġelectum":11590,"Ġdaemonibus":11591,"Ġexposuit":11592,"Ġmelchis":11593,"Ġcognosci":11594,"Ġles":11595,"Ġsilua":11596,"Ġuacat":11597,"Ġimmortalitatem":11598,"Ġproprietate":11599,"Ġdescribitur":11600,"Ġparisiis":11601,"Ġscyth":11602,"Ġhorae":11603,"Ġsuperiores":11604,"Ġsanctissimus":11605,"Ġministrare":11606,"Ġconsummationem":11607,"Ġinanis":11608,"abul":11609,"uast":11610,"Ġuoluisset":11611,"Ġnoluerit":11612,"Ġconsiderare":11613,"Ġiuliani":11614,"Ġincarnatione":11615,"Ġmultitudinis":11616,"Ġargumento":11617,"Ġmad":11618,"Ġplumb":11619,"Ġaltissimi":11620,"Ġpraefato":11621,"Ġdit":11622,"Ġsoluta":11623,"Ġcredens":11624,"Ġsequeretur":11625,"Ġreuerend":11626,"Ġsors":11627,"Ġobedientiae":11628,"Ġperditionis":11629,"yt":11630,"Ġgestum":11631,"Ġruth":11632,"Ġquaere":11633,"Ġmatrimonio":11634,"Ġrecedit":11635,"contin":11636,"Ġaugustinum":11637,"Ġisaia":11638,"Ġimprud":11639,"Ġrespice":11640,"Ġterritorio":11641,"batur":11642,"Ġignibus":11643,"Ġsextus":11644,"Î¸Îµ":11645,"Ġignorantiae":11646,"Ġleue":11647,"Ġhostia":11648,"Ġintrat":11649,"Ġfortitudinis":11650,"Ġuirginitatis":11651,"Ġlacrimis":11652,"Î·Î»":11653,"orauerunt":11654,"Ġbenedictionis":11655,"Ġproposuit":11656,"Ġeligere":11657,"Ġproelio":11658,"Ġexec":11659,"gno":11660,"Ġinfans":11661,"Ġniue":11662,"Ġapostolicum":11663,"Ġdesinit":11664,"Ġpropugn":11665,"Ġdocent":11666,"aneum":11667,"Ġiuramento":11668,"Ġgraeca":11669,"Ġarchang":11670,"Ġcoenobium":11671,"Ġresuscit":11672,"yst":11673,"Ġotium":11674,"Ġgenesi":11675,"Ġphilosophia":11676,"Ġincorpore":11677,"Ġmendax":11678,"Ġbus":11679,"Ġforum":11680,"Ġauth":11681,"Ġsacramentorum":11682,"Ġdelictis":11683,"Ġintellegi":11684,"Ġuolucres":11685,"Ġnug":11686,"Ġuiderentur":11687,"Ġuiuendo":11688,"Ġbellis":11689,"Ġcollata":11690,"Ġrequie":11691,"Ġconstitutionis":11692,"Ġiuuenem":11693,"phi":11694,"Ġintendit":11695,"Ġseruari":11696,"Ġpassionibus":11697,"Ġuiriliter":11698,"Ġteneatur":11699,"Ġsugger":11700,"esimus":11701,"bilibus":11702,"Ġerrare":11703,"Ġconser":11704,"Ġuitare":11705,"Ġmilli":11706,"Ġdiffid":11707,"Ġgloriatur":11708,"Ġsinum":11709,"Ġachil":11710,"Ġagris":11711,"Ġrectae":11712,"Ġindex":11713,"Ġexspectat":11714,"Ġspeciebus":11715,"Ġcommissum":11716,"nil":11717,"Ġmarito":11718,"Ġeuan":11719,"Ġconstare":11720,"Ġdamnatione":11721,"Ġeloquium":11722,"Ġsobri":11723,"Ġtempt":11724,"Ġassensum":11725,"Ġcongregati":11726,"Ġconcupiscentiae":11727,"Ġmagistratus":11728,"Ġattendite":11729,"Ġquemque":11730,"Ġferr":11731,"Ġturbae":11732,"Ġcopias":11733,"oam":11734,"Ġciuis":11735,"Ġminore":11736,"Ġpretiosa":11737,"Ġubicunque":11738,"Ġpertulit":11739,"Ġaram":11740,"iciunt":11741,"Ġiniqua":11742,"Ġlaborum":11743,"Ġexpi":11744,"Ġfuroris":11745,"Ġadjut":11746,"Ġsermonum":11747,"Ġaccipiendum":11748,"cribere":11749,"Ġostendunt":11750,"Ġtemporaliter":11751,"Ġcubitorum":11752,"psalmus":11753,"toria":11754,"Ġlegatum":11755,"Ġeiec":11756,"Ġmediator":11757,"Ġelectionis":11758,"Ġsocietatis":11759,"Ġcontemnere":11760,"Ġmuc":11761,"Ġluctus":11762,"rica":11763,"erebantur":11764,"Ġisaiam":11765,"Ġcantico":11766,"ÃŁ":11767,"Ġserg":11768,"Ġforn":11769,"mai":11770,"Ġproximis":11771,"Ġalbed":11772,"Ġuestes":11773,"Ġfinita":11774,"Ġbid":11775,"uctu":11776,"Ġagg":11777,"Ġaccepi":11778,"Ġprofessionem":11779,"trae":11780,"Ġdominicum":11781,"Ġappellare":11782,"Ġuxori":11783,"Ġpraecessit":11784,"Ġdepositio":11785,"Ġictu":11786,"istas":11787,"Ġindoc":11788,"Ġturpe":11789,"Ġrelatione":11790,"Ġsatanae":11791,"Ġsaeculis":11792,"Ġmissos":11793,"Î¿Î¹Î½":11794,"ossa":11795,"Ġgnae":11796,"Ġnasceretur":11797,"Ġlatitudine":11798,"Ġear":11799,"Ġacha":11800,"Ġinspec":11801,"Ġaequinoc":11802,"Ġdemonstrare":11803,"Ġadeptus":11804,"ibiliter":11805,"Ġsyriae":11806,"Ġprofessione":11807,"Ġthesauros":11808,"Ġquacunque":11809,"cs":11810,"eae":11811,"Ġpare":11812,"Ġposui":11813,"Ġquoquo":11814,"Ġinterior":11815,"Ġossibus":11816,"Ġreuertitur":11817,"potest":11818,"Ġuincit":11819,"Ġauxiliante":11820,"ĠÎ³ÎµÎ½":11821,"Ġmoyse":11822,"Ġmelchised":11823,"ilibet":11824,"ditas":11825,"Ġgenu":11826,"Ġcredul":11827,"Ġtenore":11828,"Ġsentiat":11829,"Ġsacerdotio":11830,"Ġbaptizari":11831,"Ġincerta":11832,"Ġpalmam":11833,"Ġcessit":11834,"Ġparce":11835,"Ġplerisque":11836,"Ġbone":11837,"Ġinsulae":11838,"Ġagrip":11839,"Ġsuperiorem":11840,"Ġfauorem":11841,"Ġbestiis":11842,"Ġalienig":11843,"Ġoro":11844,"uxerit":11845,"Ġmaiestas":11846,"Ġsolemnia":11847,"uul":11848,"Ġgale":11849,"Ġclare":11850,"Ġmalle":11851,"Ġaegyptiorum":11852,"Ġconsecutus":11853,"Ġdiluuium":11854,"nem":11855,"Ġessentiae":11856,"Ġmutata":11857,"Ġpurpura":11858,"atiuis":11859,"Ġcomprim":11860,"ÎµÏĩ":11861,"Ġimprop":11862,"Ġprofundo":11863,"Ġdeprehens":11864,"Ġdemonstratur":11865,"Ġcoeleste":11866,"Ġalienae":11867,"Ġsponsam":11868,"Ġxxuiii":11869,"ibili":11870,"xui":11871,"Ġtueri":11872,"ticorum":11873,"Ġcasibus":11874,"Ġfelicem":11875,"ennio":11876,"Ġpropositionis":11877,"Ġterrest":11878,"Ġfaciendo":11879,"Ġesses":11880,"Ġmagisque":11881,"Ġluctu":11882,"Ġosti":11883,"Ġadhaer":11884,"semper":11885,"Ġdot":11886,"Ġsparg":11887,"fera":11888,"Ġurbi":11889,"Ġordinare":11890,"Ġdoceat":11891,"Ġinimica":11892,"Ġappetitus":11893,"Ġcordi":11894,"Ġhisce":11895,"Ġsaluari":11896,"migr":11897,"Ġuigilia":11898,"Ġdefunctus":11899,"Ġtimens":11900,"Ġmonachum":11901,"Ġeuangelicae":11902,"endecas":11903,"Ġabest":11904,"atisque":11905,"Ġsexag":11906,"Ġadulesc":11907,"Ġinteriora":11908,"Ġratiocin":11909,"Ġdiadem":11910,"Ġcontinentia":11911,"Ġiosue":11912,"Ġquantitatem":11913,"Ġuelociter":11914,"Ġcoenobio":11915,"Ġalienos":11916,"Ġexcol":11917,"Ġdiscurr":11918,"Ġimposuit":11919,"Ġuersum":11920,"Ġcompleta":11921,"Ġinfernum":11922,"ixa":11923,"Ġilluminat":11924,"Ġlupus":11925,"Ġcf":11926,"Ġeng":11927,"Ġcolligitur":11928,"Ġcommunicare":11929,"Ġpseud":11930,"Ġmeminisse":11931,"aram":11932,"Ġpraesto":11933,"Ġconfitemur":11934,"Ġconfirmauit":11935,"Ġecclesiastico":11936,"Ġaudis":11937,"Ġdemet":11938,"Ġdolet":11939,"Ġculmen":11940,"Ġtentationem":11941,"Ġanimaduers":11942,"yc":11943,"aturam":11944,"Ġhabuerint":11945,"Ġhabebunt":11946,"Ġiudam":11947,"Ġsime":11948,"Ġherac":11949,"Ġsuscipiens":11950,"Ġfom":11951,"Ġecon":11952,"Ġsecuta":11953,"Ġsepties":11954,"Ġpersecutionis":11955,"Ġide":11956,"Ġcoqu":11957,"Ġdocumenta":11958,"Ġprincipaliter":11959,"Ġfletus":11960,"Ġcontrariis":11961,"Ġelectio":11962,"Ġconuenerunt":11963,"Ġuolumine":11964,"Ġsara":11965,"Ġsubduc":11966,"Ġauctoribus":11967,"Ġsaluatore":11968,"Ġhipp":11969,"Ġasserunt":11970,"Ġdistat":11971,"Ġcensura":11972,"Ġremedio":11973,"Ġmachin":11974,"rhae":11975,"Ġincep":11976,"ulat":11977,"Ġconsim":11978,"Ġsciret":11979,"Ġherm":11980,"Ġsemetipsos":11981,"Ġitidem":11982,"Ġinaud":11983,"Ġmirific":11984,"Ġpraedicator":11985,"Ġsingulare":11986,"Ġconstantini":11987,"Ġuiolenter":11988,"ochiae":11989,"Ġcommodum":11990,"Ġdiscord":11991,"Ġscribae":11992,"Ġoffert":11993,"Ġgremio":11994,"Ġregulis":11995,"Ġsuppliciis":11996,"Ġeucharis":11997,"aea":11998,"Ġauditus":11999,"Ġspeculum":12000,"Ġuirginibus":12001,"plend":12002,"Ġadorare":12003,"Ġauditores":12004,"Ġsubin":12005,"Ġplanc":12006,"Ġimpun":12007,"const":12008,"Ġarborem":12009,"Ġambulat":12010,"Ġlatitudo":12011,"bilium":12012,"Ġlimina":12013,"Ġprouinciarum":12014,"Ġconditionem":12015,"Ġrix":12016,"oma":12017,"Ġdictam":12018,"Ġotio":12019,"Ġdecore":12020,"Ġiudaeus":12021,"Ġpalati":12022,"Ġuiuentem":12023,"Ġcontemplationis":12024,"presbyter":12025,"Ġparis":12026,"Ġepiscopali":12027,"Ġuinculum":12028,"Ġtentatio":12029,"Ġcessauit":12030,"Ġpriuilegiis":12031,"Ġmonstratur":12032,"Ġparadisum":12033,"Ġeuit":12034,"ÏģÎ¿ÏĤ":12035,"Ġgaudent":12036,"Ġcauendum":12037,"Ġinstantia":12038,"Ġcorinthios":12039,"metipsos":12040,"istunt":12041,"Ġhonesta":12042,"Ġredemptionem":12043,"Ġparuulus":12044,"Ġcertamina":12045,"Ġluxuriae":12046,"Ġmeretur":12047,"Ġmuta":12048,"apud":12049,"Ġmagnopere":12050,"Ġmirabili":12051,"Ġprofug":12052,"Ġperdur":12053,"fuit":12054,"edis":12055,"Ġcontinentiam":12056,"Ġexplicare":12057,"Ġuidebis":12058,"Ġadfec":12059,"Ġipsarum":12060,"Ġpropius":12061,"Ġinsult":12062,"Ġmerced":12063,"Ġpudor":12064,"Ġdormit":12065,"Ġindag":12066,"Ġpalatii":12067,"Ġsacerdotali":12068,"Ġclemens":12069,"Ġdetrimentum":12070,"Ġbernardus":12071,"Ġchilde":12072,"Ġpisci":12073,"Ġdeiec":12074,"Ġconuenti":12075,"Ġmirabilis":12076,"Ġcrudeli":12077,"Ġadjuuante":12078,"Ġthesaurum":12079,"Ġinund":12080,"Ġcombur":12081,"Ġquantus":12082,"Ġinnocentiam":12083,"Ġgallias":12084,"Ġsuperare":12085,"Ġimpedit":12086,"Ġthrac":12087,"Ġinnocentia":12088,"Ġcatech":12089,"Ġbertr":12090,"Ġegregius":12091,"Ġcombus":12092,"aue":12093,"Ġpriorum":12094,"Ġabbatibus":12095,"Ġapertum":12096,"Ġciuili":12097,"Ġgeh":12098,"Ġadjuu":12099,"unctum":12100,"Ġmultam":12101,"Ġacceptis":12102,"Ġstabat":12103,"ĠÎµÎ³":12104,"Ġputamus":12105,"Ġpateretur":12106,"pius":12107,"Ñģ":12108,"omus":12109,"Ġima":12110,"Ġpotus":12111,"Ġdoctus":12112,"Ġadjac":12113,"Ġcasum":12114,"Ġconiung":12115,"Ġcongress":12116,"Ġesa":12117,"Ġsustinet":12118,"Ġabstra":12119,"Ġdionysius":12120,"uida":12121,"Ġtribulatio":12122,"Ġpir":12123,"Ġexting":12124,"Ġrescrip":12125,"Ġexpell":12126,"Ġfallacia":12127,"ingere":12128,"Ġpagina":12129,"osius":12130,"rauerunt":12131,"Ġinsani":12132,"issimorum":12133,"Ġadjung":12134,"Ġrediens":12135,"Ġpropitio":12136,"Ġcommisit":12137,"Ġattulit":12138,"Ġmedici":12139,"Ġquint":12140,"Ġnona":12141,"Ġdiamet":12142,"Ġspiritualia":12143,"Ġtribulationibus":12144,"ĠÏĦÎ¿ÏħÏĦÎ¿":12145,".:":12146,"Ġmissae":12147,"elligo":12148,"Ġpossessione":12149,"Ġelementis":12150,"Ġperfidiae":12151,"Ġsimilibus":12152,"Ġinco":12153,"Ġgrauia":12154,"Ġmodos":12155,"Ġclarus":12156,"Ġexhibuit":12157,"Ġreliquos":12158,"Ġuestigiis":12159,"Ġtangere":12160,"Ġcacum":12161,"Ġtell":12162,"Ġneap":12163,"Ġcapell":12164,"Ġquemlibet":12165,"Ġpraedicantur":12166,"Ġciuitatum":12167,"peri":12168,"Ġsubuers":12169,"Ġindiuis":12170,"positione":12171,"Ġdebell":12172,"Ġponat":12173,"Ġpetunt":12174,"Ġpertineat":12175,"Ġdiuisit":12176,"Ġuiolentia":12177,"Ġdabat":12178,"Ġfuimus":12179,"Ġdeced":12180,"Ġgenitum":12181,"ĠÏĦÎ¹Î½":12182,"Ġcongregatio":12183,"Ġdulcedine":12184,"Ġphryg":12185,"Ġtyri":12186,"Ġaditum":12187,"Ġdebit":12188,"Ġcrediderit":12189,"Ġgnaeus":12190,"Ġponuntur":12191,"Ġuirium":12192,"Ġplurimorum":12193,"Ġobsidione":12194,"Ġcorrobor":12195,"fre":12196,"Ġuersa":12197,"Ġexsol":12198,"Ġambula":12199,"Ġdepreh":12200,"Ġsalomonem":12201,"Ġagam":12202,"Ġhostias":12203,"Ġcupiunt":12204,"Ġsubjug":12205,"Ġceteros":12206,"Ġrogauit":12207,"Ġfeminarum":12208,"Ġinnocentem":12209,"Ġsocietas":12210,"Ġnort":12211,"Ġstellas":12212,"Ġconcus":12213,"Ġconcin":12214,"Ġapollo":12215,"abae":12216,"Ġquodcunque":12217,"Ġdecreuimus":12218,"Ġsollicitudo":12219,"Ġdiscrimine":12220,"burg":12221,"eque":12222,"Ġsolitudinem":12223,"Ġpraestitit":12224,"Ġrecenti":12225,"Ġistuc":12226,"Ġobstin":12227,"Ġmiror":12228,"Ġsubire":12229,"Ġdispensatione":12230,"Ġfacultates":12231,"Ġlatitudinem":12232,"Ġlacrymarum":12233,"quas":12234,"Ġnegationem":12235,"Ġscholas":12236,"Ġcere":12237,"Ġrim":12238,"Ġfacilis":12239,"Ġpartum":12240,"Ġcommittere":12241,"Ġminuere":12242,"Ġnouas":12243,"Ġcelebratur":12244,"Ġgentil":12245,"Ġgregorio":12246,"Ġfraternitati":12247,"Ġsubditis":12248,"Î½Î±":12249,"ĠÎµÎ¼":12250,"Ġnatione":12251,"rior":12252,"Ġproueni":12253,"Ġisid":12254,"mox":12255,"Ġdifferunt":12256,"Ġequorum":12257,"Ġactuum":12258,"Ġmeridie":12259,"Ġmeridiem":12260,"Î±Ïħ":12261,"Ġgress":12262,"Ġnotis":12263,"Ġnuntius":12264,"Ġinstitutis":12265,"Ġadditur":12266,"Ġcirculi":12267,"Ġsimplicem":12268,"Ġargumentis":12269,"Ġuocabula":12270,"Ġprouerbi":12271,"Ġueg":12272,"Ġconantur":12273,"actae":12274,"Ġincidit":12275,"Ġpeccauerit":12276,"Ġsignorum":12277,"Ġuidebimus":12278,"Ġlibidinem":12279,"Ġacciperet":12280,"Ġcredant":12281,"Ġconstantiam":12282,"Ġtriang":12283,"Ġabbatia":12284,"Ġmanifestat":12285,"Ġmereatur":12286,"Ġegressi":12287,"Ġflect":12288,"Ġseorsum":12289,"Ġsubinde":12290,"Ġdocens":12291,"Ġuallis":12292,"Ġdamno":12293,"Ġhaereticus":12294,"Ġopposita":12295,"culum":12296,"omnibus":12297,"Ġsuspir":12298,"Ġsatisfactionem":12299,"Ġlor":12300,"Ġiudaeae":12301,"Ġmultiplex":12302,"Ġinnocentii":12303,"Ġcister":12304,"Ġobsequi":12305,"intellig":12306,"Ġsaecularium":12307,"Ġuulneribus":12308,"Ġfortunam":12309,"Ġubera":12310,"Ġpermansit":12311,"Ġchor":12312,"Ġfortem":12313,"interea":12314,"Ġaduerso":12315,"Ġposteris":12316,"Ġdiscept":12317,"Ġdentibus":12318,"Ġillus":12319,"Ġconss":12320,"Ġnepo":12321,"Ġartium":12322,"Ġtransmigr":12323,"Ġportio":12324,"Ġiurauit":12325,"Ġnuntios":12326,"Ġprospic":12327,"Ġdescribit":12328,"Ġperenn":12329,"Ġconsubstanti":12330,"Ġreple":12331,"Ġordinata":12332,"Ġclaritatem":12333,"Ġsimplicitate":12334,"Ġexigere":12335,"Ġhebraeorum":12336,"Ġangustias":12337,"Ġtempestas":12338,"Ġdiscedere":12339,"Ġcontinentiae":12340,"Ġdoloribus":12341,"Ġdeplor":12342,"Ġcleric":12343,"Ġemendare":12344,"Ġcentrum":12345,"Ġperniciem":12346,"Ġinfidelibus":12347,"xiu":12348,"esin":12349,"Ġdiur":12350,"Ġhabui":12351,"Ġtergo":12352,"Ġcommix":12353,"Ġcaed":12354,"Ġfeminis":12355,"Ġsubjectum":12356,"Ġpercussus":12357,"Ġsuprascrip":12358,"Ġaenig":12359,"atarum":12360,"icio":12361,"Ġliby":12362,"Ġueteribus":12363,"Ġinteger":12364,"Ġauster":12365,"Ġserpentes":12366,"Ġcleri":12367,"Ġarmorum":12368,"Ġtribulationis":12369,"Ġrecordationis":12370,"Ġsincer":12371,"Ġpulchritudinem":12372,"Ġchan":12373,"Ġmonumentum":12374,"Ġmathem":12375,"Ġcolles":12376,"Ġextendit":12377,"Ġpendet":12378,"familias":12379,"Ġdans":12380,"Ġacadem":12381,"Ġtraiec":12382,"Ġinfert":12383,"Ġinfideles":12384,"Ġspolia":12385,"Ġobscura":12386,"Ġnatos":12387,"taui":12388,"Ġerump":12389,"Ġnostis":12390,"Ġlaudatur":12391,"Ġmediocr":12392,"Ġquantitas":12393,"imm":12394,"Ġimperatores":12395,"Ġinueniant":12396,"othe":12397,"Ġlemouic":12398,"quant":12399,"Ġuenter":12400,"Ġmonitis":12401,"Ġaggreg":12402,"Ġdilectum":12403,"ÎµÎ¹Î±":12404,"Ġconuersatio":12405,"Ġduxerit":12406,"Ġuocabulis":12407,"Ġgloriari":12408,"Ġlongitudine":12409,"Ġcherubim":12410,"Ġlitt":12411,"Ġrepetit":12412,"Ġuidisti":12413,"Ġdummodo":12414,"Ġdiuersi":12415,"Ġgemitu":12416,"Ġperuersa":12417,"Ġhypocr":12418,"Ġaruer":12419,"Ġliberari":12420,"Ġdissenti":12421,"Ġaltitudine":12422,"Ġtumultus":12423,"Ġincrementum":12424,"Ġpecus":12425,"Ġdecant":12426,"Ġcuiusquam":12427,"Ġcomposuit":12428,"Ġdiffus":12429,"Ġinuidiae":12430,"Ġaspera":12431,"Ġseptuag":12432,"entie":12433,"Ġgrandis":12434,"Ġredde":12435,"Ġpraedicant":12436,"Ġprotest":12437,"Ġpropositione":12438,"Ġtranstulerunt":12439,"Ġcitra":12440,"erati":12441,"ebuntur":12442,"Ġtetig":12443,"Ġuestrarum":12444,"Ġcalor":12445,"facta":12446,"Ġquater":12447,"Ġsurgit":12448,"Ġdiuidit":12449,"Ġstern":12450,"Ġioue":12451,"Ġnecessariis":12452,"Ġfamae":12453,"Ġposterius":12454,"Ġdupliciter":12455,"itato":12456,"Ġuiderint":12457,"Ġarnul":12458,"Ġdesunt":12459,"Ġirrog":12460,"Ġgenerationes":12461,"Ġostende":12462,"isteret":12463,"Ġintelligo":12464,"Ġimport":12465,"Ġinsigni":12466,"itudini":12467,"Ġostendi":12468,"Ġiuramentum":12469,"Ġnumerorum":12470,"Ġquantitate":12471,"ueras":12472,"Ġcrederet":12473,"Ġsexc":12474,"Ġmysterii":12475,"Ġpudore":12476,"Ġornatum":12477,"Ġnormam":12478,"ĠÏĪ":12479,"Ġuates":12480,"inius":12481,"Ġprauis":12482,"Ġfaciemus":12483,"Ġminoribus":12484,"Ġcircumc":12485,"Ġlaed":12486,"bertum":12487,"Ġclericum":12488,"Ġexistit":12489,"cul":12490,"teretur":12491,"Ġuertit":12492,"Î¹Î¿Î½":12493,"Ġmiseris":12494,"Ġexsilio":12495,"Ġinterrogatus":12496,"Ġsomnum":12497,"Ġsuscipiat":12498,"Ġthomas":12499,"otae":12500,"Ġdeserit":12501,"Ġmisera":12502,"Ġseruiunt":12503,"Ġcommoda":12504,"Ġsymmachus":12505,"Ġaerem":12506,"ices":12507,"Ġdicent":12508,"Ġcompati":12509,"Ġeman":12510,"Ġauen":12511,"Ġgerere":12512,"Ġpoenarum":12513,"acc":12514,"Ġuiua":12515,"Ġuiuet":12516,"Ġgenitor":12517,"Ġdoctoribus":12518,"Ġcontinere":12519,"Ġnegotii":12520,"Ġgloriosus":12521,"Ġbenignitate":12522,"Ġradicem":12523,"Ġterribilis":12524,"Ġsess":12525,"Ġalic":12526,"Ġcaussa":12527,"Ġuideamur":12528,"Ġlect":12529,"Ġhumilem":12530,"deat":12531,"Ġcolorem":12532,"Ġsapientibus":12533,"Ġconuenienter":12534,"Ġgeomet":12535,"denique":12536,"Ġproclam":12537,"Ġdiuersum":12538,"Ġimpress":12539,"Ġplagam":12540,"auerant":12541,"Ġtametsi":12542,"Ġcurrus":12543,"Ġultionem":12544,"Ġleone":12545,"Ġlatinis":12546,"Ġstruc":12547,"Ġredemptionis":12548,"Ġaestus":12549,"illud":12550,"Ġordinauit":12551,"Ġpraedestinauit":12552,"Ġcuilibet":12553,"Ġhippon":12554,"Ġperstr":12555,"Ġecclesie":12556,"Ġuoluisti":12557,"Ġagmina":12558,"Ġaudierit":12559,"Ġnolle":12560,"Ġzen":12561,"Ġiubemus":12562,"Ġmonstra":12563,"tir":12564,"ÏĥÏĦÎ¿Î»":12565,"ebitis":12566,"Ġsecret":12567,"Ġlectionis":12568,"Ġcadere":12569,"Ġuineis":12570,"Ġfraternitas":12571,"Ġeccle":12572,"Ġagatur":12573,"Ġornatus":12574,"Ġaedes":12575,"iant":12576,"Ġsedulo":12577,"Ġfrustr":12578,"Ġimmorta":12579,"Ġgauis":12580,"Ġoppida":12581,"Ġfelicitatem":12582,"Ġmaledictus":12583,"Ġexcelsa":12584,"Ġinsequ":12585,"Ġpergit":12586,"Ġnecem":12587,"Ġinstinc":12588,"Ġuocabatur":12589,"Ġportis":12590,"Ġfirmitatem":12591,"Ġpraefigur":12592,"Ġinnocentes":12593,"Ġhonorifice":12594,"Ġaura":12595,"Ġdipl":12596,"Ġpartur":12597,"Ġscorp":12598,"Ġpreter":12599,"Ġinfirmos":12600,"Ġtradiderunt":12601,"Ġconuertere":12602,"Ġpetitionem":12603,"cribitur":12604,"Ġarea":12605,"Ġdignam":12606,"Ġsacerdoti":12607,"Ġdisciplinis":12608,"itia":12609,"xuii":12610,"Ġsard":12611,"Ġagite":12612,"Ġziz":12613,"Ġdubitatione":12614,"Ġfraudul":12615,"Ġsublato":12616,"Ġmelchisedech":12617,"Ġconatur":12618,"Ġeremo":12619,"Ġhabentibus":12620,"Ġimperatorum":12621,"Ġdonat":12622,"Ġtimuit":12623,"Ġcadunt":12624,"Ġprolata":12625,"Ġplagis":12626,"Ġquaerite":12627,"Ġmomento":12628,"elmus":12629,"Ġalue":12630,"Ġhaeredes":12631,"ĠÎ´ÏħÎ½":12632,"Ġconstitutione":12633,"quar":12634,"Ġpermix":12635,"Ġritus":12636,"Ġexstiterit":12637,"Ġdemer":12638,"Ġumbram":12639,"Ġcontradictione":12640,"Ġpiscium":12641,"Ġueneno":12642,"Ġcongregationis":12643,"Ġsterilis":12644,"oler":12645,"Ġdiscordia":12646,"Ġarborum":12647,"Ġagnum":12648,"Ġdifferentias":12649,"Ġqualitates":12650,"Ġnequitia":12651,"Ġeurop":12652,"ipsa":12653,"ertum":12654,"Ġccc":12655,"Ġualuit":12656,"Ġtheb":12657,"Ġemund":12658,"Ġtestem":12659,"Ġpraeterito":12660,"Ġmagi":12661,"Ġconcedere":12662,"Ġdurum":12663,"Ġexistens":12664,"Ġantisti":12665,"inensi":12666,"Ġreor":12667,"Ġprofecti":12668,"numquam":12669,"Ġcantu":12670,"Ġnequit":12671,"Ġostensum":12672,"ĠÎ±Î´":12673,"Ġaperto":12674,"Ġalba":12675,"Ġproponit":12676,"Ġcastitatem":12677,"ton":12678,"Ġlucr":12679,"Ġioui":12680,"homilia":12681,"Ġadmis":12682,"Ġsubtrac":12683,"Ġagmine":12684,"Ġindiffer":12685,"Ġfundum":12686,"Ġseparari":12687,"Ġbeatitudine":12688,"eodem":12689,"torium":12690,"Ġcomparationem":12691,"Ġfornicationis":12692,"utitur":12693,"Ġcoloris":12694,"Ġtenui":12695,"Ġdeport":12696,"Ġmoriuntur":12697,"Ġhieronymi":12698,"Ġfuisti":12699,"Ġnouerunt":12700,"Ġperturbare":12701,"Ġfast":12702,"Ġagente":12703,"Ġfelicitate":12704,"Ġprocedat":12705,"Ġcomplur":12706,"Ġuigiliis":12707,"etibus":12708,"Ġquaest":12709,"ada":12710,"Ġpriora":12711,"Ġcapitoli":12712,"Ġsordibus":12713,"Ġdas":12714,"Ġhem":12715,"Ġexsequi":12716,"Ġstudiorum":12717,"Ġpraecepti":12718,"Ġfatetur":12719,"Ġparata":12720,"Ġreplic":12721,"ĠÎ·Î½":12722,"Ġueh":12723,"Ġdeuotionem":12724,"domino":12725,"sos":12726,"Ġsigni":12727,"Ġuertitur":12728,"ceat":12729,"Ġadhort":12730,"elo":12731,"Ġturris":12732,"Ġsaluare":12733,"Ġnesciat":12734,"Ġdelicto":12735,"ĠÎ±ÏħÏĦÎ¿Î½":12736,"Ġuelimus":12737,"Ġfolia":12738,"Ġsolliciti":12739,"tre":12740,"cede":12741,"Ġcupimus":12742,"Ġfoc":12743,"Ġfuc":12744,"Ġsumpta":12745,"Ġexanim":12746,"Ġperfectione":12747,"Ġobediens":12748,"positionem":12749,"Ġcedere":12750,"Ġnicolai":12751,"ormi":12752,"Ġparat":12753,"Ġarcem":12754,"Ġlectionem":12755,"Ġmanifestius":12756,"Ġperfidia":12757,"Ġuoluptates":12758,"Ġdidicimus":12759,"ublica":12760,"Ġassyriorum":12761,"Ġmisi":12762,"Ġlinguarum":12763,"Ġdistantia":12764,"Ġclausa":12765,"Ġtraditionem":12766,"Ġthronum":12767,"Ġprz":12768,"Ġfru":12769,"Ġpecora":12770,"Ġnouitate":12771,"Ġprimos":12772,"Ġamplect":12773,"Ġsubiecti":12774,"Ġliquido":12775,"dominus":12776,"Ġeua":12777,"Ġsignificari":12778,"Ġunaquaeque":12779,"Ġlicuit":12780,"Ġcessat":12781,"Ġmetaphys":12782,"xuiii":12783,"Ġfen":12784,"Ġasia":12785,"Ġreddita":12786,"Ġcarnalium":12787,"Ġinitia":12788,"Ġlacum":12789,"Ġquaestionis":12790,"Ġfraudem":12791,"Ġlineam":12792,"Ġphilippi":12793,"artic":12794,"Ġpraeerat":12795,"Ġuideor":12796,"Ġquantam":12797,"Ġattentius":12798,"Ġnotus":12799,"Ġfeminas":12800,"Ġuestimentis":12801,"ĠepiÅ¿cop":12802,"Ġlibello":12803,"Ġseruetur":12804,"Ġleuiter":12805,"Ġidoneus":12806,"Ġtypum":12807,"erici":12808,"itque":12809,"Ġspiri":12810,"Ġarcum":12811,"Ġregali":12812,"Ġdeberent":12813,"Ġusquequo":12814,"Ġpraeceptorum":12815,"Ġmensae":12816,"Ġseruientes":12817,"Ġdesiderii":12818,"autem":12819,"Ġconuiuio":12820,"Ġfranci":12821,"Ġnatu":12822,"Ġconcedit":12823,"Ġaditus":12824,"Ġcoin":12825,"Ġpoposc":12826,"Ġgrauitate":12827,"Ġcecin":12828,"Ġuentrem":12829,"Ġlargit":12830,"Ġadimplere":12831,"Ġtue":12832,"Ġurbium":12833,"Ġueniente":12834,"Ġattent":12835,"Ġsinit":12836,"Ġcognosce":12837,"idimus":12838,"ticem":12839,"Ġnihilque":12840,"Ġoperantur":12841,"Ġmittam":12842,"Ġserpentis":12843,"Ġperpetrata":12844,"eng":12845,"Ġquir":12846,"alus":12847,"Ġog":12848,"Ġlinte":12849,"Ġuiuificat":12850,"Ġbulla":12851,"Ġseueri":12852,"Ġmoram":12853,"Ġmartis":12854,"Ġuiuant":12855,"Ġexpertus":12856,"Ġstudiose":12857,"Ġcomitibus":12858,"Ã¾s":12859,"Ġnescis":12860,"Ġorate":12861,"ĠÎµÏĩ":12862,"Ġtimentes":12863,"Ġmirabile":12864,"petrus":12865,"Ġinfirmum":12866,"Ġodore":12867,"Ġspero":12868,"Ġgraecum":12869,"Ġperueniat":12870,"Ġuulgi":12871,"iac":12872,"Ġta":12873,"Ġperjur":12874,"Ġenar":12875,"Ġinteremp":12876,"Î¹Î»":12877,"Ġaggra":12878,"Ġsensuum":12879,"Ġcontentio":12880,"Ġueneratione":12881,"Ġeffecti":12882,"ingitur":12883,"Ġreatum":12884,"Ġcunct":12885,"Ġpraesumps":12886,"Ġcircumcisione":12887,"Ġcolumna":12888,"Ġpraescientia":12889,"tulimus":12890,"Ġconfring":12891,"Ġminora":12892,"Ġexempli":12893,"Ġbreue":12894,"Ġimpletur":12895,"Ġdiacono":12896,"Ġierosolym":12897,"Ġinordin":12898,"Ġsuperuac":12899,"Ġiudicet":12900,"Ġexcr":12901,"Ġflere":12902,"Ġconueniens":12903,"Ġcreaturis":12904,"Ġedita":12905,"uro":12906,"Ġexit":12907,"phus":12908,"Ġconuentum":12909,"Ġmedietatem":12910,"Ġsalutari":12911,"Ġtacere":12912,"Ġcernitur":12913,"Ġoccurrere":12914,"Ġfef":12915,"Ġuersibus":12916,"Ġobseruatione":12917,"Ġomitt":12918,"geniti":12919,"aff":12920,"Ġela":12921,"Ġuarii":12922,"Ġges":12923,"Ġcontemptum":12924,"Ġpugnae":12925,"Ġexistimo":12926,"Ġmart":12927,"Ġspirituum":12928,"Ġuiuente":12929,"Ġcanonicus":12930,"Ġstatuentes":12931,"Ġtribulationes":12932,"Ġsterc":12933,"Ġreos":12934,"opon":12935,"app":12936,"egor":12937,"exs":12938,"Ġaegre":12939,"Ġxxix":12940,"Ġsaba":12941,"Ġministerii":12942,"Ġiulianus":12943,"Ġaliquanto":12944,"Ġham":12945,"aremur":12946,"pedit":12947,"Ġcatholicos":12948,"Ġnescitis":12949,"Ġaccedat":12950,"Ġperuenerunt":12951,"Ġinsigne":12952,"fal":12953,"Ġeust":12954,"aldum":12955,"endarum":12956,"Ġsoll":12957,"Ġliberare":12958,"Ġmaximis":12959,"Ġlacus":12960,"Ġredeat":12961,"Ġbestia":12962,"ĉĉ":12963,"urae":12964,"Ġparem":12965,"ellos":12966,"Ġcreatori":12967,"Ġcolere":12968,"Ġnominat":12969,"Ġuirgam":12970,"Ġuetera":12971,"Ġcircumde":12972,"Ġcorruptionem":12973,"Ġbeatissimus":12974,"isa":12975,"ursum":12976,"ĠÎ¶":12977,"Ġsuperat":12978,"Ġsuauis":12979,"Ġexspoli":12980,"Ġaeternitatis":12981,"Ġconsulere":12982,"Ġsperat":12983,"Ġconsequitur":12984,"Ġdelectatione":12985,"Ġgentilis":12986,"Ġmassa":12987,"Ġproiici":12988,"Ġlaborat":12989,"Ġseptimus":12990,"Ġangustiis":12991,"Ġaltaria":12992,"Ġsubleu":12993,"Ġperquir":12994,"Ġchristianam":12995,"Ġconuersio":12996,"Ġsicilia":12997,"Ġnigr":12998,"Ġrecti":12999,"Ġdocti":13000,"Ġnaturis":13001,"Ġlucra":13002,"Ġindec":13003,"Ġpossed":13004,"Ġuenerant":13005,"Ġcanonicam":13006,"Ġmanducat":13007,"Ġciuilis":13008,"Ġprophetiam":13009,"Ġpraeclara":13010,"uendam":13011,"Ġnationibus":13012,"Ġuiueret":13013,"Ġinduci":13014,"Ġnouissime":13015,"Ġthessalon":13016,"Ġabd":13017,"Ġmunific":13018,"Ġuisionis":13019,"ĠÎ±Î¼":13020,"Ġportionem":13021,"Ġcampos":13022,"Ġillicita":13023,"Ġarchidiaconus":13024,"cula":13025,"glor":13026,"ittis":13027,"Ġarat":13028,"Î·ÏģÎ¹":13029,"Ġputauit":13030,"Ġtractare":13031,"Ġclementiae":13032,"Ġpharaonis":13033,"Ġiracundiam":13034,"Ġsanum":13035,"Ġaui":13036,"Ġcrederent":13037,"Ġatton":13038,"Ġoccidentem":13039,"Ġinterrogauit":13040,"Ġcernere":13041,"Ġsubjaceat":13042,"Ġciuitati":13043,"Ġrapit":13044,"Ġadmonitio":13045,"subi":13046,"Ġinferioribus":13047,"Ġdespons":13048,"Ġseruauit":13049,"Ġproceres":13050,"Ġmiraculorum":13051,"Ġablata":13052,"Ġrespondeat":13053,"mem":13054,"Ġretrah":13055,"Ġchir":13056,"Ġmoris":13057,"Ġimpie":13058,"Ġfaut":13059,"Ġfurtum":13060,"Ġturbas":13061,"Ġdelectatio":13062,"Ġmeliores":13063,"Ġfrigus":13064,"Ġuendi":13065,"Ġfet":13066,"Ġsir":13067,"Ġquamque":13068,"Ġualeamus":13069,"Ġseruatur":13070,"Ġdolus":13071,"illatim":13072,"Ġmolend":13073,"Ġorthograph":13074,"Ġliquet":13075,"Ġtunica":13076,"zz":13077,"elus":13078,"rap":13079,"ÏĦÎ¿ÏĤ":13080,"iose":13081,"Ġdescrips":13082,"Ġostendimus":13083,"Ġmedicinam":13084,"Ġincorpor":13085,"Ġcella":13086,"ophil":13087,"Ġacum":13088,"Ġpotuerint":13089,"Ġagis":13090,"Ġuicibus":13091,"Ġinstitutione":13092,"argumentum":13093,"Ġexhibet":13094,"Ġtristitiam":13095,"Ġnegligentia":13096,"Ġafricae":13097,"Ġconscius":13098,"neg":13099,"rh":13100,"Ġuenimus":13101,"Ġprimas":13102,"Ġauditor":13103,"pice":13104,"Ġaccidentia":13105,"Ġexponere":13106,"Î·Î½Î±Î¹":13107,"Ġhispaniae":13108,"occup":13109,".âĢĶ":13110,"aconi":13111,"Ġrach":13112,"Ġchana":13113,"Ġchorus":13114,"Ġpartu":13115,"Ġintoler":13116,"Ġmissas":13117,"primum":13118,"Î»Î·Î¸":13119,"Ġsublata":13120,"Ġinha":13121,"Ġrar":13122,"Ġquaeri":13123,"Ġintellige":13124,"Ġintelligenda":13125,"Ġtransiit":13126,"Ġprecep":13127,"Ġclaritas":13128,"Ġherba":13129,"Ġdelectat":13130,"Ġcanticorum":13131,"Ġcircumcisio":13132,"mati":13133,"Ġquantis":13134,"Ġmuro":13135,"Ġnuda":13136,"Ġsatanas":13137,"Ġremissio":13138,"Ġcotidie":13139,"Ġtiment":13140,"Ġecclesiastici":13141,"Ġconiec":13142,"Ġpuro":13143,"Ġutiliter":13144,"Ġantiquorum":13145,"Ġincredul":13146,"cet":13147,"Ġcera":13148,"essent":13149,"Ġscrup":13150,"Ġprobari":13151,"Ġinfirmis":13152,"Ġgemin":13153,"Ġfontibus":13154,"Ġconceditur":13155,"Ġteneant":13156,"Ġpercipiant":13157,"Ġcomprehendere":13158,"enarum":13159,"anius":13160,"Ġreser":13161,"Ġperfectae":13162,"Ġeluc":13163,"Ġdisposuit":13164,"nisi":13165,"xisse":13166,"Ġuanum":13167,"Ġmd":13168,"ebius":13169,"Î·Îº":13170,"annum":13171,"Ġcupiditatem":13172,"yma":13173,"arer":13174,"Ġuiuam":13175,"Ġxxxi":13176,"ĠÎµÎºÎµÎ¹Î½":13177,"Î¼Î±ÏĦÎ¿ÏĤ":13178,"ian":13179,"nat":13180,"endorum":13181,"Ġaggredi":13182,"Ġpraebet":13183,"Ġhospes":13184,"Ġobstup":13185,"Ġlatrones":13186,"Ġana":13187,"Ġpeccatorem":13188,"Ġfaciebant":13189,"anna":13190,"ĠÏĢÎ¿Î¹":13191,"Ġgemmis":13192,"propter":13193,"Ġungu":13194,"Ġmomenti":13195,"Ġmessis":13196,"Ġenumer":13197,"Ġpetens":13198,"Ġassensu":13199,"Ġapertissime":13200,"Ġnolumus":13201,"Ġquaerentes":13202,"Ġconcessione":13203,"Ġbai":13204,"Ġcoac":13205,"Ġcoegit":13206,"Ġiurare":13207,"uniuers":13208,"Ġspiritales":13209,"Ġieremiam":13210,"Ġabus":13211,"Ġposuisti":13212,"Ġcrebris":13213,"Ġimpell":13214,"Ġinca":13215,"Ġtemporali":13216,"Ġabbatiam":13217,"quare":13218,"illus":13219,"Ġcognoscant":13220,"Ġminimis":13221,"Ġreprobi":13222,"Ġrelinquit":13223,"Ġretract":13224,"Ġunigeniti":13225,"Ġpuluis":13226,"Ġafflu":13227,"Ġcustodiunt":13228,"Ġextremis":13229,"Ġretinet":13230,"Ġincipiunt":13231,"Ġgehennae":13232,"fid":13233,"xc":13234,"Ġiumenta":13235,"Ġmanent":13236,"uxi":13237,"Ġsequere":13238,"Ġmulieri":13239,"Ġquaestionibus":13240,"Ġedom":13241,"Ġproceditur":13242,"Ġdegen":13243,"Ġliberatus":13244,"Ġaduersarios":13245,"Ġlatinum":13246,"pater":13247,"Ġbaptistae":13248,"Ġeugen":13249,"Ġlog":13250,"Ġarua":13251,"Ġquali":13252,"Ġeiici":13253,"Ġuicti":13254,"Ġdiscessit":13255,"Ġdiuersarum":13256,"Ġuacare":13257,"Ġiosephus":13258,"Ġinstrumentum":13259,"Ġexstat":13260,"ulius":13261,"Ġcompens":13262,"Ġdiligens":13263,"Ġoptamus":13264,"Ġquamplur":13265,"Ġoremus":13266,"Ġnouissimis":13267,"Ġexpositione":13268,"Ġcxx":13269,"abel":13270,"ensione":13271,"Ġamica":13272,"Ġimpletum":13273,"Ġtimeo":13274,"Ġinuenio":13275,"Ġdeuote":13276,"Ġcontrouersia":13277,"eritatis":13278,"Ġfacitis":13279,"Ġlaici":13280,"Ġclamauit":13281,"ÏĥÎ¹ÏĤ":13282,"Ġpersequi":13283,"Ġhabito":13284,"istarum":13285,"Ġpraecipua":13286,"Ġoblationem":13287,"Ġeloquentiae":13288,"Ġabscondi":13289,"Ġfoedere":13290,"interrog":13291,"Ġphilippo":13292,"Ġcatechum":13293,"Ġtob":13294,"Ġsedentem":13295,"Ġquaerebat":13296,"Ġminas":13297,"Ġconjec":13298,"Ġdamus":13299,"Ġlu":13300,"Ġagebat":13301,"Ġsentio":13302,"nulla":13303,"Ġcaligine":13304,"Ġhumeris":13305,"Ġexcaec":13306,"Ġiniti":13307,"Ġirritum":13308,"Ġmultipliciter":13309,"Ġconfitentur":13310,"Ġpropositionibus":13311,"Ġincrementa":13312,"Ġtog":13313,"Ġpotuimus":13314,"Ġmodul":13315,"Ġintegram":13316,"Ġcircumcisionem":13317,"sti":13318,"enarr":13319,"Ġho":13320,"differ":13321,"Ġregere":13322,"Ġflammas":13323,"Ġulcisc":13324,"Â°":13325,"Ġorauit":13326,"Ġasp":13327,"Ġmonumenta":13328,"Ġphal":13329,"Ġnullas":13330,"Ġgaudens":13331,"Ġconiur":13332,"Ġimpietate":13333,"Ġhenricus":13334,"Ġreatus":13335,"Ġamal":13336,"Ġprobatio":13337,"Ġcontendunt":13338,"Ġadjunxit":13339,"Ġsyrac":13340,"Ġdamas":13341,"Ġconfirmare":13342,"Ġinterpretes":13343,"Ġsacrificiis":13344,"Ġpromissionem":13345,"Ġobui":13346,"pho":13347,"Ġcommunionis":13348,"Ġconstituere":13349,"Ġsiluae":13350,"Ġegerunt":13351,"Ġinnocentiae":13352,"Ġoptimus":13353,"Ġrecepta":13354,"Ġimpietas":13355,"Ġtullius":13356,"Ġablu":13357,"Ġexcogit":13358,"Ġconsulem":13359,"Ġausi":13360,"Ġfaucibus":13361,"Ġpraeparauit":13362,"Ġsubstantias":13363,"Ġlongitudinem":13364,"Ġdifficultate":13365,"Ġguido":13366,"Ġpaganorum":13367,"Ġascendens":13368,"Ġcoenobii":13369,"Ġadipisc":13370,"Ġspiritibus":13371,"torqu":13372,"ulisper":13373,"Ġnaturale":13374,"Ġcaeteras":13375,"Ġfamiliam":13376,"Ġfrigore":13377,"Ġconquer":13378,"Ġiniquitatibus":13379,"Ġdap":13380,"Ġneru":13381,"Ġesca":13382,"Ġquaeritis":13383,"Ġresistit":13384,"edes":13385,"Ġsuspi":13386,"Ġtraditum":13387,"Ġcampi":13388,"Ġcodex":13389,"Ġrecipiunt":13390,"Ġabscondita":13391,"Ġmichaelis":13392,"olet":13393,"Ġintueri":13394,"Ġcredas":13395,"Ġdedimus":13396,"Ġauxilia":13397,"Ġaedificare":13398,"Ġcolligere":13399,"Ġpuellam":13400,"Ġconfusionem":13401,"Ġsyllogismus":13402,"Ġecdes":13403,"Ġpeccandi":13404,"Ġaeuo":13405,"Ġdiuersorum":13406,"Ġreferunt":13407,"Ġhistorica":13408,"Ġpostrem":13409,"Ġquesn":13410,"ĠeÅ¿t":13411,"Ġiuncta":13412,"Ġpratis":13413,"Ġamatores":13414,"Ġsculp":13415,"Ġimpune":13416,"Ġsale":13417,"Ġrepudi":13418,"Ġcontineri":13419,"Ġcernimus":13420,"ĠÏĥÏĦ":13421,"Ġmitter":13422,"Ġanteri":13423,"Ġprobatum":13424,"Ġarboribus":13425,"Ġstultitiam":13426,"Ġdatae":13427,"Ġmas":13428,"Ġdiuersos":13429,"Ġzur":13430,"praed":13431,"Ġantiquitus":13432,"Ġsenioribus":13433,"Ġfoliis":13434,"Ġdominicis":13435,"Ġdaretur":13436,"Ġetern":13437,"lices":13438,"Ġfacturum":13439,"itasse":13440,"Ġaegro":13441,"Ġsororis":13442,"Ġsubjectis":13443,"Ġpraesumptione":13444,"Ġegisse":13445,"Ġsensiti":13446,"Ġdeclaratur":13447,"Ġconstantinopoli":13448,"Ġcreditis":13449,"Ġscipio":13450,"cius":13451,"fa":13452,"tili":13453,"Ġpraedictae":13454,"Ġmiraculo":13455,"Ġpericuli":13456,"Ġlignis":13457,"Ġseptimum":13458,"Ġradices":13459,"Ġsubjunxit":13460,"irem":13461,"Ġuenissent":13462,"conc":13463,"ebras":13464,"Ġirrid":13465,"Ġaccedens":13466,"Ġexcellentiam":13467,"Ġleni":13468,"Ġinterueni":13469,"Ġeruditus":13470,"Ġinferiora":13471,"genit":13472,"Ġdeci":13473,"Ġdominos":13474,"Ġpate":13475,"Ġregalis":13476,"Ġlegatione":13477,"ÏīÏģ":13478,"necess":13479,"Ġalexandro":13480,"Ġsolemniter":13481,"Ġancillae":13482,"Ġsecura":13483,"Ġseries":13484,"Ġincensum":13485,"Ġaeternitate":13486,"Ġinteriorem":13487,"asper":13488,"Ġpraeposito":13489,"Ġimponere":13490,"pub":13491,"utorum":13492,"clxx":13493,"ÎµÎ¼":13494,"uide":13495,"Ġhaesit":13496,"Ġsomnium":13497,"Ġinfidelitatis":13498,"Ġhal":13499,"Ġsanctissimo":13500,"Ġassimil":13501,"Ġinspici":13502,"Ġfaciendi":13503,"Ġtraxit":13504,"Ġrogatus":13505,"Ġconcepit":13506,"Ġcontentione":13507,"Ġsolita":13508,"Ġseminis":13509,"Ġxm":13510,"Ġdeclinare":13511,"cat":13512,"oded":13513,"Ġepit":13514,"ÏĥÎµÎ²":13515,"Ġuiciss":13516,"Ġtenentur":13517,"maxim":13518,"Ġuiso":13519,"Ġprudentes":13520,"editores":13521,"Ġalicubi":13522,"Ġfumus":13523,"Ġinique":13524,"Ġdepop":13525,"Ġpropositionem":13526,"Ġceleritate":13527,"Ġcaelestis":13528,"cla":13529,"Ġpecud":13530,"Ġsacer":13531,"Ġintelligant":13532,"Ġdiligenti":13533,"Ġmilitem":13534,"dudum":13535,"uamus":13536,"idisset":13537,"Ġpercip":13538,"Ġcoli":13539,"Ġmaritus":13540,"iderent":13541,"Ġlongam":13542,"Ġuxoribus":13543,"Ġsusceptus":13544,"Ġsuscepimus":13545,"Ġdubitat":13546,"Ġstatimque":13547,"Ġtectum":13548,"Ġamant":13549,"Ġcaute":13550,"Ġnouissimo":13551,"Ġclaudius":13552,"lucius":13553,"Ġcalumniam":13554,"Ġastutia":13555,"Ġpraet":13556,"Ġimpendere":13557,"Ġagath":13558,"Ġcoloni":13559,"Ġpaulisper":13560,"Ġirrep":13561,"Ġsociorum":13562,"Ġultimus":13563,"Ġrelinquitur":13564,"Ġpulchritudo":13565,"Ġinteruallo":13566,"Ġsubtiliter":13567,"Ġdeprom":13568,
[...]
