{"<|endoftext|>":0,"<|pad|>":1,"!":2,"\"":3,"#":4,"$":5,"%":6,"&":7,"'":8,"(":9,")":10,"*":11,"+":12,",":13,"-":14,".":15,"/":16,"0":17,"1":18,"2":19,"3":20,"4":21,"5":22,"6":23,"7":24,"8":25,"9":26,":":27,";":28,"<":29,"=":30,">":31,"?":32,"@":33,"A":34,"B":35,"C":36,"D":37,"E":38,"F":39,"G":40,"H":41,"I":42,"J":43,"K":44,"L":45,"M":46,"N":47,"O":48,"P":49,"Q":50,"R":51,"S":52,"T":53,"U":54,"V":55,"W":56,"X":57,"Y":58,"Z":59,"[":60,"\\":61,"]":62,"^":63,"_":64,"`":65,"a":66,"b":67,"c":68,"d":69,"e":70,"f":71,"g":72,"h":73,"i":74,"j":75,"k":76,"l":77,"m":78,"n":79,"o":80,"p":81,"q":82,"r":83,"s":84,"t":85,"u":86,"v":87,"w":88,"x":89,"y":90,"z":91,"{":92,"|":93,"}":94,"~":95,"¡":96,"¢":97,"£":98,"¤":99,"¥":100,"¦":101,"§":102,"¨":103,"©":104,"ª":105,"«":106,"¬":107,"®":108,"¯":109,"°":110,"±":111,"²":112,"³":113,"´":114,"µ":115,"¶":116,"·":117,"¸":118,"¹":119,"º":120,"»":121,"¼":122,"½":123,"¾":124,"¿":125,"À":126,"Á":127,"Â":128,"Ã":129,"Ä":130,"Å":131,"Æ":132,"Ç":133,"È":134,"É":135,"Ê":136,"Ë":137,"Ì":138,"Í":139,"Î":140,"Ï":141,"Ð":142,"Ñ":143,"Ò":144,"Ó":145,"Ô":146,"Õ":147,"Ö":148,"×":149,"Ø":150,"Ù":151,"Ú":152,"Û":153,"Ü":154,"Ý":155,"Þ":156,"ß":157,"à":158,"á":159,"â":160,"ã":161,"ä":162,"å":163,"æ":164,"ç":165,"è":166,"é":167,"ê":168,"ë":169,"ì":170,"í":171,"î":172,"ï":173,"ð":174,"ñ":175,"ò":176,"ó":177,"ô":178,"õ":179,"ö":180,"÷":181,"ø":182,"ù":183,"ú":184,"û":185,"ü":186,"ý":187,"þ":188,"ÿ":189,"Ā":190,"ā":191,"Ă":192,"ă":193,"Ą":194,"ą":195,"Ć":196,"ć":197,"Ĉ":198,"ĉ":199,"Ċ":200,"ċ":201,"Č":202,"č":203,"Ď":204,"ď":205,"Đ":206,"đ":207,"Ē":208,"ē":209,"Ĕ":210,"ĕ":211,"Ė":212,"ė":213,"Ę":214,"ę":215,"Ě":216,"ě":217,"Ĝ":218,"ĝ":219,"Ğ":220,"ğ":221,"Ġ":222,"ġ":223,"Ģ":224,"ģ":225,"Ĥ":226,"ĥ":227,"Ħ":228,"ħ":229,"Ĩ":230,"ĩ":231,"Ī":232,"ī":233,"Ĭ":234,"ĭ":235,"Į":236,"į":237,"İ":238,"ı":239,"Ĳ":240,"ĳ":241,"Ĵ":242,"ĵ":243,"Ķ":244,"ķ":245,"ĸ":246,"Ĺ":247,"ĺ":248,"Ļ":249,"ļ":250,"Ľ":251,"ľ":252,"Ŀ":253,"ŀ":254,"Ł":255,"ł":256,"Ń":257,"Ġe":258,"er":259,"Ġs":260,"Ġi":261,"um":262,"qu":263,"ti":264,"Ġa":265,"us":266,"Ġp":267,"is":268,"it":269,"Ġc":270,"en":271,"Ġd":272,"on":273,"Ġu":274,"Ġqu":275,"or":276,"at":277,"em":278,"es":279,"Ġn":280,"am":281,"Ġin":282,"an":283,"Ġm":284,"li":285,"Ġet":286,"ae":287,"ur":288,"in":289,"os":290,"Ġt":291,"ic":292,"Ġf":293,"re":294,"un":295,"om":296,"Ġh":297,"Ġpr":298,"ar":299,"Ġde":300,"im":301,"et":302,"st":303,"ati":304,"ul":305,"ec":306,"id":307,"as":308,"ent":309,"que":310,"od":311,"Ġest":312,"Ġcon":313,"ut":314,"Ġad":315,"Ġl":316,"bus":317,"ac":318,"Ġqui":319,"Ġsu":320,"oc":321,"unt":322,"Ġnon":323,"Ġre":324,"ol":325,"al":326,"el":327,"Ġse":328,"ant":329,"ud":330,"op":331,"ere":332,"ab":333,"ri":334,"Ġex":335,"Ġper":336,"enti":337,"Ġdi":338,"Ġut":339,"Ġg":340,"ter":341,"orum":342,"ius":343,"se":344,"ta":345,"ci":346,"Ġr":347,"tr":348,"uer":349,"ens":350,"uit":351,"Ġsi":352,"Ġb":353,"omin":354,"ir":355,"end":356,"Ġquod":357,"gn":358,"Ġ.":359,"Ġan":360,"per":361,"tis":362,"il":363,"ob":364,"Ġil":365,"ia":366,"omn":367,"Ġcum":368,"Ġdic":369,"ibus":370,"Ġsed":371,"Ġomn":372,"ation":373,"atur":374,"Ġuer":375,"ot":376,"Ġaut":377,"bi":378,"di":379,"itur":380,"ili":381,"Ġill":382,"Ġme":383,"Ġali":384,"uc":385,"Ġquae":386,"ui":387,"ra":388,"Ġab":389,"Ġun":390,"Ġpos":391,"lic":392,"te":393,"Ġac":394,"ps":395,"Ġes":396,"Ġer":397,"tum":398,"de":399,"Ġprae":400,"ris":401,"are":402,"Ġnos":403,"ap":404,"Ġpro":405,"and":406,"ari":407,"Ġdomin":408,"tus":409,"Ġim":410,"ce":411,"atis":412,"tion":413,"fic":414,"eg":415,"anc":416,"eb":417,"Ġap":418,"Ġen":419,"Ġfac":420,"itat":421,"iss":422,"Ġma":423,"Ġquia":424,"Ġch":425,"Ġuel":426,"Ġcom":427,"Ġsp":428,"Ġcons":429,"Ġhab":430,"to":431,"Ġcor":432,"Ġenim":433,"Ġsunt":434,"imus":435,"Ġco":436,"Ġips":437,"est":438,"ium":439,"ess":440,"tin":441,"Ġautem":442,"go":443,"und":444,"Ġhoc":445,"cip":446,"Ġquam":447,"Ġquid":448,"Ġprop":449,"isc":450,"Ġtu":451,"ĠÎ":452,"Ġpar":453,"io":454,"Ġnec":455,"ore":456,"tiam":457,"iam":458,"cl":459,"Ġsic":460,"unc":461,"Ġop":462,"Ġquo":463,"emp":464,"Ġsanc":465,"Ġeius":466,"Ġli":467,"Ġesse":468,"Ġne":469,"Ġsub":470,"Ġuid":471,"tit":472,"Ġar":473,"Ġui":474,"Ġid":475,"Ġor":476,"Ġpat":477,"dic":478,"ion":479,"Ġat":480,"ine":481,"Ġec":482,"ell":483,"Ġam":484,"Ġpl":485,"tra":486,"Ġchris":487,"ii":488,"Ġter":489,"arum":490,"iter":491,"Ġfili":492,"aec":493,"Ġob":494,"uis":495,"Î±":496,"Ġal":497,"Ġsc":498,"Ġinter":499,"Ġqua":500,"Î¹":501,"atus":502,"Ġsol":503,"etur":504,"tim":505,"hi":506,"Ġuir":507,"eni":508,"Î¿":509,"Ġpot":510,"Ġetiam":511,"ata":512,"Ġca":513,"quam":514,"Ġdei":515,"lig":516,"Ġmor":517,"uers":518,"Î½":519,"entes":520,"Ġtam":521,"Ġres":522,"Ġsuper":523,"cles":524,"ans":525,"Ġep":526,"ÏĦ":527,"Ġeccles":528,"Ġsec":529,"Ġser":530,"fer":531,"Ġfr":532,"atum":533,"ub":534,"Ġpra":535,"obis":536,"Ġita":537,"tor":538,"Ġtr":539,"Ġhomin":540,"Ġfor":541,"Ġtemp":542,"Ġiud":543,"uius":544,"Ġreg":545,"Ġanim":546,"Ġpec":547,"tu":548,"atione":549,"antur":550,"dit":551,"Ġsit":552,"ali":553,"Ġdes":554,"Ġlib":555,"Ġfid":556,"au":557,"Ġcar":558,"Ġuol":559,"Ġgr":560,"eri":561,"Ġoc":562,"Îµ":563,"Ġcre":564,"Ġman":565,"Ġint":566,"auit":567,"ad":568,"ue":569,"Ġst":570,"entia":571,"Ġmul":572,"ate":573,"Ġposs":574,"anti":575,"up":576,"Ġimp":577,"itate":578,"Ġte":579,"tur":580,"itus":581,"erit":582,"Ġleg":583,"uin":584,"ug":585,"iscop":586,"tem":587,"Ġbon":588,"Ġuero":589,"la":590,"Ġatque":591,"oris":592,"iae":593,"Ġius":594,"cep":595,"Ġergo":596,"ern":597,"ost":598,"Ġdis":599,"Ġ,":600,"Ġloc":601,"Ġcomm":602,"Ġspir":603,"odo":604,"tio":605,"Ġaliqu":606,"Ġsal":607,"Ġsac":608,"Ġsicut":609,"Ġpo":610,"erunt":611,"atio":612,"Ġsim":613,"rip":614,"fec":615,"Ġeum":616,"Ġues":617,"isi":618,"ene":619,"eret":620,"Ġnostr":621,"Ġas":622,"Ġpost":623,"orem":624,"Ġo":625,"uli":626,"Ġinc":627,"int":628,"Ġpecc":629,"Ġno":630,"Ġcorp":631,"itas":632,"Ġmon":633,"Ġdeus":634,"Ġann":635,"Ġsum":636,"Ġhaec":637,"Ġcap":638,"Ġuit":639,"inis":640,"Ġdu":641,"Ġepiscop":642,"eli":643,"Ġgen":644,"ag":645,"le":646,"Ġdix":647,"Ġquibus":648,"Ïħ":649,"itatem":650,"pr":651,"entis":652,"ationem":653,"Ġinu":654,"Ġdec":655,"Ġtamen":656,"Ġuen":657,"Ġpraes":658,"rum":659,"ando":660,"Ġsecund":661,"Ġprim":662,"Ġins":663,"aud":664,"untur":665,"Ġconf":666,"entur":667,"ang":668,"itum":669,"Ġpotest":670,"Ġaud":671,"Ġnul":672,"Ġag":673,"uerit":674,"Ġip":675,"Ġquem":676,"hil":677,"Ġmi":678,"Ġeo":679,"Ġsci":680,"amus":681,"Ġnobis":682,"Ġiam":683,"ro":684,"Ġsem":685,"ed":686,"Ġcl":687,"Ġipse":688,"Ġmal":689,"Ġus":690,"Ġnam":691,"Ġuoc":692,"pon":693,"ores":694,"Ġdeb":695,"Ġuerb":696,"Ġquas":697,"tione":698,"eris":699,"Ġiudic":700,"itatis":701,"Ġfi":702,"ente":703,"rib":704,"Ġtant":705,"Ġchristi":706,"gni":707,"Ġinf":708,"Ġnisi":709,"ua":710,"ux":711,"Ġni":712,"Ġhis":713,"Ġilli":714,"Ġdominus":715,"Ġrec":716,"Ġmar":717,"Ġti":718,"ÏĤ":719,"Ġcur":720,"entiam":721,"pe":722,"tionem":723,"lec":724,"entibus":725,"ist":726,"licet":727,"Ġhum":728,"endum":729,"Ġdeo":730,"qui":731,"Ġist":732,"alis":733,"Ġquis":734,"ff":735,"inem":736,"Ġomnes":737,"Ġcomp":738,"Ġx":739,"Ġcol":740,"tia":741,"Ġfrat":742,"Ġomnia":743,"Ġterr":744,"eat":745,"Ġmis":746,"issim":747,"Ġcr":748,"Ġsus":749,"Ġeorum":750,"Ġis":751,"ass":752,"Ïģ":753,"tic":754,"Ġubi":755,"ort":756,"dem":757,"lor":758,"Ġbene":759,"uerunt":760,"ulo":761,"Ġci":762,"irm":763,"Ġpop":764,"Ïĥ":765,"entem":766,"atem":767,"Ġsibi":768,"ici":769,"era":770,"emus":771,"ulum":772,"ulis":773,"tibus":774,"erat":775,"Ġsecundum":776,"Ġgrati":777,"Ġdiuin":778,"ationis":779,"Ġfaci":780,"Ġdicit":781,"Ġdoc":782,"Ġess":783,"Î·":784,"sim":785,"dam":786,"Ġdomini":787,"gitur":788,"Ġpa":789,"Ġante":790,"gis":791,"tius":792,"git":793,"erum":794,"Ġapp":795,"lo":796,"Ġunde":797,"Ġnomin":798,"Ġego":799,"Ġtibi":800,"ex":801,"Ġscrip":802,"Ġeu":803,"Ġmihi":804,"Ġsep":805,"Ġeos":806,"Ġfec":807,"ani":808,"ffic":809,"ini":810,"Ġei":811,"entum":812,"Ġerat":813,"oribus":814,"Ġpon":815,"omo":816,"Ġocc":817,"Ġdie":818,"Ġea":819,"ÏĢ":820,"ebat":821,"ep":822,"Ġneque":823,"Ġcaus":824,"esc":825,"Ġcontra":826,"Ġnihil":827,"abil":828,"Ġquidem":829,"Ġomnibus":830,"tam":831,"Ġmin":832,"Ġaet":833,"ita":834,"Ġcred":835,"gr":836,"ch":837,"Ïī":838,"Ġsine":839,"si":840,"Ġnatur":841,"Ġnunc":842,"Ġpers":843,"odi":844,"ula":845,"Ġmagn":846,"Ġnum":847,"ing":848,"Ġmem":849,"cum":850,"Ġuic":851,"ora":852,"ann":853,"Ġille":854,"Ġred":855,"Ġcuius":856,"Ġrem":857,"Ġpraedic":858,"Ġcoel":859,"Ġmo":860,"Ġhic":861,"Ġten":862,"ei":863,"ite":864,"Ġquoque":865,"Ġprin":866,"cipi":867,"Ġord":868,"ĠÏĦ":869,"inc":870,"Ġrom":871,"Ġilla":872,"Ġcae":873,"Ġ:":874,"ulus":875,"Ġquon":876,"Ġimm":877,"itu":878,"ina":879,"Ġdeum":880,"pos":881,"enit":882,"Ġabs":883,"ione":884,"Ġimper":885,"quid":886,"Ġpet":887,"Ġsua":888,"Ġuos":889,"Ġquasi":890,"Ġmat":891,"Ġign":892,"Ġigitur":893,"Ġsup":894,"Ġusque":895,"Ġul":896,"lin":897,"ellig":898,"tae":899,"isse":900,"Ġuide":901,"Ġglor":902,"Ġcarn":903,"ato":904,"Ġcir":905,"Ġhuius":906,"lum":907,"Ġmagis":908,"Ġdicitur":909,"Ġdum":910,"Ġeis":911,"Ġapost":912,"Ġsuis":913,"tium":914,"Ġintellig":915,"Ġquos":916,"Ġpropter":917,"isset":918,"iis":919,"Ġtrans":920,"uo":921,"Ġconc":922,"xim":923,"endo":924,"Ġual":925,"antes":926,"Ġae":927,"Ġecclesiae":928,"Ġapostol":929,"Ġmun":930,"Ġsancti":931,"Ġuestr":932,"quit":933,"Ġth":934,"Ġcer":935,"uum":936,"tionis":937,"ator":938,"oli":939,"Ġspec":940,"Ġquant":941,"og":942,"Ġang":943,"str":944,"endi":945,"rec":946,"Ġuobis":947,"Ġtot":948,"Ġneg":949,"Ġmodo":950,"Ġait":951,"sum":952,"Ġquoniam":953,"deo":954,"Ġapud":955,"Ġhon":956,"Ġexc":957,"Ġillud":958,"entiae":959,"Ġhomo":960,"ionem":961,"Ġeam":962,"ced":963,"Ġalter":964,"Ġprincip":965,"ma":966,"Ġpropri":967,"rae":968,"Ġfer":969,"Ġuni":970,"enta":971,"Ġaudi":972,"alem":973,"ph":974,"Ġbe":975,"ensis":976,"Ġsiue":977,"ret":978,"Ġmiser":979,"Ġdomino":980,"Ġdign":981,"ib":982,"Ġlo":983,"osc":984,"Ġrep":985,"Ġluc":986,"Ġomni":987,"uisse":988,"Ġsap":989,"rem":990,"Ġtra":991,"Ġregn":992,"Ġacc":993,"Ġsemper":994,"Ġdon":995,"res":996,"Ġcogn":997,"Ġsuo":998,"Ġdixit":999,"Ġideo":1000,"enter":1001,"itud":1002,"Ġtunc":1003,"Ġtantum":1004,"Ġdef":1005,"Ġquando":1006,"Ġiusti":1007,"Ġipsa":1008,"Ġfuit":1009,"lius":1010,"tri":1011,"torum":1012,"Ġuul":1013,"Ġur":1014,"Ġproph":1015,"Ġies":1016,"Ġdom":1017,"--":1018,"Ġuolunt":1019,"ĠÎµ":1020,"Ġseru":1021,"Ġproc":1022,"Ġcui":1023,"Ġini":1024,"Ġio":1025,"Ġesset":1026,"Ġauc":1027,"gre":1028,"Ġsequ":1029,"ura":1030,"aliter":1031,"Ġueni":1032,"ast":1033,"Ġgra":1034,"Ġfl":1035,"atu":1036,"Ġliber":1037,"Ġspiritus":1038,"Ġle":1039,"osto":1040,"itt":1041,"Ġuti":1042,"Ġoper":1043,"Ġexs":1044,"aret":1045,"Ġmai":1046,"entium":1047,"mon":1048,"uid":1049,"Ġaposto":1050,"ias":1051,"Ġaetern":1052,"ath":1053,"Î»":1054,"ios":1055,"Ġunum":1056,"Ġfilius":1057,"Ġind":1058,"Ġlab":1059,"Ġciuit":1060,"Ġput":1061,"Ġuis":1062,"gnific":1063,"ale":1064,"Î¿Ïħ":1065,"andum":1066,"erc":1067,"enda":1068,"pec":1069,"Ġost":1070,"Ġaur":1071,"Ġmod":1072,"Ġsaec":1073,"aris":1074,"Ġlaud":1075,"Ġdisc":1076,"ord":1077,"Ġtim":1078,"Ġipsum":1079,"Ġsimil":1080,"Ġsapi":1081,"rig":1082,"Ġhos":1083,"tut":1084,"Ġha":1085,"sus":1086,"uere":1087,"ider":1088,"tissim":1089,"Ġsuum":1090,"Ġquin":1091,"ito":1092,"Ġsuam":1093,"Ġcontin":1094,"Ġconu":1095,"ffer":1096,"Î¼":1097,"Ġhabet":1098,"endit":1099,"Ġrespon":1100,"Ġpri":1101,"Ġ;":1102,"qua":1103,"Ġtempore":1104,"Ġsens":1105,"Ġsy":1106,"hib":1107,"Ġpater":1108,"Ġinquit":1109,"ĠÎ±":1110,"Ġsui":1111,"Ġobs":1112,"ante":1113,"Ġmund":1114,"ori":1115,"Ġecclesia":1116,"erd":1117,"ric":1118,"itter":1119,"uti":1120,"anus":1121,"ig":1122,"tos":1123,"Ġfuer":1124,"Ġauctor":1125,"Ġcont":1126,"Ġillum":1127,"erent":1128,"Ġillis":1129,"Ġlon":1130,"Ġuniuers":1131,"Ġuirtut":1132,"ach":1133,"Ġduc":1134,"xit":1135,"Ġtur":1136,"xx":1137,"omen":1138,"ana":1139,"Ġhac":1140,"Ġsacerd":1141,"Ġaduers":1142,"Ġtua":1143,"Ġpub":1144,"con":1145,"Ġcommun":1146,"Ġsolum":1147,"Ġibi":1148,"Ġsuae":1149,"plic":1150,"Ġeuang":1151,"ribus":1152,"Ġcan":1153,"Ġmaxim":1154,"Ġuerum":1155,"Ġdilig":1156,"ram":1157,"Î±Î¹":1158,"ile":1159,"mo":1160,"Ġfuerit":1161,"eretur":1162,"Ġprophet":1163,"Ġpac":1164,"Ġsalu":1165,"Ġerit":1166,"Ġchar":1167,"Ġsing":1168,"Ġloqu":1169,"idit":1170,"ationes":1171,"Ġomnium":1172,"Ġprom":1173,"sequ":1174,"ionis":1175,"Ġnecess":1176,"eru":1177,"Ġomnis":1178,"omodo":1179,"mis":1180,"ulos":1181,"inde":1182,"ust":1183,"eo":1184,"ano":1185,"quis":1186,"itis":1187,"Ġconstit":1188,"Ġspiritu":1189,"urg":1190,"Ġidem":1191,"Ġpau":1192,"iet":1193,"Ġsignific":1194,"Ġpass":1195,"andi":1196,"Ġfam":1197,"Ġtrib":1198,"ino":1199,"Ġmir":1200,"Ġaug":1201,"Ġsimul":1202,"ane":1203,"Ġhanc":1204,"Ġcal":1205,"ne":1206,"Ġurb":1207,"Îº":1208,"ero":1209,"ca":1210,"ales":1211,"Ġmedi":1212,"lis":1213,"Ġnomine":1214,"Ġprob":1215,"Ġaliquid":1216,"Ġdominum":1217,"Ġadh":1218,"Ġmil":1219,"Ġchristus":1220,"Ġabb":1221,"Ġterra":1222,"Ġnomen":1223,"Ġplur":1224,"Ġla":1225,"Ġcel":1226,"Ġquomodo":1227,"Ġloco":1228,"Ġmand":1229,"Ġhi":1230,"Ġem":1231,"lib":1232,"Ġfut":1233,"Ġuna":1234,"Ġitaque":1235,"esse":1236,"onis":1237,"abat":1238,"tas":1239,"tiae":1240,"ena":1241,"Ġto":1242,"Ġfal":1243,"Ġiu":1244,"ĠÎº":1245,"Ġconst":1246,"Ġsint":1247,"Ġdem":1248,"Ġanno":1249,"dum":1250,"Ġpre":1251,"Ġlitter":1252,"Ġiac":1253,"Ġtum":1254,"Ġcausa":1255,"th":1256,"ebant":1257,"Ġarg":1258,"Ġaliud":1259,"Ġintell":1260,"Ġipsi":1261,"Ġipso":1262,"Ġfilii":1263,"Ġnoc":1264,"Ġiudae":1265,"asc":1266,"duc":1267,"Ġetc":1268,"Ġchristo":1269,"Ġcaeter":1270,"Ġnostra":1271,"Ġsent":1272,"Ġph":1273,"cc":1274,"Ġspeci":1275,"Ġnostri":1276,"Ġcorpus":1277,"pic":1278,"tific":1279,"ento":1280,"Ġillo":1281,"Ġpor":1282,"leg":1283,"cap":1284,"adem":1285,"Ġstud":1286,"Î¿Î½":1287,"Ġiur":1288,"Ġscilicet":1289,"Ġass":1290,"anum":1291,"isti":1292,"abit":1293,"Ġmea":1294,"Ġapostolic":1295,"Ġuitae":1296,"Ġmemor":1297,"Ġaccep":1298,"Ġdol":1299,"Ġplac":1300,"Ġlong":1301,"Ġalia":1302,"enus":1303,"Ġuita":1304,"mi":1305,"Ġdicens":1306,"Ġduo":1307,"Ġdiscip":1308,"na":1309,"tes":1310,"Ġnun":1311,"ĠÏĢ":1312,"Ġfilium":1313,"Ġsalut":1314,"Ġarc":1315,"tare":1316,"Ġipsius":1317,"Ġbap":1318,"aria":1319,"Ġpraecep":1320,"Ġsign":1321,"Ġdam":1322,"Ġdies":1323,"Ġuirg":1324,"Ġcul":1325,"Ġillius":1326,"Ġau":1327,"emo":1328,"Ġpe":1329,"one":1330,"uxta":1331,"Ġunus":1332,"Ġinde":1333,"Ġepiscopus":1334,"Ġpati":1335,"pet":1336,"Å¿":1337,"Ġgratia":1338,"Ġperfec":1339,"anis":1340,"estim":1341,"Ġista":1342,"Ġarb":1343,"Ġaliis":1344,"Ġiuxta":1345,"lia":1346,"Ġpatri":1347,"Ġpertin":1348,"Ġmet":1349,"Ġcunc":1350,"Ġnull":1351,"istol":1352,"Ġir":1353,"titud":1354,"ensi":1355,"uet":1356,"antia":1357,"sa":1358,"ffec":1359,"Ġrex":1360,"Ġquorum":1361,"Ġiter":1362,"ys":1363,"Ġpal":1364,"Ġfecit":1365,"tere":1366,"Ġmiseric":1367,"oll":1368,"Ġsupra":1369,"Ġsae":1370,"Ġsang":1371,"Ġreli":1372,"Ġhabere":1373,"Ġchristum":1374,"uic":1375,"ill":1376,"utus":1377,"iti":1378,"ilis":1379,"ationibus":1380,"Ġmonast":1381,"sal":1382,"uci":1383,"Ġordin":1384,"Ġprof":1385,"yp":1386,"arium":1387,"Ġform":1388,"anae":1389,"Ġmens":1390,"Ġadhuc":1391,"Ġgaud":1392,"Ġgener":1393,"if":1394,"Ġhomines":1395,"Ġtest":1396,"Ġeadem":1397,"Ġuet":1398,"Ġecclesiam":1399,"Ġhominum":1400,"uam":1401,"Ġperm":1402,"Ġinn":1403,"edi":1404,"Ġdim":1405,"Ġterram":1406,"Ġprius":1407,"Ġappell":1408,"erem":1409,"odem":1410,"Ġuerbum":1411,"Ġpul":1412,"Ġdictum":1413,"Ġconsili":1414,"idem":1415,"Ġfutur":1416,"ym":1417,"Ġlat":1418,"Ġbenedic":1419,"Ġfieri":1420,"Ġdiuers":1421,"Ġscriptur":1422,"min":1423,"Ġindi":1424,"Ġquantum":1425,"ign":1426,"Ġcircum":1427,"Ġcontr":1428,"Ġaper":1429,"Ġdomine":1430,"urr":1431,"ebr":1432,"Ġeuangeli":1433,"ugn":1434,"Ġpoter":1435,"Ġexp":1436,"Ġpres":1437,"Ġamp":1438,"eres":1439,"Ġisrae":1440,"rim":1441,"Ġfidem":1442,"Ġuiu":1443,"Ġcath":1444,"Ġdilec":1445,"Ġdesc":1446,"antibus":1447,"abili":1448,"Ġanti":1449,"Ġsubst":1450,"Ġuitam":1451,"esti":1452,"Ġnol":1453,"Ġexerc":1454,"Ġcogit":1455,"Ġhominem":1456,"Ġfidei":1457,"Ġprimum":1458,"Ġexemp":1459,"atibus":1460,"ueni":1461,"uen":1462,"Ġpraeter":1463,"Ġsoc":1464,"Ġperson":1465,"rag":1466,"alia":1467,"Ġminis":1468,"Ġpsal":1469,"ulit":1470,"Ġsex":1471,"Ġing":1472,"uta":1473,"Ġmonaster":1474,"lici":1475,"Ġoffic":1476,"Ġinfer":1477,"Ġaequ":1478,"umque":1479,"Ġecce":1480,"Ġlac":1481,"Ġfug":1482,"odum":1483,"reh":1484,"alibus":1485,"Ġuig":1486,"ates":1487,"Ġmuli":1488,"ÎµÎ¹":1489,"ordi":1490,"Ġparte":1491,"Ġaeg":1492,"Ġsen":1493,"Ġbona":1494,"Ġeodem":1495,"Ġnou":1496,"Ġbonum":1497,"Ġanima":1498,"Ġioann":1499,"idi":1500,"ÏīÎ½":1501,"dis":1502,"ni":1503,"Ġlicet":1504,"ario":1505,"Ġamb":1506,"Ġcust":1507,"cus":1508,"Ġisrael":1509,"ĠÎ¿":1510,"Ġrelig":1511,"Ġdep":1512,"Ġk":1513,"eant":1514,"Ġquaes":1515,"Ġposse":1516,"Î¸":1517,"Ġpatris":1518,"Ġlae":1519,"greg":1520,"Ġapostolus":1521,"Ġrerum":1522,"anda":1523,"Ġfuisse":1524,"Ã¾":1525,"rep":1526,"ica":1527,"Ġangel":1528,"Ġmulti":1529,"Ġhaere":1530,"elic":1531,"Ġhunc":1532,"erus":1533,"Ġuener":1534,"Ġhominis":1535,"uerat":1536,"oni":1537,"Ġnulla":1538,"Ġpros":1539,"Ġbell":1540,"Ġfacta":1541,"Ġaqu":1542,"ppe":1543,"Ġerant":1544,"Ġasc":1545,"par":1546,"umb":1547,"atim":1548,"Ġerr":1549,"Ġnim":1550,"Ġuerba":1551,"atorum":1552,"Ġtuum":1553,"Ġepistol":1554,"Ġtempus":1555,"Ġpoenit":1556,"Ġlin":1557,"Ġmer":1558,"Ġadj":1559,"uri":1560,"Ġuidetur":1561,"uoc":1562,"Ġfratres":1563,"onem":1564,"Ġaff":1565,"co":1566,"Ġcorpore":1567,"atam":1568,"Ġlati":1569,"Ġintr":1570,"Î³":1571,"gress":1572,"dus":1573,"ty":1574,"Ġdamn":1575,"Ġostend":1576,"Ġcorporis":1577,"Ġserui":1578,"Ġatt":1579,"Ġitem":1580,"Ġsermon":1581,"Ġpossit":1582,"Ġpublic":1583,"Ġadm":1584,"Ġuin":1585,"Ġquippe":1586,"Ġfactum":1587,"Ġmundi":1588,"Ġcas":1589,"Ġbeati":1590,"olic":1591,"cili":1592,"Ġmulta":1593,"orm":1594,"tig":1595,"Ġsatis":1596,"Ġmiss":1597,"sit":1598,"da":1599,"libet":1600,"antem":1601,"Ġfacere":1602,"Ġmut":1603,"fici":1604,"Ġcup":1605,"ip":1606,"Ġtri":1607,"Ġsubj":1608,"Ġpropos":1609,"Ġinueni":1610,"Ġlic":1611,"tiones":1612,"Ġpresb":1613,"Ġux":1614,"lim":1615,"Ġfirm":1616,"ues":1617,"inta":1618,"Ġforte":1619,"Ġhinc":1620,"Ġmale":1621,"Ġuidelicet":1622,"bat":1623,"Ġuenit":1624,"Ġperpet":1625,"unque":1626,"arius":1627,"Ġtan":1628,"lex":1629,"Ġquidam":1630,"Ġcast":1631,"Ġsucc":1632,"Ġsanctus":1633,"Ġmanif":1634,"non":1635,"Ġinfirm":1636,"Ġtuam":1637,"Ġelec":1638,"Ġcognosc":1639,"Ġaugus":1640,"uper":1641,"Ġnatura":1642,"Ġopus":1643,"Ġmeum":1644,"Ġod":1645,"arii":1646,"Ġscrib":1647,"let":1648,"âĢ":1649,"Ġger":1650,"Ġredd":1651,"Ġscriptum":1652,"abilis":1653,"umus":1654,"Ġos":1655,"Ġpap":1656,"Ġpontific":1657,"Ġreuer":1658,"Ġped":1659,"Ġgal":1660,"Ġlocum":1661,"etis":1662,"Ġquaer":1663,"Ġcanon":1664,"Ġsanctae":1665,"Ġdicere":1666,"Ġmortu":1667,"Ġdiab":1668,"Ġconuers":1669,"Î¿ÏĤ":1670,"Ġseu":1671,"pot":1672,"Ġinim":1673,"Ġfide":1674,"Ġmarty":1675,"cipit":1676,"Ġrefer":1677,"nam":1678,"ult":1679,"Ġdeinde":1680,"Ġtuae":1681,"Ġindic":1682,"icus":1683,"Ġomne":1684,"tea":1685,"Ġlum":1686,"rips":1687,"Ġpotius":1688,"Ġuinc":1689,"Ġrebus":1690,"Ġmerit":1691,"Ġmanus":1692,"Ġdesider":1693,"Ġfruc":1694,"yter":1695,"Ġnostrum":1696,"atos":1697,"estis":1698,"Ġprimo":1699,"titur":1700,"atores":1701,"ulorum":1702,"Ġprod":1703,"Ġpatre":1704,"Ġhor":1705,"Ġsacri":1706,"Ġii":1707,"Ġregis":1708,"Ġpatrem":1709,"Ġeiusdem":1710,"uimus":1711,"icis":1712,"Ġsumus":1713,"Ġintellec":1714,"terea":1715,"Ġminus":1716,"Ġnemo":1717,"Ġsanctorum":1718,"Ġuiri":1719,"unti":1720,"Ġmali":1721,"Ġnostrae":1722,"Ġfilio":1723,"Ġdedit":1724,"essit":1725,"Ġz":1726,"abitur":1727,"quir":1728,"rup":1729,"Ġcatholic":1730,"Ġalii":1731,"Ġillam":1732,"Ġuers":1733,"Ġfacit":1734,"Ġiub":1735,"Ġsubs":1736,"Ġpen":1737,"Ġpriu":1738,"Ġtui":1739,"Ġfur":1740,"ber":1741,"Ġpostea":1742,"prob":1743,"oth":1744,"ulg":1745,"Ġsuos":1746,"ÎµÎ½":1747,"Ġomnem":1748,"uisset":1749,"Ġspiritum":1750,"Ġque":1751,"Ġagn":1752,"endam":1753,"Ġdoctr":1754,"atae":1755,"Ġpuer":1756,"Ġutrum":1757,"Ġuno":1758,"Ġtrad":1759,"Ġgratiam":1760,"Ġlec":1761,"Ġmortem":1762,"modi":1763,"Ġarbit":1764,"Ġling":1765,"Ġinterp":1766,".,":1767,"Ġiterum":1768,"aui":1769,"Ġnostris":1770,"rog":1771,"erint":1772,"Ġecclesias":1773,"ilia":1774,"Ġregnum":1775,"Ġcla":1776,"abant":1777,"Ġsoli":1778,"Ġpresbyter":1779,"Ġiniqu":1780,"fac":1781,"ebatur":1782,"Ġalio":1783,"ix":1784,"Ġuo":1785,"Ġnob":1786,"abo":1787,"Ġconfirm":1788,"Ġdau":1789,"Ġiesu":1790,"Ġaccipi":1791,"Ġutique":1792,"Ġmemb":1793,"uae":1794,"Ġfund":1795,"Ġmari":1796,"Ġtestim":1797,"oph":1798,"Î±Î½":1799,"iones":1800,"Ġnot":1801,"Ġomnino":1802,"Ġpauper":1803,"Ġconj":1804,"Ġmei":1805,"Ġpraem":1806,"Ġsor":1807,"Ġoport":1808,"Ġterrae":1809,"ĠÎºÎ±Î¹":1810,"Ġtuo":1811,"Ġ-":1812,"Ġfidel":1813,"Ġresur":1814,"Ġclam":1815,"icum":1816,"Ġnoster":1817,"Ġrei":1818,"ros":1819,"Ġquad":1820,"Ġtestimon":1821,"Ġpeccatum":1822,"Ġopera":1823,"Ġdiss":1824,"ĠÎ´":1825,"amur":1826,"Ġfig":1827,"Ġsacram":1828,"Ġtanquam":1829,"esci":1830,"Ġdisp":1831,"atoris":1832,"ire":1833,"Ġconfess":1834,"Ġcaput":1835,"Ġsanctum":1836,"Ġ?":1837,"Ġthe":1838,"Ġprofec":1839,"Ġmanu":1840,"caput":1841,"asse":1842,"Ġdauid":1843,"Ġsequitur":1844,"Ġfit":1845,"Ġnostro":1846,"udo":1847,"Ġsancto":1848,"sed":1849,"Ġcorde":1850,"Ġda":1851,"Ġconsul":1852,"Ġhumil":1853,"dec":1854,"aretur":1855,"Ġquat":1856,"inam":1857,"Ġepiscopi":1858,"mus":1859,"Ġquamuis":1860,"Ġuerbis":1861,"Ġra":1862,"Ġpossunt":1863,"Ġtem":1864,"Ġmater":1865,"Ġiste":1866,"Ġsil":1867,"Ġmaxime":1868,"tinus":1869,"Ġhominibus":1870,"Ġsacerdot":1871,"rus":1872,"Ġinstit":1873,"Ġturb":1874,"Ġeff":1875,"Ġsenti":1876,"Î´":1877,"no":1878,"inum":1879,"Ġillos":1880,"Ġuestra":1881,"Ġel":1882,"Ġspon":1883,"Ġdiuina":1884,"Ġlap":1885,"issent":1886,"Ġref":1887,"Ġw":1888,"Ġiesus":1889,"eti":1890,"Ġipsis":1891,"Ġnesci":1892,"uel":1893,"Ġbre":1894,"arent":1895,"Ġratione":1896,"Ġmagna":1897,"Ġinj":1898,"Ġignor":1899,"Ġnullus":1900,"Ġtotum":1901,"modum":1902,"Ġnamque":1903,"Ġquare":1904,"inae":1905,"uent":1906,"Ġphil":1907,"arg":1908,"Ġanimam":1909,"Ġdebet":1910,"Ġmeam":1911,"tiis":1912,"Î±ÏĦ":1913,"Ġpiet":1914,"inus":1915,"Ġanimae":1916,"Ġrap":1917,"Ġmultis":1918,"Ġgloria":1919,"Ġplurim":1920,"Ġcoep":1921,"Ġhabent":1922,"ung":1923,"Ġfactus":1924,"Ġcop":1925,"uinci":1926,"reg":1927,"endere":1928,"estin":1929,"antis":1930,"Ġaduersus":1931,"utum":1932,"Ġorb":1933,"Ġsper":1934,"uat":1935,"Ġgenus":1936,"tionibus":1937,"Ġdiem":1938,"erant":1939,"ceper":1940,"Ġmeus":1941,"Ġrur":1942,"Ïĩ":1943,"asti":1944,"dific":1945,"Ġdiffer":1946,"Ġuictor":1947,"ulam":1948,"Ġproxim":1949,"Ġinst":1950,"Ġsuscep":1951,"Ġded":1952,"Ġinuen":1953,"Ġed":1954,"Ġmort":1955,"Ġcaes":1956,"ulc":1957,"elli":1958,"Ġkal":1959,"Ġcarnis":1960,"Ġport":1961,"itudinem":1962,"Ġconcili":1963,"Ġdiu":1964,"Ġcirca":1965,"Ġtab":1966,"Ġquaedam":1967,"Ġplus":1968,"Ġhabit":1969,"Ġcam":1970,"Ġperic":1971,"Ġdemon":1972,"enique":1973,"Ġarchi":1974,"Ġiudicium":1975,"cipere":1976,"itati":1977,"anorum":1978,"Ġmol":1979,"prim":1980,"Ġden":1981,"Ġtac":1982,"ebit":1983,"Ġprima":1984,"ines":1985,"Ġcrim":1986,"iu":1987,"Ġdex":1988,"acon":1989,"Ġdiebus":1990,"Ġcet":1991,"Ġbr":1992,"Ġtres":1993,"Ġlege":1994,"iii":1995,"Ġfo":1996,"uerint":1997,"Ġori":1998,"Ġuera":1999,"Ġrespond":2000,"Ġpraef":2001,"ĠÏĦÎ·":2002,"Ġsyn":2003,"Ġmot":2004,"Ġfre":2005,"Ġextr":2006,"auerunt":2007,"Ġxx":2008,"Ġobseru":2009,"omm":2010,"Ġuere":2011,"Ġcler":2012,"Ġrog":2013,"Ġinterpret":2014,"Ġlegis":2015,"Ġpopuli":2016,"Ġnecesse":2017,"Ġseptem":2018,"ceps":2019,"Ġinte":2020,"lect":2021,"Ġeffic":2022,"Ġprouinci":2023,"ha":2024,"Ġfideli":2025,"Ġpopulo":2026,"Ġbapti":2027,"enis":2028,"Ġaegyp":2029,"Ġsubi":2030,"ico":2031,"Ġcapit":2032,"Ġuirtu":2033,"Î¿Î¹":2034,"ÏĥÏĦ":2035,"ular":2036,"ÏĨ":2037,"aur":2038,"Ġminim":2039,"Ġgem":2040,"Ġquoti":2041,"antiam":2042,"Ġquatu":2043,"Ġepiscopo":2044,"ĠÎ¼":2045,"Ġquidquid":2046,"Ġnar":2047,"endis":2048,"Ġquar":2049,"Ġdomus":2050,"Ġconuer":2051,"Ġaliqua":2052,"Ġrecte":2053,"Ġmori":2054,"Ġclar":2055,"Ġmalum":2056,"Ġmy":2057,"loqu":2058,"usque":2059,"Ġfuerat":2060,"uas":2061,"Ġcongreg":2062,"Ġaffec":2063,"Ġeg":2064,"Ġregem":2065,"Ġillic":2066,"Ġdeser":2067,"Ġsan":2068,"Ġmisericordi":2069,"atorem":2070,"Ġbaptis":2071,"Ġdenique":2072,"Ġdub":2073,"Ġperd":2074,"Ġtuis":2075,"Ġmala":2076,"Ġheb":2077,"pl":2078,"Ġmeo":2079,"Ġsa":2080,"Ġtent":2081,"Ġaux":2082,"âĢĶ":2083,"lium":2084,"Ġcruc":2085,"Ġreper":2086,"Ġaedific":2087,"Ġpopulus":2088,"Ġiis":2089,"Ġpartem":2090,"Ġmanifes":2091,"abatur":2092,"alium":2093,"crip":2094,"tro":2095,"Ġcoll":2096,"ordia":2097,"undi":2098,"amm":2099,"Ġquic":2100,"ÏħÏĦ":2101,"Ġpraesum":2102,"Ġsaepe":2103,"Ġher":2104,"Ġsimiliter":2105,"Ġresurrec":2106,"entius":2107,"Ġdomum":2108,"Ġaus":2109,"Ġlegem":2110,"Ġhuiusmodi":2111,"Ġaliquando":2112,"Ġassum":2113,"uni":2114,"Ġpeccata":2115,"quidem":2116,"Ġoccid":2117,"andem":2118,"Ġiudicio":2119,"Ġquatuor":2120,"Ġtrac":2121,"imo":2122,"Ġpraecip":2123,"ron":2124,"item":2125,"Ġconi":2126,"num":2127,"Ġappar":2128,"quod":2129,"..":2130,"Ġsalutem":2131,"hae":2132,"Ġhuic":2133,"Ġprot":2134,"Ġuelut":2135,"Ġsancta":2136,"Ġcoram":2137,"Ġnaturae":2138,"Ġadd":2139,"Ġtran":2140,"pici":2141,"Ġtota":2142,"Ġpere":2143,"Ġoportet":2144,"Ġpars":2145,"Ġuult":2146,"Ġga":2147,"enum":2148,"Ġfilios":2149,"tios":2150,"Ġ.--":2151,"ga":2152,"Ġmac":2153,"ÏģÎ¹":2154,"Ġiii":2155,"Ġeas":2156,"Ġopp":2157,"Ġnullo":2158,"ariis":2159,"Ġfides":2160,"rop":2161,"Ġdiabol":2162,"linqu":2163,"Ġcontemp":2164,"Ġext":2165,"Ġtit":2166,"teri":2167,"Ġoffer":2168,"Ġcerte":2169,"Ġecclesiastic":2170,"Ġsanguin":2171,"Ġstat":2172,"nis":2173,"Ġdiuis":2174,"Ġunius":2175,"Ġconsequ":2176,"Ġsuas":2177,"Ġdecre":2178,"Ġpopulum":2179,"episcop":2180,"libus":2181,"erusalem":2182,"Ġcard":2183,"Ġbar":2184,"Ġore":2185,"Ġconsum":2186,"Ġnego":2187,"Ġgloriam":2188,"Ġomnipot":2189,"Ġannos":2190,"Ġauctoritate":2191,"Ġamen":2192,"Ġlun":2193,"eribus":2194,"Ġalios":2195,"Ġmultitud":2196,"Ġipsam":2197,"eno":2198,"Ġanimo":2199,"Ġcausam":2200,"Ġuac":2201,"Ġsacerdo":2202,"Ġfinem":2203,"Ġconsec":2204,"Ġconueni":2205,"inibus":2206,"Ġol":2207,"Ġfon":2208,"Ġbib":2209,"Ġregni":2210,"Ġcreatur":2211,"Ġcompar":2212,"Ġdico":2213,"itio":2214,"Ġposset":2215,"Ġintra":2216,"erentur":2217,"Ġpetri":2218,"Ġtor":2219,"Ġculp":2220,"Ġprud":2221,"Ġaliter":2222,"cis":2223,"Ġtanta":2224,"Ġdecem":2225,"Ġsumm":2226,"Ġgreg":2227,"eritis":2228,"uus":2229,"ice":2230,"Ġconsider":2231,"icae":2232,"Ġsuffic":2233,"cir":2234,"Ġmonach":2235,"ting":2236,"Ġbl":2237,"Ġpotuit":2238,"Ġlabor":2239,"Ġspirit":2240,"ida":2241,"Ġuirtute":2242,"antium":2243,"ÏĥÎ¹":2244,"ulas":2245,"Ġson":2246,"Ġmans":2247,"Ġpast":2248,"Ġfla":2249,"plici":2250,"enam":2251,"Ġeffec":2252,"ecum":2253,"Ġostendit":2254,"Ġequ":2255,"gredi":2256,"Ġpropheta":2257,"Ġpugn":2258,"Ġquanto":2259,"Ġsuperi":2260,"Ġcod":2261,"issime":2262,"Ġnostram":2263,"Ġfelic":2264,"Ġimag":2265,"Ġcirc":2266,"Ġstatim":2267,"Ġpublius":2268,"uia":2269,"Ġtestam":2270,"nul":2271,"Ġsin":2272,"Ġannis":2273,"Ġiure":2274,"Ġlux":2275,"Ġmentis":2276,"uol":2277,"Ġnunquam":2278,"Ġhonor":2279,"nec":2280,"uii":2281,"ete":2282,"Ġele":2283,"Ġdicat":2284,"Ġbaptiz":2285,"Ġpauc":2286,"Ġmorte":2287,"Ġuestrae":2288,"ense":2289,"Ġdubi":2290,"Ġtanto":2291,"Ġcoelo":2292,"Ġpartes":2293,"Ġfem":2294,"tores":2295,"Ġsacrific":2296,"anos":2297,"ard":2298,".--":2299,"Î±ÏĤ":2300,"pect":2301,"Ġuia":2302,"Ġdicunt":2303,"Ġiei":2304,"Ġfuerint":2305,"Ġgentes":2306,"entissim":2307,"Ġlonge":2308,"hem":2309,"Ġstr":2310,"Ġcelebr":2311,"Ġobl":2312,"Ġcustodi":2313,"Ġratio":2314,"imur":2315,"Ġsuccess":2316,"Ġexis":2317,"Ġant":2318,"Ġuirtus":2319,"clus":2320,"uium":2321,"ie":2322,"Ġmyst":2323,"uitur":2324,"Ġredi":2325,"escit":2326,"ella":2327,"Ġueritatis":2328,"Ġarchiepiscop":2329,"tias":2330,"enn":2331,"ulae":2332,"andam":2333,"Ġopin":2334,"Ġpag":2335,"Ġinterrog":2336,"psum":2337,"Ġauxili":2338,"eros":2339,"Ġsollic":2340,"Ġrequi":2341,"Ġmedio":2342,"ĠÏĦÎ¿Ïħ":2343,"Ġsab":2344,"Ġdisciplin":2345,"Ġdonec":2346,"Ġfrater":2347,"Ġfab":2348,"Ġdux":2349,"Ġcarne":2350,"Ġpraest":2351,"Ġmit":2352,"Ġpossid":2353,"Ġabra":2354,"Ġparti":2355,"Ġunam":2356,"Ġcommend":2357,"Ġessent":2358,"Ġtribus":2359,"Ġmortis":2360,"issa":2361,"Ġfort":2362,"itudine":2363,"Ġuix":2364,"icos":2365,"Ġcruci":2366,"Ġexhib":2367,"Ġpulch":2368,"icem":2369,"Ġgraec":2370,"ara":2371,"Ġmox":2372,"Ġdist":2373,"Ġuindic":2374,"Ġtermin":2375,"iec":2376,"Ġnasc":2377,"Ġsuorum":2378,"Ġsententia":2379,"Ġdaem":2380,"ola":2381,"Ġpossess":2382,"Ġieiun":2383,"Ġnullum":2384,"Ġmundo":2385,"Ġcant":2386,"Ġcens":2387,"Ġsaeculi":2388,"Ġscel":2389,"ones":2390,"Ġadul":2391,"Ġphilos":2392,"Ġpraeb":2393,"Î±Ïģ":2394,"Ġdemonstr":2395,"Ġdicta":2396,"Ġbonis":2397,"Ġration":2398,"Ġconsuet":2399,"Ġcustod":2400,"Ġcarnem":2401,"Ġnaturam":2402,"Ġmur":2403,"Ġadmon":2404,"Ġmulto":2405,"Ġbenefic":2406,"ific":2407,"Ġaqua":2408,"yr":2409,"Ġprohib":2410,"Ġpas":2411,"Ġpostquam":2412,"tinere":2413,"uine":2414,"Ġillorum":2415,"Ġoculis":2416,"ĠÎ·":2417,"Ġcordis":2418,"Ġlibro":2419,"Ġquinque":2420,"Ġsepar":2421,"Ġpleb":2422,"Ġinnoc":2423,"les":2424,"Ġamplius":2425,"Ġoptim":2426,"Ġcapti":2427,"ensem":2428,"Ġhodi":2429,"istis":2430,"Ġapostoli":2431,"ites":2432,"Ġhuman":2433,"pectu":2434,"Ġmedic":2435,"itam":2436,"Ġard":2437,"Ġprouid":2438,"Ġfiat":2439,"Ġsolus":2440,"yl":2441,"Ġimpos":2442,"Ġib":2443,"Ġbeatus":2444,"admodum":2445,"Ġpeti":2446,"Ġ--":2447,"Ġredemp":2448,"Ġindign":2449,"Ġaccus":2450,"ionibus":2451,"Ġhaeretic":2452,"Ġtemporis":2453,"Ġsanctis":2454,"Ġcoelum":2455,"Ġtol":2456,"Ġdici":2457,"quae":2458,"ladi":2459,"Ġuuln":2460,"Ġcog":2461,"Ġprec":2462,"Ġpaulus":2463,"entus":2464,"Ġpariter":2465,"Ġalius":2466,"itates":2467,"Ġoff":2468,"cumque":2469,"tini":2470,"Ġmerito":2471,"Ġperf":2472,"Ġquatenus":2473,"dita":2474,"Ġstatu":2475,"Ġoculos":2476,"Ġtrin":2477,"Ġloquitur":2478,"issima":2479,"Ġmelius":2480,"Ġsignificat":2481,"Ġaufer":2482,"Ġcess":2483,"Ġnumero":2484,"Ġpostul":2485,"Ġfrequ":2486,"Ġsapientia":2487,"Ġalb":2488,"Ġpersec":2489,"Ġestis":2490,"Ġaliquo":2491,"Ġsententiam":2492,"Ġsensus":2493,"Ġcat":2494,"Ġextra":2495,"Ġtoto":2496,"Ġmed":2497,"icorum":2498,"rium":2499,"quo":2500,"lu":2501,"Ġsola":2502,"Ġtotius":2503,"Ġconcup":2504,"Ġpetrus":2505,"Ġquemadmodum":2506,"Ġiustitia":2507,"Ġuiam":2508,"Ġsur":2509,"Ġret":2510,"iens":2511,"ueris":2512,"Ġiacob":2513,"Ġsimplic":2514,"Ġpur":2515,"Ġueritas":2516,"Ġhistor":2517,"Ġlign":2518,"rare":2519,"Ġnau":2520,"Ġgenere":2521,"ilem":2522,"Ġscrips":2523,"iorum":2524,"Ġiustitiam":2525,"esta":2526,"Ġforma":2527,"Ġministr":2528,"och":2529,"Ġmanibus":2530,"emur":2531,"Ġcoron":2532,"Ġcaro":2533,"Ġpol":2534,"Ġcogno":2535,"Ġtamquam":2536,"Ġmente":2537,"cunque":2538,"Ġmodum":2539,"antiae":2540,"Ġuoce":2541,"Ġrationem":2542,"Ġepiscopum":2543,"udinem":2544,"Ġpeccatorum":2545,"ebantur":2546,"Ġsermo":2547,"Ġfiliis":2548,"Ġuerbo":2549,"Ġapostolorum":2550,"Ġioannes":2551,"Ġepistola":2552,"Ġobedi":2553,"Ġdelect":2554,"Ġhabeat":2555,"tinc":2556,"Ġoccas":2557,"cibus":2558,"Ġarm":2559,"itae":2560,"iunt":2561,"Ġbas":2562,"titia":2563,"prae":2564,"Ġgladi":2565,"Ġsubjec":2566,"atissim":2567,"Ġsolem":2568,"Ġrecep":2569,"Ġboni":2570,"aginta":2571,"uisti":2572,"ĠÏĥ":2573,"abunt":2574,"Ġabsque":2575,"Ġue":2576,"Ġuest":2577,"Ġanimi":2578,"Ġbeat":2579,"Ġcunctis":2580,"Ġlex":2581,"iles":2582,"Ġeuangelio":2583,"Ġingen":2584,"Ġabsol":2585,"auerit":2586,"Ġuoluit":2587,"endas":2588,"uxit":2589,"abiliter":2590,"abile":2591,"circo":2592,"Ġlocus":2593,"Ġdomo":2594,"Ġlegi":2595,"Ġmisit":2596,"Ġconstitu":2597,"Ġconsci":2598,"Ġueritatem":2599,"Ġnati":2600,"Ġfuerunt":2601,"Ġdicuntur":2602,"Ġpeccato":2603,"Ġclem":2604,"ereb":2605,"Ġcib":2606,"Ġdiuinae":2607,"Ġdiui":2608,"Ġiug":2609,"iit":2610,"Ġtris":2611,"Ġabi":2612,"enim":2613,"Ġutil":2614,"Ġuas":2615,"Ġsedis":2616,"Ġlapid":2617,"Ġapostolicae":2618,"arn":2619,"issimi":2620,"Ġmaior":2621,"ÎµÏģ":2622,"Ġmyster":2623,"Ġador":2624,"tii":2625,"Ġoperibus":2626,"Ġminister":2627,"Ġtandem":2628,"simus":2629,"Ġpropria":2630,"emor":2631,"ham":2632,"Ġordine":2633,"Ġprimus":2634,"Ġmare":2635,"Ġmundum":2636,"enae":2637,"Ġaccid":2638,"Ġtemporibus":2639,"Ġdeuo":2640,"sis":2641,"Ġduobus":2642,"su":2643,"Ġcuncta":2644,"Ġfau":2645,"Ġcoeles":2646,"uitate":2647,"Ġconstan":2648,"uiii":2649,"Ġpropterea":2650,"Ġnatus":2651,"Ġultim":2652,"Ġfigur":2653,"tore":2654,"Ġlitteris":2655,"Ġrestit":2656,"Ġon":2657,"Ġtrium":2658,"uenit":2659,"Ġcondi":2660,"Ġlocis":2661,"Ġmeae":2662,"Ġgentium":2663,"atas":2664,"Ġmeis":2665,"Ġmili":2666,"Ġpraec":2667,"Ġidcirco":2668,"Ġiustitiae":2669,"Ġcontem":2670,"Ġpraed":2671,"Ġsane":2672,"Ġdicimus":2673,"Ġsti":2674,"Ġperse":2675,"Ġopere":2676,"Ġdiuid":2677,"Ġignis":2678,"ustr":2679,"Ġetsi":2680,"Ġuirum":2681,"Ġaliquis":2682,"Ġimpet":2683,"olog":2684,"Ġciuitatem":2685,"Ġcompos":2686,"Ġconcess":2687,"ll":2688,"Ġuestris":2689,"Ġmanum":2690,"Ġcaeteris":2691,"Ġfra":2692,"Ġpotestatem":2693,"Ġpacem":2694,"Ġuoluntate":2695,"Ġuoluntatem":2696,"Ġfratribus":2697,"Ġierusalem":2698,"pir":2699,"Ġpossumus":2700,"Ġnondum":2701,"ima":2702,"Ġiesum":2703,"entio":2704,"Ġhomine":2705,"Ġdiximus":2706,"Ġerunt":2707,"Ġcern":2708,"Ġadeo":2709,"Ġexper":2710,"Ġstul":2711,"eum":2712,"clud":2713,"Ġmultum":2714,"Ġfamili":2715,"Ġmeli":2716,"Ġexistim":2717,"Ġambul":2718,"Ġpedes":2719,"Ġmitt":2720,"exand":2721,"Ġdubit":2722,"Ġultra":2723,"Ġpud":2724,"abis":2725,"Ġtempor":2726,"unic":2727,"Ġsubstantia":2728,"Ġcorrup":2729,"Ġimpl":2730,"Ġdiff":2731,"Ġisa":2732,"Ġuocem":2733,"Ġamore":2734,"Ġsanguine":2735,"Ġanni":2736,"ual":2737,"Ġpan":2738,"Ġhodie":2739,"Ġlarg":2740,"Ġrursus":2741,"eth":2742,"Ġdesign":2743,"Ġoccul":2744,"Ġminime":2745,"Ġtuus":2746,"Ġste":2747,"Ġpasch":2748,"Ġaeternum":2749,"ÏīÏĤ":2750,"Ġgerm":2751,"Ġnocte":2752,"Ġrob":2753,"Ġseruus":2754,"ese":2755,"Ġuidit":2756,"Ġpeccati":2757,"Ġaf":2758,"Ġuiol":2759,"Ġdiffic":2760,"Ġmoys":2761,"iamus":2762,"Ġdefini":2763,"Ġcongr":2764,"press":2765,"Ġscriptura":2766,"cit":2767,"tioni":2768,"Ġflu":2769,"Ġspecies":2770,"gressus":2771,"sec":2772,"Ġmag":2773,"so":2774,"Ġnub":2775,"Ġinuicem":2776,"arch":2777,"elis":2778,"Ġaccepit":2779,"Ġconstr":2780,"edit":2781,"Ġmors":2782,"Ġdiacon":2783,"Ġbo":2784,"aus":2785,"Ġquotidi":2786,"Ġfaciem":2787,"Ġpecun":2788,"Ġsubiec":2789,"Ġdet":2790,"Ġrel":2791,"Ġgeneris":2792,"itudo":2793,"osa":2794,"posi":2795,"abilem":2796,"Ġuolup":2797,"Ġsuperb":2798,"Ġconcupisc":2799,"Ġpari":2800,"do":2801,"endus":2802,"ido":2803,"Ġurbem":2804,"Ġtalis":2805,"Ġcumque":2806,"Ġtoll":2807,"Ġargum":2808,"Ġmembra":2809,"Ġuidere":2810,"pi":2811,"Ġdixi":2812,"Ġcardin":2813,"eas":2814,"\\.":2815,"Ġrelinqu":2816,"Ġmisericordiam":2817,"Ġios":2818,"Ġdup":2819,"eph":2820,"modo":2821,"Ġalterum":2822,"Ġtestimonium":2823,"Ġalexand":2824,"Ġimperator":2825,"issimum":2826,"isit":2827,"olis":2828,"quin":2829,"Ġflum":2830,"Ġreliqu":2831,"Ġfaciunt":2832,"ationi":2833,"Ġmisericordia":2834,"Ġsacr":2835,"Ġduos":2836,"Ġuari":2837,"Ġpotestate":2838,"Ġconsilio":2839,"Ġreuoc":2840,"titer":2841,"andus":2842,"Ġduod":2843,"Ġuirtutum":2844,"Ġpatr":2845,"ationum":2846,"Ġinuid":2847,"Ġconfer":2848,"Ġquadrag":2849,"Ġreuel":2850,"quaquam":2851,"Ġteneb":2852,"Ġsomn":2853,"asset":2854,"Ġxxx":2855,"udine":2856,"Ġfine":2857,"tat":2858,"Ġj":2859,"Ġmend":2860,"Ġcond":2861,"Ġpaulo":2862,"Ġorig":2863,"Ġpersona":2864,"auimus":2865,"Ġhabuit":2866,"Ġagnosc":2867,"Ġciuitate":2868,"Ġgratiae":2869,"Ġinstr":2870,"Ġconced":2871,"arem":2872,"Ġfacile":2873,"Ġrege":2874,"Ġperueni":2875,"clar":2876,"Ġdel":2877,"Ġnut":2878,"aculum":2879,"Ġbeni":2880,"Ġquibusdam":2881,"Ġperman":2882,"gra":2883,"Ġisti":2884,"Ġsecundo":2885,"ileg":2886,"cuius":2887,"Ġuiro":2888,"Ġsustin":2889,"Ġsolis":2890,"nus":2891,"Ġast":2892,"Ġpromiss":2893,"gne":2894,"trah":2895,"Ġdor":2896,"prop":2897,"Ġcec":2898,"ubi":2899,"andis":2900,"turb":2901,"Ġabbas":2902,"Ġciuitatis":2903,"Ġtempora":2904,"rehend":2905,"cedit":2906,"Ġordinem":2907,"itor":2908,"rex":2909,"ecim":2910,"rio":2911,"Ġuirtutem":2912,"inistr":2913,"ilius":2914,"Ġconsens":2915,"Ġirr":2916,"nae":2917,"Ġfortun":2918,"Ġmultiplic":2919,"iscum":2920,"cur":2921,"Ġobtin":2922,"Ġdiceret":2923,"Ġuestrum":2924,"Ġueritate":2925,"Ġalias":2926,"Ġuox":2927,"abiles":2928,"iderunt":2929,"Ġapostolica":2930,"Ġdur":2931,"Ġregno":2932,"Ġtheod":2933,"Ġeleg":2934,"Ġaffirm":2935,"Ġdata":2936,"istere":2937,"Ġpraepar":2938,"anter":2939,"Ġcad":2940,"rexit":2941,"Ġualde":2942,"Ġcurr":2943,"Ġrequir":2944,"Ġgenti":2945,"Ġiuuen":2946,"Ġetenim":2947,"Ġlibert":2948,"Ġcoeli":2949,"Ġeloqu":2950,"Ġproced":2951,"Ġarbitr":2952,"Ġfranc":2953,"Ġascend":2954,"Ġexpe":2955,"Ġconsol":2956,"Ġglorios":2957,"entorum":2958,"tissime":2959,"Ġconsilium":2960,"Ġiustus":2961,"eper":2962,"Ġambi":2963,"Ġnequaquam":2964,"Ġelig":2965,"Ġsumma":2966,"Ġdescend":2967,"Ġpoenitentiam":2968,"Ġmarcus":2969,"ĠÎµÎ½":2970,"Ġgentibus":2971,"ea":2972,"Ġro":2973,"iat":2974,"uiter":2975,"Ġreligios":2976,"ĠÎ¸":2977,"Ġmariae":2978,"Ġdestr":2979,"Ġnarr":2980,"Ġuerbi":2981,"Ġrecipi":2982,"Ġhonore":2983,"Ġcoepit":2984,"Ġcorpora":2985,"Ġrespondit":2986,"Ġumb":2987,"Ġprofer":2988,"Ġphilosoph":2989,"Ġuenire":2990,"Ġpeccatis":2991,"anam":2992,"Ġaeterna":2993,"Ġexig":2994,"Ġtertio":2995,"Î¼ÎµÎ½":2996,"Ġipsos":2997,"olum":2998,"issimo":2999,"Ġcollig":3000,"Ġtribul":3001,"Ġantequam":3002,"Ġearum":3003,"idum":3004,"Ġtemplum":3005,"Ġtract":3006,"Ġdelic":3007,"Ġpriuileg":3008,"Ġprofecto":3009,"Ġpartibus":3010,"crips":3011,"Ġporro":3012,"Ġnem":3013,"tamen":3014,"Ġagere":3015,"ior":3016,"Ġmonasterio":3017,"mum":3018,"Ġsam":3019,"Ġcaec":3020,"Ġimit":3021,"Ġhumili":3022,"Ġscripta":3023,"Ġpraesid":3024,"Ġren":3025,"Ġmagnum":3026,"Ġiuli":3027,"Ġiuda":3028,"Ġall":3029,"Ġmenti":3030,"Ġsei":3031,"Ġconstat":3032,"Ġanimal":3033,"rac":3034,"Ġparu":3035,"Ġquisque":3036,"Ġobt":3037,"Ġsingulis":3038,"anim":3039,"Ġcaetera":3040,"Ġseptim":3041,"Ġpoterit":3042,"Ġfaciat":3043,"Ġlumen":3044,"deb":3045,"Ġdexter":3046,"Ġperc":3047,"Ġoccup":3048,"Ġpom":3049,"Ġmonasterium":3050,"Ġalterius":3051,"Ġplures":3052,"onum":3053,"utis":3054,"Ġromae":3055,"Ġdil":3056,"Ġepiscopis":3057,"Ġiudaeorum":3058,"Ġabund":3059,"Ġpapae":3060,"Ġaccip":3061,"Ġsuscipi":3062,"Ġhorum":3063,"Ġincer":3064,"uto":3065,"Ġsecum":3066,"Ġregi":3067,"Ġgrae":3068,"Ġqual":3069,"Ġincon":3070,"Ġerud":3071,"Ġfuturum":3072,"Ġnonnul":3073,"ditum":3074,"Ġoccurr":3075,"Ġhaeres":3076,"Ġamici":3077,"Ġpatrum":3078,"Ġcura":3079,"Ġcorpor":3080,"Ġdare":3081,"Ġseruit":3082,"toris":3083,"Ġflor":3084,"bile":3085,"Ġsalutis":3086,"Ġsuperius":3087,"Ġmerc":3088,"Ġconseru":3089,"sic":3090,"Ġsiquidem":3091,"Ġian":3092,"ĠÏĢÏģ":3093,"trac":3094,"Ġpror":3095,"Ġmaiest":3096,"Ġsepul":3097,"Ġintelligi":3098,"Ġuestram":3099,"Ġpenitus":3100,"Ġolim":3101,"Ġuirtutis":3102,"ĠÃ¾":3103,"Ġclaud":3104,"des":3105,"ria":3106,"Ġurbe":3107,"eamus":3108,"Ġdisput":3109,"Ġmore":3110,"Ġsch":3111,"Ġflag":3112,"pro":3113,"Ġcy":3114,"Ġextrem":3115,"Ġacced":3116,"undum":3117,"Ġabscon":3118,"Ġnup":3119,"Ġpacis":3120,"Ġlingua":3121,"Ġcogni":3122,"Ġpapa":3123,"Ġquodam":3124,"Ġprincipes":3125,"Ġformam":3126,"Î²":3127,"Ġclaus":3128,"Ġmulier":3129,"tici":3130,"abantur":3131,"xxx":3132,"Ġfall":3133,"icam":3134,"Ġgaius":3135,"Ġsuff":3136,"ax":3137,"illa":3138,"Ġduas":3139,"Ġlocutus":3140,"Ġaestim":3141,"Ġbono":3142,"Ġsanctit":3143,"ania":3144,"Ġprocul":3145,"Ġexemplum":3146,"Ġhom":3147,"Ġincarn":3148,"Ġmaledic":3149,"Ġcupid":3150,"Ġmagno":3151,"Ġlitteras":3152,"Ġscire":3153,"ittit":3154,"Ġcontempl":3155,"Ġbellum":3156,"Ġdebemus":3157,"Ġtenebr":3158,"ditur":3159,"escere":3160,"uerant":3161,"Ġarch":3162,"Ġsese":3163,"Ġuoluntas":3164,"Ġdesid":3165,"Ġtrah":3166,"Ġsignum":3167,"Ġhumana":3168,"Ġgratias":3169,"Ġsanctific":3170,"Ġocta":3171,"arentur":3172,"Ġaulus":3173,"Ġorn":3174,"Ġurbis":3175,"Ġtene":3176,"Ġmanduc":3177,"Î·ÏĤ":3178,"Ġinuit":3179,"Ġconsecr":3180,"Ġnud":3181,"Ġadam":3182,"Ġnomina":3183,"Ġdat":3184,"Ġalium":3185,"ech":3186,"Ġpraeterea":3187,"Ġsemeti":3188,"irum":3189,"Ġconfit":3190,"Ġhonorem":3191,"Ġcand":3192,"Ġpron":3193,"Ġdixerunt":3194,"enas":3195,"Ġuxorem":3196,"Ġdid":3197,"Ġaliam":3198,"hann":3199,"ute":3200,"Ġexspect":3201,"Ġexor":3202,"tissimi":3203,"ulari":3204,"ai":3205,"Ġsecre":3206,"Ġfin":3207,"Ġsar":3208,"Ġnulli":3209,"Ġhomini":3210,"Ġfidelium":3211,"Ġmortuus":3212,"Ġabraham":3213,"ĠÏħ":3214,"Ġexi":3215,"ebunt":3216,"Ġuii":3217,"Ġmotus":3218,"Ġtabern":3219,"Ġuidentur":3220,"pp":3221,"olit":3222,"Ġimo":3223,"Ġlegitur":3224,"Ġintelleg":3225,"Ġquan":3226,"Ġcommemor":3227,"quisque":3228,"Ġpraesenti":3229,"Ġsecur":3230,"Ġgregor":3231,"Ġsapientiae":3232,"Ġmalis":3233,"Ġiun":3234,"Ġperegr":3235,"Ġeidem":3236,"Ġciu":3237,"endae":3238,"Ġsupplici":3239,"Ġpurg":3240,"lus":3241,"ÏĢÎ¿":3242,"Ġalibi":3243,"Ġbonorum":3244,"Ġiustific":3245,"Ġuolupt":3246,"Ġgrau":3247,"Ġpercus":3248,"Ġanimum":3249,"Ġdecimus":3250,"uos":3251,"Ġspect":3252,"Ġconspectu":3253,"Ġsuperbi":3254,"onia":3255,"Ġari":3256,"nic":3257,"Ġbal":3258,"Ġdoctrina":3259,"ĠÎ³":3260,"Ġutrumque":3261,"Ġspecie":3262,"Ġuiuere":3263,"Ġpatern":3264,"Ġdefens":3265,"ĠÎ±ÏħÏĦ":3266,"Ġbonus":3267,"Ġpel":3268,"ellis":3269,"entiis":3270,"ortun":3271,"Ġconjug":3272,"Ġnumquam":3273,"Ġretin":3274,"Ġsag":3275,"Ġuocab":3276,"Ġdomn":3277,"Ġgl":3278,"acula":3279,"Ġpatres":3280,"Ġpoterat":3281,"Ġmendac":3282,"ho":3283,"ÎµÏĦ":3284,"uens":3285,"ĠÅ¿":3286,"Ġpossint":3287,"Ġeb":3288,"Ġeumdem":3289,"Ġmonasterii":3290,"atore":3291,"Ġneglig":3292,"Ġexter":3293,"Ġmalo":3294,"rehens":3295,"Ġantiqu":3296,"Âª":3297,"Ġutri":3298,"Ġindig":3299,"Ġdecim":3300,"Ġsemel":3301,"atium":3302,"Ġfere":3303,"ĠâĢĶ":3304,"idus":3305,"Ġexpon":3306,"inti":3307,"Ġnominis":3308,"Ġadhib":3309,"Ġdicendum":3310,"Ġsalom":3311,"ÏħÎ½":3312,"Ġintellectus":3313,"iÂª":3314,"Ġaltera":3315,"ĠÏĦÎ·ÏĤ":3316,"Ġusus":3317,"Î·Î½":3318,"issimus":3319,"Ġofficium":3320,"Ġfortitud":3321,"dere":3322,"Ġfuisset":3323,"Ġagit":3324,"Ġtertia":3325,"Ġcompl":3326,"Ġsensum":3327,"Ġsacerdotes":3328,"essus":3329,"Ġexcep":3330,"Ġstudio":3331,"fl":3332,"Ġuocatur":3333,"Ġpraecepta":3334,"Ġcapite":3335,"amentum":3336,"Ġnonne":3337,"Ġspl":3338,"ittere":3339,"Ġsecunda":3340,"atoribus":3341,"unde":3342,"titiam":3343,"Ġfraud":3344,"Ġimpr":3345,"Ġscientia":3346,"iarum":3347,"Ġsabb":3348,"Ġloca":3349,"Ġpotentia":3350,"Ġannum":3351,"Ġproprium":3352,"Ġparticip":3353,"utor":3354,"Ġabbati":3355,"ubern":3356,"Ġhebrae":3357,"Ġuirtutes":3358,"itatibus":3359,"Ġdeclar":3360,"dibus":3361,"Ġsemp":3362,"uitatem":3363,"Ġmultos":3364,"isque":3365,"Ġloci":3366,"uatur":3367,"rauit":3368,"utione":3369,"arunt":3370,"Ġinfid":3371,"ueri":3372,"Ġfratrem":3373,"Ġquanta":3374,"Ġuideatur":3375,"Ġulla":3376,"Ġtalia":3377,"Ġadi":3378,"Ġpasc":3379,"Ġubique":3380,"Ġcamp":3381,"Ġsanguinem":3382,"Ġduodecim":3383,"Ġiohann":3384,"Ġpertinet":3385,"endos":3386,"Ġfiunt":3387,"ĠÎµÏĢ":3388,"lem":3389,"Ġcoelestis":3390,"Ġconstantin":3391,"Ġmagistr":3392,"Ġthes":3393,"Ġira":3394,"Ġsermone":3395,"Ġdul":3396,"Ġcontradic":3397,"Ġquondam":3398,"Ġunusquisque":3399,"ĠÎ´Î¹":3400,"Ġarma":3401,"Ġserp":3402,"Ġhora":3403,"Ġacceper":3404,"tissimum":3405,"itos":3406,"Ġsplend":3407,"Ġuiii":3408,"Ġobli":3409,"Ġbeatit":3410,"ĠÎ±Î½":3411,"Ġprior":3412,"Ġmundus":3413,"ĠÎµÎ¹":3414,"Ġfructus":3415,"Ġcorda":3416,"Ġads":3417,"fr":3418,"Ġaliorum":3419,"titit":3420,"Ġlacr":3421,"pend":3422,"Ġhort":3423,"Ġuestri":3424,"haec":3425,"Ġaeternam":3426,"Ġibidem":3427,"abuntur":3428,"Ġnimirum":3429,"Ġmus":3430,"Ġfoed":3431,"Ġcrud":3432,"Ġsacerdos":3433,"Ġdein":3434,"Ġlau":3435,"Ġcrucis":3436,"Ġreges":3437,"Ġadulter":3438,"men":3439,"Ġipsorum":3440,"gen":3441,"Ġhas":3442,"Ġnumquid":3443,"eron":3444,"Ġprophe":3445,"Ġsaeculo":3446,"tauit":3447,"Ġnat":3448,"Ġcorn":3449,"Ġlig":3450,"Ġmentem":3451,"Ġhuc":3452,"Ġuelle":3453,"Ġfacti":3454,"Ġfulg":3455,"Ġlud":3456,"Ġuim":3457,"Ġintro":3458,"utionem":3459,"aph":3460,"Ġualet":3461,"tif":3462,"Ġqualiter":3463,"Ġdatur":3464,"ularis":3465,"Ġhabebat":3466,"Ġbarb":3467,"Ġsigna":3468,"Ġlam":3469,"Ġsurg":3470,"Ġprinceps":3471,"Ġquot":3472,"Ġillumin":3473,"amque":3474,"Ġquotidie":3475,"Ġnoui":3476,"Ġprol":3477,"Ġinjus":3478,"Ġconsumm":3479,"Ġsis":3480,"Ġfron":3481,"Ġsociet":3482,"Ġangus":3483,"ies":3484,"Ġattend":3485,"estum":3486,"ares":3487,"Ġmaria":3488,"Ġprofic":3489,"Ġcanti":3490,"Ġeuangelium":3491,"Ġposuit":3492,"Ġdeter":3493,"Ġpraepos":3494,"inqu":3495,"Ġspem":3496,"Ġinterfec":3497,"Ġtar":3498,"Ġrelic":3499,"Ġtales":3500,"Ġhabens":3501,"Ġferre":3502,"Ġnostrorum":3503,"Ġuigil":3504,"Ġexam":3505,"Ġadmir":3506,"Î¾":3507,"tior":3508,"Ġdeu":3509,"Ġaris":3510,"Ġalt":3511,"Ġuentur":3512,"Ġpraeced":3513,"Ġgalli":3514,"Ġmodis":3515,"queb":3516,"nos":3517,"Ġuehem":3518,"Ġcoeper":3519,"Ġprincipio":3520,"Ġangeli":3521,"tionum":3522,"Ġocto":3523,"Ġced":3524,"Ġsaecula":3525,"Ġpax":3526,"Ġfrig":3527,"Ġbasili":3528,"Ġoperis":3529,"Ġproposi":3530,"Ġasser":3531,"Ġromani":3532,"Ġexcus":3533,"Ġseni":3534,"Ġglori":3535,"Ġlegitim":3536,"Ġpietatis":3537,"ibi":3538,"rix":3539,"Ġposter":3540,"Ġexal":3541,"Ġdebere":3542,"Ġafric":3543,"crib":3544,"Ġdefec":3545,"Ġtali":3546,"Ġceleb":3547,"Ġnumerus":3548,"uitatis":3549,"torem":3550,"Ġdicentes":3551,"cr":3552,"Ġinjur":3553,"Ġful":3554,"Ġiussit":3555,"Ġtes":3556,"Ġcontemn":3557,"Ġnolite":3558,"eu":3559,"ciper":3560,"Ġconcep":3561,"Ġfiliorum":3562,"Ġamor":3563,"Ġpoena":3564,"Ġexaud":3565,"Ġdispens":3566,"Ġcarc":3567,"Ġna":3568,"Ġxii":3569,"Ġaquae":3570,"Ġsedem":3571,"Ġnox":3572,"Ġfratrum":3573,"Ġaquam":3574,"Ġaltare":3575,"hic":3576,"Ġge":3577,"Ġpace":3578,"Ġtemper":3579,"rorum":3580,"Ġsensu":3581,"Ġinterim":3582,"Ġhaud":3583,"Ġasper":3584,"lam":3585,"ditus":3586,"Ġcredere":3587,"Ġhumanae":3588,"Ġremo":3589,"Ġexpos":3590,"inas":3591,"Ġexist":3592,"Ġindulg":3593,"tura":3594,"Ġdepos":3595,"Ġcub":3596,"Ġioannis":3597,"ona":3598,"Ġfutura":3599,"Ġsacra":3600,"Ġperseuer":3601,"Ġpoll":3602,"Ġfestin":3603,"Ġaccipere":3604,"Ġiustum":3605,"ominus":3606,"Ġinuis":3607,"uentum":3608,"Ġperuen":3609,"Ġscand":3610,"Ġsempiter":3611,"ulerunt":3612,"Ġiudaei":3613,"Ġanath":3614,"Ġprophetae":3615,"Ġquadam":3616,"Ġofficio":3617,"ommunic":3618,"Ġinqui":3619,"Ġepiscoporum":3620,"Ġpu":3621,"Ġdeclin":3622,"Ġdebeat":3623,"Ġaudire":3624,"Ġhisp":3625,"Ġuine":3626,"uitas":3627,"atque":3628,"Ġspes":3629,"Ġmonte":3630,"ensum":3631,"Ġquer":3632,"Ġuidet":3633,"Ġuiui":3634,"Ġigne":3635,"asci":3636,"Ġtrig":3637,"Ġemend":3638,"Ġcrucif":3639,"auc":3640,"dix":3641,"Ġhosp":3642,"Ġnimis":3643,"isci":3644,"Ġfuerant":3645,"Ġgubern":3646,"Ġtale":3647,"Ġexercitu":3648,"Ġpossib":3649,"Ġsteph":3650,"Ġexplic":3651,"Ġfrag":3652,"Ġfilia":3653,"Ġuiginti":3654,"Ġprorsus":3655,"Ġluna":3656,"Ġromanae":3657,"Ġbenign":3658,"Ġinfra":3659,"psit":3660,"Ġmagister":3661,"Ġdecern":3662,"Ġaudit":3663,"mar":3664,"Ġath":3665,"Ġrede":3666,"Ġuniuersa":3667,"Ġciuitas":3668,"Ġsatur":3669,"mina":3670,"Ġuestig":3671,"Ġster":3672,"Ġignem":3673,"Ġreuers":3674,"Ġgloriae":3675,"utio":3676,"Ġquum":3677,"Ġmeritis":3678,"Ġtriumph":3679,"Ġfructum":3680,"Ġ+":3681,"Ġconfus":3682,"Ġfratern":3683,"Ġaquil":3684,"Ġiudicii":3685,"Ġsaltem":3686,"oec":3687,"Ġcontum":3688,"tiorum":3689,"Ġprosper":3690,"turus":3691,"Ġuestim":3692,"Ġhabemus":3693,"Ġmecum":3694,"Ġinterpretatur":3695,"Ġnouum":3696,"Ġterris":3697,"eam":3698,"Ġum":3699,"Ġinfin":3700,"Ġdicam":3701,"Ġsublim":3702,"Ġconuenit":3703,"arios":3704,"Ġreligionis":3705,"Ġnuncup":3706,"Ġimb":3707,"Ġloqui":3708,"Ġfals":3709,"ela":3710,"ariam":3711,"Ġsax":3712,"asque":3713,"ropter":3714,"Ġconting":3715,"apropter":3716,"Ġlegimus":3717,"Ġanathem":3718,"Ġanimus":3719,"Ġactu":3720,"Ġturp":3721,"Ġomnipotens":3722,"Ġsupplic":3723,"Ġtotam":3724,"Ġaliquam":3725,"Ġspe":3726,"Ġexcell":3727,"retur":3728,"Ġmetu":3729,"Ġplen":3730,"Ġuiuit":3731,"ah":3732,"plex":3733,"Ġincor":3734,"Ġexcommunic":3735,"Ġdiscre":3736,"Ġdiligenter":3737,"Ġuirgo":3738,"Ġordo":3739,"Ġlucem":3740,"Ġpatet":3741,"Ġmanifest":3742,"Ġimperium":3743,"Ġdeduc":3744,"Ġpauli":3745,"raque":3746,"Ġsolet":3747,"Ġcredit":3748,"ĠÎµÎº":3749,"Ġdubio":3750,"Ġung":3751,"Ġpraedestin":3752,"Ġuolumus":3753,"Ġbab":3754,"Ġliceat":3755,"Ġconsenti":3756,"Ġintus":3757,"Ġregum":3758,"Ġdocet":3759,"Ġrub":3760,"Ġconclus":3761,"Ġsat":3762,"Ġdiabolus":3763,"tasse":3764,"uissent":3765,"Ġoratio":3766,"Ġaugustinus":3767,"Î¹Î½":3768,"Î±Î»":3769,"timus":3770,"Ġiuris":3771,"cia":3772,"Ġmateria":3773,"Ġquarum":3774,"Ġeamdem":3775,"hor":3776,"Ġmillia":3777,"Ġsimilitudinem":3778,"Ġnoua":3779,"Ġsolemn":3780,"Ġioseph":3781,"tric":3782,"itatum":3783,"Ġangelus":3784,"Ġnunti":3785,"Ġiura":3786,"tent":3787,"adis":3788,"eatur":3789,"Ġexcel":3790,"ÎµÎ¹Î½":3791,"Ġhabes":3792,"Ġbello":3793,"Ġmatris":3794,"Ġnumerum":3795,"peti":3796,"Ġremiss":3797,"Ġcentum":3798,"eus":3799,"Ġdere":3800,"Ġtuos":3801,"eriis":3802,"ueret":3803,"Ġexemplo":3804,"lix":3805,"eram":3806,"Ġperi":3807,"tica":3808,"uar":3809,"elix":3810,"Ġseptu":3811,"Ġcharitas":3812,"Ġfinis":3813,"uram":3814,"Ġimmort":3815,"Ġdormi":3816,"Ġnullam":3817,"Ġtimore":3818,"Ġistis":3819,"Ġlang":3820,"ichae":3821,"ago":3822,"Â·":3823,"Î¹Îº":3824,"Ġcorrig":3825,"Ġproprie":3826,"Ġfacult":3827,"Ġisto":3828,"Ġpatriarch":3829,"Ġuiros":3830,"Ġrh":3831,"Ġprimi":3832,"unda":3833,"Ġabstin":3834,"aci":3835,"ĠÎ»":3836,"demn":3837,"ustra":3838,"quisi":3839,"red":3840,"Ġfornic":3841,"eunt":3842,"ellum":3843,"Ġaduent":3844,"ger":3845,"Ġuoluntatis":3846,"Ġprocur":3847,"Ġinduc":3848,"Ġdicatur":3849,"cam":3850,"Ġuent":3851,"Ġpraesens":3852,"antum":3853,"Ġmedium":3854,"Ġinsign":3855,"Ġintenti":3856,"Ġnil":3857,"Ġinh":3858,"ariae":3859,"Ġrecon":3860,"asph":3861,"Ġopt":3862,"Ġdisper":3863,"me":3864,"Ġnef":3865,"Ġsump":3866,"Ġquinqu":3867,"hoc":3868,"Ġdeos":3869,"Ġuideb":3870,"enses":3871,"Ġdicebat":3872,"Ġprope":3873,"Ġtang":3874,"Ġsepulc":3875,"Ġspeciem":3876,"Ġdona":3877,"Ġbabyl":3878,"Ġiudaeis":3879,"Ġfacie":3880,"hort":3881,"Ġtria":3882,"Ġprincipium":3883,"Ġobsequ":3884,"Ġdebent":3885,"Ġaci":3886,"Ġnic":3887,"Ġom":3888,"Ġtranse":3889,"Ġnouit":3890,"Ġuideri":3891,"Ġtribu":3892,"Ġcastra":3893,"Ġsapientiam":3894,"ide":3895,"Ġcredimus":3896,"uem":3897,"Ġimple":3898,"Ġcharitatis":3899,"iud":3900,"tarum":3901,"Ġdeprec":3902,"Ġeph":3903,"Ġpetro":3904,"Ġcic":3905,"entias":3906,"issimis":3907,"ostes":3908,"Ġare":3909,"Ġnecessitate":3910,"Ġaeternae":3911,"Ġdefer":3912,"Ġhil":3913,"Ġuirginis":3914,"Ġinferi":3915,"Ġsid":3916,"Ġradic":3917,"Ġuiribus":3918,"Ġmoyses":3919,"Ġueniam":3920,"pere":3921,"Ġeli":3922,"Ġuiris":3923,"bris":3924,"Ġcommunic":3925,"Ġsuspic":3926,"Ġimaginem":3927,"Ġpraesentia":3928,"Ġprofess":3929,"Ġpene":3930,"Ġdiuino":3931,"Ġerga":3932,"Ġmagnific":3933,"aei":3934,"Ġiuss":3935,"Ġcondit":3936,"Ġdissim":3937,"Ġpic":3938,"Ġub":3939,"Ġprophetam":3940,"Ġnaui":3941,"jec":3942,"Ġtyr":3943,"Ġplag":3944,"Ġdiuersis":3945,"Ġhabeant":3946,"Ġdiuersa":3947,"Ġuirtutibus":3948,"Ġabl":3949,"Ġnecessaria":3950,"tot":3951,"Ġsaluatoris":3952,"inter":3953,"Ġecclesiis":3954,"Ġdignum":3955,"Ġapostolicam":3956,"ÎµÎ»":3957,"aut":3958,"oniam":3959,"Ġcolleg":3960,"Ġdixerit":3961,"Ġmense":3962,"Ġline":3963,"Ġplenit":3964,"Ġmemoria":3965,"epistol":3966,"tifex":3967,"Ġsacris":3968,"Ġreprob":3969,"Ġinsid":3970,"Ġueluti":3971,"Ġepiscopos":3972,"Ġdiscipulis":3973,"Î·Ïĥ":3974,"Ġuulg":3975,"Ġgraui":3976,"Ġabbatis":3977,"atiua":3978,"Ġcollec":3979,"Ġcatholicae":3980,"anas":3981,"Ġfat":3982,"Ġseruorum":3983,"udinis":3984,"Ġueli":3985,"Ġadduc":3986,"Ġuoluerit":3987,"idis":3988,"Ġpraecepit":3989,"ĠÎ´Îµ":3990,"Ġpisc":3991,"Ġintelligere":3992,"Ġfecerit":3993,"Ġsubstantiam":3994,"Ġsede":3995,"Ġreliqua":3996,"Ġsatisfac":3997,"Ġlibris":3998,"sign":3999,"Ġiuste":4000,"ras":4001,"Ġcondemn":4002,"itudinis":4003,"Ġpretios":4004,"Ġblasph":4005,"ith":4006,"Ġadol":4007,"Ġfideles":4008,"Ġuestro":4009,"Ġua":4010,"urus":4011,"escat":4012,"Ġmel":4013,"Ġnequi":4014,"Ġbonae":4015,"Ġprouoc":4016,"Ġaliquod":4017,"Ġquoc":4018,"Ġutraque":4019,"Ġparum":4020,"Ġadju":4021,"Ġpersequ":4022,"Ġdefunc":4023,"Ġinimici":4024,"Ġinuenit":4025,"Ġinuoc":4026,"Ġsaep":4027,"eremus":4028,"Ġexercitus":4029,"Ġpraeceptum":4030,"nas":4031,"Ġplena":4032,"Ġnescio":4033,"Ġinquam":4034,"ensa":4035,"Ġix":4036,"Ġfortasse":4037,"Ġrecord":4038,"ertim":4039,"Ġpropriet":4040,"Ġtecum":4041,"clam":4042,"erea":4043,"Ġconcilio":4044,"Ġfun":4045,"Ġdeinceps":4046,"Ġcomed":4047,"acta":4048,"Ġfidelibus":4049,"Ġinclin":4050,"Ġelem":4051,"Ġsug":4052,"Ġqualis":4053,"Ġfieret":4054,"Ġnouem":4055,"Ġmagnus":4056,"Ġanimas":4057,"Ġdicis":4058,"Ġinitio":4059,"Ġcomes":4060,"Ġassump":4061,"Ġauer":4062,"Ġpi":4063,"Ġtalem":4064,"ule":4065,"Ġexprim":4066,"undus":4067,"Ġdiaboli":4068,"Ġfacto":4069,"Ġplura":4070,"Ġmou":4071,"esim":4072,"Ġsuc":4073,"Ġinsuper":4074,"mine":4075,"Ġconfid":4076,"ilium":4077,"Ġuill":4078,"Ġmane":4079,"Ġprem":4080,"iri":4081,"Ġactus":4082,"Ġdispon":4083,"Ġauxilium":4084,"Ġdioec":4085,"Ġsolo":4086,"Ġluce":4087,"Ġton":4088,"toribus":4089,"atenus":4090,"Ġsubstantiae":4091,"Ġber":4092,"Ġnoli":4093,"yri":4094,"Ġdiuinis":4095,"Ġmatrem":4096,"Ġrursum":4097,"Ġtec":4098,"Î¿Î»":4099,"Ġuersus":4100,"tatur":4101,"Ġtemporum":4102,"Ġpedibus":4103,"Ġintegr":4104,"Ġpotestas":4105,"lae":4106,"Ġinteri":4107,"Ġconui":4108,"abilia":4109,"ote":4110,"Ġgenuit":4111,"Ġsemen":4112,"ustri":4113,"Ġuisi":4114,"Ġblasphem":4115,"aculo":4116,"Ġfore":4117,"Ġfalsa":4118,"Ġunquam":4119,"Ġabst":4120,"Ġmorta":4121,"Ġdistinc":4122,"Ġromam":4123,"Ġpropon":4124,"Ġsubscrips":4125,"undo":4126,"Ġforis":4127,"Ġfecerunt":4128,"Ġascendit":4129,"Ġperuers":4130,"Ġquisquam":4131,"cae":4132,"Ġdirig":4133,"Ġperg":4134,"Ġintelligitur":4135,"Ġsimilis":4136,"Ġantea":4137,"Ġobscur":4138,"Ġorbis":4139,"Ġnostros":4140,"Ġproprio":4141,"Ġsynod":4142,"Ġstu":4143,"Ġtuorum":4144,"Ġinop":4145,"Ġplane":4146,"Ġcuram":4147,"Ġmemoriae":4148,"Ġistam":4149,"Ġarmis":4150,"Ġsacramentum":4151,"liber":4152,"Ġnobil":4153,"ba":4154,"Ġmagni":4155,"Ġprecibus":4156,"Ġuinum":4157,"Ġgu":4158,"Ġmaris":4159,"Ġtalibus":4160,"Ġimperii":4161,"ebam":4162,"thag":4163,"errim":4164,"Ġuex":4165,"post":4166,"Ġsanguinis":4167,"aciter":4168,"Ġsacrificium":4169,"Ġleges":4170,"Ġaures":4171,"Ġdog":4172,"Ġpanem":4173,"Ġproduc":4174,"Ġminor":4175,"Ġaurum":4176,"Ġcolloc":4177,"Ġaffer":4178,"Ġillustr":4179,"Ġphili":4180,"Ġdidic":4181,"Ġculpa":4182,"ĠÎ¿Ïħ":4183,"Ġsubito":4184,"cor":4185,"Ġlibri":4186,"Ġecclesiarum":4187,"Ġscientiam":4188,"urum":4189,"Ġconstantinop":4190,"Ġfic":4191,"ellam":4192,"Ġuitia":4193,"Ġdedi":4194,"ximus":4195,"amini":4196,"onium":4197,"eta":4198,"Ġmeos":4199,"Ġalicuius":4200,"andae":4201,"tris":4202,"Ġtenebris":4203,"osi":4204,"Ġfluc":4205,"Ġcolumb":4206,"Ġimpiet":4207,"arus":4208,"ellae":4209,"Ġtransl":4210,"Ġquisquis":4211,"Ġperpetuum":4212,"irent":4213,"Ġcommiss":4214,"erumque":4215,"ello":4216,"Ġdesper":4217,"Ġdicente":4218,"Ġoratione":4219,"Ġtotus":4220,"Ġidus":4221,"Ġlibid":4222,"Ġcoelis":4223,"Ġdiei":4224,"Ġgenera":4225,"Ġdescendit":4226,"Ġresurg":4227,"ĠÏĦÎ·Î½":4228,"Ġtradi":4229,"Ġcoen":4230,"Ġuolo":4231,"Ġquaerit":4232,"Ġobsec":4233,"Ġmemoriam":4234,"Ġdeput":4235,"Ġannorum":4236,"Ġfidelis":4237,"Ġcertam":4238,"Ġthesaur":4239,"Ġsubdi":4240,"ardus":4241,"Ġimpossi":4242,"Ġhabitat":4243,"Ġand":4244,"Ġire":4245,"utionis":4246,"Ġoculi":4247,"Ġiubet":4248,"Ġordinis":4249,"Ġtyrann":4250,"Ġdoctrinam":4251,"Ġpaul":4252,"Ġmandata":4253,"Ġnota":4254,"Ġiob":4255,"sae":4256,"otus":4257,"Ġperhib":4258,"Ġpraefec":4259,"Ġpraesertim":4260,"Ġnit":4261,"Ġistud":4262,"Ġludo":4263,"Ġfrustra":4264,"Ġleu":4265,"Ġcommuni":4266,"achi":4267,"Ġmonstr":4268,"ĠÏĦÏīÎ½":4269,"Ġuerborum":4270,"Ġquapropter":4271,"Ġteg":4272,"Ġreliqui":4273,"fi":4274,"Ġpraesentis":4275,"Ġideoque":4276,"Ġistius":4277,"udum":4278,"Ġdispos":4279,"Ġeuid":4280,"andos":4281,"Ġcoelorum":4282,"roque":4283,"Ġutriusque":4284,"Ġpetrum":4285,"Ġfiduci":4286,"eles":4287,"ÏĦÎ¹":4288,"Ġlug":4289,"Ġpartic":4290,"ensium":4291,"onius":4292,"Ġpostr":4293,"Ġduae":4294,"Ġimmo":4295,"Î±Ïĥ":4296,"Ġsuffrag":4297,"Ġreced":4298,"Ġobst":4299,"uch":4300,"Ġmanet":4301,"illel":4302,"Ġhaberet":4303,"Ġinfl":4304,"Ġtorm":4305,"Ġtertium":4306,"ĠÂ":4307,"Ġreman":4308,"Î¿Î¹ÏĤ":4309,"Ġmoribus":4310,"Ġmetrop":4311,"Ġmedit":4312,"Ġaliquem":4313,"Ġueniens":4314,"Ġmalorum":4315,"Ġorbem":4316,"Ġingredi":4317,"ellus":4318,"Ġquadr":4319,"Ġsuscepit":4320,"aeus":4321,"Ġxi":4322,"Ġquadraginta":4323,"Ġcommo":4324,"olo":4325,"Ġangelis":4326,"usc":4327,"Ġoccis":4328,"emos":4329,"Ġterrarum":4330,"Ġuetus":4331,"Ġmanifestum":4332,"Ġprout":4333,"ocin":4334,"Ġlumine":4335,"Ġoperum":4336,"Ġpluribus":4337,"Ġdominicae":4338,"Ġpropriis":4339,"Ġinnum":4340,"Ġscientiae":4341,"Ġeuangelii":4342,"Ġcito":4343,"Ġmartyris":4344,"hinc":4345,"tinum":4346,"Ġperduc":4347,"ĠÏĦÎ¿":4348,"Ġhumani":4349,"Ġsermonem":4350,"Ġhy":4351,"Ġcharitate":4352,"Ġdulc":4353,"Ġgenit":4354,"Ġscripsit":4355,"Ġtemplo":4356,"Ġuires":4357,"prom":4358,"Ġaltitud":4359,"Ġintim":4360,"Ġprincipis":4361,"otum":4362,"Ġtransfer":4363,"ibilis":4364,"Ġfati":4365,"Ġbis":4366,"Ġflam":4367,"Ġmaxima":4368,"ionum":4369,"Ġuenerunt":4370,"Ġleui":4371,"Ġedi":4372,"Ġdatum":4373,"esi":4374,"Ġincipi":4375,"iliter":4376,"Ġuend":4377,"orte":4378,"Ġsacerdotum":4379,"Ġgest":4380,"Ġsaluator":4381,"Ġannunti":4382,"aniae":4383,"tissima":4384,"Ġmartyrum":4385,"Ġgaudium":4386,"Ġperturb":4387,"cui":4388,"Ġsummo":4389,"Ġprodi":4390,"Ġeisdem":4391,"Ġdiuinitatis":4392,"etus":4393,"uero":4394,"bo":4395,"Ġfas":4396,"ĠÎ¸Îµ":4397,"epistola":4398,"Ġuesper":4399,"Ġplacet":4400,"Ġuast":4401,"ioni":4402,"Ġretrib":4403,"orsum":4404,"auerat":4405,"Ġcausas":4406,"Ġtoti":4407,"Ġbreui":4408,"acia":4409,"Ġquosdam":4410,"inos":4411,"Ġpossent":4412,"Ġangelorum":4413,"Ġdoctrinae":4414,"Ġexsult":4415,"Ġtribun":4416,"Ġpsalmis":4417,"Ġhabentes":4418,"sam":4419,"Ġdefend":4420,"uunt":4421,"Ġchal":4422,"Ġfacies":4423,"Ġdestin":4424,"Ġtriginta":4425,"rii":4426,"Ġpsalmo":4427,"Ġgladio":4428,"Ġmensis":4429,"Ġsalub":4430,"Ġmunere":4431,"Ġhostes":4432,"Ġora":4433,"Ġ..":4434,"Ġtuas":4435,"Ġadha":4436,"Ġdiabolo":4437,"ectus":4438,"Ġlup":4439,"Ġlabore":4440,"Ġdistric":4441,"Ġdescrib":4442,"erim":4443,"Ġintellectum":4444,"Ġinteg":4445,"Ġinsin":4446,"Ġpostmodum":4447,"Ġcapi":4448,"Ġfini":4449,"Ġmemin":4450,"Ġitali":4451,"Ġrig":4452,"Ġcent":4453,"Ġpastor":4454,"idium":4455,"istit":4456,"Ġmaiorem":4457,"Ġmere":4458,"Ġimperio":4459,"Ġtantummodo":4460,"Ġdonum":4461,"umentum":4462,"Ġromanorum":4463,"Ġmontem":4464,"Ġuxor":4465,"abus":4466,"aturus":4467,"uio":4468,"Ġcalc":4469,"escunt":4470,"Ġanimos":4471,"Ġcommod":4472,"Ġsocr":4473,"Ġsolid":4474,"Ġimpon":4475,"Ġlit":4476,"uncta":4477,"Ġsubstanti":4478,"Ġpraecipue":4479,"Ġpersonam":4480,"Ġiudices":4481,"dique":4482,"Ġsalute":4483,"Ġproinde":4484,"sequi":4485,"Ġscr":4486,"Ġuideo":4487,"Ġmerce":4488,"ĠâĢ":4489,"Ġpontifex":4490,"Ġincend":4491,"Ġconsor":4492,"Ġcorr":4493,"Ġintellectu":4494,"iuit":4495,"Ġleo":4496,"Ġreduc":4497,"Ġuisum":4498,"Ġnumer":4499,"Ġseptuaginta":4500,"amenta":4501,"Ġmarc":4502,"Ġfratri":4503,"ĠÏĨ":4504,"Ġfratris":4505,"Ġpend":4506,"Ġmoy":4507,"Ġauari":4508,"Ġfaciam":4509,"Ġtoler":4510,"Ġruin":4511,"erosol":4512,"Ġorationem":4513,"Ġaperte":4514,"Ġuelit":4515,"Ġhae":4516,"Ġuerus":4517,"Ġeuangelic":4518,"Ġgesta":4519,"Ġtenet":4520,"ticum":4521,"Ġadministr":4522,"Ġcardinalis":4523,"Ġaetate":4524,"Ġresurrectionem":4525,"Ġaem":4526,"Ġuan":4527,"Ġconiug":4528,"Ġcreatura":4529,"Ġscripturarum":4530,"Ġilluc":4531,"pso":4532,"Ġmunera":4533,"Ġlaudem":4534,"Ġmirum":4535,"emosy":4536,"Ġsanctam":4537,"Ġtom":4538,"tex":4539,"Ġtempest":4540,"tino":4541,"Ġsym":4542,"Ġaliena":4543,"aco":4544,"Ġpelag":4545,"Ġscio":4546,"Ġapostolis":4547,"Ġeiusque":4548,"Ġmoritur":4549,"Ġaduersum":4550,"tinam":4551,"Ġcalum":4552,"Ġpeper":4553,"Ġsanguis":4554,"hab":4555,"Ġhieron":4556,"¿½":4557,"ï¿½":4558,"Ġanimarum":4559,"lio":4560,"Ġimmol":4561,"Ġexpedi":4562,"decim":4563,"Ġcausis":4564,"Ġopportun":4565,"Ġdiligit":4566,"Ġincrep":4567,"Ġadolesc":4568,"Ġapostolum":4569,"Ġundique":4570,"Ġinitium":4571,"uf":4572,"umenta":4573,"Ġlxx":4574,"Ġresp":4575,"Ġimperatoris":4576,"Ġhabetur":4577,"olus":4578,"Ġusur":4579,"datum":4580,"Ġmortuis":4581,"orus":4582,"Ġuiuific":4583,"xi":4584,"Ġillas":4585,"his":4586,"Ġsati":4587,"Ġconuen":4588,"Ġmom":4589,"Ġapparuit":4590,"Ġappare":4591,"Ġintu":4592,"Ġfigura":4593,"Ġsupers":4594,"Ġusum":4595,"Ġadim":4596,"Ġaccess":4597,"Ġxu":4598,"Î»Î·":4599,"Ġtradidit":4600,"til":4601,"Ġactum":4602,"Ġapprob":4603,"Ġfaceret":4604,"Ġpronunti":4605,"Ġperuenit":4606,"Ġmille":4607,"Ġpoenam":4608,"Ġglorific":4609,"Ġeleemosy":4610,"rius":4611,"Ġoppos":4612,"Ġcompon":4613,"Ġdiscipuli":4614,"Ġtestamenti":4615,"Ġpollic":4616,"Ġmisericordiae":4617,"Ġosc":4618,"Ġrespic":4619,"Ġterm":4620,"tice":4621,"Ġcausae":4622,"Ġlatere":4623,"Ġquaeque":4624,"Ġiudex":4625,"Ġnecessarium":4626,"Ġassid":4627,"Ġpassionis":4628,"Ġoperatur":4629,"Ġrus":4630,"Ġcontraria":4631,"Ġuenerabilis":4632,"Ġtestatur":4633,"onio":4634,"ogn":4635,"Ġplerumque":4636,"Ġeduc":4637,"hiae":4638,"Ġdissol":4639,"erebat":4640,"Ġcircumcis":4641,"ocr":4642,"dixit":4643,"Ġprimis":4644,"Ġlucius":4645,"Ġmunus":4646,"ins":4647,"ensus":4648,"quem":4649,"Ġadop":4650,"Ġfalsum":4651,"Ġfrancorum":4652,"Ġcomper":4653,"ilibus":4654,"Ġplacuit":4655,"Ġsig":4656,"Ġcatholica":4657,"Ġgraeci":4658,"Ġsimpliciter":4659,"Ġapostolo":4660,"Ġinser":4661,"Ġlaet":4662,"Ġsolent":4663,"tenus":4664,"Ġquantit":4665,"ÏĦÎµ":4666,"Ġhabeo":4667,"Ġpanis":4668,"onibus":4669,"ĠÎ¹":4670,"Ġsingula":4671,"mur":4672,"Ġamorem":4673,"Ġpraecipi":4674,"entii":4675,"Ġuellet":4676,"Ġtanti":4677,"Ġmilit":4678,"rump":4679,"Ġuirgine":4680,"Ġaduer":4681,"tigit":4682,"insec":4683,"Ġplant":4684,"Ġdierum":4685,"Ġtrem":4686,"Ġcorporum":4687,"Ġuidemus":4688,"Ġintellex":4689,"Ġdiscern":4690,"Ġfama":4691,"Ġly":4692,"Ġcontinuo":4693,"Ġaristot":4694,"aron":4695,"Ġetiamsi":4696,"Ġlatit":4697,"Ġantec":4698,"Ġapparet":4699,"Ġimmin":4700,"Ġauro":4701,"Ġbenedictionem":4702,"lorum":4703,"Ġsene":4704,"Ġsedes":4705,"aug":4706,"Ġmysterium":4707,"Ġmos":4708,"etum":4709,"Ġplurimum":4710,"ĠÎµÏĢÎ¹":4711,"Ġbelli":4712,"Ġconstituit":4713,"Ġuali":4714,"Ġpeccatores":4715,"uir":4716,"nunc":4717,"iudic":4718,"Ġsord":4719,"Ġintend":4720,"Ġgrat":4721,"ymis":4722,"titis":4723,"Ġuirgin":4724,"Ġdiaconus":4725,"Ġcrucifix":4726,"Ġreb":4727,"Ġoues":4728,"Ġferi":4729,"itatus":4730,"Ġinuenitur":4731,"aeque":4732,"Ġpassus":4733,"po":4734,"ittitur":4735,"ĠÎºÎ±ÏĦ":4736,"Ġcredo":4737,"Ġcalam":4738,"Ġmultitudo":4739,"Ġfesti":4740,"estus":4741,"Ġutroque":4742,"itione":4743,"Ġpern":4744,"Ġ/":4745,"Ġtul":4746,"Ġhorr":4747,"Ġaltero":4748,"Ġrespons":4749,"Ġmilites":4750,"Ġpersonae":4751,"itorum":4752,"osque":4753,"tib":4754,"Ġaquis":4755,"Ġposteri":4756,"sub":4757,"Ġobsid":4758,"Ġmandatum":4759,"Ġmontes":4760,"ser":4761,"Ġuidi":4762,"uitu":4763,"Ġputant":4764,"Ġquicumque":4765,"Ġfrequenter":4766,"Ġmultorum":4767,"Ġuideretur":4768,"Ġpaucis":4769,"usa":4770,"Ġseuer":4771,"Ġmembris":4772,"Ġegreg":4773,"Ġlibera":4774,"diu":4775,"Ġapri":4776,"Ġdogm":4777,"Ġcastit":4778,"Ġabsit":4779,"Ġradi":4780,"Ġdictus":4781,"Ġsapiens":4782,"Ġcerta":4783,"Ġinstrum":4784,"Ġauctoritatem":4785,"Ġcommune":4786,"Ġpatribus":4787,"Ġanci":4788,"Ġmatth":4789,"uistis":4790,"Ġnostras":4791,"itte":4792,"Ġuisc":4793,"Ġexer":4794,"Ġduabus":4795,"empe":4796,"Ġadf":4797,"Ġaduentum":4798,"Ġuisit":4799,"Ġsalus":4800,"Ġuocant":4801,"Ġlibrum":4802,"Ġscripturis":4803,"Ġsemin":4804,"Ġpotestatis":4805,"Ġmores":4806,"petit":4807,"Ġturba":4808,"issem":4809,"Ġsinc":4810,"Ġpascha":4811,"Ġnatum":4812,"Ġchristiani":4813,"Î¿ÏħÏĤ":4814,"Ġcontenti":4815,"Ġuides":4816,"Ġueram":4817,"erimus":4818,"decess":4819,"Ġxiii":4820,"Ġallel":4821,"Ġferu":4822,"ulare":4823,"Ġuolum":4824,"Ġquaecunque":4825,"Ġmaius":4826,"Ġpenet":4827,"uria":4828,"Ġdistrib":4829,"Ġsyl":4830,"Ġregna":4831,"Ġlibros":4832,"Ġremedi":4833,"Ġformid":4834,"Ġlacrym":4835,"Ġpossum":4836,"Ġconscientia":4837,"Ġdemum":4838,"Ġposita":4839,"Ġprocess":4840,"Ġspoli":4841,"Ġquarta":4842,"Ġuirorum":4843,"Ġamar":4844,"Ġinquir":4845,"Ġparc":4846,"Ġexempla":4847,"ebi":4848,"Ġparadis":4849,"Ġueniat":4850,"ĠÏĢÏģÎ¿":4851,"Ġpertinere":4852,"Ġtempli":4853,"ÏģÎ±":4854,"Ġaetatis":4855,"Ġauctoritas":4856,"Ġcarthag":4857,"Ġuocat":4858,"Ġhostis":4859,"Ġmissus":4860,"leta":4861,"Ġcharitatem":4862,"Ġstudium":4863,"Ġdeorum":4864,"Ġperfecta":4865,"Ġfugi":4866,"Ġanimad":4867,"Ġlibenter":4868,"ĠÏĦÎ±":4869,"Ġmonst":4870,"Ġbella":4871,"Ġgrad":4872,"Ġsanctos":4873,"Ġrum":4874,"Ġerub":4875,"Ġconfund":4876,"Ġluci":4877,"Ġincipit":4878,"Ġciuitates":4879,"aculis":4880,"Ġunitatem":4881,"Ġfatig":4882,"Ġpueri":4883,"Ġpess":4884,"iderit":4885,"Ġcordibus":4886,"Ġterrena":4887,"Ġhostium":4888,"Ġsacrileg":4889,"Ġsiti":4890,"abor":4891,"Ġmigne":4892,"Ġcontumeli":4893,"Ġarte":4894,"Ġcau":4895,"Ġtranqu":4896,"Ġhyp":4897,"ĠÏĢÎ±Ïģ":4898,"Ġfuturo":4899,"Ġsubscripsi":4900,"Ġiah":4901,"Ġappellatur":4902,"aribus":4903,"amento":4904,"Ġtrinitatis":4905,"Ġrot":4906,"Ġprael":4907,"Ġepistolam":4908,"Ġadjutor":4909,"Ġmateri":4910,"quebatur":4911,"Ġexteri":4912,"Ġuenerit":4913,"Ġdefici":4914,"Ġuitiis":4915,"Ġregula":4916,"Ġexalt":4917,"Ġmach":4918,"Ġpublica":4919,"Ġconsue":4920,"Ġdiuini":4921,"Ġsupr":4922,"tissimo":4923,"Ġnobiscum":4924,"Ġsponte":4925,"cin":4926,"Ġfortis":4927,"cons":4928,"Ġine":4929,"Ġscit":4930,"Ġpalm":4931,"uaric":4932,"Ġss":4933,"Ġram":4934,"Ġdecep":4935,"Ġcolum":4936,"Ġiram":4937,"Ġtransm":4938,"Ġros":4939,"Ġueloc":4940,"Ġhactenus":4941,"riae":4942,"Ġdig":4943,"Ġsion":4944,"issis":4945,"Ġconspic":4946,"Ġuidens":4947,"Ġexcit":4948,"Ġiuc":4949,"Ġullo":4950,"Ġmalign":4951,"Ġdirec":4952,"Ġsaeculorum":4953,"Ġaegr":4954,"Ġpuni":4955,"Ġfructu":4956,"Ġresurrectionis":4957,"Ġurg":4958,"Ġuota":4959,"Ġingressus":4960,"Ġeffectus":4961,"Ġlegibus":4962,"Ġfecisse":4963,"Ġaliae":4964,"Ġnata":4965,"Ġaquas":4966,"Ġimprob":4967,"oto":4968,"Ġpraecipit":4969,"Ġiudicia":4970,"Ġistum":4971,"Ġnihilominus":4972,"entissime":4973,"Ġagitur":4974,"Ġpopulis":4975,"Ġpropositum":4976,"Ġperdi":4977,"misit":4978,"Ġzel":4979,"âŁ":4980,"atia":4981,"Ġcetera":4982,"Ġcreditur":4983,"Ġorbe":4984,"Ġmagnam":4985,"Ġdictis":4986,"Ġcommut":4987,"Ġimmut":4988,"Ġinui":4989,"esimo":4990,"arr":4991,"Ġactibus":4992,"Ġtex":4993,"Ġconcilium":4994,"Ġmys":4995,"ÎµÏħ":4996,"Ġfabric":4997,"Ġpraeuaric":4998,"Ġscripturae":4999,"Ġidone":5000,"Ġdolore":5001,"Ġusu":5002,"Ġsubl":5003,"pa":5004,"Ġaest":5005,"aequ":5006,"Ġsaeculum":5007,"Ġsaepius":5008,"Ġpris":5009,"Ġtenere":5010,"Ġhec":5011,"Ġtransi":5012,"Ġpotes":5013,"Ġdetermin":5014,"Ġfacilius":5015,"Ġoct":5016,"Ġafflic":5017,"Ġuag":5018,"Ġingress":5019,"Ġhere":5020,"Ġpraedecess":5021,"ÎµÎ³":5022,"Ġutero":5023,"Ġceteris":5024,"ariorum":5025,"Ġidol":5026,"Ġsod":5027,"Ġcertum":5028,"urrit":5029,"Ġintrod":5030,"acum":5031,"itionem":5032,"Ġuenerabili":5033,"Ġpreces":5034,"Ġdisting":5035,"enes":5036,"etas":5037,"Ġquicunque":5038,"Ġambig":5039,"Ġlitterarum":5040,"ĠÏĩ":5041,"Ġproiec":5042,"actus":5043,"Ġastr":5044,"Ġmatrim":5045,"Ġuidebatur":5046,"Ġic":5047,"ister":5048,"Ġaffectu":5049,"Ġnuper":5050,"Ġdixisse":5051,"Ġbeatissim":5052,"Ġerrore":5053,"Ġtemere":5054,"Ġmedia":5055,"Ġabrahae":5056,"turam":5057,"Ġpuls":5058,"Ġfiant":5059,"Ġrepugn":5060,"Ġsugg":5061,"Ġpetit":5062,"Ġpossibile":5063,"Ġdignitate":5064,"Ġcin":5065,"Ġdubium":5066,"Ġinterdum":5067,"ich":5068,"Ġhumanum":5069,"Ġsynodo":5070,"Ġiusta":5071,"equ":5072,"Ġiniquitatem":5073,"Ġsole":5074,"Ġpun":5075,"Ġreuert":5076,"Ġredim":5077,"Ġprincipem":5078,"enos":5079,"Ġmeas":5080,"Ġsuperbia":5081,"Ġprotec":5082,"Ġnempe":5083,"Ġsob":5084,"Ġperag":5085,"Ġperfic":5086,"Ġsenex":5087,"Ġnunquid":5088,"Ġeffici":5089,"Ġnascitur":5090,"Ġiact":5091,"Ġprouinciae":5092,"Ġprophetarum":5093,"Ġepistolae":5094,"Ġbreuiter":5095,"Ġsta":5096,"raes":5097,"Ġtestamentum":5098,"Ġsupradic":5099,"Ġpens":5100,"aniam":5101,"Ġcoenob":5102,"Ġdigna":5103,"Ġdignus":5104,"pat":5105,"Ġoporte":5106,"Ġsusp":5107,"Ġtut":5108,"Ġpromp":5109,"tico":5110,"oss":5111,"Ġreconcili":5112,"Ġcep":5113,"Ġtend":5114,"obiscum":5115,"bili":5116,"Ġantioch":5117,"Ġapostolos":5118,"Ġsuscit":5119,"Ġpartim":5120,"eatis":5121,"nago":5122,"Ġpercipi":5123,"Ġreno":5124,"Ġualeat":5125,"cess":5126,"ÏĥÎ¹Î½":5127,"Ġresid":5128,"Ġsaeui":5129,"Ġperuenire":5130,"Ġhomic":5131,"Ġlaur":5132,"alitatem":5133,"Ġexhort":5134,"dom":5135,"Ġfaciet":5136,"Ġexercitum":5137,"Ġcrudel":5138,"Ġregulam":5139,"Ġquaecumque":5140,"Ġueri":5141,"Ġperspic":5142,"Ġesto":5143,"Ġlaque":5144,"Ġlucis":5145,"Ġtenebras":5146,"Ġpassionem":5147,"Ġrationis":5148,"ÎµÏĥ":5149,"Ġpertinent":5150,"Ġaed":5151,"Ġmess":5152,"Ġhonori":5153,"Ġtemer":5154,"Ġtumul":5155,"Ġaegypto":5156,"Ġprincipum":5157,"Ġinterdic":5158,"ublic":5159,"Ġputo":5160,"Ġpositum":5161,"Ġerip":5162,"Ġuniuersis":5163,"Ġtantam":5164,"tiarum":5165,"Ġnosc":5166,"Ġsacramenta":5167,"Ġnecessitas":5168,"Ġconuert":5169,"Ġueteris":5170,"Ġbeth":5171,"etem":5172,"Ġbaptismum":5173,"Ġuisus":5174,"Ġsequi":5175,"Ġuester":5176,"bant":5177,"Ġponitur":5178,"insecus":5179,"Ġorationis":5180,"Ġiung":5181,"Ġgradus":5182,"Ġacer":5183,"Ġamoris":5184,"Ġincertus":5185,"Ġpietate":5186,"Ġprimam":5187,"Ġdixerat":5188,"Ġalteri":5189,"Ġprotinus":5190,"Ġri":5191,"Ġuobiscum":5192,"Ġquarto":5193,"Ġsententiae":5194,"issimam":5195,"Ġcommunis":5196,"Ġquidquam":5197,"Ġconsensu":5198,"Ġrecta":5199,"Ġlaps":5200,"Ġreseru":5201,"Ġexpl":5202,"Ġbaptism":5203,"Ġsingular":5204,"abimus":5205,"Ġnauig":5206,"Ġostenditur":5207,"Ġdepon":5208,"turi":5209,"issum":5210,"Ġcass":5211,"Ġdiac":5212,"Ġpotentiam":5213,"Ġaere":5214,"osus":5215,"uinc":5216,"aldus":5217,"abam":5218,"itata":5219,"Î¼Î±ÏĦ":5220,"Ġpraemia":5221,"Ġliberum":5222,"Ġcaelum":5223,"Ġdisced":5224,"Ġarbitrio":5225,"Ġconjunc":5226,"Ġgregorius":5227,"Ġincorrup":5228,"uuntur":5229,"Ġpoenitentiae":5230,"Ġpatitur":5231,"Ġpatriam":5232,"Ġpharis":5233,"Ġnouo":5234,"Ġmatur":5235,"yn":5236,"ef":5237,"Î±Î¸":5238,"Ġeleu":5239,"esto":5240,"Ġtrip":5241,"amb":5242,"Ġreddit":5243,"Ġdesin":5244,"Ġauribus":5245,"Ġinm":5246,"Ġleonis":5247,"elle":5248,"Ġumbra":5249,"Ġder":5250,"Ġantis":5251,"Ġpraedicatur":5252,"atori":5253,"debat":5254,"Ġdifferentia":5255,"Ġmultitudine":5256,"Ġdisciplina":5257,"sitan":5258,"Ġquaeritur":5259,"Ġcogitationes":5260,"Ġimpossibile":5261,"Ġpraefer":5262,"undem":5263,"Ġfines":5264,"Ġsuarum":5265,"ĠÎ±ÏĢÎ¿":5266,"Ġpatriae":5267,"Ġambo":5268,"Ġillae":5269,"ors":5270,"Ġincomm":5271,"fus":5272,"Ġoperam":5273,"ammodo":5274,"Ġdiues":5275,"Ġmortui":5276,"Ġceler":5277,"Ġstudios":5278,"andiu":5279,"Ġsummum":5280,"Ġapol":5281,"Ġcorrip":5282,"Ġdesiderium":5283,"Ġministerium":5284,"Ġneminem":5285,"quia":5286,"Ġconclud":5287,"Ġdolor":5288,"Ġphilipp":5289,"arias":5290,"Ġsenec":5291,"Ġdignitatem":5292,"Ġuil":5293,"Ġez":5294,"uiam":5295,"Ġfus":5296,"Ġnimium":5297,"Ġuino":5298,"Ġpassione":5299,"Ġpresbyteri":5300,"Ġcontend":5301,"Ġobiec":5302,"itti":5303,"Ġromana":5304,"Ġcaelo":5305,"Ġioannem":5306,"por":5307,"Ġuehementer":5308,"Ġq":5309,"Ġegredi":5310,"eccles":5311,"Ġplu":5312,"Ġfideliter":5313,"Ġuolens":5314,"Ġrepar":5315,"ticus":5316,"Ġpil":5317,"Ġsacerdotibus":5318,"Ġtimor":5319,"aces":5320,"Ġdiscrim":5321,"Ġinstruc":5322,"ueritis":5323,"anno":5324,"Ġfiliam":5325,"haer":5326,"Ġremans":5327,"Ġpho":5328,"Ġisaac":5329,"Ġsingulos":5330,"Ġpericulum":5331,"Ġseduc":5332,"uique":5333,"Ġdiuinam":5334,"Ġsynago":5335,"Ġperegrin":5336,"Ġfecisti":5337,"Ġquodammodo":5338,"auctor":5339,"Ġlonga":5340,"eis":5341,"Ġpoti":5342,"Ġlongit":5343,"Ġcrucem":5344,"Ġarchiepiscopo":5345,"los":5346,"Ġimpedi":5347,"Ġdabit":5348,"inn":5349,"licem":5350,"Ġcaesar":5351,"Ġinimicos":5352,"Ġuoces":5353,"Ġueniet":5354,"Ġquaerere":5355,"Ġcopul":5356,"Ġpsalmus":5357,"Ġmultitudinem":5358,"Ġhonoris":5359,"Ġaegypti":5360,"mentum":5361,"onii":5362,"Ġlatina":5363,"Ġspecialiter":5364,"Ġdedic":5365,"ebo":5366,"ologia":5367,"oniae":5368,"Ġdiuit":5369,"ĠÎ±Î³":5370,"Ġsuccessoribus":5371,"Ġambros":5372,"Ġuasa":5373,"idia":5374,"Ġcong":5375,"Ġdebeant":5376,"Ġcompell":5377,"aro":5378,"Ġclass":5379,"Ġuestigia":5380,"Ġpoterant":5381,"Ġgaudia":5382,"Ġcorrec":5383,"Ġpotens":5384,"Ġdemonst":5385,"Ġacta":5386,"Ġnecessario":5387,"Ġuilla":5388,"Ġmoder":5389,"Ġpercep":5390,"Ġincarnationis":5391,"Ġdecet":5392,"Ġpsalm":5393,"alitate":5394,"Ġuocauit":5395,"Ġromanis":5396,"Ġsermonis":5397,"Ġpopulos":5398,"Ġalioquin":5399,"Ġdefic":5400,"Ġcrimen":5401,"Ġalteram":5402,"Ġconsc":5403,"Ġincur":5404,"Ġlitterae":5405,"osum":5406,"Ġabbatem":5407,"Ġdignatus":5408,"greditur":5409,"Ġuariis":5410,"Ġuitiorum":5411,"Ġdicamus":5412,"Ġpraesump":5413,"Î¼Î±":5414,"Ġcontrarium":5415,"Ġsequuntur":5416,"Ġexpress":5417,"Ġappet":5418,"Ġuter":5419,"Ġmodus":5420,"Ġproximum":5421,"Ġbel":5422,"Ġsimplici":5423,"Ġincom":5424,"Ġcommunione":5425,"Ġpontificis":5426,"Ġuitium":5427,"ĠÎ²":5428,"Ġmotu":5429,"Ġsufficit":5430,"tuor":5431,"Ġfrug":5432,"Ġtantae":5433,"Ġdimitt":5434,"Ġpernici":5435,"Ġpriusquam":5436,"com":5437,"Ġepi":5438,"Ġoffend":5439,"Ġmatre":5440,"Ġxiu":5441,"Ġaudiuit":5442,"Î¿Î³":5443,"Ġincho":5444,"Ġreddere":5445,"...":5446,"Ġpulchr":5447,"imentum":5448,"Ġtradit":5449,"Ġquicquid":5450,"Ġdextera":5451,"ÏģÏī":5452,"ĠÎ·Î¼":5453,"Ġou":5454,"Ġfortuna":5455,"turum":5456,"Ġoris":5457,"odis":5458,"Ġpositus":5459,"Ġforsitan":5460,"Ġierem":5461,"Ġalleluia":5462,"sanc":5463,"Ġpraesci":5464,"eras":5465,"Ġmass":5466,"Ġmultas":5467,"Î·ÏĦ":5468,"bertus":5469,"Ġexac":5470,"Ġnullis":5471,"Ġdexteram":5472,"Ġiudicem":5473,"Ġnaturaliter":5474,"Ġmansuet":5475,"Ġamo":5476,"Ġpublice":5477,"Ġuias":5478,"Ġconsuetudinem":5479,"ciperet":5480,"Ġdabo":5481,"pex":5482,"Ġinuenire":5483,"Ġlibertatem":5484,"Ġgaudio":5485,"Ġesuri":5486,"Ġsubm":5487,"Ġsemine":5488,"hel":5489,"Ġsciens":5490,"Ġfelix":5491,"Ġsacrae":5492,"uth":5493,"Ġsubjun":5494,"Ġsubd":5495,"iteri":5496,"Ġsenatus":5497,"Ġfaciant":5498,"Ġauri":5499,"Ġhierusalem":5500,"Ġrefert":5501,"dae":5502,"redi":5503,"Ġsuffici":5504,"uetur":5505,"Ġcali":5506,"Ġmoysi":5507,"Ġmulieres":5508,"Ġiustis":5509,"Ġaccipit":5510,"Ġparentes":5511,"Ġpauca":5512,"Ġtulit":5513,"Ġsaul":5514,"Ġprofici":5515,"Ġpia":5516,"Ġdeg":5517,"Ġsimile":5518,"bis":5519,"laud":5520,"Ġquamquam":5521,"Ġobiit":5522,"Ġauctore":5523,"Ġdion":5524,"Ġexsec":5525,"Ġtestes":5526,"Ġrepet":5527,"Ġapprop":5528,"Ġseruum":5529,"Ġcorporibus":5530,"Ġmisc":5531,"Ġmanichae":5532,"utae":5533,"Ġpromo":5534,"Ġterras":5535,"Ġaduoc":5536,"alitas":5537,"Ġfoli":5538,"ardi":5539,"Ġhabitus":5540,"Ġdari":5541,"Ġflamm":5542,"Ġiudaeos":5543,"Ġimago":5544,"Ġpotuerunt":5545,"Ġpatria":5546,"Ġmaced":5547,"Ġcruce":5548,"Ġpretium":5549,"Ġpauperes":5550,"uig":5551,"Ġconsid":5552,"Ġmeridi":5553,"eos":5554,"Ġdesiderio":5555,"iz":5556,"Ġmeritum":5557,"efac":5558,"esque":5559,"Ġponit":5560,"entu":5561,"Ġhonest":5562,"Ġdelici":5563,"Ġexinde":5564,"Ġdefin":5565,"Ġmilitum":5566,"Ġretro":5567,"Ġba":5568,"Ġbenedictus":5569,"trum":5570,"Ġscribit":5571,"Ġperpetuo":5572,"onensis":5573,"Ġping":5574,"Ġsicuti":5575,"Ġdo":5576,"uant":5577,"Ġdocuit":5578,"Ġpontificatus":5579,"ellas":5580,"ebis":5581,"Ġseruos":5582,"Ġcasu":5583,"Ġbonos":5584,"Ġpectore":5585,"arc":5586,"psos":5587,"Ġcreb":5588,"Ġnullatenus":5589,"Ġpis":5590,"esset":5591,"ĠÏĦÎ¿Î½":5592,"Ġdisposi":5593,"Ġuesti":5594,"Ġianu":5595,"Ġprouincia":5596,"Ġcibum":5597,"Ġaeque":5598,"Ġlaude":5599,"bit":5600,"Ġsubdit":5601,"Ġuictoria":5602,"ilio":5603,"Ġlinguae":5604,"ticis":5605,"Ġcompet":5606,"Ġofficia":5607,"Ġaaron":5608,"Ġrid":5609,"Ġhym":5610,"ala":5611,"Ġmaii":5612,"Ġchristianorum":5613,"Ġcathed":5614,"Ġtranst":5615,"Ġromano":5616,"Ġpraesentibus":5617,"Ġcompreh":5618,"Ġangelos":5619,"Ġunitate":5620,"Ġerroris":5621,"Ġquaestio":5622,"Ġecclesiastica":5623,"Ġtransf":5624,"uorum":5625,"Ġanimalia":5626,"Ġxui":5627,"Ġmerita":5628,"Ġeri":5629,"Ġingr":5630,"Ġnoctis":5631,"Ġbrit":5632,"ft":5633,"Ġsimilia":5634,"Ġcommon":5635,"Ġduce":5636,"Ġnonnulli":5637,"Ġorth":5638,"Ġdixisset":5639,"Î±Î½ÏĦ":5640,"Ġmaiestatis":5641,"Ġcresc":5642,"Ġhaereticorum":5643,"udit":5644,"Ġaquarum":5645,"Ġperfectum":5646,"Ġty":5647,"Ġprocedit":5648,"Ġmaiores":5649,"Ġbenedicti":5650,"Ġresponde":5651,"Ġindiuid":5652,"uarum":5653,"Ġstare":5654,"Ġlucern":5655,"ymus":5656,"Ġseruare":5657,"terius":5658,"Ġproeli":5659,"entos":5660,"arit":5661,"Ġuidete":5662,"Ġfiliae":5663,"Ġuerumtamen":5664,"Ġbeato":5665,"Ġnotandum":5666,"Ġmelior":5667,"Ġmagnis":5668,"Ġnecnon":5669,"Ġprincipibus":5670,"Ġhostibus":5671,"Ġquique":5672,"Ġpermitt":5673,"Ġuideamus":5674,"Ġorient":5675,"Ġfactis":5676,"Ġuultus":5677,"Ġsib":5678,"Ġcomprob":5679,"Ġostendere":5680,"Ġtet":5681,"Ġuad":5682,"Ġlaus":5683,"Ġpalam":5684,"Ġuae":5685,"Ġsemetipsum":5686,"Ġpietas":5687,"uare":5688,"Ġresist":5689,"Ġrepente":5690,"Ġrobor":5691,"Ġprophetas":5692,"alitatis":5693,"psi":5694,"iiae":5695,"Ġdulced":5696,"Ġcoop":5697,"Ġhaeretici":5698,"Ġsecundus":5699,"Ġreput":5700,"Ġampli":5701,"Ġmoysen":5702,"Ġdiuinitus":5703,"logis":5704,"temp":5705,"yth":5706,"illi":5707,"Ġpecuniam":5708,"Ġadueni":5709,"ditatem":5710,"ulta":5711,"ille":5712,"Ġrecipit":5713,"Ġuitio":5714,"acul":5715,"Ġspatium":5716,"Ġoccidit":5717,"Ġprimae":5718,"Ġodio":5719,"eto":5720,"Ġiuuent":5721,"Ġpatientia":5722,"uantur":5723,"Ġdescrip":5724,"antius":5725,"Ġassign":5726,"Î±Îº":5727,"Ġerig":5728,"Ġsimili":5729,"Ġbeatum":5730,"Ġcapitulo":5731,"Ġbonam":5732,"Ġtrep":5733,"Ġclari":5734,"Ġmenses":5735,"Ġfeci":5736,"ensibus":5737,"leuit":5738,"oro":5739,"Ġpaulum":5740,"Ġsuauit":5741,"tul":5742,"Ġcorrep":5743,"Ġsensibus":5744,"Ġnosse":5745,"Ġrud":5746,"Ġcoelestia":5747,"rent":5748,"dium":5749,"Ġunc":5750,"Ġindustri":5751,"Ġarbitror":5752,"Ġregim":5753,"Ġfratre":5754,"Ġlignum":5755,"Ġlaudibus":5756,"Ġartific":5757,"Ġhol":5758,"Ġincid":5759,"Ġcapitis":5760,"Ġseipsum":5761,"titiae":5762,"Ġpacific":5763,"Ġeffectum":5764,"Ġmartini":5765,"Ġbes":5766,"capit":5767,"Ġcredi":5768,"Ġmoles":5769,"Ġunic":5770,"Ġhabitu":5771,"Ġumquam":5772,"Ġpraen":5773,"Ġfol":5774,"echi":5775,"ÏĪ":5776,"ecit":5777,"Ġrab":5778,"Ġmulierem":5779,"Ġrefug":5780,"Ġparentibus":5781,"Ġquattuor":5782,"Î¶":5783,"Ġmiseri":5784,"Ġmaximi":5785,"lii":5786,"Ġquoddam":5787,"Ġapr":5788,"Ġaliqui":5789,"Ġbesti":5790,"Ġsustent":5791,"Ġlacrim":5792,"Ġmentes":5793,"Ġfinibus":5794,"Ġquolibet":5795,"Ġprimog":5796,"Ġdono":5797,"Ġcaeteri":5798,"Ġgentis":5799,"Ġdicti":5800,"Ġrest":5801,"Ġrespici":5802,"Ġstup":5803,"Ġfate":5804,"Ġorationibus":5805,"Ġplebem":5806,"essum":5807,"Ġoccasione":5808,"Ġgens":5809,"Ġsubsequ":5810,"Ġpoenitentia":5811,"Ġmontis":5812,"Ġauxilio":5813,"ande":5814,"Ġtestis":5815,"Ġerrorem":5816,"Ġcupi":5817,"icas":5818,"Ġlunae":5819,"Ġdetr":5820,"Ġimperatorem":5821,"Ġnoctem":5822,"Ġsermones":5823,"Ġinspir":5824,"Ġsuad":5825,"Ġforas":5826,"Ġnoluit":5827,"car":5828,"Ġprofectus":5829,"Ġalleg":5830,"Ġpurp":5831,"ricis":5832,"Ġoppress":5833,"Ġdominica":5834,"Ġcoelesti":5835,"iem":5836,"Ġuerae":5837,"Ġbeata":5838,"Ġreliquit":5839,"Ġossa":5840,"Ġintelligit":5841,"Ġpoenas":5842,"Ġcodic":5843,"Ġquandoque":5844,"Ġplurima":5845,"entiarum":5846,"Ġbac":5847,"Ġmodi":5848,"Ġquaeso":5849,"Ġlate":5850,"Ġuice":5851,"Ġcael":5852,"etate":5853,"Ġhen":5854,"nox":5855,"andas":5856,"Ġuber":5857,"Ġregibus":5858,"Ġfaciens":5859,"pectum":5860,"Ġmorum":5861,"Ġexamin":5862,"ties":5863,"Ġmercedem":5864,"Ġedic":5865,"Ġpropriam":5866,"erebant":5867,"Ġdudum":5868,"Ġhaeredit":5869,"Ġaugusti":5870,"Ġconiunc":5871,"Ġmonachi":5872,"Ġconcord":5873,"Ġmortuum":5874,"Ġitin":5875,"Ġquale":5876,"Ġiusto":5877,"Ġmeruit":5878,"Ġprudentia":5879,"Ġexordi":5880,"Ġperfici":5881,"Ġiohannes":5882,"Ġdiuitias":5883,"rat":5884,"sunt":5885,"Ġstatum":5886,"atius":5887,"Ġlaudes":5888,"Ġpauci":5889,"estig":5890,"Ġhumilitate":5891,"Ġusurp":5892,"Ġpraeceptis":5893,"iosa":5894,"Ġsacros":5895,"Ġdisciplinam":5896,"Ġliqu":5897,"Ġhumilitatis":5898,"Ġgign":5899,"cio":5900,"Ġargentum":5901,"Ġcreaturae":5902,"Ġnominibus":5903,"Ġnutri":5904,"Ġsimus":5905,"Ġhumilitatem":5906,"Ġpericulo":5907,"Ġoccurrit":5908,"Ġfrang":5909,"Ġhumanis":5910,"Ġmaiora":5911,"Ġrecus":5912,"Ġueniunt":5913,"utur":5914,"tulit":5915,"Ġpersuas":5916,"Ġofficii":5917,"Ġpostremo":5918,"Ġdionys":5919,"Ġpropinqu":5920,"Ġphara":5921,"Ġsimiles":5922,"Ġphilosop":5923,"Ġromanos":5924,"Ġtestimonio":5925,"Ġgoth":5926,"Ġagni":5927,"Ġpig":5928,"Ġexclud":5929,"Ġaddidit":5930,"Ġdisciplinae":5931,"Ġmysteria":5932,"Ġdoctor":5933,"Ġnullius":5934,"Ġdeuor":5935,"Ġroma":5936,"Ġeuangelis":5937,"Ġexim":5938,"adius":5939,"ego":5940,"Ġlaborem":5941,"ers":5942,"Ġinp":5943,"Ġmasc":5944,"Ġarchidi":5945,"lat":5946,"Ġbrach":5947,"Ġpompe":5948,"Ġueteri":5949,"Ġredit":5950,"Ġarbitrium":5951,"Ġmancip":5952,"Ġdoctores":5953,"Ġhiem":5954,"Î¿ÏĦ":5955,"Ġconfessione":5956,"Ġfran":5957,"Ġaccidens":5958,"Ġhonorific":5959,"Ġmalitia":5960,"Ġcanc":5961,"Ġinsip":5962,"Ġelecti":5963,"Ġhistoria":5964,"Ġferunt":5965,"Ġquinquaginta":5966,"Ġcaeterum":5967,"Ġinterea":5968,"Ġconfec":5969,"Ġsimplex":5970,"Ġfonte":5971,"Ġomnipotentis":5972,"Ġseren":5973,"Ġcognoscere":5974,"Ġparua":5975,"Ġlocorum":5976,"Ġabbate":5977,"Ġdisser":5978,"Ġsalomon":5979,"Ġlep":5980,"Ġrup":5981,"Ġhabuerit":5982,"Ġeuangelista":5983,"Ġsect":5984,"Ġpign":5985,"Ġnihilo":5986,"Ġperpetr":5987,"Ġitinere":5988,"Ġmilia":5989,"Ġcontinetur":5990,"Ġimpend":5991,"Ġutinam":5992,"Ġmen":5993,"Ġciues":5994,"Ġegress":5995,"Ġaequi":5996,"Ġpecunia":5997,"Ġmonachorum":5998,"Ġingenio":5999,"Ġaer":6000,"Ġadip":6001,"cebat":6002,"Ġlinguam":6003,"Ġsocrates":6004,"Ġuniuersalis":6005,"Ġresurrectione":6006,"Ġquanquam":6007,"Ġaduentu":6008,"Ġsul":6009,"Ġanimaduer":6010,"Ġdecimo":6011,"entior":6012,"Ġueraciter":6013,"Ġcorrump":6014,"Ġlim":6015,"Ġreliquis":6016,"Ġrequiem":6017,"Ġrau":6018,"Ġtrec":6019,"Ġtestimonia":6020,"Ġtro":6021,"Ġmora":6022,"Ġiord":6023,"uari":6024,"idisse":6025,"tich":6026,"Ġhierosol":6027,"alum":6028,"Ġguillel":6029,"atura":6030,"Ġhabitum":6031,"Ġsepeli":6032,"Ġsyll":6033,"Ġpeccare":6034,"Ġlapis":6035,"Ġregular":6036,"Ġhumano":6037,"Ġeffus":6038,"illum":6039,"Ġpublicae":6040,"das":6041,"Ġuideantur":6042,"Ġpossimus":6043,"Ġinfirmitate":6044,"Ġdecus":6045,"Ġtantis":6046,"ecti":6047,"Ġpermans":6048,"Î±Î³":6049,"ceperunt":6050,"Î¿Î¼ÎµÎ½":6051,"Ġdebita":6052,"Ġsinistr":6053,"emin":6054,"Ġsuscip":6055,"Ġmetropolit":6056,"Ġproximi":6057,"estem":6058,"Ġpraesentiam":6059,"Ġpersonis":6060,"Ġconcilii":6061,"Ġextend":6062,"Ġtimorem":6063,"Ġnonn":6064,"Ġcru":6065,"olim":6066,"Ġreligione":6067,"Ġuterque":6068,"Ġdeleg":6069,"Ġauctorem":6070,"Ġpossessiones":6071,"Ġaccepta":6072,"Ġnotitia":6073,"Ġducem":6074,"Ġiunc":6075,"Ġdii":6076,"bitis":6077,"Ġoppon":6078,"Ġsignis":6079,"Ġcontinet":6080,"Ġmorti":6081,"Ġlaetitia":6082,"Ġens":6083,"Ġimpud":6084,"Ġdilectionem":6085,"Ġalieni":6086,"Ġcc":6087,"issimae":6088,"ten":6089,"Ġipsas":6090,"Ġstip":6091,"Ġfix":6092,"Ġmalos":6093,"ism":6094,"Ġquintus":6095,"Ġioc":6096,"Ġunicuique":6097,"Ġpup":6098,"Ġuigili":6099,"Ġlapides":6100,"Ġornam":6101,"Ġprobatur":6102,"Ġlitteram":6103,"Ġdesiderat":6104,"gi":6105,"Ġmanere":6106,"Ġascens":6107,"Ġregione":6108,"Ġcaue":6109,"Ġineff":6110,"Ġemin":6111,"Ġcontig":6112,"Ġbern":6113,"pexit":6114,"Ġxl":6115,"Ġscimus":6116,"Ġexempl":6117,"Ġbeneficium":6118,"Ġclericis":6119,"Ġibique":6120,"emini":6121,"Ġpell":6122,"Ġconstituta":6123,"Ġremun":6124,"Ġpraeual":6125,"Ġpartis":6126,"Ġiudicare":6127,"Ġprincipi":6128,"Ġcharissimi":6129,"Ġpraemium":6130,"Ġdecreta":6131,"Ġunigen":6132,"Ġreuersus":6133,"trans":6134,"ĠÏĥÏħÎ½":6135,"titerit":6136,"riam":6137,"Ġinnot":6138,"Ġcastig":6139,"Ġfa":6140,"Ġcecidit":6141,"Ġnus":6142,"Ġpropin":6143,"Ġpassio":6144,"bilia":6145,"Ġconcordi":6146,"Ġcredentes":6147,"Ġseruire":6148,"Ġcredidit":6149,"Ġquoties":6150,"Ġcastris":6151,"Ġintroduc":6152,"Ġferro":6153,"ener":6154,"Ġpartium":6155,"Ġdecor":6156,"Ġmaximum":6157,"Ġducis":6158,"Ġdiuinum":6159,"Ġsalua":6160,"Ġhostem":6161,"Ġdeneg":6162,"Ġaduen":6163,"Ġsancte":6164,"Ġuell":6165,"Ġconstruc":6166,"Ġelegit":6167,"Ġuirginem":6168,"Ġarca":6169,"Ġpotuisse":6170,"amen":6171,"Ġaiunt":6172,"Ġconsist":6173,"icit":6174,"Ġcaeli":6175,"Ġdomi":6176,"Ġdiscipulos":6177,"Ġpropag":6178,"Ġoblig":6179,"Ġoleum":6180,"Ġplebis":6181,"Ġhumiliter":6182,"Ġaetas":6183,"ĠÏĦÏī":6184,"icere":6185,"Ġaddit":6186,"Ġscriptis":6187,"det":6188,"isso":6189,"Ġuiderunt":6190,"Ġfertur":6191,"Ġhebra":6192,"Ġeris":6193,"Ġdani":6194,"all":6195,"Ġsyllogis":6196,"Ġfugit":6197,"Ġprophetis":6198,"Ġludouic":6199,"Ġbi":6200,"Ġcredunt":6201,"Ġduces":6202,"teret":6203,"Ġmortuos":6204,"Ġtranquill":6205,"Ġaureli":6206,"Ġinfidel":6207,"Ġrecipere":6208,"Ġfiet":6209,"Ġregina":6210,"Ġelectus":6211,"Ġdicentem":6212,"Ġparisi":6213,"Ġreperi":6214,"Ġmultae":6215,"Ġtransire":6216,"letum":6217,"Ġpraedicationis":6218,"Ġsimulac":6219,"Ġfuturi":6220,"Ġsexta":6221,"Ġpauperibus":6222,"Ġsacramento":6223,"Ġcrimine":6224,"Ġsubjac":6225,"Ġdomni":6226,"Ġero":6227,"Ġdissip":6228,"Ġcontingit":6229,"ertus":6230,"Ġbeneficia":6231,"Ġdonati":6232,"ĠÏĦÎ¿ÏħÏĦ":6233,"orumque":6234,"Ġeffug":6235,"Ġbeatae":6236,"Ġfons":6237,"Ġarchiepiscopus":6238,"az":6239,"Ġsacro":6240,"Ġdioeces":6241,"Ġliberi":6242,"Ġporta":6243,"ularum":6244,"Ġcras":6245,"Ġostium":6246,"Ġoperi":6247,"posita":6248,"Ġputas":6249,"Ġcomment":6250,"Ġmissa":6251,"set":6252,"Ġcyp":6253,"yg":6254,"Ġreus":6255,"ebas":6256,"Ġpeccator":6257,"uris":6258,"tori":6259,"Ġaeth":6260,"utos":6261,"idae":6262,"Ġmaioris":6263,"Ġgratis":6264,"Ġtenuit":6265,"Ġdignitatis":6266,"tunc":6267,"Ġconscrip":6268,"Ġangelic":6269,"Ġlapidem":6270,"Ġluxur":6271,"Ġargumentum":6272,"utam":6273,"Ġlx":6274,"Ġcasus":6275,"Ġeccl":6276,"Ġsuscipere":6277,"Ġtestamento":6278,"Ġnecdum":6279,"Ġregia":6280,"Ġeiusmodi":6281,"Ġregnauit":6282,"sci":6283,"Ġiniquitate":6284,"Ġcustodia":6285,"pes":6286,"Ġincrem":6287,"ogra":6288,"Ġgraece":6289,"Ġtal":6290,"Ġchristianae":6291,"Ġagens":6292,"Ġdolorem":6293,"Ġsupersti":6294,"piam":6295,"Ġabiit":6296,"Ġtenebrae":6297,"Ġpius":6298,"Ġfecerat":6299,"can":6300,"Ġquales":6301,"Ġomnim":6302,"Ġfebr":6303,"Ġreuerentia":6304,"etatem":6305,"imini":6306,"Ġresol":6307,"Ġrecens":6308,"Ġmittit":6309,"Ġsicque":6310,"Ġnotum":6311,"Ġreform":6312,"Ġdicto":6313,"ĠÏĢÎµ":6314,"Ġsop":6315,"Ġiustorum":6316,"Ġnotitiam":6317,"Ġaudiens":6318,"Ġlatr":6319,"Ġincolum":6320,"Ġdiutius":6321,"Ġputat":6322,"Ġreprom":6323,"Ġinimicus":6324,"Ġuestras":6325,"Ġrogo":6326,"Ġduorum":6327,"Ġchristianis":6328,"Ġtaur":6329,"Ġoleo":6330,"Ġessentia":6331,"Ġaugustini":6332,"bilis":6333,"Ġuale":6334,"Ġuxore":6335,"Ġmaiore":6336,"Ġimmacul":6337,"etes":6338,"Ġduplic":6339,"Ġrip":6340,"Ġmiracula":6341,"Ġadep":6342,"idam":6343,"Ġindictione":6344,"uerimus":6345,"Ġpopulorum":6346,"Ġredire":6347,"Ġaperi":6348,"Ġpontificum":6349,"domin":6350,"Ġtomus":6351,"Ġcomprehend":6352,"Ġregio":6353,"Ġinuentus":6354,"Ġcommis":6355,"Ġcalli":6356,"ÎµÏīÏĤ":6357,"Ġcommin":6358,"Ġadmodum":6359,"psa":6360,"Ġsuperfl":6361,"Ġcomput":6362,"Ġeosdem":6363,"occ":6364,"Ġdebitum":6365,"Ġexplor":6366,"Ġseptimo":6367,"Ġtertius":6368,"Ġliter":6369,"Ġinuol":6370,"ticae":6371,"Ġstudiis":6372,"Ġclericorum":6373,"tant":6374,"utem":6375,"Ġproper":6376,"Ġholoc":6377,"Ġterminos":6378,"uad":6379,"lax":6380,"Ġposc":6381,"Ġligno":6382,"Ġlar":6383,"Ġsuppon":6384,"Ġconcub":6385,"Ġtard":6386,"Ġcare":6387,"Ġacquir":6388,"pserit":6389,"Ġinex":6390,"Ġeuad":6391,"Ġaduersa":6392,"elam":6393,"Ġfactam":6394,"Ġgrauiter":6395,"Ġlongum":6396,"Ġmortuorum":6397,"Ġaffectus":6398,"actis":6399,"enia":6400,"Ġinuestig":6401,"Ġpersonas":6402,"ultas":6403,"Ġsummi":6404,"Ġpraesentem":6405,"ele":6406,"Ġamat":6407,"geni":6408,"Ġherc":6409,"Ġaliquot":6410,"Ġtimere":6411,"ides":6412,"Ġcoelestibus":6413,"Ġcoeperunt":6414,"Ġprincipe":6415,"Ġrespondere":6416,"Ġterminum":6417,"Ġquemdam":6418,"uisc":6419,"Ġhumilis":6420,"Ġuerec":6421,"Ġculpam":6422,"Ġcognouit":6423,"rom":6424,"Ġhar":6425,"actum":6426,"Ġperp":6427,"Ġdilectione":6428,"Ġcatholicam":6429,"Ġhumanam":6430,"Ġgali":6431,"Ġintelligendum":6432,"Ġmiles":6433,"Ġcalig":6434,"Ġintegra":6435,"Ġpunc":6436,"Ġinterfic":6437,"Ġcorpori":6438,"Ġextoll":6439,"iturus":6440,"Ġparab":6441,"Ġmanifesta":6442,"Ġzach":6443,"Ġunitas":6444,"Ġirac":6445,"olas":6446,"ĠÏħÏĢ":6447,"Ġcognos":6448,"Ġlittera":6449,"Ġexpugn":6450,"sc":6451,"asi":6452,"Ġprodest":6453,"Ġanimis":6454,"Ġcopia":6455,"ĠÎ±Î»":6456,"Ġaequalis":6457,"Î¸Î±Î¹":6458,"Ġiuni":6459,"Ġlangu":6460,"Ġiniur":6461,"Ġbritann":6462,"Ġseruis":6463,"Ġtribuit":6464,"Ġner":6465,"Ġdicebant":6466,"Ġsuperbiam":6467,"Ġepist":6468,"Ġinfam":6469,"uls":6470,"Ġsigno":6471,"Ġperpetua":6472,"Ġcoronam":6473,"Ġbur":6474,"Ġquinto":6475,"Ġtre":6476,"Ġinform":6477,"Ġalbum":6478,"Ġfacis":6479,"Ġnescit":6480,"ilitatem":6481,"Ġaffectum":6482,"psis":6483,"Ġcoelos":6484,"Ġdilectionis":6485,"Ġodor":6486,"Ġinan":6487,"Ġlaudis":6488,"ciam":6489,"Ġappropinqu":6490,"Ġodi":6491,"Ġsapientes":6492,"Ġpuerum":6493,"Ġdc":6494,"Ġmendacium":6495,"tiua":6496,"erius":6497,"Ġinuti":6498,"Ġmeorum":6499,"Ġhabebant":6500,"Ġponere":6501,"Ġconcessa":6502,"Ġrecogn":6503,"Ġconuenire":6504,"tora":6505,"Ġlacrymis":6506,"Ġuulnera":6507,"Ġsynodus":6508,"Ġigni":6509,"Ġuec":6510,"Ġrefec":6511,"Ġdilectio":6512,"gal":6513,"Ġirae":6514,"etae":6515,"aturum":6516,"opere":6517,"Ġobnox":6518,"Ġalta":6519,"ĠÎµÏħ":6520,"Ġueteres":6521,"Ġattrib":6522,"Ġmonachus":6523,"Ġsummam":6524,"Ġgentem":6525,"Ġspar":6526,"Ġcapita":6527,"Ġcerto":6528,"Ġmanifeste":6529,"Ġdiceretur":6530,"loc":6531,"Ġfirma":6532,"Ġdicant":6533,"Ġiniquitas":6534,"Ġpie":6535,"luc":6536,"Ġcrediderunt":6537,"Ġuade":6538,"Ġplacere":6539,"Ġsursum":6540,"Ġdeuotione":6541,"Ġdeserto":6542,"olae":6543,"Ġclerici":6544,"Ġnegotio":6545,"Ġsinu":6546,"Ġimplere":6547,"oque":6548,"Ġtrid":6549,"Ġstir":6550,"Ġsecutus":6551,"tina":6552,"turae":6553,"Ġequidem":6554,"Å¿Å¿":6555,"be":6556,"Ġeandem":6557,"tissimus":6558,"Ġnaturalis":6559,"Ġlongo":6560,"org":6561,"Ġnusquam":6562,"Ġuocis":6563,"Ġplenius":6564,"Ġproximo":6565,"Ġfemina":6566,"Ġcreauit":6567,"Ġuisa":6568,"Ġaprilis":6569,"Ġsolam":6570,"Ġcrass":6571,"Ġultimum":6572,"Ġconstantinopolit":6573,"Ġanus":6574,"Ġincred":6575,"Ġdaemones":6576,"Ġlatin":6577,"Ġsorti":6578,"Ġdilectissimi":6579,"Ġdetrah":6580,"aly":6581,"Ġimped":6582,"Ġfuturis":6583,"pote":6584,"Ġmeret":6585,"Ġdiligere":6586,"Ġcalumn":6587,"Ġduri":6588,"Ġcircumd":6589,"Ġmateriam":6590,"Ġuideat":6591,"Ġpropositio":6592,"Ġuenisse":6593,"istri":6594,"Ġpromis":6595,"Ġagno":6596,"atic":6597,"Ġdocere":6598,"Ġmissi":6599,"Ġspiritalis":6600,"Ġexspec":6601,"Ġdiabolum":6602,"Ġlargi":6603,"Ġpropriae":6604,"Ġlen":6605,"Ġamare":6606,"Ġlater":6607,"Ġprouidentia":6608,"Ġoctob":6609,"Ġalicui":6610,"Ġegressus":6611,"Ġcircums":6612,"tissimis":6613,"Ġsanctitatis":6614,"Ġebri":6615,"Ġhebdom":6616,"ĠÎ´Î¹Î±":6617,"egit":6618,"Ġpersonarum":6619,"Ġinimicis":6620,"Ġpent":6621,"Ġperfectus":6622,"Ġdicendo":6623,"Ġaegyptum":6624,"Ġceruic":6625,"Ġexsting":6626,"Ġhosti":6627,"Ġsoci":6628,"Ġgladium":6629,"Ġconcurr":6630,"Ġuident":6631,"Ġpercuss":6632,"Ġspern":6633,"Ġoli":6634,"Â§":6635,"Ġhir":6636,"ĠÎ±ÏĢ":6637,"Ġcursu":6638,"Ġcommunionem":6639,"Ġdifficile":6640,"Ġstephani":6641,"alog":6642,"illis":6643,"Ġalienum":6644,"Ġmix":6645,"Ġinnumer":6646,"Ġfacias":6647,"Ġsynodum":6648,"ons":6649,"aculi":6650,"Ġinno":6651,"Ġuultis":6652,"ricus":6653,"Ġmensura":6654,"umentis":6655,"Ġfing":6656,"Ġconn":6657,"Ġquilibet":6658,"Ġdebuit":6659,"Ġunanim":6660,"Ġforet":6661,"Ġconuoc":6662,"Ġtertiam":6663,"Ġcanones":6664,"Ġpraesumat":6665,"Ġfluuium":6666,"ecta":6667,"iali":6668,"Ġnegare":6669,"Ġconstitutus":6670,"Ġafflig":6671,"ilitate":6672,"Ġsubiectum":6673,"Ġlicentia":6674,"Ġpraestare":6675,"Ġapplic":6676,"Ġutilitatem":6677,"Ġmaioribus":6678,"Ġandre":6679,"Ġinuas":6680,"Ġpraedicta":6681,"Ġappeti":6682,"Ġcreaturam":6683,"Ġconfessionem":6684,"inarum":6685,"lexit":6686,"erg":6687,"Ġcarcere":6688,"Ġris":6689,"Ġsucced":6690,"Ġpraepon":6691,"Ġeuangel":6692,"Ġezechi":6693,"Ġqualibet":6694,"Ġantiqui":6695,"Ġflumina":6696,"menta":6697,"Ġsinguli":6698,"Ġpauperum":6699,"Ġintentione":6700,"Ġimperatore":6701,"Ġnegotium":6702,"Ġgradu":6703,"antas":6704,"Ġquamdam":6705,"Ġministerio":6706,"Ġinuidia":6707,"erique":6708,"Ġpeccat":6709,"Ġfeliciter":6710,"Ġdilu":6711,"Ġnesc":6712,"uerum":6713,"Ġuictus":6714,"Ġhabuisse":6715,"Ġparentum":6716,"escens":6717,"Ġmurmur":6718,"Ġdomes":6719,"Ġiouis":6720,"Ġherb":6721,"Ġoptime":6722,"Ġfiguram":6723,"Ġmob":6724,"Ġequi":6725,"Ġsubaud":6726,"Ġchristianus":6727,"Ġuictoriam":6728,"Ġdetest":6729,"Ġlaes":6730,"Ġformae":6731,"Ġaene":6732,"Ġmons":6733,"Ġclau":6734,"Ġdifficult":6735,"Ġrecess":6736,"Ġnumeros":6737,"respon":6738,"sol":6739,"uendum":6740,"aeum":6741,"ebitur":6742,"Ġotios":6743,"Ġsciendum":6744,"idio":6745,"edia":6746,"Ġsilentio":6747,"Ġmotum":6748,"Ġpesti":6749,"Ġamplex":6750,"Ġsermonibus":6751,"Ġiugum":6752,"Ġqualem":6753,"Ġauid":6754,"ĠÎ½":6755,"Ġinsol":6756,"Ġdomos":6757,"Ġipsae":6758,"Ġcuiuslibet":6759,"Ġpretio":6760,"Ġpraesul":6761,"Ġconfug":6762,"Ġurbes":6763,"Ġantich":6764,"Ġaudac":6765,"este":6766,"Ġartic":6767,"Ġmalus":6768,"Ġpropor":6769,"Ġmonachis":6770,"Ġiniquitatis":6771,"Ġfui":6772,"super":6773,"Ġspatio":6774,"Ġbeneuol":6775,"Ġualenti":6776,"Ġspecul":6777,"Ġlabores":6778,"Ġkalendas":6779,"Ġedoc":6780,"Ġulterius":6781,"Ġpotuerit":6782,"Ġcommunem":6783,"Ġiisdem":6784,"Ġantichris":6785,"alam":6786,"Ġuenti":6787,"Ġpectus":6788,"itteret":6789,"erium":6790,"Ġcomitis":6791,"Ġconuersus":6792,"imenta":6793,"Ġhabetis":6794,"Ġcuiusdam":6795,"Ġlegatos":6796,"abilibus":6797,"Ġalien":6798,"Ġmatu":6799,"Ġexemplis":6800,"Ġinjuriam":6801,"Ġcorint":6802,"Ġnecessitatem":6803,"Ġparadiso":6804,"Ġpand":6805,"Ġsubsist":6806,"Ġuestimenta":6807,"Ġamic":6808,"Ġallig":6809,"Ġpoen":6810,"Ġnumeri":6811,"Ġpromisit":6812,"Ġeundem":6813,"ularibus":6814,"Ġheli":6815,"Ġlatus":6816,"bene":6817,"hum":6818,"Ġsentire":6819,"Ġrelin":6820,"Ġpraecl":6821,"Ġferia":6822,"Ġchristianos":6823,"Ġmoer":6824,"ĠÎ¼Î·":6825,"Ġonus":6826,"Ġhabebit":6827,"Ġimpugn":6828,"Ġuestros":6829,"Ġdestruc":6830,"Ġintegrum":6831,"Ġargente":6832,"Î¿ÏĢ":6833,"Ġiuuenis":6834,"Ġromanus":6835,"Ġregnat":6836,"Î¹ÏĥÏĦ":6837,"Ġfortitudo":6838,"Ġprosequ":6839,"Ġholocaus":6840,"Ġstim":6841,"imento":6842,"erio":6843,"itura":6844,"Ġdemonstrat":6845,"Ġcypri":6846,"Ġgraue":6847,"Ġsacerdotis":6848,"Ġattin":6849,"Ġcircuitu":6850,"Ġconturb":6851,"Î»Î±":6852,"Ġlaboris":6853,"Ġlibertate":6854,"br":6855,"Ġit":6856,"Ġxuii":6857,"Ġuidentes":6858,"Ġnatale":6859,"hac":6860,"dio":6861,"Ġangelum":6862,"Ġquemquam":6863,"Ġhabita":6864,"Ġitaliam":6865,"astis":6866,"Ġfortiter":6867,"Ġoculus":6868,"Ġpraescrip":6869,"Ġmarg":6870,"Ġproposito":6871,"Ġuictim":6872,"Ġeffund":6873,"Ġitalia":6874,"Ġultro":6875,"Ġseruo":6876,"temper":6877,"ump":6878,"Ġromanum":6879,"Ġtitulo":6880,"Ġion":6881,"Ġconsilii":6882,"Î¸ÎµÎ½":6883,"Ġnoctur":6884,"Ġgab":6885,"Ġauferre":6886,"Ġfacin":6887,"Ġcitius":6888,"Ġchr":6889,"Ġsubtrah":6890,"Ġorator":6891,"ueh":6892,"Ġconuic":6893,"istae":6894,"Ġubic":6895,"Ġiudicis":6896,"Ġducit":6897,"Ġamicus":6898,"debant":6899,"Ġseg":6900,"ulisse":6901,"Ġthom":6902,"Ġuniuersi":6903,"bium":6904,"Ġoffens":6905,"Ġuocibus":6906,"Ġsecus":6907,"Ġneut":6908,"ellit":6909,"Ġcomplex":6910,"Ġpatientiam":6911,"Ġtrinitas":6912,"Ġerec":6913,"Ġapollin":6914,"riter":6915,"Ġorigin":6916,"uita":6917,"Ġhoram":6918,"arie":6919,"Ġampl":6920,"Ġsedi":6921,"Ġmagistri":6922,"iculum":6923,"Ġadest":6924,"Ġexst":6925,"Ġmensuram":6926,"Ġconsuetudine":6927,"Ġdeliber":6928,"Ġmodicum":6929,"achus":6930,"Ġgeneraliter":6931,"Ġbaptist":6932,"esima":6933,"Ġpassim":6934,"Ġpredic":6935,"Ġopprob":6936,"Ġpondere":6937,"Ġpress":6938,"Ġirasc":6939,"Ġplenum":6940,"Ġloquebatur":6941,"Ġloth":6942,"Ġaliquibus":6943,"ilitas":6944,"Ġsolummodo":6945,"Ġpossis":6946,"tram":6947,"uerent":6948,"Ġuocantur":6949,"Ġinhabit":6950,"Ġuillam":6951,"uentes":6952,"Ġidque":6953,"Ġpersol":6954,"Ġpraedictum":6955,"Ġaliquant":6956,"Ġy":6957,"Ġpondus":6958,"Ġscripturas":6959,"Ġinsidias":6960,"Ġdecima":6961,"Ġdigni":6962,"Ġinueniri":6963,"Ġpatrologia":6964,"Ġliquid":6965,"Ġequit":6966,"Ġtorr":6967,"Ġlatine":6968,"Ġpraeterm":6969,"Ġterminus":6970,"Ġanathema":6971,"illo":6972,"Ġodium":6973,"Ġai":6974,"Ġecclesiasticis":6975,"Ġscrut":6976,"Ġofficiis":6977,"itudines":6978,"Ġcaesaris":6979,"imet":6980,"Ġpond":6981,"Ġnegat":6982,"Ġmandamus":6983,"assent":6984,"Ġuultu":6985,"Ġnuptias":6986,"tiores":6987,"Ġfaciendum":6988,"Ġpraecon":6989,"Ġmandatis":6990,"omnia":6991,"Ġstatuit":6992,"Ġabn":6993,"ebri":6994,"Ġnor":6995,"Ġaccipiat":6996,"estor":6997,"Ġmilitibus":6998,"Ġrecit":6999,"aque":7000,"Ġmittere":7001,"Ġlan":7002,"Ġpsalmista":7003,"Ġportam":7004,"amine":7005,"Ġdigit":7006,"pres":7007,"Ġeug":7008,"Ġplenus":7009,"Ġlicentiam":7010,"Ġsinis":7011,"Ġscribere":7012,"Ġsuperioribus":7013,"Ġsamuel":7014,"Ġquaerunt":7015,"Ġadesse":7016,"Ġuenisset":7017,"migne":7018,"Ġeus":7019,"Ġedit":7020,"Ġuana":7021,"Ġarchidiacon":7022,"Ġsepultus":7023,"Ġmaiori":7024,"Ġerror":7025,"Ġincurr":7026,"Ġpuri":7027,"Ġcus":7028,"ulerit":7029,"Ġaeris":7030,"Ġpertinentiis":7031,"limus":7032,"Ġquinta":7033,"Ġplenitudo":7034,"isses":7035,"Ġmuneribus":7036,"Ġuinculis":7037,"sem":7038,"Ġcontigit":7039,"die":7040,"Ġxuiii":7041,"Ġuirga":7042,"bur":7043,"atii":7044,"Ġduximus":7045,"tract":7046,"Ġcondic":7047,"tisque":7048,"Ġuirgines":7049,"aulus":7050,"Ġfasti":7051,"Ġgente":7052,"Ġclero":7053,"Ġremissionem":7054,"Ġso":7055,"Ġretinere":7056,"Ġconstituti":7057,"leti":7058,"Ġpotissimum":7059,"Ġancill":7060,"Ġordines":7061,"Ġcontro":7062,"cid":7063,"Ġinesse":7064,"elici":7065,"Ġquicquam":7066,"oso":7067,"Ġquaesumus":7068,"Ġnoe":7069,"Ġinterual":7070,"Ġresponsum":7071,"Ġaccepimus":7072,"Ġargenti":7073,"Ġuxores":7074,"ergo":7075,"Ġtorqu":7076,"Ġconter":7077,"iani":7078,"uenti":7079,"Ġtyp":7080,"Ġexaudi":7081,"Ġquac":7082,"Ġacqui":7083,"Ġsexto":7084,"tag":7085,"Ġmiserere":7086,"quantum":7087,"Ġthron":7088,"Ġces":7089,"Ġpositi":7090,"chris":7091,"Ġconfirmat":7092,"Ġdeli":7093,"Ġabjec":7094,"Ġpotuisset":7095,"Ġmorem":7096,"Ġnouimus":7097,"Ġgramm":7098,"Ġnig":7099,"Ġaccidit":7100,"Ġmediol":7101,"Ġcibo":7102,"Ġultima":7103,"Ġsecreta":7104,"Ġhieronymus":7105,"Ġgraeco":7106,"Ġpotentiae":7107,"Ġsustinere":7108,"Ġsubli":7109,"Ġfame":7110,"Ġstatuta":7111,"Ġmagnae":7112,"osis":7113,"une":7114,"Ġpetra":7115,"Ġpriuilegium":7116,"Ġamicos":7117,"Ġaspic":7118,"Ġagro":7119,"undis":7120,"Ġrationes":7121,"ĠâĢĵ":7122,"Ġconci":7123,"Ġistae":7124,"Ġsoror":7125,"Ġbeneficio":7126,"Ġactio":7127,"Ġfronte":7128,"Ġegit":7129,"Ġobj":7130,"Ġdenunti":7131,"Ġmoue":7132,"Ġuincula":7133,"orta":7134,"olam":7135,"Ġconsuetudo":7136,"Ġextremum":7137,"Ġreddidit":7138,"Ġterrenis":7139,"pectus":7140,"Ġprimogen":7141,"ueretur":7142,"Ġnab":7143,"Ġeut":7144,"Ġquoad":7145,"Ġuoluc":7146,"ibilem":7147,"Ġbaptismo":7148,"Ġprobat":7149,"ĠÐ":7150,"Ġsitis":7151,"ulsus":7152,"Ġregener":7153,"Ġrite":7154,"Ġimpetr":7155,"urs":7156,"olat":7157,"Ġinuenimus":7158,"capitulum":7159,"Ġscip":7160,"ograph":7161,"loqui":7162,"Ġquamdiu":7163,"Ġsaluti":7164,"Ġistos":7165,"Ġsingulorum":7166,"Ġcanonice":7167,"Ġopes":7168,"Ġuideret":7169,"Ġcit":7170,"Ġinstituta":7171,"Ġnubes":7172,"auri":7173,"Ġcontrario":7174,"Ġconstitutum":7175,"Ġmulieris":7176,"Ġpotestis":7177,"Ġcognitionem":7178,"Ġgratul":7179,"Ġredemptoris":7180,"Ġtormenta":7181,"Ġcx":7182,"Ġduxit":7183,"Ġnasci":7184,"Ġmartyres":7185,"Ġchil":7186,"Ġsubiecto":7187,"uenire":7188,"Ġsequenti":7189,"Ġgrauis":7190,"Ġoccasionem":7191,"Ġtabernaculum":7192,"Ġfontem":7193,"Ġhaereticos":7194,"Ġdecipi":7195,"Ġdilex":7196,"Ġannus":7197,"Ġcoelestium":7198,"Ġagric":7199,"Ġpacto":7200,"Ġhaereditatem":7201,"Ġnobilis":7202,"ĠÎ³Î±Ïģ":7203,"Ġpus":7204,"Ġpane":7205,"Ġflamma":7206,"frag":7207,"Ġelis":7208,"Ġprimiti":7209,"Ġcogitare":7210,"Ġcurrit":7211,"cem":7212,"erata":7213,"Ġuiae":7214,"Ġobjec":7215,"Ġreligionem":7216,"Ġpedum":7217,"mag":7218,"Ġueris":7219,"Ġquaestionem":7220,"Ġcanonum":7221,"Ġperfectionem":7222,"eantur":7223,"Ġdorm":7224,"Ġiulii":7225,"Ġaudite":7226,"Ġcrimina":7227,"Ġcorona":7228,"cas":7229,"Ġmichae":7230,"Ġportas":7231,"Ġactione":7232,"Ġcapere":7233,"ibile":7234,"ibit":7235,"Î¿Î½ÏĦ":7236,"Ġpontificem":7237,"alter":7238,"Ġgestis":7239,"Ġuniuersum":7240,"Ġmarci":7241,"ÏĥÎº":7242,"Ġpersecut":7243,"Ġobsecro":7244,"nt":7245,"Ġgratiarum":7246,"Ġadjun":7247,"Ġdenuo":7248,"Ġhel":7249,"Ġexstitit":7250,"Ġelectorum":7251,"Ġcommendat":7252,"Ġdelinqu":7253,"Ġiugiter":7254,"Ġaristoteles":7255,"Ġamicis":7256,"Ġmanuum":7257,"tui":7258,"ge":7259,"ochi":7260,"Ġperfid":7261,"Ġprisc":7262,"Ġaetatem":7263,"Ġtenebrarum":7264,"Ġsubtil":7265,"Ġoculorum":7266,"Ġcommor":7267,"Ġreprehend":7268,"Ġdiaconi":7269,"Ġdicitis":7270,"Ġmaur":7271,"Ġcursum":7272,"Ġimmundi":7273,"Ġinfideli":7274,"Ġinuenta":7275,"Ġremuner":7276,"Ġcredid":7277,"Ġhabitare":7278,"for":7279,"Ġconfite":7280,"astas":7281,"anensis":7282,"Ġabomin":7283,"Ġopprim":7284,"Ġfundamentum":7285,"comm":7286,"ren":7287,"deus":7288,"Ġrecepit":7289,"Ġutitur":7290,"Ġcontrouers":7291,"Ġrenunti":7292,"Ġdura":7293,"Ġdigne":7294,"sequitur":7295,"Ġaudeat":7296,"Ġappellat":7297,"ind":7298,"Ġplat":7299,"Ġconditione":7300,"Ġadimpl":7301,"Ġmaximo":7302,"Ġharum":7303,"Ġaccessit":7304,"escant":7305,"Ġcaesare":7306,"erito":7307,"mae":7308,"Ġsingulas":7309,"Ġostenderet":7310,"Ġnicola":7311,"Ġuiscera":7312,"Ġtae":7313,"Ġinstar":7314,"Ġpraeuid":7315,"Ġtheodos":7316,"Ġdecernimus":7317,"Ġmira":7318,"Ġpessim":7319,"Ġatr":7320,"undia":7321,"Ġocculta":7322,"Ġsignificant":7323,"ordin":7324,"Ġstudia":7325,"Ġbul":7326,"Ġdestit":7327,"Ġioanne":7328,"Ġoppidum":7329,"Ġimpii":7330,"ades":7331,"Ġcontulit":7332,"Ġinius":7333,"Ġtitus":7334,"Ġemp":7335,"Ġsuppl":7336,"Ġmisericord":7337,"Ġimmun":7338,"Ġclementia":7339,"Ġobtulit":7340,"Ġaspici":7341,"Ġcastrum":7342,"stes":7343,"Ġexposi":7344,"Ġinse":7345,"acensis":7346,"Ġben":7347,"Ġforo":7348,"Ġdicas":7349,"Ġutpote":7350,"Ġpromulg":7351,"Ġexced":7352,"Ġhaberi":7353,"Ġcolloqu":7354,"Ġconsilia":7355,"Ġuoluntati":7356,"Ġpraedix":7357,"alo":7358,"Ġmagnitudine":7359,"Ġimperfec":7360,"Ġspiritualis":7361,"Ġpaululum":7362,"odox":7363,"rici":7364,"Ġstetit":7365,"Ġinuiol":7366,"Ġpp":7367,"Ġingens":7368,"Ġaz":7369,"Ġmontibus":7370,"Ġuocatus":7371,"Ġcustodiam":7372,"Ġgess":7373,"Ġcredentium":7374,"Ġiudaea":7375,"Ġquandoquidem":7376,"Ġsalutare":7377,"Ġuini":7378,"Ġtaliter":7379,"Ġdiis":7380,"Ġars":7381,"Ġsciat":7382,"Ġstatus":7383,"Ġlaboribus":7384,"euit":7385,"Ġpoc":7386,"Ġenum":7387,"Ġinsidi":7388,"Ġprocre":7389,"Ġephes":7390,"Ġtel":7391,"Ġdetin":7392,"Ġcultum":7393,"Ġfacio":7394,"ticam":7395,"Ġappon":7396,"chis":7397,"Ġobsc":7398,"Ġcos":7399,"Ġuiderit":7400,"Ġadmitt":7401,"Ġtransgress":7402,"ulibus":7403,"Ġpromitt":7404,"Ġdesideriis":7405,"Ġ//":7406,"uante":7407,"Ġaffic":7408,"Ġorare":7409,"Ġsacrum":7410,"Ġsata":7411,"Ġiudas":7412,"Ġortus":7413,"Ġsau":7414,"Ġalbus":7415,"Ġmalefic":7416,"Ġtruc":7417,"ila":7418,"Ġhaberent":7419,"Ġisaias":7420,"Ġenunti":7421,"Ġfactae":7422,"Ġfugam":7423,"Ġplan":7424,"Ġdisplic":7425,"Ġoriente":7426,"Ġchristiana":7427,"Ġnegoti":7428,"Ġsud":7429,"atiue":7430,"Ġconfessio":7431,"Ġaudiui":7432,"ilo":7433,"Ġcomit":7434,"Ġbibli":7435,"Ġexpect":7436,"Ġconqu":7437,"Ġcris":7438,"Ġresurrexit":7439,"ĠÎºÎ±ÏĦÎ±":7440,"Ġsupp":7441,"ulatus":7442,"ularium":7443,"Ġimplic":7444,"Ġciuium":7445,"Ġcanticum":7446,"Ġpsall":7447,"Ġconsequens":7448,"jan":7449,"Ġcuc":7450,"Ġieiunium":7451,"Ġpraedicare":7452,"Ġcontrist":7453,"Ġpraetor":7454,"Ġcognoscitur":7455,"Ġremedium":7456,"Ġauctoritatis":7457,"Ġuenerat":7458,"Ġsidera":7459,"sicut":7460,"Ġapoc":7461,"Ġuidimus":7462,"Ġuolentes":7463,"Ġhe":7464,"Ġpromissa":7465,"cop":7466,"Ġhug":7467,"Ġoctauo":7468,"cn":7469,"ring":7470,"Ġdimic":7471,"hen":7472,"Ġdiuinitatem":7473,"Ġligna":7474,"Ġpip":7475,"urb":7476,"Î¹Î±":7477,"ique":7478,"Ġpraesentium":7479,"Ġrestat":7480,"itarum":7481,"othec":7482,"Ġplurimis":7483,"Ġsabbati":7484,"Ġpaulatim":7485,"Ġcli":7486,"atiuum":7487,"Ġpraeiudic":7488,"issus":7489,"ardo":7490,"Ġcyri":7491,"Ġartis":7492,"Ġbarbar":7493,"Ġaltaris":7494,"Ġalac":7495,"Ġhistoriam":7496,"Ġiucund":7497,"Ġquandiu":7498,"Ġcoc":7499,"Ġpeculi":7500,"Ġausus":7501,"Ġreferre":7502,"Ġkalend":7503,"acem":7504,"Ġproi":7505,"Ġnegatio":7506,"Ġuenientes":7507,"Ġnefas":7508,"ect":7509,"Ġlongius":7510,"Ġeuer":7511,"Ġinquisi":7512,"uxerunt":7513,"ellarum":7514,"Ġpraesent":7515,"Ġidi":7516,"Ġgre":7517,"ciae":7518,"abas":7519,"Ġobtemper":7520,"Ġperfecte":7521,"Ġgrand":7522,"Ġsagit":7523,"Ġfiducia":7524,"Ġhebdomad":7525,"Ġ!":7526,"Ġinterius":7527,"Ġamicum":7528,"Ġphantas":7529,"Ġgut":7530,"Ġualeant":7531,"Ġsacratissim":7532,"Ġschism":7533,"Ġpicta":7534,"uentur":7535,"Ġintentio":7536,"Ġcomple":7537,"Ġaudiuimus":7538,"Ġtrinitate":7539,"Ġpassiones":7540,"dun":7541,"Ġquaelibet":7542,"Ġlibere":7543,"obrem":7544,"Ġterrib":7545,"Ġsacerdotem":7546,"Ġlub":7547,"Ġsurrexit":7548,"Ġdiligentius":7549,"erti":7550,"Ġplang":7551,"Ġincl":7552,"Ġmilitiae":7553,"Ġfacultatem":7554,"erebatur":7555,"Ġuulgo":7556,"Ġpossessionem":7557,"Ġintrare":7558,"tol":7559,"Ġgrauius":7560,"ĠÏĢÎµÏģÎ¹":7561,"Ġpatric":7562,"Ġdesideria":7563,"Ġdiuinitas":7564,"Ġsuau":7565,"Ġintelligentiam":7566,"Ġoperari":7567,"Ġexperi":7568,"Ġinsipi":7569,"Ġcultu":7570,"Ġuenite":7571,"Ġconfiteri":7572,"Ġcharta":7573,"ÎµÎ¹ÏĤ":7574,"Ġcicer":7575,"Ġmaiorum":7576,"Ġabsur":7577,"Ġscandali":7578,"Ġsabbato":7579,"obus":7580,"Ġfuga":7581,"Ġproteg":7582,"Ġafrica":7583,"Ġpraedicatione":7584,"Ġaccipitur":7585,"Ġassyri":7586,"Ġdesuper":7587,"gite":7588,"Ġcredendum":7589,"Ġconscientiam":7590,"Ġconson":7591,"Ġcogitatione":7592,"Ġlus":7593,"Ġdamna":7594,"Ġpaupert":7595,"Ġalienis":7596,"Ġabys":7597,"Ġtransc":7598,"Ġfaciamus":7599,"ĠÎµÎ¹ÏĤ":7600,"Ġaltum":7601,"Ġdignosc":7602,"Ġcepit":7603,"Ġ>":7604,"ectum":7605,"corum":7606,"Ġserua":7607,"Ġdedisti":7608,"Ġprouinciam":7609,"Ġfum":7610,"Ġmensibus":7611,"Ġgus":7612,"Î¿Ïģ":7613,"idie":7614,"Ġuinculo":7615,"quamur":7616,"uendi":7617,"Ġuelis":7618,"Ġaduentus":7619,"Ġeuas":7620,"Ġeueni":7621,"Ġpresbyterum":7622,"Ġsepulcrum":7623,"Ġmentibus":7624,"Ġcaeles":7625,"Ġuotis":7626,"Ġexistere":7627,"Ġiudicat":7628,"Ġnegotiis":7629,"Ġlegum":7630,"Ġtiber":7631,"ode":7632,"Ġcredentibus":7633,"Ġpraedicatores":7634,"Ġmagistrum":7635,"Ġnatalis":7636,"iÃ¾":7637,"Ġlegati":7638,"Ġfacinus":7639,"Ġnaturali":7640,"igur":7641,"Ġage":7642,"Ġsequentibus":7643,"Ġrespondens":7644,"Ġopem":7645,"Ġcada":7646,"ricem":7647,"acti":7648,"Ġscelus":7649,"Ġhaereticis":7650,"ceperat":7651,"Ġsuperna":7652,"Ġdederit":7653,"Ġcibus":7654,"Ġperdit":7655,"Ġprolix":7656,"Ġsicc":7657,"Ġuicem":7658,"Ġmoli":7659,"Ġgentiles":7660,"Ġpanes":7661,"Ġinterm":7662,"Ġhonores":7663,"col":7664,"ceperit":7665,"Ġparoch":7666,"Ġfuissent":7667,"Ġflumen":7668,"Ġpraecipimus":7669,"Ġquasdam":7670,"Ġutile":7671,"Ġsuprem":7672,"Ġsimilitudo":7673,"Ġpossidet":7674,"Ġadiu":7675,"Ġcuiusque":7676,"Ġquartum":7677,"oratio":7678,"Ġmaximus":7679,"Ġimmob":7680,"Ġliberos":7681,"Ġanimalium":7682,"Ġsuperbiae":7683,"Ġdaret":7684,"Ġoportere":7685,"Ġdextra":7686,"Ġalexandr":7687,"Ġconsurg":7688,"issimos":7689,"Ġmembrorum":7690,"Ġkar":7691,"Ġproficisc":7692,"umento":7693,"Ġmouet":7694,"Ġpsalmi":7695,"auerint":7696,"sac":7697,"Ġiustos":7698,"Ġiacobus":7699,"Ġmortuo":7700,"Ġruf":7701,"Ġuenus":7702,"Ġcognoscit":7703,"Ġfuturam":7704,"plur":7705,"Ġeuidenter":7706,"etu":7707,"timur":7708,"Ġperfecti":7709,"Ġnolo":7710,"Ġfurore":7711,"Ġagunt":7712,"Ġpraep":7713,"Ġprodesse":7714,"Ġopinionem":7715,"gere":7716,"iturum":7717,"Ġsuble":7718,"Ġcommitt":7719,"ose":7720,"Ġpotui":7721,"assis":7722,"he":7723,"ÏĦÎµÏĤ":7724,"pis":7725,"Ġaliquos":7726,"Ġintelligimus":7727,"Ġrecip":7728,"Ġuocati":7729,"Ġuocari":7730,"Ġexhibere":7731,"ĠÎ±ÏħÏĦÎ¿Ïħ":7732,"Ġabj":7733,"Ġdatus":7734,"Ġsimilem":7735,"rid":7736,"Ġpropi":7737,"stanti":7738,"Ġsue":7739,"Ġacies":7740,"Ġhib":7741,"Ġagimus":7742,"Ġiussu":7743,"Ġcognomin":7744,"Ġnobili":7745,"Ġuulner":7746,"Ġorationes":7747,"Ġinclus":7748,"Ġcalicem":7749,"Ġimperi":7750,"Ġblandi":7751,"Ġsubdiacon":7752,"Î¿Î´":7753,"Ġhospit":7754,"Ġpeperit":7755,"Ġingenii":7756,"Ġsubter":7757,"Ġcoepiscop":7758,"Ġcorneli":7759,"Ġdixisti":7760,"Ġauctores":7761,"Ġaccipiunt":7762,"ure":7763,"Ġgalilae":7764,"las":7765,"Ġimpiorum":7766,"Ġnouam":7767,"Ġsexus":7768,"Ġinteritum":7769,"Ġsignificare":7770,"Ġtristitia":7771,"Ġalto":7772,"Ġpublicam":7773,"acto":7774,"Ġindicat":7775,"Ġspei":7776,"Ġuiuunt":7777,"Ġsorte":7778,"Ġtenta":7779,"Ġauers":7780,"Ġuap":7781,"Ġpraecepto":7782,"ebris":7783,"Ġdiuersas":7784,"Ġdaemonum":7785,"Ġcell":7786,"alec":7787,"Ġsedit":7788,"Ġnominatur":7789,"Ġfamilia":7790,"Ġrenou":7791,"Ġdilectus":7792,"Ġhistoriae":7793,"Ġuaria":7794,"Ġrespectu":7795,"Ġsemina":7796,"quaque":7797,"Ġclericos":7798,"Ġfamiliar":7799,"Ġpaschae":7800,"untes":7801,"Ġreuera":7802,"Ġtrepid":7803,"Ġfacite":7804,"Ġconuertit":7805,"Ġnimia":7806,"Ġuideant":7807,"Ġefficitur":7808,"Ġdecretum":7809,"Ġscandalum":7810,"Ġsubti":7811,"Ġplerique":7812,"Î¹Î±Î½":7813,"Ġingenti":7814,"Ġconsistit":7815,"inf":7816,"Ġrepeti":7817,"Ġcolor":7818,"Ġrepreh":7819,"Ġuetust":7820,"Ġuxoris":7821,"Ġuidebantur":7822,"Ġsacerdotium":7823,"Ġtric":7824,"Ġgenerationem":7825,"Ġacceperunt":7826,"Ġrectum":7827,"amina":7828,"Ġuoluerunt":7829,"Ġdederunt":7830,"Ġnaz":7831,"Ġpudici":7832,"Ġmagistro":7833,"Ġtransit":7834,"Ġcopios":7835,"Ġdiffini":7836,"Ġgradum":7837,"Ġprofit":7838,"decimus":7839,"ulares":7840,"Ġuocabulo":7841,"Ġagendum":7842,"Ġcing":7843,"onae":7844,"Ġredem":7845,"Ġalti":7846,"Ġueste":7847,"Ġaccend":7848,"Ġtimoth":7849,"Ġlacer":7850,"Ġutrique":7851,"Ġtuarum":7852,"ellere":7853,"Ġextrema":7854,"Ġsuus":7855,"Ġimput":7856,"Ġueniret":7857,"Ġreligio":7858,"Ġcomitem":7859,"Ġcontri":7860,"Ġcertamen":7861,"Ġfuturae":7862,"ommod":7863,"Ġbaptismi":7864,"Ġingenium":7865,"Ġaccedere":7866,"lla":7867,"Ġobedientiam":7868,"Ġinest":7869,"Ġdilat":7870,"Ġdissimul":7871,"Ġsecuti":7872,"Ġprodig":7873,"Ġelementa":7874,"Ġquodque":7875,"Ġuindictam":7876,"Ġreip":7877,"Ġuestrorum":7878,"Ġsomno":7879,"Ġier":7880,"Ġcun":7881,"Ġinced":7882,"Ġstren":7883,"Ġbaptismatis":7884,"Ġciuitatibus":7885,"Ġpietatem":7886,"Ġsubuer":7887,"igitur":7888,"Ġappos":7889,"Ġimpetu":7890,"aeter":7891,"Ġreuol":7892,"Ġueritati":7893,"ÏīÏĦ":7894,"Ġcaeteros":7895,"ht":7896,"Ġremitt":7897,"Ġinob":7898,"Ġinquis":7899,"Ġconcupiscentia":7900,"Ġferrum":7901,"Ġactionis":7902,"Ġeumque":7903,"Ġobsequium":7904,"ulp":7905,"oria":7906,"Ġfuere":7907,"Î±Î¼":7908,"ortes":7909,"ĠÎµÎ¾":7910,"Ġsocietate":7911,"Ġaperuit":7912,"Ġfelicis":7913,"Ġcontinentur":7914,"âŁ¨":7915,"udi":7916,"Ġdespici":7917,"âŁ©":7918,"Ġdiutur":7919,"Ġpropiti":7920,"Î¹Î±ÏĤ":7921,"Ġcarnes":7922,"Ġfecimus":7923,"Ġirre":7924,"Ġgeneratio":7925,"Ġiunii":7926,"Ġaquit":7927,"Ġarrog":7928,"Ġintrauit":7929,"pore":7930,"Ġepiscopatus":7931,"Ġaeterno":7932,"onos":7933,"Ġgraecis":7934,"Ġliberat":7935,"Ġfueris":7936,"Ġlatron":7937,"Ġuocabulum":7938,"uendo":7939,"erere":7940,"Ġaltari":7941,"Ġcancell":7942,"Ġangelo":7943,"ibunt":7944,"ĠÎ±Î¹":7945,"Ġestote":7946,"Ġburg":7947,"Ġexercit":7948,"Ġlapidibus":7949,"Ġsedet":7950,"Ġsaluatorem":7951,"Ġquaesi":7952,"Ġpraestat":7953,"Ġhumanitatis":7954,"taret":7955,"Ġmisericors":7956,"bet":7957,"Ġaccommod":7958,"Ġpassi":7959,"Ġfoue":7960,"Ġtotidem":7961,"Ġadri":7962,"Ġmaneat":7963,"Ġportae":7964,"Ġanteced":7965,"orius":7966,"Ġcreator":7967,"Ġofferre":7968,"Ġrationibus":7969,"Î¿Î¼":7970,"Ġcanonicis":7971,"Ġnatiuitatis":7972,"Ġpromer":7973,"Ġiratus":7974,"Ġ...":7975,"Ġpraedicationem":7976,"Ġcalce":7977,"Ġscribitur":7978,"Ġaemul":7979,"Ġgrammati":7980,"Ġfar":7981,"Ġexpet":7982,"Ġobtinuit":7983,"Ġuniuersae":7984,"mix":7985,"Ġsali":7986,"Ġcursus":7987,"Ġrediit":7988,"xerunt":7989,"Ġsenatu":7990,"Ġgregorii":7991,"Ġnequ":7992,"Ġsaluus":7993,"amentis":7994,"Ġclamat":7995,"Ġconfessoris":7996,"Ġobliuisc":7997,"Ġbeatitudinis":7998,"itibus":7999,"enorum":8000,"Ġuniuerso":8001,"js":8002,"Ġirration":8003,"entissimus":8004,"Ġintercess":8005,"Ġanx":8006,"Ġinfirmitatem":8007,"Ġappareat":8008,"Ġgeneratione":8009,"man":8010,"Ġessem":8011,"Ġulc":8012,"Ġsecurus":8013,"Ġlinea":8014,"Ġpoenae":8015,"Ġdecess":8016,"Ġfeminae":8017,"ĠÏĦÎ¹":8018,"Ġcuique":8019,"Ġsimilitudine":8020,"Ġconscientiae":8021,"Ġabscondit":8022,"Ġiudice":8023,"Ġdimis":8024,"Ġterritor":8025,"Ġcarnalis":8026,"Ġinfirmitas":8027,"Ġluminis":8028,"Ġheu":8029,"Ġidola":8030,"Ġarchiepiscopum":8031,"Ġeffer":8032,"Ġinsula":8033,"Ġfluuius":8034,"erua":8035,"Ġpenes":8036,"Ġagri":8037,"Ġloquens":8038,"Ġinimicorum":8039,"Ġclericus":8040,"Ġincommut":8041,"Ġchriste":8042,"Ġminorem":8043,"Ġmiraculis":8044,"lit":8045,"mul":8046,"Ġuotum":8047,"elem":8048,"Ġconfort":8049,"Ġdiuites":8050,"Ġquousque":8051,"Ġsoluit":8052,"Ġexar":8053,"Ġaccedit":8054,"Ġpoteris":8055,"Ġpoenis":8056,"Ġdesignatur":8057,"Ġpotestates":8058,"Ġeuoc":8059,"gred":8060,"fo":8061,"Ġimpiis":8062,"Ġueterum":8063,"Ġcu":8064,"Ġmax":8065,"Ġthess":8066,"Ġgel":8067,"Ġ)":8068,"Ġlauac":8069,"Ġconfic":8070,"Ġobuiam":8071,"Ġpatron":8072,"Ġiup":8073,"idere":8074,"aberis":8075,"Ġexclam":8076,"Ġconstanti":8077,"Ġinstituit":8078,"Ġoriginem":8079,"Ġpersuad":8080,"Ġsequatur":8081,"Ġarbor":8082,"Ġpalatio":8083,"Ġhumilitas":8084,"ennae":8085,"Ġexclus":8086,"phona":8087,"Ġepistolas":8088,"Ġorientem":8089,"Ġeuty":8090,"erii":8091,"risque":8092,"Ġinuisibi":8093,"Ġmonachos":8094,"ribi":8095,"Ġcastr":8096,"Ġpermanere":8097,"Ġprocedere":8098,"Ġconcordia":8099,"hos":8100,"Ġprou":8101,"Ġmarti":8102,"Ġsignificatur":8103,"acius":8104,"Ġidololat":8105,"Ġrelax":8106,"Ġmerces":8107,"aremus":8108,"Ġcelebrare":8109,"enÅ¿":8110,"Ġchron":8111,"Ġsynodi":8112,"Ġpatrocin":8113,"Ġxxii":8114,"Ġexterius":8115,"Ġuenerabiles":8116,"ittimus":8117,"Ġuelim":8118,"Ġfiduciam":8119,"praedic":8120,"Ġsegreg":8121,"Ġhabeatur":8122,"Ġquamobrem":8123,"itemur":8124,"Ġoptimum":8125,"arumque":8126,"Î±ÏħÏĦ":8127,"ipse":8128,"Ġoccisus":8129,"Ġdilexit":8130,"Ġmuros":8131,"Ġstephanus":8132,"Ġsubditur":8133,"Ġfortes":8134,"Ġstella":8135,"Ġsuspend":8136,"Ġredarg":8137,"Ġdiligentia":8138,"Ġplebe":8139,"Ġpastores":8140,"form":8141,"alon":8142,"Ġcomiti":8143,"Ġgeneri":8144,"Ġaudiunt":8145,"Ġdiscipulus":8146,"Ġmartyr":8147,"Ġhortatur":8148,"Ġpontifice":8149,"Ġsentit":8150,"bum":8151,"Ġeth":8152,"Ġcili":8153,"Ġcert":8154,"Ġgallic":8155,"Ġsto":8156,"Ġincredi":8157,"Ġerudi":8158,"Ġeasdem":8159,"Ġtrop":8160,"gisse":8161,"Ġcomparatione":8162,"Ġpericulos":8163,"Ġcooper":8164,"Ġcultus":8165,"Ġbenedictione":8166,"Ġstra":8167,"Ġconsiliis":8168,"Ġnaues":8169,"Ġpercussit":8170,"Ġduplex":8171,"Ġarrip":8172,"itatu":8173,"Ġarab":8174,"ÎµÎ²":8175,"Ġconfitetur":8176,"Ġbeatitudinem":8177,"Ġquinquag":8178,"Î·Ïģ":8179,"Ġsupplicium":8180,"Ġteste":8181,"Ġtun":8182,"ceb":8183,"Ġxix":8184,"Ġmuni":8185,"Ġagnus":8186,"Ġinhaer":8187,"Ġanastas":8188,"Ġinterf":8189,"Ġstet":8190,"Ġignomin":8191,"Ġuenturus":8192,"Ġconcessit":8193,"Ġcustodire":8194,"Ġoccidere":8195,"Ġtestimoniis":8196,"oniis":8197,"Ġoppugn":8198,"Ġprioris":8199,"tari":8200,"Ġeram":8201,"Ġdoloris":8202,"Ġpresbytero":8203,"Ġconfessus":8204,"Ġreprehens":8205,"Ġsemetipso":8206,"Ġpublico":8207,"Ġphilosophus":8208,"Ġimmerito":8209,"Ġspiritui":8210,"ĠÏĢÏģÎ¿ÏĤ":8211,"chi":8212,"Ġperire":8213,"Ġloquor":8214,"Ġconduc":8215,"Ġreleg":8216,"Ġduci":8217,"Ġrefertur":8218,"Ġite":8219,"Ġprouis":8220,"Ġhierosolym":8221,"ÏīÏĥ":8222,"ricum":8223,"Ġexpedit":8224,"Ġdr":8225,"Ġeuac":8226,"quos":8227,"quot":8228,"Ġpy":8229,"Ġpann":8230,"Ġeur":8231,"Ġbitur":8232,"Ġquocumque":8233,"oci":8234,"Ġtheolog":8235,"Ġsonat":8236,"Ġmortific":8237,"ĠÎ¼ÎµÏĦ":8238,"Ġpaucos":8239,"Ġopinio":8240,"Ġitaliae":8241,"Ġpentec":8242,"Ġaeccles":8243,"Ġinterfici":8244,"Ġiniquitates":8245,"ugo":8246,"Ġobr":8247,"Ġsociis":8248,"Ġsollicitudine":8249,"Ġdonauit":8250,"Ġministri":8251,"Ġconueniunt":8252,"Ġdiuitiis":8253,"Ġmonet":8254,"Ġfamul":8255,"Ġhabuerunt":8256,"Ġcreatoris":8257,"berti":8258,"Ġdelicta":8259,"Ġfraude":8260,"Ġexerci":8261,"Ġnorm":8262,"Ġmagnitudinem":8263,"Ġobtinere":8264,"Ġaudientes":8265,"Ġloquar":8266,"Ġeuangeliz":8267,"Ġdextris":8268,"Ġarchiepiscopi":8269,"Ġorg":8270,"Ġbonif":8271,"Ġagat":8272,"Ġcognitio":8273,"Ġrobus":8274,"Ġsalomonis":8275,"Ġoporteat":8276,"Ġsecundam":8277,"auere":8278,"Ġnomini":8279,"unquam":8280,"Ġconuinc":8281,"Ġextor":8282,"Ġincumb":8283,"Ġmercur":8284,"Ġueneris":8285,"ĠÎ¿Î¼":8286,"ennium":8287,"Ġcompunc":8288,"Ġmatri":8289,"Ġpriuilegio":8290,"err":8291,"Ġsoph":8292,"icitur":8293,"Ġconuersatione":8294,"Ġbeneficiis":8295,"Ġsocietatem":8296,"Ġexcipi":8297,"Ġoccur":8298,"Ġeamque":8299,"Ġuiuens":8300,"ĠÏħÏĢÎ¿":8301,"Ġpuella":8302,"Ġindustria":8303,"Ġliberis":8304,"Ġdicentis":8305,"raret":8306,"Ġgaudere":8307,"Ġqualitate":8308,"imper":8309,"Ġpeccatoribus":8310,"Ġnouerat":8311,"Ġcrem":8312,"Ġlaz":8313,"Ġpoterunt":8314,"def":8315,"Ġlax":8316,"atiz":8317,"Ġinfelic":8318,"abitis":8319,"Ġpala":8320,"Ġplate":8321,"Ġcornu":8322,"Ġinterest":8323,"Ġinep":8324,"Ġfrem":8325,"ÏģÎ¿Î½":8326,"Ġcognoscat":8327,"bon":8328,"Ġeun":8329,"Ġartem":8330,"Ġobitum":8331,"Ġstabil":8332,"Ġdefinitio":8333,"Ġcalumni":8334,"anem":8335,"Ġaurem":8336,"Ġerrores":8337,"Ġsymb":8338,"cuiusque":8339,"Ġconce":8340,"Ġdebes":8341,"erna":8342,"rico":8343,"Ġspiritualiter":8344,"Ġsexaginta":8345,"Ġfle":8346,"acis":8347,"Ġoce":8348,"Ġquaeris":8349,"Ġfecund":8350,"Ġiuuenes":8351,"Ġparatus":8352,"Ġarcam":8353,"Ġnatiuitate":8354,"Ġcondidit":8355,"Ġsodom":8356,"cemodi":8357,"cium":8358,"uerim":8359,"Ġdict":8360,"Ġprofund":8361,"undiam":8362,"Ġcaptiuitatem":8363,"Ġianuarii":8364,"Ġhaus":8365,"ly":8366,"Ġdignetur":8367,"Ġaequaliter":8368,"Ġquandam":8369,"Ġpriori":8370,"Ġinjuste":8371,"Ġderelinqu":8372,"Ġques":8373,"Ġdeorsum":8374,"Ġpatrim":8375,"Ġquotiens":8376,"Ġmeminit":8377,"Ġreipublic":8378,"Ġnica":8379,"Ġspre":8380,"Ġtei":8381,"Ġpecuniae":8382,"Ġconcedimus":8383,"pul":8384,"Ġadn":8385,"Ġsoluere":8386,"Ġcaroli":8387,"Ġpetram":8388,"Ġlucas":8389,"Ġducere":8390,"Ġquorumdam":8391,"taur":8392,"fam":8393,"Ġexsul":8394,"Ġlectio":8395,"Ġfelici":8396,"Ġuelint":8397,"Ġfaus":8398,"Ġcommissa":8399,"Ġrepl":8400,"ĠÎ¿Î¹":8401,"Ġatting":8402,"Ġsaluum":8403,"Ġmoueri":8404,"Ġaudiat":8405,"Ġcadauer":8406,"aldi":8407,"Ġsaluos":8408,"Ġaperta":8409,"Ġmissis":8410,"sermo":8411,"Ġdelec":8412,"esceret":8413,"Ġdatis":8414,"Ġagnos":8415,"Ġabstulit":8416,"issione":8417,"ĠÎ»Î¿Î³":8418,"Ġdicerent":8419,"hiop":8420,"Ġflagell":8421,"Ġdiri":8422,"Ġdefl":8423,"Ġinfinita":8424,"Ġcadit":8425,"eda":8426,"sup":8427,"Ġinfinitum":8428,"Ġtenent":8429,"Ġmensur":8430,"Ġpercuti":8431,"Ġgladius":8432,"Ġscientes":8433,"Ġexsurg":8434,"Ġpede":8435,"Ġlibertatis":8436,"Ġaciem":8437,"Ġprofut":8438,"Ġdiscess":8439,"Ġcommuniter":8440,"Î¸ÏģÏī":8441,"ĠÂ§":8442,"olici":8443,"Ġdissens":8444,"Ġraim":8445,"Ġcrimin":8446,"Ġextrane":8447,"Ġquadragesim":8448,"Ġfung":8449,"Ġiudici":8450,"Ġconuentus":8451,"Ġillec":8452,"Ġsilentium":8453,"Ġimagin":8454,"jam":8455,"Ġcen":8456,"Ġscandaliz":8457,"Ġistorum":8458,"Ġmuliere":8459,"Ġredemptor":8460,"mate":8461,"Ġcense":8462,"Ġplor":8463,"Ġconsump":8464,"Ġpriorem":8465,"Ġappellatione":8466,"Î´Îµ":8467,"Ġsedere":8468,"Ġpraer":8469,"Ġrespondet":8470,"Ġciuibus":8471,"Ġsagitt":8472,"Î¿ÏħÎ½":8473,"Ġsingulari":8474,"Ġtribulatione":8475,"Ġdereli":8476,"Ġmortalium":8477,"Ġdetrac":8478,"Ġfuror":8479,"quoniam":8480,"untia":8481,"Ġcaritas":8482,"Ġconfestim":8483,"Ġpago":8484,"Ġconual":8485,"Ġauaritia":8486,"irca":8487,"Ġagrum":8488,"Ġuicit":8489,"Ġsubscrip":8490,"Ġlibertas":8491,"Ġcapitulum":8492,"enso":8493,"Ġpaene":8494,"Ġpossidere":8495,"Ġfluminis":8496,"Ġprouincias":8497,"praeterea":8498,"Ġecclesiasticae":8499,"Ġfestum":8500,"aturi":8501,"Ġcogitationibus":8502,"Ġperpetuam":8503,"Ġcicero":8504,"Ġdeberet":8505,"itr":8506,"Ġcaritate":8507,"Ġcontinu":8508,"ymp":8509,"Ġextremo":8510,"Ġpugna":8511,"Ġbaptizati":8512,"Ġconspici":8513,"Ġnarrat":8514,"erp":8515,"Ġloquuntur":8516,"Ġfacimus":8517,"Ġnouerit":8518,"Ġconsequenter":8519,"Ġlunam":8520,"Ġbeatorum":8521,"Ġnutr":8522,"aeo":8523,"Ġdignitas":8524,"Ġuenientem":8525,"Ġreuerentiam":8526,"ecce":8527,"Ġcondita":8528,"Ġprobare":8529,"Ġgaudet":8530,"titerunt":8531,"Ġaudita":8532,"Ġpraedicti":8533,"Ġbaptisma":8534,"Ġsufficere":8535,"Ġdilecto":8536,"Ġiner":8537,"Ġlegere":8538,"Ġinscrip":8539,"Ġinflamm":8540,"Ġiacet":8541,"Ġaccipe":8542,"Ġapprehend":8543,"Ġhoste":8544,"Ġantiquis":8545,"Ġuulnus":8546,"eunte":8547,"Ġsacrosanc":8548,"Ġot":8549,"Ġaurea":8550,"Ġsimulque":8551,"Ġsalutaris":8552,"Ġpio":8553,"Ġregionem":8554,"Ġdecimas":8555,"Ġcanis":8556,"Ġdimisit":8557,"Ġposterum":8558,"tamin":8559,"Ġreperitur":8560,"Ġconstitutis":8561,"Ġimagines":8562,"Ġfata":8563,"Ġasserit":8564,"tali":8565,"Ġprouer":8566,"Ġinuenti":8567,"Ġsuscipit":8568,"Ġcentur":8569,"Ġhes":8570,"Ġlumina":8571,"issi":8572,"Ġnoctu":8573,"Ġaugusto":8574,"Ġteneat":8575,"Ġterre":8576,"doc":8577,"xerit":8578,"Ġexire":8579,"Ġfacultas":8580,"Ġscis":8581,"Ġsusc":8582,"Ġcontrah":8583,"Ġdicantur":8584,"machus":8585,"Ġobi":8586,"Ġsempiternum":8587,"Ġignorat":8588,"Ġutr":8589,"Ġgentilium":8590,"Ġcupiditate":8591,"Ġcrucifixus":8592,"uiae":8593,"Ġlegit":8594,"Ġappend":8595,"Ġcoelestem":8596,"Ġlasci":8597,"Ġrug":8598,"Ġsuperest":8599,"Ġuituper":8600,"Ġintelligentia":8601,"Ġpetiit":8602,"Ġduplici":8603,"Ġlegitime":8604,"Ġresistere":8605,"Ġhuiuscemodi":8606,"Ġphys":8607,"Ġlxxx":8608,"psam":8609,"Ġmariam":8610,"Ġimpius":8611,"Ġquocunque":8612,"eriorum":8613,"Ġnouae":8614,"Ġtecta":8615,"Ġinsidiis":8616,"Ġinebri":8617,"Ġquaero":8618,"Ġcontex":8619,"Ġamplec":8620,"Ġprostr":8621,"Ġdeitatis":8622,"Ġperfer":8623,"Ġfuturorum":8624,"Ġmateriae":8625,"ifer":8626,"Ġcolla":8627,"Ġtenetur":8628,"Ġmeliora":8629,"Ġimitari":8630,"Ġfebru":8631,"arat":8632,"Ġdespic":8633,"Ġaugustus":8634,"Ġuniuscuiusque":8635,"Ġlacte":8636,"Ġmortale":8637,"Ġcodice":8638,"Ġdrac":8639,"Ġurbs":8640,"Ġplurimi":8641,"Ġcarolus":8642,"Ġsingularis":8643,"dei":8644,"Ġdesignat":8645,"Ġbasilica":8646,"Ġexitus":8647,"Ġullum":8648,"Ġrespicit":8649,"Ġcohib":8650,"Ġdesertum":8651,"Ġfors":8652,"Ġchristian":8653,"Ġremig":8654,"uenda":8655,"Ġperpend":8656,"estes":8657,"ĠÏĦÎ¿Î¹ÏĤ":8658,"Å¿t":8659,"amet":8660,"Ġpraedictis":8661,"scrip":8662,"Ġaera":8663,"Ġagros":8664,"Ġargento":8665,"Ġmolli":8666,"Ġconuerti":8667,"Ġoperationem":8668,"titisse":8669,"Ġcorinthi":8670,"xu":8671,"Ġdehinc":8672,"Ġparad":8673,"Ġamis":8674,"Ġaudiant":8675,"Ġuenturum":8676,"Ġsepulcro":8677,"Ġpericulis":8678,"Ġpraetere":8679,"Ġsicili":8680,"Ġforti":8681,"Ġmuneris":8682,"nihil":8683,"Ġorigine":8684,"Ġdetur":8685,"Ġcertis":8686,"Ġaccepto":8687,"Ġhaeresis":8688,"Ġcrucifig":8689,"marcus":8690,"cre":8691,"Ġcontag":8692,"Ġposuerunt":8693,"Ġscop":8694,"Ġregionibus":8695,"Ġconfl":8696,"Ġtotis":8697,"Ġinobedi":8698,"Ġpublicis":8699,"Ġliu":8700,"Ġromanam":8701,"Ġpulcherrim":8702,"Ġmartii":8703,"Ġcomprehens":8704,"Ġseruat":8705,"Ġsententias":8706,"Ġfortassis":8707,"Ġinsepar":8708,"Ġmorbo":8709,"Ġpoli":8710,"aneant":8711,"Ġsponsus":8712,"Ġpectora":8713,"ramque":8714,"Ġexercere":8715,"mat":8716,"ccc":8717,"Ġsolidos":8718,"Ġfateor":8719,"Ġphilosophi":8720,"Ġorta":8721,"Ġmysterio":8722,"Ġpei":8723,"Ġuiuo":8724,"crut":8725,"Ġaeterni":8726,"Ġuisione":8727,"Ġrhet":8728,"Ġorthodox":8729,"rific":8730,"Ġpraedicat":8731,"Ġsequentes":8732,"Ġmunda":8733,"Ġuiuat":8734,"horr":8735,"Ġcubi":8736,"Ġcatholici":8737,"ensque":8738,"Ġsecundae":8739,"Ġsuccessit":8740,"annus":8741,"Ġsecundi":8742,"Ġuidetis":8743,"Ġclarific":8744,"Ġtela":8745,"Ġundec":8746,"Ġlibero":8747,"Ġcirciter":8748,"Ġlass":8749,"Ġfacientes":8750,"Ġsupplicia":8751,"Ġprophetia":8752,"Ġplaga":8753,"Ġbibliothec":8754,"Ġsponsa":8755,"Ġguid":8756,"Ġignosc":8757,"Ġualere":8758,"Ġplebs":8759,"Ġimbec":8760,"Ġreliquias":8761,"gna":8762,"Ġpetere":8763,"Ġfalso":8764,"Ġmitte":8765,"Ġalexander":8766,"Ġuideris":8767,"Ġplurimos":8768,"odes":8769,"Ġexitum":8770,"Ġappetit":8771,"Ġcher":8772,"Ġmont":8773,"Ġopusc":8774,"Ġbreuis":8775,"tax":8776,"Ġinferre":8777,"Ġceterum":8778,"norum":8779,"tend":8780,"Ġpapam":8781,"Ġseruitutis":8782,"Ġsequens":8783,"Ġtimet":8784,"Ġmetus":8785,"Ġinuidiam":8786,"Ġflex":8787,"Ġregr":8788,"Ġie":8789,"Î±ÏĥÎ¹":8790,"Ġimplet":8791,"Ġreipublicae":8792,"Ġcreatorem":8793,"Ġdefendere":8794,"Ġepiscopatu":8795,"uz":8796,"Ġsaecularis":8797,"Ġimplor":8798,"Ġintelligentiae":8799,"utiones":8800,"Ġtristis":8801,"Ġresurrectio":8802,"Ġdiuisio":8803,"ulisti":8804,"Ġpericula":8805,"Ġpostulat":8806,"imum":8807,"Ġrectitud":8808,"Ġculpae":8809,"Ġgessit":8810,"Ġpedem":8811,"Ġsupernae":8812,"Ġuices":8813,"Ġcuiquam":8814,"Ġillustri":8815,"Ġusibus":8816,"Ġprioribus":8817,"Ġualentini":8818,"erare":8819,"Ġoblitus":8820,"Ġfortitudinem":8821,"Ġpertrans":8822,"Ġsecuri":8823,"Ġintulit":8824,"Ġprohibet":8825,"Ġconcordiam":8826,"her":8827,"Ġelectionem":8828,"Ġclara":8829,"Ġperdidit":8830,"augus":8831,"Ġinuic":8832,"Ġpermisit":8833,"Ġproxima":8834,"Ġuor":8835,"idas":8836,"Ġnonas":8837,"Ġcreata":8838,"ymph":8839,"imi":8840,"Ġarce":8841,"Ġplenam":8842,"Ġdebeamus":8843,"Ġfluctus":8844,"Ġodit":8845,"Ġmeritorum":8846,"Ġpse":8847,"ong":8848,"Ġortu":8849,"Ġstrep":8850,"Ġpresbyteris":8851,"Ġcapitula":8852,"ensu":8853,"Ġuultum":8854,"Ġspeciei":8855,"piter":8856,"Ġinquiunt":8857,"Ġdicendi":8858,"Ġspati":8859,"temus":8860,"pressit":8861,"Ġauditis":8862,"Ġmirabilia":8863,"Ġmulierum":8864,"Ġobd":8865,"Ġcapta":8866,"Ġrod":8867,"Ġrad":8868,"psal":8869,"Ð¾":8870,"essi":8871,"Ġalloqu":8872,"Ġstipend":8873,"Ġillico":8874,"Ġathanas":8875,"Ġtalium":8876,"Ġrecol":8877,"Ġconuersationis":8878,"Ġfontes":8879,"entissimo":8880,"Ġcertamine":8881,"Ġlabia":8882,"Ġmetal":8883,"itores":8884,"Ġbos":8885,"Ġnep":8886,"Ġpurific":8887,"Ġductus":8888,"Ġlocup":8889,"Ġcaptus":8890,"Ġprincipia":8891,"Ġsilu":8892,"Ġinclud":8893,"Ġadiec":8894,"Ġdato":8895,"Ġinfund":8896,"Ġuictum":8897,"Ġtumultu":8898,"Ġautum":8899,"Ġcarp":8900,"Ġessentiam":8901,"Ġtin":8902,"Ġcomites":8903,"Ġdilecti":8904,"Ġaltitudinem":8905,"pad":8906,"esit":8907,"essa":8908,"Ġcels":8909,"Ġsacrificia":8910,"Ġlitig":8911,"Ġattest":8912,"Ġconclusio":8913,"Ġmagnitudo":8914,"Ġsacrorum":8915,"Ġapocaly":8916,"Ġbonitate":8917,"Ġpraecess":8918,"Ġrati":8919,"Ġrestaur":8920,"ilitatis":8921,"Ġepistolis":8922,"Ġlector":8923,"Ġcurios":8924,"neque":8925,"Ġplacitum":8926,"abilius":8927,"Ġignorantia":8928,"Ġcaritatis":8929,"Ġsententiis":8930,"Ġdimitte":8931,"Ġinuenies":8932,"Ġretr":8933,"Ġprogeni":8934,"Ġartibus":8935,"Ġsanctitate":8936,"meti":8937,"Ġcircuit":8938,"Ġexplan":8939,"Ġindicium":8940,"Ġah":8941,"Ġspatia":8942,"Ġinsinu":8943,"Ġdomibus":8944,"Ġunda":8945,"Ġpraedam":8946,"Ġsubjici":8947,"Ġlibr":8948,"Ġeique":8949,"Ġmedioc":8950,"Ġcognitione":8951,"Ġparticipes":8952,"Ġacie":8953,"Ġgenitus":8954,"ĠÏĢÎ±Î½ÏĦ":8955,"Ġgeorg":8956,"ee":8957,"Ġuentum":8958,"Ġantiqua":8959,"Ġlinguis":8960,"Ġnationes":8961,"Ġchalced":8962,"ĠÎºÎ±Î¸":8963,"Ġiidem":8964,"Ġrationalis":8965,"ï¿½ï¿½":8966,"Ġammon":8967,"Ġministros":8968,"Ġpriuilegia":8969,"Ġcustos":8970,"Ġartes":8971,"Ġmaximam":8972,"Ġarelat":8973,"ĠÎ¸ÎµÎ¿Ïħ":8974,"Ġparochi":8975,"Ġamitt":8976,"pecta":8977,"Ġcunctos":8978,"Ġmensam":8979,"Ġassumpsit":8980,"Ġspiritali":8981,"Ġmouetur":8982,"Ġaccipiens":8983,"Ġuineam":8984,"Ġequus":8985,"Ġidolorum":8986,"Ġputa":8987,"Ġsani":8988,"Ġseque":8989,"Ġsapere":8990,"Ġdonis":8991,"Ġargument":8992,"Ġcarmina":8993,"Ġloquimur":8994,"Ġalexandri":8995,"Ġeloquia":8996,"Ġmarm":8997,"ĠÏĦÎµ":8998,"urrere":8999,"Ġoctog":9000,"Ġintelligatur":9001,"Ġabscond":9002,"Ġchrys":9003,"inensis":9004,"Ġaliunde":9005,"Ġund":9006,"Ġfacerent":9007,"Ġtram":9008,"Ġlibrorum":9009,"ert":9010,"Ġneb":9011,"Ġinuad":9012,"Ġrepell":9013,"Ġspiritualibus":9014,"ĠÎ±Ïģ":9015,"Ġpertinentibus":9016,"Ġadmonet":9017,"Ġobsecr":9018,"raim":9019,"Ġalterut":9020,"phil":9021,"Ġnepot":9022,"entesimo":9023,"Ġsalui":9024,"Ġcognita":9025,"Ġrecognosc":9026,"Ġhabentem":9027,"Ġregiae":9028,"Ġsacramenti":9029,"Ġpyr":9030,"osam":9031,"Ġregnare":9032,"Ġsperare":9033,"Ġcith":9034,"Ġexercituum":9035,"fecit":9036,"Ġradice":9037,"tinae":9038,"Ġcarnalibus":9039,"Ġquindecim":9040,"Ġprofundum":9041,"Ġutuntur":9042,"Ġuixit":9043,"Ġcaud":9044,"Ġoperatio":9045,"ÏģÎ¹ÏĥÏĦ":9046,"Ġstatuimus":9047,"Ġuoto":9048,"Ġexag":9049,"Ġchristianum":9050,"Ġuerg":9051,"Ġleonem":9052,"Ġuisio":9053,"Ġpublicum":9054,"Ġpontifices":9055,"Ġpuero":9056,"Ġfluctu":9057,"Ġtempestate":9058,"Ġmic":9059,"Ġutrisque":9060,"Ġfamam":9061,"Ġcommemorat":9062,"Ġuene":9063,"Ġlectione":9064,"Ġquocirca":9065,"Ġrecuper":9066,"Ġimperatori":9067,"Ġseruitutem":9068,"Ġderelic":9069,"Ġsynagog":9070,"uente":9071,"Ġepiscopatum":9072,"Ġnegotia":9073,"Ġarn":9074,"Ġuoluerint":9075,"Ġidipsum":9076,"xii":9077,"peret":9078,"Ġferri":9079,"Ġnolunt":9080,"Ġcorporaliter":9081,"Ġnouis":9082,"Ġrationabiliter":9083,"bas":9084,"uebat":9085,"Ġpaenit":9086,"Ġpropositiones":9087,"Ġinquiet":9088,"pra":9089,"Ġdicet":9090,"Ġuestibus":9091,"Ġdiuinitate":9092,"Ġfecisset":9093,"Ġordinatus":9094,"Ġquaestione":9095,"eius":9096,"ituri":9097,"Ġpositis":9098,"Ġsumpsit":9099,"Ġpraesente":9100,"Ġthalam":9101,"Ġdeserui":9102,"Ġrequies":9103,"Ġiohannis":9104,"Ġquiete":9105,"Ġidolis":9106,"Ġpraesidio":9107,"Ġconfirmamus":9108,"ursus":9109,"ularia":9110,"iderat":9111,"Ġortum":9112,"Ġaltius":9113,"Ġargumenta":9114,"Ġorat":9115,"Ġaethiop":9116,"Ġconsules":9117,"ericus":9118,"hibi":9119,"ede":9120,"Ġabdic":9121,"Ġpraua":9122,"Ġinterpell":9123,"Ġrapi":9124,"Ġpaterna":9125,"Ġuiuendi":9126,"Ġdifferentiam":9127,"Ġchristiano":9128,"Ġeorumque":9129,"Î±Î¹ÏĤ":9130,"Ġiugo":9131,"Ġindulgentiam":9132,"omet":9133,"Ġpraesentes":9134,"itaque":9135,"Ġperfectio":9136,"uici":9137,"Ġiiii":9138,"Ġmandauit":9139,"eremur":9140,"Ġnemini":9141,"Ġtus":9142,"Ġbland":9143,"Ġrobur":9144,"Ġrebell":9145,"Ġparadisi":9146,"Ġperdere":9147,"Ġmc":9148,"Ġsanctarum":9149,"Ġdesol":9150,"contra":9151,"oniorum":9152,"Ġcorrupti":9153,"aba":9154,"ĠÎµÏĥÏĦ":9155,"Ġuictoriae":9156,"Ġuellent":9157,"Ġgraecorum":9158,"enius":9159,"Ġdeuotionis":9160,"Ġamicitia":9161,"Ġmoenia":9162,"Ġcatholicis":9163,"Ġhumiles":9164,"Ġequos":9165,"Ġexcommunicationis":9166,"Ġuiti":9167,"Ġmulieribus":9168,"Î¸ÏģÏīÏĢ":9169,"Ġelectis":9170,"Ġexamine":9171,"Ġflec":9172,"tissimam":9173,"Ġelectione":9174,"Ġextermin":9175,"uac":9176,"Ġspirituali":9177,"Ġinuisibilis":9178,"Ġquietem":9179,"uerem":9180,"Ġcurae":9181,"Ġfugere":9182,"Ġelias":9183,"Ġmyr":9184,"onensi":9185,"Ġaudistis":9186,"Ġponam":9187,"citis":9188,"Ġdimittere":9189,"Ġlatet":9190,"Ġpaginam":9191,"Ġhumanitatem":9192,"sibus":9193,"Ġcreatus":9194,"Ġmissam":9195,"Ġscribens":9196,"Ġsubstit":9197,"Ġnascuntur":9198,"quebantur":9199,"Ġuniuersam":9200,"ueniens":9201,"Ġpenetr":9202,"Ġutramque":9203,"Ġseptent":9204,"Ġmortalis":9205,"una":9206,"Ġsempiterna":9207,"Ġparth":9208,"Ġostendens":9209,"Ġconjung":9210,"Ġpurpur":9211,"icula":9212,"Ġcredat":9213,"ÎºÎ»Î·":9214,"Ġuiuentium":9215,"Ġmortua":9216,"Ġierosol":9217,"Ġuom":9218,"Ġrefrig":9219,"uigil":9220,"Ġdirip":9221,"Ġmalam":9222,"Ġpraedicatum":9223,"Ġfirmiter":9224,"Ġbabylonis":9225,"Ġerog":9226,"Ġspel":9227,"Ġcupit":9228,"Ġantonius":9229,"Ġsubjecta":9230,".---":9231,"erae":9232,"Ġcomite":9233,"Ġpraedicari":9234,"Ġexcess":9235,"Ġpelagi":9236,"Ġsollici":9237,"Ġfaciebat":9238,"Ġmedicus":9239,"Ġparuulis":9240,"oda":9241,"Ġdeprehend":9242,"Ġxxi":9243,"Ġxxu":9244,"Ġdominico":9245,"Ġsummus":9246,"Ġequo":9247,"Ġpraesidium":9248,"Ġnauis":9249,"Ġerimus":9250,"Ġcoerc":9251,"Ġleon":9252,"Ġreddat":9253,"Ġcherub":9254,"Ġtempla":9255,"ÏģÎµ":9256,"Ġlumin":9257,"Ġreddi":9258,"Ġpriore":9259,"Ġcaetero":9260,"Ġcircumst":9261,"Ġnaufrag":9262,"Ġscripturam":9263,"Ġorigo":9264,"Ġfluctibus":9265,"tatus":9266,"Ġpatefac":9267,"Ġirrig":9268,"Ġfenes":9269,"Ġconsortio":9270,"otam":9271,"Ġabol":9272,"Ġpleni":9273,"uidam":9274,"Ġalieno":9275,"Ġreme":9276,"Ġepiph":9277,"quando":9278,"Ġfacienda":9279,"Ġfructibus":9280,"Ġreliquum":9281,"Ġdomnus":9282,"aldo":9283,"Ġquibuslibet":9284,"Ġfierent":9285,"Ġsocios":9286,"plac":9287,"Ġdixitque":9288,"Ġcoss":9289,"Ġsimon":9290,"Ġquaestiones":9291,"Ġelectos":9292,"Ġpatriarcha":9293,"Ġpisces":9294,"Ġquing":9295,"Ġundecim":9296,"Ġsumps":9297,"Ġcredamus":9298,"Ġnonnulla":9299,"Ġoctaua":9300,"Ġuert":9301,"Ġpriores":9302,"Ġcriminis":9303,"atiuam":9304,"Ġprincipatum":9305,"Ġfrequent":9306,"Ġcaesarem":9307,"hanc":9308,"Ġexprob":9309,"Ġfilias":9310,"ÏħÏģÎ¹":9311,"Ġpresbyteros":9312,"Ġsacramentis":9313,"Ġmatthaeus":9314,"Ġdominici":9315,"Ġpraedicto":9316,"Ġdulcis":9317,"ueram":9318,"Ġdiscus":9319,"Ġastra":9320,"Ġfortitudine":9321,"Ġgrem":9322,"Ġcuris":9323,"Ġhaeresim":9324,"Ġlangob":9325,"Ġdiscrep":9326,"Ġinimicum":9327,"etiam":9328,"Ġabsc":9329,"Ġinueniuntur":9330,"Ġcustodit":9331,"Ġconstantinus":9332,"Ġmentionem":9333,"Ġuniuersali":9334,"Ġdolo":9335,"Ġdimin":9336,"Ġstrid":9337,"Ġrelicta":9338,"Ġsugges":9339,"Ġpharisae":9340,"Ġitineris":9341,"Ġconsulibus":9342,"Ġextrinsecus":9343,"Ġexceptis":9344,"Ġmeri":9345,"Ġsuperfici":9346,"prin":9347,"Ġcerti":9348,"Ġapostolicis":9349,"Ġpalp":9350,"Ġconferre":9351,"Ġimpleuit":9352,"Ġimperat":9353,"Ġregiam":9354,"Ġuisu":9355,"Ġgregem":9356,"atui":9357,"Ġamico":9358,"Ġuolebat":9359,"Ġcontentus":9360,"Ġgeneralis":9361,"Ġappellant":9362,"Ġquadring":9363,"Ġunigenitus":9364,"Ġnestor":9365,"Ġrepon":9366,"Ġbonitatis":9367,"Ġdeserta":9368,"Ġquiddam":9369,"Ġmensa":9370,"Ġacceperit":9371,"Ġpatienter":9372,"Ġtabulis":9373,"Ġconsueuit":9374,"Ġomnimodis":9375,"quibus":9376,"Ġtantus":9377,"Ġexsecr":9378,"Ġpep":9379,"ingit":9380,"quaes":9381,"Ġrationale":9382,"Ġoportebat":9383,"Ġadipisci":9384,"Ġheri":9385,"Ġauspic":9386,"secundum":9387,"Ġrecessit":9388,"Ġbenedictio":9389,"Ġamput":9390,"liter":9391,"benedic":9392,"Ġlegatis":9393,"Ġuiuentes":9394,"ciperent":9395,"mos":9396,"Ġdirex":9397,"Ġpermanet":9398,"Ġadjutorium":9399,"disc":9400,"Ġago":9401,"Ġobstr":9402,"Ġuicissim":9403,"Ġproferre":9404,"Ġobseruare":9405,"Ġexsequ":9406,"Ġmontium":9407,"Ġaccepisse":9408,"Ġradix":9409,"Ġpraedicatio":9410,"Ġterminis":9411,"praes":9412,"Ġuidisset":9413,"Ġnesciunt":9414,"jur":9415,"yph":9416,"Ġnosti":9417,"iciis":9418,"Ġnaturalem":9419,"Ġnoluerunt":9420,"Ġsonus":9421,"Ġcarcerem":9422,"Ġcolumba":9423,"Ġnonnunquam":9424,"Ġeup":9425,"Ġeaque":9426,"tissimae":9427,"Ġmereamur":9428,"Ġeras":9429,"Ġinfelix":9430,"Ġueniant":9431,"Ġappellantur":9432,"Ġingem":9433,"Ġangli":9434,"Ġpersecutionem":9435,"Ġfortunae":9436,"Ġpale":9437,"Ġderi":9438,"Ġcogitatio":9439,"Ġflagr":9440,"don":9441,"Ġscelere":9442,"Ġhabentur":9443,"Ġcohor":9444,"Ġnobiles":9445,"Ġinuenerunt":9446,"Ġanimalibus":9447,"Ġflumine":9448,"Ġopinor":9449,"estr":9450,"Ġregnante":9451,"Ġodorem":9452,"Ġgermani":9453,"Ġdate":9454,"Ġimpetus":9455,"iculo":9456,"ulerat":9457,"Ġconform":9458,"Ġoccult":9459,"Ġanathematiz":9460,"Ġdonatist":9461,"isco":9462,"Ġconuentu":9463,"Ġcain":9464,"Ġsibimet":9465,"idos":9466,"Ġoritur":9467,"Ġuenia":9468,"Ġxli":9469,"Ġaudierunt":9470,"Ġtradita":9471,"Ġinterpre":9472,"Ġmaiestate":9473,"Ġequites":9474,"acium":9475,"ole":9476,"Ġsollicitudinem":9477,"ianus":9478,"Ġuati":9479,"licis":9480,"Ġproprii":9481,"Ġitemque":9482,"za":9483,"Ġope":9484,"Ġcredatur":9485,"Ġsuppos":9486,"Ġserpens":9487,"Ġredeunt":9488,"iste":9489,"Ġactiones":9490,"Ġdomina":9491,"Ġnof":9492,"Ġdiuinarum":9493,"Ġappreh":9494,"Ġpestil":9495,"orp":9496,"cipitur":9497,"Ġiussa":9498,"Ġmodern":9499,"Ġfundamenta":9500,"Ġexerce":9501,"Ġequis":9502,"Ġrelictis":9503,"pas":9504,"Ġcarnaliter":9505,"Ġsurge":9506,"ditate":9507,"Ġsynagoga":9508,"Ġuestem":9509,"Ġalum":9510,"Ġsitum":9511,"Ġdixerim":9512,"Ġclementiam":9513,"ĠÏī":9514,"Ġgar":9515,"Ġdominis":9516,"iamur":9517,"Ġlaetitiam":9518,"ĠÏĥÏħ":9519,"Ġuoluptas":9520,"Ġreuocare":9521,"Ġsecreto":9522,"Ġfuturus":9523,"Ġprofectum":9524,"cal":9525,"Ġminores":9526,"Ġdiligunt":9527,"minibus":9528,"Ġconsequentia":9529,"Ġsufficiat":9530,"fug":9531,"Ġopibus":9532,"Ġuisionem":9533,"Ġloqueretur":9534,"letus":9535,"Ġabundantia":9536,"Ġtestific":9537,"mento":9538,"Î±ÏĢ":9539,"Ġbenigne":9540,"Ġseptentri":9541,"Ġconfici":9542,"gnum":9543,"Ġporrig":9544,"Ġingeni":9545,"Ġdiabolic":9546,"Ġzelo":9547,"Ġfesto":9548,"Ġlepr":9549,"Ġhorre":9550,"Ġobliui":9551,"Ġtestibus":9552,"lli":9553,"son":9554,"Ġuertice":9555,"Ġperfectam":9556,"Ġconfessionis":9557,"Ġnauibus":9558,"Ġtheodor":9559,"ox":9560,"unci":9561,"Ġflux":9562,"Ġobsequio":9563,"Ġsponsi":9564,"itto":9565,"Ġbenedixit":9566,"Ġieiunio":9567,"Ġlapide":9568,"Ġaestu":9569,"eria":9570,"Ġceper":9571,"Ġdicebatur":9572,"Ġindignum":9573,"Ġiuu":9574,"taretur":9575,"Ġseruitio":9576,"Ġuidisse":9577,"Ġeademque":9578,"Ġueterem":9579,"Ġinferius":9580,"Ġministris":9581,"ulsa":9582,"Ġsedens":9583,"Ġparuo":9584,"Ġultimo":9585,"Ġmes":9586,"Ġsignificationem":9587,"Ġtollit":9588,"Ġhierony":9589,"Ġfirmamentum":9590,"Ġcaesari":9591,"Ġinjuria":9592,"tiuum":9593,"Ġcoti":9594,"Ġhonoribus":9595,"Ġexstinc":9596,"Ġuerius":9597,"Ġillarum":9598,"Ġregulae":9599,"Ġprimitus":9600,"Ġquartus":9601,"Ġhebraeos":9602,"Ġintrinsecus":9603,"axat":9604,"ĠÎ±Î³Î¹":9605,"aculorum":9606,"Ġstellae":9607,"Ġlocuti":9608,"hunc":9609,"Ġcaeci":9610,"Ġuniuersos":9611,"Ġtemporalia":9612,"Ġteneri":9613,"Ġconatus":9614,"Ġlibet":9615,"Ġscripsi":9616,"Ġoccasio":9617,"Ġproprietatem":9618,"Ġliberam":9619,"Ġcognouimus":9620,"Ġuentre":9621,"Ġaddic":9622,"Ġreginae":9623,"Ġpauperem":9624,"Ġsentiunt":9625,"Ġcopiis":9626,"mas":9627,"Ġcalix":9628,"Ġmetaph":9629,"Ġsolius":9630,"Ġdecreto":9631,"mata":9632,"Ġquamlibet":9633,"Ġpaulin":9634,"Ġpatiuntur":9635,"Ġconuersi":9636,"Ġconcessum":9637,"Ġbasilicam":9638,"Ġregionis":9639,"Ġleguntur":9640,"Ġiudicibus":9641,"Ġcolore":9642,"Ġbeatis":9643,"Ġprocessit":9644,"Ġsuperior":9645,"corp":9646,"ĠÏīÏĤ":9647,"Ġdicturus":9648,"Ġoperatus":9649,"Ġaedificauit":9650,"alb":9651,"Ġenc":9652,"Ġuidebunt":9653,"Ġequitum":9654,"Ġpuellae":9655,"Ġsinistra":9656,"Ġabstr":9657,"Ġpraedictus":9658,"Ġcaecus":9659,"Ġincogn":9660,"Ġcongrua":9661,"Ġseipso":9662,"Ġpura":9663,"Ġmalitiam":9664,"Ġcandel":9665,"itul":9666,"Ġpromittit":9667,"Ġerroribus":9668,"ficiorum":9669,"Ġacquisi":9670,"Ġportum":9671,"Ġgallia":9672,"Ġastu":9673,"Ġpiis":9674,"Ġunitatis":9675,"Ġreson":9676,"Ġpsalmum":9677,"Ġaequalem":9678,"Ġfunc":9679,"Ġrepraes":9680,"Ġcoeperit":9681,"Ġuulnere":9682,"Ġfamiliae":9683,"ÏģÎ·":9684,"Ġbibere":9685,"Ġaffirmatio":9686,"Ġexponit":9687,"Ġintentionem":9688,"minis":9689,"Ġconp":9690,"Ġneglec":9691,"Ġlaterani":9692,"Ġpipp":9693,"Ġimprim":9694,"Ġdoctorum":9695,"Ġcuncti":9696,"gregorius":9697,"Ġceciderunt":9698,"Ġinquiens":9699,"cii":9700,"Ġdolores":9701,"Ġpulchra":9702,"Ġby":9703,"ibiles":9704,"Ġpermittit":9705,"Ġtituli":9706,"Ġequum":9707,"Ġuulgus":9708,"Ġchaldae":9709,"Ġrepromiss":9710,"hus":9711,"Ġrectam":9712,"Ġparuuli":9713,"Ġcanonica":9714,"Ġesau":9715,"Ġsanctim":9716,"Ġterga":9717,"istam":9718,"Ġcomplec":9719,"Ġintelligamus":9720,"Ġmandato":9721,"ĠÏĢÏģÎ¿Ïĥ":9722,"uendis":9723,"Ġlumb":9724,"Ġillib":9725,"Ġmonasteria":9726,"Ġattende":9727,"Ġtermino":9728,"Ġlance":9729,"Ġdioc":9730,"Ġgraecos":9731,"Ġara":9732,"Ġaerum":9733,"Ġsumere":9734,"Ġpharisaei":9735,"inia":9736,"Ġimportun":9737,"Ġobedientia":9738,"Ġspelunc":9739,"ecto":9740,"Ġsenatum":9741,"aciam":9742,"deg":9743,"Ġeuenit":9744,"Ġmeminis":9745,"Ġprudens":9746,"Ġinuentum":9747,"Ġauditum":9748,"Ġmisere":9749,"Ġsceleris":9750,"Ġperfr":9751,"hon":9752,"Ġactionem":9753,"Ġenarr":9754,"Ġbonitas":9755,"Ġsummis":9756,"Ġloquendi":9757,"Ġdecembris":9758,"Ġrecto":9759,"Ġlabiis":9760,"ÎµÏĥÏĦ":9761,"Ġcontingere":9762,"Ġstirpe":9763,"Ġacceptum":9764,"Ġtemporalibus":9765,"Ġlacrymas":9766,"Ġattinet":9767,"Ġsero":9768,"Ġdebito":9769,"Ġomnipotentem":9770,"Ġexcepto":9771,"Ġcornua":9772,"iscus":9773,"Ġualent":9774,"Ġpalatium":9775,"Ġsolito":9776,"Ġqualitatem":9777,"Ġordinatione":9778,"Ġcuria":9779,"Ġ-.":9780,"Ġoppido":9781,"quomodo":9782,"inorum":9783,"Ġdele":9784,"Ġparatum":9785,"Ġiamque":9786,"illim":9787,"cle":9788,"Ġconiun":9789,"Ġsabbatum":9790,"Ġnis":9791,"Ġexin":9792,"turis":9793,"Ġliberauit":9794,"Ġhostiam":9795,"Ġquaerendum":9796,"Ġintuitu":9797,"ÏħÏĥ":9798,"Ġdeform":9799,"ĠÏĢÎ¿Î»":9800,"Ġinfirmitatis":9801,"Ġutilitas":9802,"Ġruinam":9803,"Ġescam":9804,"Ġinstaur":9805,"Ġprotulit":9806,"Ġfastig":9807,"Ġpermis":9808,"Ġappellari":9809,"ĠÎ¿ÏħÏĦ":9810,"Ġdamnum":9811,"gaius":9812,"ont":9813,"ulsi":9814,"Ġimpium":9815,"Ġof":9816,"Ġfames":9817,"Ġsanitatem":9818,"Ġtellus":9819,"Ġullam":9820,"Ġaues":9821,"Ġacceperat":9822,"Ġuinea":9823,"Ġquies":9824,"Ġprudentiam":9825,"Ġatheni":9826,"emque":9827,"oscop":9828,"Ġtrahit":9829,"Ġplato":9830,"Ġoculo":9831,"Ġouium":9832,"Ġgenerali":9833,"Ġcustodiat":9834,"Ġcognoscimus":9835,"Ġcolumbae":9836,"Ġiz":9837,"haere":9838,"Ġsingulariter":9839,"Ġquanti":9840,"Ġdices":9841,"Ġclamor":9842,"Ġdelictum":9843,"Ġquartam":9844,"Ġdiuitiae":9845,"Ġrefic":9846,"Ġbuc":9847,"Ġtep":9848,"Ġpermaneant":9849,"Ġisraeli":9850,"ĠÏĦÎ¿ÏħÏĤ":9851,"Ġses":9852,"Ġscep":9853,"issemus":9854,"Ġconculc":9855,"af":9856,"Ġconstet":9857,"Ġimmod":9858,"Ġdiscordi":9859,"Ġrelicto":9860,"Ġinl":9861,"Ġhoris":9862,"uh":9863,"Ġdabitur":9864,"Ġquendam":9865,"Ġdiiudic":9866,"Ġplene":9867,"Ġleuit":9868,"Ġdeclarat":9869,"Ġpridie":9870,"Ġactis":9871,"Ġintelligunt":9872,"Ġsenectut":9873,"Ġcampo":9874,"ï¬":9875,"Ġdeest":9876,"Ġattamen":9877,"Ġaquila":9878,"Ġdomno":9879,"Ġregiones":9880,"Ġiudicum":9881,"igni":9882,"Ġintem":9883,"Ġincol":9884,"Ġnecessitatibus":9885,"Ġconstantia":9886,"Ġgermin":9887,"Ġconjun":9888,"Ġoccident":9889,"Ġsollicite":9890,"Ġtub":9891,"Ġapte":9892,"Ġcurauit":9893,"Ġaure":9894,"Ġnatiuitas":9895,"Ġsubjungit":9896,"Ġmarch":9897,"Ġlatius":9898,"Ġlectum":9899,"nes":9900,"Ġimpro":9901,"Ġmouere":9902,"Ġnatali":9903,"Ġgau":9904,"Ġremota":9905,"Ġfeb":9906,"Ġparati":9907,"Ġmorietur":9908,"Ġax":9909,"Ġinteresse":9910,"Ġpotum":9911,"erisque":9912,"conf":9913,"Ġcriminibus":9914,"Ġdeteri":9915,"Ġdespon":9916,"Ġmalitiae":9917,"Ġopinione":9918,"Ġpersarum":9919,"Ġconsequi":9920,"Ġconsistere":9921,"Ġpugnam":9922,"Ġmeliorem":9923,"Ġocculte":9924,"esimum":9925,"Ġcodices":9926,"ÑĤ":9927,"Ġnouissima":9928,"ĠÏĦÎ±ÏħÏĦ":9929,"Ġpeccauit":9930,"Ġsciebat":9931,"Ġcontigerit":9932,"utionibus":9933,"ĠÏħÎ¼":9934,"Ġuar":9935,"Ġuiuis":9936,"Ġuolui":9937,"Ġincess":9938,"Ġhoroscop":9939,"Ġseptima":9940,"Ġassidue":9941,"Ġguillelmus":9942,"Ġcatholicorum":9943,"Ġsarc":9944,"ja":9945,"issimas":9946,"Ġferme":9947,"illos":9948,"Ġsanctitas":9949,"Ġhann":9950,"acio":9951,"Ġpactum":9952,"Ġcopiam":9953,"Ġcastitatis":9954,"Ġoperatione":9955,"Ġdiffert":9956,"Ġtitulus":9957,"Ġsos":9958,"Ġparac":9959,"Ġageret":9960,"Ġnouus":9961,"Ġantecess":9962,"usus":9963,"taque":9964,"Ġcompend":9965,"Ġwillel":9966,"Ġgemitus":9967,"Ġtrinitatem":9968,"untibus":9969,"acch":9970,"Ġaudito":9971,"Ġhebraeo":9972,"Ġflammis":9973,"Ġquatern":9974,"Ġdiuitiarum":9975,"ment":9976,"Ġerep":9977,"turos":9978,"Ġaequales":9979,"Î¸Î·":9980,"Ġdecretis":9981,"Ġeffectu":9982,"tern":9983,"Ġritu":9984,"Ġpastoris":9985,"Ġbaptizatus":9986,"Ġuentura":9987,"Ġperen":9988,"Ġcumul":9989,"estri":9990,"Ġpraecipitur":9991,"Ġmystice":9992,"Ġscitis":9993,"Ġrespondeb":9994,"Ġsuperiora":9995,"Ġaequiuoc":9996,"ÎºÎ»Î·ÏĥÎ¹":9997,"Ġreum":9998,"Ġsublimi":9999,"uata":10000,"Ġdiscuti":10001,"Ġaperire":10002,"Ġcanonici":10003,"spir":10004,"acensi":10005,"Ġfrum":10006,"Ġcaede":10007,"Ġintelligat":10008,"Ġhispania":10009,"Ġmercede":10010,"Ġcrescit":10011,"Ġignob":10012,"Ġlucrum":10013,"Ġmiraculum":10014,"Ġsuccessores":10015,"Ġieiuniis":10016,"Ġmatrimonium":10017,"huius":10018,"Ġinquantum":10019,"Ġmodes":10020,"Ġconsensum":10021,"ĠÎµÎºÎºÎ»Î·ÏĥÎ¹":10022,"Ġexordio":10023,"Ġoctobris":10024,"Ġphr":10025,"Ġformas":10026,"Ġlact":10027,"berto":10028,"Ġquadrup":10029,"Ġpraerog":10030,"Ġms":10031,"ebor":10032,"Ġlongin":10033,"Ġinnocens":10034,"anensi":10035,"Ġfalsis":10036,"Ġseruitute":10037,"Ġcontamin":10038,"Ġloquatur":10039,"Ġpraefati":10040,"Ġsaturn":10041,"Ġtranseunt":10042,"Ġerem":10043,"Ġlaudat":10044,"Ġprecor":10045,"Ġobedire":10046,"Ġfoedus":10047,"Ġfe":10048,"Ġscripto":10049,"Ġdefinitione":10050,"Ġtentauerit":10051,"sp":10052,"utit":10053,"Ġcohort":10054,"Ġopprobrium":10055,"cos":10056,"mut":10057,"Ġpatriarchae":10058,"Ġdeuic":10059,"Ġunicum":10060,"Ġcapiti":10061,"Ġgradi":10062,"Ġputet":10063,"Ġagnoscere":10064,"sep":10065,"tuli":10066,"Ġascendere":10067,"Ġimpietatis":10068,"Ġinterpos":10069,"Ġeoque":10070,"Ġtenebat":10071,"Ġprosec":10072,"entissimum":10073,"Ġplenitudinem":10074,"odonos":10075,"Ġdomui":10076,"Ġambulare":10077,"Ġostendat":10078,"Ġoccasum":10079,"Ġpab":10080,"ilii":10081,"Ġdiuinorum":10082,"abilium":10083,"Ġaequo":10084,"Ġinsinuat":10085,"Ġbethle":10086,"Ġhugo":10087,"Î±ÏĥÏĦ":10088,"Ġsita":10089,"Ġostent":10090,"Ġsuperiori":10091,"Ġmemento":10092,"Ġdiscipulorum":10093,"Ġmartyrium":10094,"Ð°":10095,"onias":10096,"Ġingreditur":10097,"terr":10098,"Ġhabeas":10099,"Ġnoctibus":10100,"Ġsanctitatem":10101,"Ġcontemplatione":10102,"Ġprophetiae":10103,"Ġdatam":10104,"Ġdedec":10105,"Ġrepos":10106,"issae":10107,"Ġeosque":10108,"anni":10109,"Ġiuuat":10110,"Ġdiuersae":10111,"Ġuincere":10112,"Ġaccipimus":10113,"etsi":10114,"Ġconsang":10115,"Ġimmedi":10116,"Ġcibos":10117,"Ġgeneribus":10118,"Ġtradere":10119,"Ġsortem":10120,"Ġuarietate":10121,"uct":10122,"Ġdicite":10123,"Ġprincipatus":10124,"Ġferoc":10125,"Ġlaeta":10126,"Ġsurrex":10127,"Ġtimoris":10128,"Ġdunt":10129,"Ġorientis":10130,"Ġefficit":10131,"Ġseniores":10132,"rebat":10133,"Ġperim":10134,"Ġordinibus":10135,"Ġbenjam":10136,"Ġsensit":10137,"Ġboues":10138,"Ġnabuch":10139,"Ġpridem":10140,"ules":10141,"Ġutilis":10142,"Ġcommunia":10143,"nix":10144,"Ġscelera":10145,"Ġpraebere":10146,"Ġuidendum":10147,"athan":10148,"Ġiubente":10149,"ilias":10150,"Ġeorumdem":10151,"Ġualle":10152,"Ġsensibi":10153,"Ġutilitate":10154,"Ġphilippus":10155,"Ġdens":10156,"Ġspiritaliter":10157,"quoque":10158,"Ġtrunc":10159,"Ġscias":10160,"Ġessemus":10161,"Ġcomplac":10162,"Ġuidebitur":10163,"Ġdebetur":10164,"ĠÏĢÎ±ÏĦ":10165,"Ġsplendor":10166,"Ðµ":10167,"atiuo":10168,"Ġlata":10169,"Ġducibus":10170,"illam":10171,"Ġsupplicio":10172,"Ġia":10173,"Ġinfec":10174,"Ġdogmata":10175,"Ġuento":10176,"Î±ÏģÎ¹":10177,"Ġcaret":10178,"Ġadae":10179,"Ġlegatus":10180,"ÎµÎ¹Î±ÏĤ":10181,"Ġabba":10182,"Ġtemporalis":10183,"Ġuoluptatem":10184,"Ġbeatitudo":10185,"Ġregulariter":10186,"Ġtunic":10187,"Ġdialec":10188,"Ġaudiamus":10189,"Î¿ÏħÏĥ":10190,"Ġconditionis":10191,"Ġmaiestatem":10192,"escente":10193,"the":10194,"Ġmembrum":10195,"Ġallegor":10196,"ilit":10197,"Ġundis":10198,"Ġocculto":10199,"Ġephraim":10200,"ardum":10201,"Ġcorusc":10202,"Ġlaudare":10203,"Ġludouici":10204,"Ġrepraesent":10205,"met":10206,"Ġcarmen":10207,"Ġfunditus":10208,"ogit":10209,"tumque":10210,"ĠÎ±Î½Î¸ÏģÏīÏĢ":10211,"Ġmortalibus":10212,"Ġnabuchodonos":10213,"Ġbibit":10214,"quaeque":10215,"Ġcompositum":10216,"Ġprotectione":10217,"Ġmeti":10218,"Ġpartus":10219,"Ġuestis":10220,"Ġpall":10221,"Ġconcipi":10222,"Ġperpetuae":10223,"Ġmansit":10224,"Ġnubibus":10225,"Ġconditor":10226,"cripsit":10227,"Ġprisci":10228,"Ġgressus":10229,"Ġdiscere":10230,"Ġcircumfer":10231,"Ġtraditur":10232,"Ġedidit":10233,"Ġredig":10234,"Ġduntaxat":10235,"dal":10236,"narum":10237,"uibus":10238,"Ġ{":10239,"Ġperhibetur":10240,"Ġnu":10241,"discip":10242,"Ġsimplices":10243,"Ġsatisfactione":10244,"Ġadjici":10245,"Ġiacobi":10246,"Ġcupiditas":10247,"Ġeuch":10248,"Ġsana":10249,"deinde":10250,"Ġpsalter":10251,"Ġmartyrii":10252,"Ġsorores":10253,"Ġrogamus":10254,"Ġrepenti":10255,"Ġinferno":10256,"Ġsenes":10257,"Ġsinistram":10258,"Ġintelliguntur":10259,"Ġuenient":10260,"Ġinfirmi":10261,"Ġconsortium":10262,"Ġaliarum":10263,"Ġuespere":10264,"Ġaliisque":10265,"Ġqualitas":10266,"Ġnuptiis":10267,"Ġnoscuntur":10268,"Ġpossessio":10269,"Ġexemplar":10270,"utas":10271,"Ġplenitudine":10272,"tibilis":10273,"Ġmisericorditer":10274,"uros":10275,"Ġdictae":10276,"Ġportu":10277,"Ġintegritate":10278,"unus":10279,"Ġsty":10280,"Ġcaecili":10281,"Ġanimabus":10282,"Ġthesauri":10283,"Ġperl":10284,"Ġrefici":10285,"Ġparric":10286,"Ġdan":10287,"Ġaccipiant":10288,"Ġeuers":10289,"Ġperit":10290,"Ġsanctissimi":10291,"Ġpraeterita":10292,"undiae":10293,"Ġexigit":10294,"homin":10295,"Ġidest":10296,"atumque":10297,"Ġanhel":10298,"Ġpueris":10299,"Ġdifferentiae":10300,"Ġnonnullis":10301,"Ġnouembris":10302,"ectis":10303,"Ġdamnationis":10304,"Ġcapituli":10305,"Ġdulci":10306,"byter":10307,"orb":10308,"inio":10309,"Ġalienus":10310,"Ġnimio":10311,"Ġtitulum":10312,"Ġhispani":10313,"Ġlibidinis":10314,"Ġambrosius":10315,"Ġiuppiter":10316,"idii":10317,"Ġpatiatur":10318,"Ġpericlit":10319,"Ġprodit":10320,"bri":10321,"Ġadmo":10322,"Ġdesit":10323,"Ġoculum":10324,"Ġaduersis":10325,"Ġsplendore":10326,"Ġinquin":10327,"Ġcharissime":10328,"Ġsororem":10329,"Ġmanducare":10330,"iamque":10331,"Ġmillibus":10332,"ĠÎ¿ÏĦÎ¹":10333,"Ġinsulam":10334,"Ġflore":10335,"uiis":10336,"Ġpossim":10337,"escet":10338,"Ġigno":10339,"Ġgraues":10340,"Ġconuerso":10341,"Ġhoras":10342,"Ġparticeps":10343,"Ġmam":10344,"Ġbenefac":10345,"Ġnocere":10346,"Ġforsan":10347,"natur":10348,"Ġpraeda":10349,"Ġamas":10350,"Ġcaut":10351,"Ġaudio":10352,"Ġdiluc":10353,"Î¹Ïĥ":10354,"Ġrecre":10355,"Ġbaptismate":10356,"dil":10357,"Ġproprias":10358,"Ġconceptus":10359,"Ġderog":10360,"imp":10361,"Ġcausarum":10362,"Ġspectat":10363,"Ġsignificatione":10364,"Ġdamnationem":10365,"Ġdiuisionem":10366,"Ġoblatione":10367,"ambul":10368,"Ġsubaudis":10369,"erto":10370,"umbr":10371,"hom":10372,"Ġuitios":10373,"Ġprudenter":10374,"Ġquati":10375,"Ġnegant":10376,"ĠÏĢÎ¹ÏĥÏĦ":10377,"Ġcunctorum":10378,"Ġuiuum":10379,"Ġmiserunt":10380,"Ġuirginum":10381,"Ġdimidium":10382,"Ġpoeniteat":10383,"Ġcrep":10384,"Ġamicitiam":10385,"Ġnostrarum":10386,"Ġmissum":10387,"Ġquotquot":10388,"Ġinterfecit":10389,"Ġdentes":10390,"undam":10391,"Ġresip":10392,"Ġtraduc":10393,"Ġpromissionis":10394,"Ġdecimam":10395,"Ġruti":10396,"cipe":10397,"Ġuoluptatis":10398,"Ġresponsio":10399,"Ġmurum":10400,"Î·Î¼":10401,"Ġmalae":10402,"Ġaperit":10403,"Ġsummae":10404,"Ġpraepositus":10405,"erer":10406,"Ġmoll":10407,"Ġgust":10408,"Ġuidebat":10409,"Ġatqui":10410,"Ġuiuimus":10411,"Ġmutuo":10412,"Ġlicere":10413,"Ġignorare":10414,"Ġsuperiore":10415,"Ġonera":10416,"Ġcongru":10417,"Ġcluni":10418,"Ġdiuiditur":10419,"Ġcomitatu":10420,"ubuit":10421,"Ġmigra":10422,"Ġportare":10423,"Ġaccipiet":10424,"Ġinaequ":10425,"uentus":10426,"Ġafricam":10427,"Ġdaniel":10428,"tamur":10429,"Ġsenem":10430,"Ġcognoui":10431,"inoc":10432,"uix":10433,"Ġpoeta":10434,"Ġuersu":10435,"Ġnutu":10436,"Ġnabuchodonosor":10437,"audi":10438,"Ġseptembris":10439,"Ġsollicitus":10440,"ÏĥÎºÎ¿ÏĢ":10441,"Ġprogress":10442,"Ġfeceris":10443,"Ġaugmentum":10444,"Ġdeliciis":10445,"amp":10446,"abar":10447,"Ġsedibus":10448,"Ġefficere":10449,"entissima":10450,"Ġpulchre":10451,"Ġruina":10452,"Ġantistit":10453,"orium":10454,"ema":10455,"Ġgrande":10456,"ularem":10457,"Ġphilosophorum":10458,"Ġnominum":10459,"Ġstric":10460,"Ġpraebuit":10461,"Ġpaternae":10462,"Ġprospera":10463,"Ġapostolici":10464,"Ġpermut":10465,"oram":10466,"eritas":10467,"Ġcommer":10468,"Ġtolet":10469,"Ġsanctu":10470,"Ġsolitudine":10471,"Ġmemores":10472,"Ġarbores":10473,"Ġoblata":10474,"Ġrauenn":10475,"Ġminimum":10476,"mir":10477,"orn":10478,"Ġparere":10479,"Ġfaciatis":10480,"Ġuniuersale":10481,"Ġwas":10482,"ĠÎ¼ÎµÎ½":10483,"Ġindignus":10484,"Ġtabernaculi":10485,"Ġuestimentum":10486,"oedi":10487,"Ġaduenit":10488,"Ġinfest":10489,"Ġric":10490,"Ġnecessitatis":10491,"Ġcodicibus":10492,"Ġtrucid":10493,"Ġps":10494,"Ġpatiens":10495,"Ġlaetus":10496,"Ġpersecutione":10497,"Ġconditoris":10498,"Ġperficere":10499,"aueris":10500,"Ġterg":10501,"demus":10502,"Ġdefensione":10503,"Ġpraenunti":10504,"utere":10505,"Ġdedisse":10506,"Ġsacerdotii":10507,"Ġgalliae":10508,"Ġreuersi":10509,"Ġmortali":10510,"Ġsalubriter":10511,"Ġcrebro":10512,"Ġubicumque":10513,"Ġmolesti":10514,"Ġtranstulit":10515,"Ġina":10516,"Ġeusebi":10517,"Ġamicorum":10518,"Ġpeccatoris":10519,"Ġgenua":10520,"Ġanglorum":10521,"Ġuentris":10522,"Ġdir":10523,"Ġniti":10524,"Ġintelligens":10525,"ĠÎ¼Î¿Î½":10526,"Ġbenjamin":10527,"Ġarchiep":10528,"Ġconditio":10529,"Ġancilla":10530,"ebamus":10531,"Ġmitig":10532,"Ġcanes":10533,"Ġpueros":10534,"Ġdeesse":10535,"omnes":10536,"Ġposito":10537,"Ġpotenti":10538,"poli":10539,"imentis":10540,"Ġaddi":10541,"Ġabduc":10542,"Ġtabernaculo":10543,"Ġfores":10544,"Ġuniuersaliter":10545,"ĠâŁ¨":10546,"onus":10547,"Ġuili":10548,"Ġadu":10549,"Ġuitis":10550,"Ġuesc":10551,"Ġiudiciis":10552,"Ġfert":10553,"Ġcanonicorum":10554,"Ġuacuum":10555,"Ġconueniat":10556,"Ġreliquiae":10557,"Ġnono":10558,"Ġeuol":10559,"Ġsaecularibus":10560,"Ġaltitudo":10561,"Ġlucerna":10562,"Ġiustini":10563,"Ġtradunt":10564,"Ġdominicam":10565,"Ġcomedit":10566,"Ġartus":10567,"Ġmetum":10568,"Ġsiluis":10569,"Ġpromissum":10570,"Ġproficit":10571,"ebimus":10572,"Ġcrux":10573,"Ġlugdun":10574,"Ġcareat":10575,"sent":10576,"Ġdal":10577,"Ġdiscep":10578,"Ġspiritualem":10579,"Ġecclesiasticam":10580,"Ġphilosophiae":10581,"Ġferat":10582,"Ġhast":10583,"Ġdirexit":10584,"Ġbonitatem":10585,"Ġindef":10586,"Ġconnex":10587,"Ġholocaustum":10588,"Ġexeunt":10589,"Ġru":10590,"Ġuinci":10591,"Ġbestiae":10592,"Ġexordium":10593,"Ġsubueni":10594,"Ġqualia":10595,"eruntur":10596,"Ġmitis":10597,"Ġullus":10598,"Ġfugiens":10599,"entissimi":10600,"uno":10601,"Ġdicemus":10602,"Ġarom":10603,"Ġcarolo":10604,"Ġanton":10605,"Ġnonnisi":10606,"Ġplaceat":10607,"Ġhibern":10608,"Ġsenior":10609,"Ġieremias":10610,"Ġpes":10611,"Ġexult":10612,"Ġsubrep":10613,"onam":10614,"osae":10615,"Ġredund":10616,"Ġcarnales":10617,"Ġarbitrii":10618,"Ġrecipiat":10619,"teg":10620,"ioann":10621,"Ġterrore":10622,"Ġconsideratione":10623,"Ġpiae":10624,"unum":10625,"Ġparens":10626,"tima":10627,"Ġinuenerit":10628,"Ġeuangelica":10629,"Ġcathedra":10630,"Ġgrata":10631,"Ġdispend":10632,"pol":10633,"Ġcuidam":10634,"Ġlustr":10635,"Ġmoab":10636,"Ġmotibus":10637,"Ġhospi":10638,"Ġnoctes":10639,"Ġlongi":10640,"Ġreuerti":10641,"Ġminima":10642,"Ġpraesumpserit":10643,"ĠÏĢÎ±ÏģÎ±":10644,"Ġlemo":10645,"Ġtermini":10646,"Ġludouicus":10647,"etarum":10648,"Ġach":10649,"Ġcontendit":10650,"Ġprouinciis":10651,"Ġianuam":10652,"dat":10653,"Ġuictoris":10654,"Ġomnipotenti":10655,"Ġingressi":10656,"Ġpropitius":10657,"tinis":10658,"Ġuocabitur":10659,"Ġproxime":10660,"Ġmittitur":10661,"Ġcoactus":10662,"esis":10663,"Ġcrede":10664,"ÏħÏĩ":10665,"Ġsubjecit":10666,"Ġlet":10667,"Ġdenomin":10668,"Ġcogitat":10669,"Ġuocare":10670,"Ġhabitauit":10671,"Ġaegrot":10672,"Ġappellauit":10673,"Ġiubetur":10674,"Ġposteaquam":10675,"Ġrefut":10676,"Ġpeccauerunt":10677,"Ġuenenum":10678,"Ġimperti":10679,"Ġnuncupatur":10680,"Ġamator":10681,"Ġagentes":10682,"Ġscripti":10683,"Ġcaptiuitate":10684,"Ġuisceribus":10685,"Ġconstitutionem":10686,"acus":10687,"Ġsoler":10688,"Ġnegauit":10689,"Ġxxiu":10690,"Ġhaeresi":10691,"ppi":10692,"Ġpraeclar":10693,"Ġpotentes":10694,"Ġfamem":10695,"Ġuenerabilem":10696,"Ġimagine":10697,"Ġrequirit":10698,"Ġmeriti":10699,"Ġparui":10700,"Ġmars":10701,"ĠÎµÎ»":10702,"Ġgradibus":10703,"Ġordinationem":10704,"itare":10705,"omnis":10706,"lico":10707,"Ġce":10708,"Ġcarnali":10709,"Ġclaritate":10710,"ÎµÎ¹Ïĥ":10711,"Ġredditur":10712,"Ġxxiii":10713,"Ġgenerationis":10714,"ĠÎ»ÎµÎ³":10715,"Ġatroc":10716,"Ġhabeamus":10717,"Ġmulc":10718,"Ġmonas":10719,"Ġidemque":10720,"antiphona":10721,"Ġlaetitiae":10722,"Ġpercipere":10723,"Ġiussus":10724,"signific":10725,"Ġcastellum":10726,"circum":10727,"Ġdefinitionem":10728,"Ġaes":10729,"Ġexquir":10730,"Ġproximus":10731,"Ġfacili":10732,"Ġuoluisse":10733,"Ġduarum":10734,"Ġcandelab":10735,"fis":10736,"Ġfrui":10737,"age":10738,"Ġcredis":10739,"Ġuentis":10740,"iscere":10741,"Ġanimorum":10742,"Ġimpios":10743,"ticos":10744,"Ġprostern":10745,"Ġhumanitas":10746,"ono":10747,"Ġrobore":10748,"Ġtenens":10749,"Ġspecios":10750,"Ġexprimitur":10751,"Ð¸":10752,"Ġapta":10753,"Ġinuent":10754,"Ġnititur":10755,"Î¿ÏħÏĥÎ¹":10756,"Ġreferuntur":10757,"Ġdiuisione":10758,"Ġgregis":10759,"Ġnex":10760,"Ġuindicare":10761,"ĠÎ±Î»Î»":10762,"roc":10763,"amenti":10764,"Ġcoaeter":10765,"Ġagi":10766,"Ġminoris":10767,"Ġarguit":10768,"Ġpatientiae":10769,"Ġinferos":10770,"Ġconuiuium":10771,"gaud":10772,"lica":10773,"Ġcarere":10774,"Ġiurisdic":10775,"Ġuerm":10776,"Ġiniquit":10777,"Ġconuersa":10778,"Ġxxui":10779,"Ġopul":10780,"Ġouis":10781,"Ġpuluere":10782,"Ġpermaneat":10783,"Ġgenitricis":10784,"anea":10785,"Ġsecretum":10786,"Ġmargar":10787,"Ġquietis":10788,"Ġuolati":10789,"Ġquispiam":10790,"Ġuicec":10791,"Ġdilectis":10792,"Ġattoll":10793,"Ġquaerens":10794,"Ġtorp":10795,"sio":10796,"Ġadsum":10797,"Ġadjecit":10798,"Ġspiritalem":10799,"epist":10800,"Ġconcupiscentiam":10801,"Ġuoluptatibus":10802,"quemque":10803,"Ġmiserum":10804,"Ġparuulos":10805,"Ġlament":10806,"Ġtractatus":10807,"Ġacerb":10808,"Ġeft":10809,"Ġaula":10810,"Ġpin":10811,"Ġperuer":10812,"Ġsuperueni":10813,"Ġdiuinus":10814,"Ġuoluntates":10815,"Ġmasculi":10816,"Ġperiit":10817,"Ġiouem":10818,"Ġleuis":10819,"Ġfeminam":10820,"Ġstulti":10821,"Ġtonitr":10822,"Ġfidelem":10823,"Ġstatutum":10824,"Ġrhetor":10825,"Ġimitat":10826,"Ġoperationis":10827,"Ġinfirmus":10828,"Ġpereat":10829,"ardorum":10830,"Ġcomposita":10831,"ĠÎ·Î¼ÏīÎ½":10832,"Ġmanens":10833,"Ġmutare":10834,"Ġstultus":10835,"Ġdubitare":10836,"tras":10837,"Ġpares":10838,"Ġcarmine":10839,"xerat":10840,"Ġdag":10841,"Ġgn":10842,"Ġpossitis":10843,"leo":10844,"Ġrector":10845,"Ġinferior":10846,"tidem":10847,"Ġuiis":10848,"Ġistas":10849,"Ġnumeris":10850,"Ġcalore":10851,"Ġwal":10852,"Ġcontingat":10853,"Ġnas":10854,"Ġnoll":10855,"Ġdecorem":10856,"Ġager":10857,"Ġprocons":10858,"Ġdescendere":10859,"Ġproposita":10860,"Ġpraemissa":10861,"Ġmedicina":10862,"Ġbeatissimi":10863,"Ġpraeueni":10864,"Ġpeius":10865,"Ġinstitutum":10866,"Ġindiget":10867,"Ġintegro":10868,"tie":10869,"Ġpraetex":10870,"Ġsolatium":10871,"Ġanimalis":10872,"Ġlibellum":10873,"Ġinduit":10874,"Ġnube":10875,"Ġincertum":10876,"Ġptol":10877,"ise":10878,"octa":10879,"Ġprogredi":10880,"Ġsciunt":10881,"Ġflos":10882,"Ġmandatorum":10883,"Ġdecimis":10884,"Ġpalaestin":10885,"Ġcaritatem":10886,"Ġincly":10887,"Ġfu":10888,"uerentur":10889,"Ġseriem":10890,"Ġindul":10891,"Ġcupiens":10892,"Ġrelinquere":10893,"Ġincons":10894,"Ġinsignia":10895,"Ġeritis":10896,"Ġcastro":10897,"Ġbituric":10898,"idisti":10899,"Ġtuba":10900,"uinus":10901,"Ġtheat":10902,"Ġinuitus":10903,"Ġsinus":10904,"Ġuidua":10905,"Ġpone":10906,"Ġaureum":10907,"Ġbeatam":10908,"seru":10909,"atiuae":10910,"Ġcorrum":10911,"Ġstellarum":10912,"Ġsacrificio":10913,"Ġgeni":10914,"Ġraro":10915,"ĠÎµÎ±ÏħÏĦ":10916,"Ġmultiplici":10917,"Ġinueniet":10918,"Ġinsignis":10919,"bilem":10920,"Ġhl":10921,"ÏĢÎµÏģ":10922,"Ġpraefatum":10923,"Ġdeficit":10924,"dos":10925,"huc":10926,"mor":10927,"Ġplebi":10928,"Ġcamer":10929,"Ġpectoris":10930,"Ġfecistis":10931,"Ġindub":10932,"Ġseruitium":10933,"Ġdicenda":10934,"Ġuern":10935,"Ġsolebat":10936,"Ġpetimus":10937,"Ġclamore":10938,"Ġoptima":10939,"Ġflores":10940,"Ġflaui":10941,"Ġtollere":10942,"ĠâĢ¢":10943,"Ġornamenta":10944,"Ġstans":10945,"Ġmedul":10946,"Ġresus":10947,"Ġtetigit":10948,"Ġauditu":10949,"Ġbasilicae":10950,"nc":10951,"Ġsignificans":10952,"Ġdiuersitas":10953,"Ġpraefatus":10954,"Ġmedius":10955,"Ġuarias":10956,"Ġdelictorum":10957,"Ġepisc":10958,"Ġsuperioris":10959,"ÎµÏĦÎ±Î¹":10960,"Ġpii":10961,"onom":10962,"Ġdepend":10963,"Ġhabitant":10964,"Ġuindicta":10965,"ĠÎ¿ÏħÎº":10966,"Ġhabitatores":10967,"Ġqueat":10968,"asius":10969,"Ġponi":10970,"Ġamicitiae":10971,"Ġunigenitum":10972,"Ġeloqui":10973,"Ġneglex":10974,"Ġsqu":10975,"cumb":10976,"Ġpetis":10977,"Ġlatini":10978,"Ġflagiti":10979,"emit":10980,"Ġinfr":10981,"Ġtib":10982,"Ġimpetum":10983,"Ġimmortalis":10984,"Ġapostolico":10985,"Ġperfectionis":10986,"Ġflagit":10987,"Ġcorporali":10988,"uini":10989,"Ġessenti":10990,"Ġimman":10991,"Ġabstinere":10992,"Ġmatron":10993,"Ġcertus":10994,"Ġdignos":10995,"Ġlecto":10996,"Ġdebetis":10997,"Ġmediam":10998,"Ġclementer":10999,"Ġduodec":11000,"Ġdidicit":11001,"Ġdant":11002,"Ġmentio":11003,"Ġsuscitauit":11004,"eratis":11005,"Ġprandi":11006,"Ġrectores":11007,"iderint":11008,"Ġsatag":11009,"Ġadfer":11010,"ĠÎ¿Î½":11011,"Ġcorporalis":11012,"Ġaderant":11013,"oraui":11014,"Ġinferni":11015,"dc":11016,"Ġepic":11017,"Ġdebitam":11018,"Ġconsule":11019,"Ġtolle":11020,"Ġdulce":11021,"Ġaspectu":11022,"Ġnaturas":11023,"Ġmirabiliter":11024,"Ġpraeli":11025,"Ġalc":11026,"Ġinspic":11027,"Ġcibi":11028,"Ġdiuerso":11029,"Ġardore":11030,"Ġinopia":11031,"Ġlaurentii":11032,"Ġpossem":11033,"Ġauctoris":11034,"Ġascrib":11035,"Ġnatiuitatem":11036,"Ġolei":11037,"Ġluxuria":11038,"Ġflagella":11039,"Ġdioecesis":11040,"Ġdignoscitur":11041,"adi":11042,"Ġcarni":11043,"Ġaequum":11044,"Ġtendit":11045,"Ġpraelio":11046,"trauit":11047,"istat":11048,"Ġmagnitudinis":11049,"Ġuiuus":11050,"Ġsurgens":11051,"ĠÏĩÏģÎ¹ÏĥÏĦ":11052,"iph":11053,"Ġnauem":11054,"acibus":11055,"Ġpotu":11056,"Ġmultarum":11057,"uxerat":11058,"Ġauris":11059,"Ġincendio":11060,"ÎµÏĥÎ¸Î±Î¹":11061,"princip":11062,"Ġiurg":11063,"Ġpae":11064,"Ġpertim":11065,"Ġpotestati":11066,"Ġiniuria":11067,"Ġantistes":11068,"Ġsimulacra":11069,"Ġscelerum":11070,"Ġuentus":11071,"Ġquibusque":11072,"Ġhonestum":11073,"Ġmissarum":11074,"Ġignorantiam":11075,"Ġdecreuit":11076,"Ġdaemonia":11077,"Ġceteri":11078,"Ġexiuit":11079,"fridus":11080,"Ġadde":11081,"Ġadire":11082,"Ġreceperunt":11083,"Ġuiduae":11084,"Ġasinus":11085,"Ġlaudate":11086,"Ġurbibus":11087,"Ġresurrex":11088,"Ġdederat":11089,"Ġcognouerunt":11090,"Ġconstantino":11091,"Ġgy":11092,"Ġquodcumque":11093,"Ġregit":11094,"Ġeuen":11095,"Ġiubil":11096,"Ġcollecta":11097,"Ġabel":11098,"Ġconstring":11099,"ferum":11100,"Ġcollo":11101,"Ġcardinales":11102,"Ġincongr":11103,"Ġlapsus":11104,"Ġeutych":11105,"homo":11106,"Ġera":11107,"teris":11108,"issam":11109,"adri":11110,"Ġretulit":11111,"Ġuellem":11112,"Ġparentis":11113,"Ġsapientem":11114,"Ġpontifici":11115,"Ġgaz":11116,"Ġquiesc":11117,"Ġgo":11118,"Ġsedebat":11119,"Ġpraedi":11120,"Ġregulas":11121,"Ġinueniatur":11122,"Ġbrachium":11123,"Ġfacturus":11124,"Ġmorb":11125,"Ġdepra":11126,"Ġpastorem":11127,"Ġhebraei":11128,"Ġproficere":11129,"Ġcontumeliam":11130,"Ġceleriter":11131,"asii":11132,"Ġadun":11133,"Ġdamnatus":11134,"Ġintellexit":11135,"Ġinstrumenta":11136,"Ġgunt":11137,"ands":11138,"iscit":11139,"Ġasse":11140,"Ġclarius":11141,"Ġioanni":11142,"Ġmitti":11143,"Ġillibata":11144,"Ġdiuer":11145,"Ġcuras":11146,"Ġaeternis":11147,"frat":11148,"Ġadulterium":11149,"inque":11150,"Ġuidebit":11151,"Ġherodes":11152,"Ġcorrigere":11153,"Ġregimen":11154,"ormis":11155,"Ġfenum":11156,"Ġdispar":11157,"Ġconcre":11158,"Ġmartyrio":11159,"scilicet":11160,"Ġmatern":11161,"Ġuideas":11162,"Ġquaerimus":11163,"Ġreferri":11164,"Ġcriminum":11165,"Ġprudentiae":11166,"Ġpaschalis":11167,"etam":11168,"Ġapt":11169,"Ġparuum":11170,"Ġalbi":11171,"Ġignes":11172,"Ġhumanitate":11173,"Ġstultitia":11174,"Ġouibus":11175,"taxat":11176,"Ġaccur":11177,"Ġxxuii":11178,"Ġprouidere":11179,"Ġfigurae":11180,"Ġadimp":11181,"ĠÎµÏĢÎ¹ÏĥÎºÎ¿ÏĢ":11182,"Ġiniqui":11183,"Ġpallium":11184,"Ġgerman":11185,"Ġdefensionem":11186,"Ġsaxa":11187,"Ġdioecesi":11188,"Ġdedign":11189,"Ġtoties":11190,"Ġhannib":11191,"mentis":11192,"ittam":11193,"Ġconflic":11194,"Ġseruata":11195,"Ġdefuncto":11196,"Î¿Ïĥ":11197,"Ġaugustino":11198,"Ġportat":11199,"Ġrationi":11200,"Ġimbecill":11201,"Ġremis":11202,"tissimos":11203,"Ġducitur":11204,"Ġhip":11205,"Ġconuersionem":11206,"Ġsortes":11207,"Ġperscrut":11208,"Ġfurorem":11209,"Ġdispositione":11210,"Ġuaticin":11211,"odus":11212,"uetis":11213,"rices":11214,"Ġspirituales":11215,"Ġtestantur":11216,"Ġinueniat":11217,"Ġtribunal":11218,"Ġdigito":11219,"Ġgrandi":11220,"Ġisdem":11221,"Ġcurrere":11222,"Ġtangit":11223,"Ġstabili":11224,"Ġremedia":11225,"Ġimmens":11226,"Ġindutus":11227,"Ġincomp":11228,"Ġprofutura":11229,"Ġperemp":11230,"Ġuite":11231,"Ġmemini":11232,"Ġhyd":11233,"Ġiordanem":11234,"augustinus":11235,"olom":11236,"lice":11237,"Ġaman":11238,"Ġaspir":11239,"atoria":11240,"Ġmediis":11241,"Ġabbates":11242,"Ġgala":11243,"Ġconfusione":11244,"riis":11245,"Ġsepten":11246,"Ġlaetific":11247,"Ġabire":11248,"Ġpignus":11249,"Ġdeprim":11250,"ulfus":11251,"Ġquodlibet":11252,"Ġundas":11253,"Ġconspir":11254,"Ġnequam":11255,"Ġcarb":11256,"Ġhercle":11257,"Ġconsiderandum":11258,"Ġ=":11259,"Ġtrab":11260,"erator":11261,"Ġsacerdote":11262,"Ġandreae":11263,"Ġcaduc":11264,"Ġdumtaxat":11265,"Ġcontest":11266,"Ġsacras":11267,"Ġgloriosa":11268,"Ġstom":11269,"Î´Î¹":11270,"Ġnescire":11271,"Ġgratum":11272,"Ġdebeo":11273,"Ġcupio":11274,"Ġliceret":11275,"Ġdiffund":11276,"Ġcongruit":11277,"Ġuadit":11278,"ascrip":11279,"Ġspons":11280,"xl":11281,"Ġcale":11282,"Ġdelib":11283,"Ġapparatus":11284,"Ġphilist":11285,"Ġerubesc":11286,"fum":11287,"Ġâ":11288,"Ġfasc":11289,"Ġmanna":11290,"Ġtransitum":11291,"Ġdesiderant":11292,"Ġindulgentia":11293,"tique":11294,"art":11295,"Ġhodiern":11296,"Ġconstantinopolim":11297,"Ġrespondeo":11298,"Ġdeut":11299,"Ġimpar":11300,"Ġnotam":11301,"Ġoportuit":11302,"Ġcurare":11303,"Ġcrescere":11304,"Ġauras":11305,"Ġhaereses":11306,"Ġinterced":11307,"Ġquosque":11308,"Ġbacch":11309,"onas":11310,"idius":11311,"Ġferens":11312,"Ġinibi":11313,"Ġaduersarius":11314,"Ġconsiderat":11315,"Ġquacumque":11316,"Ġuicecom":11317,"xiii":11318,"Ġfecerint":11319,"Ġmemoratur":11320,"Ġeodemque":11321,"Ġsono":11322,"spec":11323,"Ġcot":11324,"osos":11325,"rice":11326,"Ġrestituit":11327,"Ġeleemosynam":11328,"ecas":11329,"Ġsciant":11330,"Ġconstanter":11331,"Ġarcus":11332,"Ġuiuos":11333,"Ġdescendens":11334,"Ġlucri":11335,"Ġreperit":11336,"Ġfelicitas":11337,"Ġmenda":11338,"Ġexstr":11339,"Ġaudacia":11340,"Ġinfantes":11341,"Ġexple":11342,"Ġmortales":11343,"Ġgerit":11344,"Ġquaerat":11345,"Ġsuperbus":11346,"Ġuoluptate":11347,"Ġangustia":11348,"Ġsanus":11349,"Ġconuertitur":11350,"Ġconspectum":11351,"Î±Î¼ÎµÎ½":11352,"Î¿ÏħÎ¼ÎµÎ½":11353,"Ġeae":11354,"Ġpraeesse":11355,"Ġunumquemque":11356,"Ġpresbiter":11357,"Ġfontis":11358,"Ġauaritiam":11359,"Ġdecur":11360,"Ġapertius":11361,"Ġquaesiuit":11362,"Ġnequitiae":11363,"hr":11364,"Ġacti":11365,"Ġpraelium":11366,"Ġrogat":11367,"Ġuesperam":11368,"iare":11369,"Ġfalsi":11370,"Ġfelicitatis":11371,"ioannes":11372,"Ġmelle":11373,"Ġhauri":11374,"Ġpaci":11375,"Ġimpietatem":11376,"Ġremansit":11377,"Ġaliquas":11378,"Ġcomplet":11379,"rect":11380,"Ġsuscepta":11381,"Ġcorrob":11382,"Ġabneg":11383,"Ġapocalypsi":11384,"ÏĦÎ±":11385,"Ġsocii":11386,"Ġmole":11387,"Ġresponderunt":11388,"Ġpluuia":11389,".;":11390,"Ġprosc":11391,"Ġpraecedit":11392,"Ġuicina":11393,"Ġnegleg":11394,"Ġeuangelistae":11395,"imis":11396,"Ġmoech":11397,"Ġloquendo":11398,"Ġabsolute":11399,"Ġadjutorio":11400,"Ġpium":11401,"Ġlucul":11402,"iderant":11403,"Ġreddet":11404,"Ġsufficienter":11405,"urgit":11406,"Ġobuia":11407,"Ġscab":11408,"ÎµÎº":11409,"Ġaudisset":11410,"Ġsignificet":11411,"Ġmeruerunt":11412,"Ġdiscrimen":11413,"Ġeuadere":11414,"Ġfod":11415,"Ġrecurr":11416,"Ġsustinuit":11417,"Ġcampis":11418,"Ġlegitima":11419,"Ġfebruarii":11420,"Ġhabebis":11421,"Ġsapienter":11422,"ĠÎ±Îº":11423,"Ġdionysii":11424,"Ġpeto":11425,"Å¿cop":11426,"Ġconuersationem":11427,"Ġtranseat":11428,"Ġcellam":11429,"Ġconse":11430,"Ġmigr":11431,"Ġsept":11432,"Ġuasis":11433,"tate":11434,"aticum":11435,"ace":11436,"Ġrich":11437,"Ġnepos":11438,"Ġliberati":11439,"Ġtabernacula":11440,"Ġrele":11441,"Ġamisit":11442,"ubstanti":11443,"Ġaugur":11444,"Ġlaicis":11445,"Ġpuluerem":11446,"Ġieiunia":11447,"bar":11448,"emet":11449,"Ġomnesque":11450,"Ġnequeunt":11451,"Ġspeciali":11452,"Ġhier":11453,"Ġfauore":11454,"Ġoscul":11455,"Ġparochia":11456,"dia":11457,"Ġinhib":11458,"Ġans":11459,"Ġpalud":11460,"Ġcibis":11461,"Ġdeuotio":11462,"Ġhaereditas":11463,"aca":11464,"ellin":11465,"Ġlibido":11466,"simil":11467,"Ġdomic":11468,"Ġsonum":11469,"Ġillustris":11470,"Ġauaritiae":11471,"Ġimpia":11472,"Ġdecid":11473,"annis":11474,"Ġcle":11475,"Ġcontrari":11476,"Ġinfirma":11477,"Ġglob":11478,"nomin":11479,"pers":11480,"Ġamph":11481,"Ġputes":11482,"Ġmonasteriis":11483,"Ġmensem":11484,"Ġegest":11485,"Ġutilitatis":11486,"Ġpraefectus":11487,"Ġadal":11488,"Ġurbani":11489,"Ġtransierunt":11490,"Ġappellatus":11491,"Ġdiuersitate":11492,"ÎµÎ¹Î±Î½":11493,"Ġconsolationem":11494,"Ġnudus":11495,"Ġtormentis":11496,"atrix":11497,"Ġmiseria":11498,"Ġaeternus":11499,"Ġarcana":11500,"quodque":11501,"Ġsanitas":11502,"Ġnuptiarum":11503,"Ġlibras":11504,"Ġimpati":11505,"Ġarbore":11506,"Ġpraemon":11507,"haus":11508,"Ġdiffusa":11509,"Ġdiaconum":11510,"Ġpraecedentibus":11511,"ĠÎ¼ÎµÏĦÎ±":11512,"Ġperinde":11513,"Ġchl":11514,"Ġnihilum":11515,"ĠÎºÏħÏģÎ¹":11516,"Ġlatera":11517,"Ġcogitationum":11518,"Ġgreges":11519,"enarius":11520,"aturos":11521,"Ġsollem":11522,"Ġminori":11523,"Ġquintum":11524,"Ġaugust":11525,"Ġcaeterorum":11526,"Ġmendacio":11527,"Ġobiectum":11528,"iano":11529,"atiuus":11530,"Ġgig":11531,"Ġpraecis":11532,"Ġplaus":11533,"Ġoccidi":11534,"Ġlaborare":11535,"Ġoctoginta":11536,"Ġceu":11537,"Ġdicetur":11538,"Ġlongae":11539,"Ġmacula":11540,"Ġcontemps":11541,"Ġanathematis":11542,"Ġiniuriam":11543,"Ġexcelsis":11544,"abimur":11545,"Ġpraedixit":11546,"Ġsolit":11547,"Ġaccept":11548,"Ġeffig":11549,"Ġapparere":11550,"Ġeloquio":11551,"Ġauis":11552,"Ġgenerat":11553,"Ġtribuat":11554,"Ġmoriatur":11555,"Ġdiuisa":11556,"Ġcustodes":11557,"Ġuentil":11558,"Ġredemit":11559,"Ġadin":11560,"aedific":11561,"ulisset":11562,"Ġexiit":11563,"Ġuolueris":11564,"Ġlegiones":11565,"Ġcanonibus":11566,"namque":11567,"Ġobseruari":11568,"Ġprimogenitus":11569,"Ġquom":11570,"riti":11571,"Ġperrexit":11572,"enig":11573,"Ġdixeris":11574,"Ġmysteriis":11575,"Ġoderunt":11576,"Ġpraemissis":11577,"Ġcongregatione":11578,"Ġpereunt":11579,"Ġcomparatur":11580,"Ġconsuetud":11581,"Ġconsidera":11582,"of":11583,"Ġaa":11584,"Ġelectum":11585,"Ġdaemonibus":11586,"Ġexposuit":11587,"Ġmelchis":11588,"Ġcognosci":11589,"Ġles":11590,"Ġsilua":11591,"Ġuacat":11592,"Ġimmortalitatem":11593,"Ġproprietate":11594,"Ġdescribitur":11595,"Ġparisiis":11596,"Ġscyth":11597,"Ġhorae":11598,"Ġsuperiores":11599,"Ġsanctissimus":11600,"Ġministrare":11601,"Ġconsummationem":11602,"Ġinanis":11603,"abul":11604,"Ġuoluisset":11605,"uast":11606,"Ġnoluerit":11607,"Ġconsiderare":11608,"Ġiuliani":11609,"Ġincarnatione":11610,"Ġmultitudinis":11611,"Ġargumento":11612,"Ġmad":11613,"Ġplumb":11614,"Ġaltissimi":11615,"Ġpraefato":11616,"Ġdit":11617,"Ġsoluta":11618,"Ġcredens":11619,"Ġsequeretur":11620,"Ġreuerend":11621,"Ġsors":11622,"Ġobedientiae":11623,"Ġperditionis":11624,"yt":11625,"Ġgestum":11626,"Ġruth":11627,"Ġquaere":11628,"Ġmatrimonio":11629,"Ġrecedit":11630,"contin":11631,"Ġaugustinum":11632,"Ġisaia":11633,"Ġimprud":11634,"Ġrespice":11635,"Ġterritorio":11636,"batur":11637,"Ġignibus":11638,"Ġsextus":11639,"Î¸Îµ":11640,"Ġignorantiae":11641,"Ġleue":11642,"Ġhostia":11643,"Ġintrat":11644,"Ġfortitudinis":11645,"Ġuirginitatis":11646,"Ġlacrimis":11647,"Î·Î»":11648,"orauerunt":11649,"Ġbenedictionis":11650,"Ġproposuit":11651,"Ġeligere":11652,"Ġproelio":11653,"Ġexec":11654,"gno":11655,"Ġinfans":11656,"Ġniue":11657,"Ġapostolicum":11658,"Ġdesinit":11659,"Ġpropugn":11660,"Ġdocent":11661,"aneum":11662,"Ġiuramento":11663,"Ġgraeca":11664,"Ġarchang":11665,"Ġcoenobium":11666,"Ġresuscit":11667,"yst":11668,"Ġotium":11669,"Ġgenesi":11670,"Ġphilosophia":11671,"Ġincorpore":11672,"Ġmendax":11673,"Ġbus":11674,"Ġforum":11675,"Ġauth":11676,"Ġsacramentorum":11677,"Ġdelictis":11678,"Ġintellegi":11679,"Ġuolucres":11680,"Ġnug":11681,"Ġuiderentur":11682,"Ġuiuendo":11683,"Ġbellis":11684,"Ġcollata":11685,"Ġrequie":11686,"Ġconstitutionis":11687,"Ġiuuenem":11688,"phi":11689,"Ġintendit":11690,"Ġseruari":11691,"Ġpassionibus":11692,"Ġuiriliter":11693,"Ġteneatur":11694,"Ġsugger":11695,"esimus":11696,"bilibus":11697,"Ġerrare":11698,"Ġconser":11699,"Ġuitare":11700,"Ġmilli":11701,"Ġdiffid":11702,"Ġgloriatur":11703,"Ġsinum":11704,"Ġachil":11705,"Ġagris":11706,"Ġrectae":11707,"Ġindex":11708,"Ġexspectat":11709,"Ġspeciebus":11710,"Ġcommissum":11711,"nil":11712,"Ġmarito":11713,"Ġeuan":11714,"Ġconstare":11715,"Ġdamnatione":11716,"Ġeloquium":11717,"Ġsobri":11718,"Ġtempt":11719,"Ġassensum":11720,"Ġcongregati":11721,"Ġconcupiscentiae":11722,"Ġmagistratus":11723,"Ġattendite":11724,"Ġquemque":11725,"Ġferr":11726,"Ġturbae":11727,"Ġcopias":11728,"oam":11729,"Ġciuis":11730,"Ġminore":11731,"Ġpretiosa":11732,"Ġubicunque":11733,"Ġpertulit":11734,"Ġaram":11735,"iciunt":11736,"Ġiniqua":11737,"Ġlaborum":11738,"Ġexpi":11739,"Ġfuroris":11740,"Ġadjut":11741,"Ġsermonum":11742,"Ġaccipiendum":11743,"cribere":11744,"Ġostendunt":11745,"Ġtemporaliter":11746,"Ġcubitorum":11747,"psalmus":11748,"toria":11749,"Ġlegatum":11750,"Ġeiec":11751,"Ġmediator":11752,"Ġelectionis":11753,"Ġsocietatis":11754,"Ġcontemnere":11755,"Ġmuc":11756,"Ġluctus":11757,"rica":11758,"erebantur":11759,"Ġisaiam":11760,"Ġcantico":11761,"ÃŁ":11762,"Ġserg":11763,"Ġforn":11764,"mai":11765,"Ġproximis":11766,"Ġalbed":11767,"Ġuestes":11768,"Ġfinita":11769,"Ġbid":11770,"uctu":11771,"Ġagg":11772,"Ġaccepi":11773,"Ġprofessionem":11774,"trae":11775,"Ġdominicum":11776,"Ġappellare":11777,"Ġuxori":11778,"Ġpraecessit":11779,"Ġdepositio":11780,"Ġictu":11781,"istas":11782,"Ġindoc":11783,"Ġturpe":11784,"Ġrelatione":11785,"Ġsatanae":11786,"Ġsaeculis":11787,"Ġmissos":11788,"Î¿Î¹Î½":11789,"ossa":11790,"Ġgnae":11791,"Ġnasceretur":11792,"Ġlatitudine":11793,"Ġear":11794,"Ġacha":11795,"Ġinspec":11796,"Ġaequinoc":11797,"Ġdemonstrare":11798,"Ġadeptus":11799,"ibiliter":11800,"Ġsyriae":11801,"Ġprofessione":11802,"Ġthesauros":11803,"Ġquacunque":11804,"cs":11805,"eae":11806,"Ġpare":11807,"Ġposui":11808,"Ġquoquo":11809,"Ġinterior":11810,"Ġossibus":11811,"Ġreuertitur":11812,"potest":11813,"Ġuincit":11814,"Ġauxiliante":11815,"ĠÎ³ÎµÎ½":11816,"Ġmoyse":11817,"Ġmelchised":11818,"ilibet":11819,"ditas":11820,"Ġgenu":11821,"Ġcredul":11822,"Ġtenore":11823,"Ġsentiat":11824,"Ġsacerdotio":11825,"Ġbaptizari":11826,"Ġincerta":11827,"Ġpalmam":11828,"Ġcessit":11829,"Ġparce":11830,"Ġplerisque":11831,"Ġbone":11832,"Ġinsulae":11833,"Ġagrip":11834,"Ġsuperiorem":11835,"Ġfauorem":11836,"Ġbestiis":11837,"Ġalienig":11838,"Ġoro":11839,"uxerit":11840,"Ġmaiestas":11841,"Ġsolemnia":11842,"uul":11843,"Ġgale":11844,"Ġclare":11845,"Ġmalle":11846,"Ġaegyptiorum":11847,"Ġconsecutus":11848,"Ġdiluuium":11849,"nem":11850,"Ġessentiae":11851,"Ġmutata":11852,"Ġpurpura":11853,"atiuis":11854,"Ġcomprim":11855,"ÎµÏĩ":11856,"Ġimprop":11857,"Ġprofundo":11858,"Ġdeprehens":11859,"Ġdemonstratur":11860,"Ġcoeleste":11861,"Ġalienae":11862,"Ġsponsam":11863,"Ġxxuiii":11864,"ibili":11865,"xui":11866,"Ġtueri":11867,"ticorum":11868,"Ġcasibus":11869,"Ġfelicem":11870,"ennio":11871,"Ġpropositionis":11872,"Ġterrest":11873,"Ġfaciendo":11874,"Ġesses":11875,"Ġmagisque":11876,"Ġluctu":11877,"Ġosti":11878,"Ġadhaer":11879,"semper":11880,"Ġdot":11881,"Ġsparg":11882,"fera":11883,"Ġurbi":11884,"Ġordinare":11885,"Ġdoceat":11886,"Ġinimica":11887,"Ġappetitus":11888,"Ġcordi":11889,"Ġhisce":11890,"Ġsaluari":11891,"migr":11892,"Ġuigilia":11893,"Ġdefunctus":11894,"Ġtimens":11895,"Ġmonachum":11896,"Ġeuangelicae":11897,"endecas":11898,"Ġabest":11899,"atisque":11900,"Ġsexag":11901,"Ġadulesc":11902,"Ġinteriora":11903,"Ġratiocin":11904,"Ġdiadem":11905,"Ġcontinentia":11906,"Ġiosue":11907,"Ġquantitatem":11908,"Ġuelociter":11909,"Ġcoenobio":11910,"Ġalienos":11911,"Ġexcol":11912,"Ġdiscurr":11913,"Ġimposuit":11914,"Ġuersum":11915,"Ġcompleta":11916,"Ġinfernum":11917,"ixa":11918,"Ġilluminat":11919,"Ġlupus":11920,"Ġcf":11921,"Ġeng":11922,"Ġcolligitur":11923,"Ġcommunicare":11924,"Ġpseud":11925,"Ġmeminisse":11926,"aram":11927,"Ġpraesto":11928,"Ġconfitemur":11929,"Ġconfirmauit":11930,"Ġecclesiastico":11931,"Ġaudis":11932,"Ġdemet":11933,"Ġdolet":11934,"Ġculmen":11935,"Ġtentationem":11936,"Ġanimaduers":11937,"yc":11938,"aturam":11939,"Ġhabuerint":11940,"Ġhabebunt":11941,"Ġiudam":11942,"Ġsime":11943,"Ġherac":11944,"Ġsuscipiens":11945,"Ġfom":11946,"Ġecon":11947,"Ġsecuta":11948,"Ġsepties":11949,"Ġpersecutionis":11950,"Ġide":11951,"Ġcoqu":11952,"Ġdocumenta":11953,"Ġprincipaliter":11954,"Ġfletus":11955,"Ġcontrariis":11956,"Ġelectio":11957,"Ġconuenerunt":11958,"Ġuolumine":11959,"Ġsara":11960,"Ġsubduc":11961,"Ġauctoribus":11962,"Ġsaluatore":11963,"Ġhipp":11964,"Ġasserunt":11965,"Ġdistat":11966,"Ġcensura":11967,"Ġremedio":11968,"Ġmachin":11969,"rhae":11970,"Ġincep":11971,"ulat":11972,"Ġconsim":11973,"Ġsciret":11974,"Ġherm":11975,"Ġsemetipsos":11976,"Ġitidem":11977,"Ġinaud":11978,"Ġmirific":11979,"Ġpraedicator":11980,"Ġsingulare":11981,"Ġconstantini":11982,"Ġuiolenter":11983,"ochiae":11984,"Ġcommodum":11985,"Ġdiscord":11986,"Ġscribae":11987,"Ġoffert":11988,"Ġgremio":11989,"Ġregulis":11990,"Ġsuppliciis":11991,"Ġeucharis":11992,"aea":11993,"Ġauditus":11994,"Ġspeculum":11995,"Ġuirginibus":11996,"plend":11997,"Ġadorare":11998,"Ġauditores":11999,"Ġsubin":12000,"Ġplanc":12001,"Ġimpun":12002,"const":12003,"Ġarborem":12004,"Ġambulat":12005,"Ġlatitudo":12006,"bilium":12007,"Ġlimina":12008,"Ġprouinciarum":12009,"Ġconditionem":12010,"Ġrix":12011,"oma":12012,"Ġdictam":12013,"Ġotio":12014,"Ġdecore":12015,"Ġiudaeus":12016,"Ġpalati":12017,"Ġuiuentem":12018,"Ġcontemplationis":12019,"presbyter":12020,"Ġparis":12021,"Ġepiscopali":12022,"Ġuinculum":12023,"Ġtentatio":12024,"Ġcessauit":12025,"Ġpriuilegiis":12026,"Ġmonstratur":12027,"Ġparadisum":12028,"Ġeuit":12029,"ÏģÎ¿ÏĤ":12030,"Ġgaudent":12031,"Ġcauendum":12032,"Ġinstantia":12033,"Ġcorinthios":12034,"metipsos":12035,"istunt":12036,"Ġhonesta":12037,"Ġredemptionem":12038,"Ġparuulus":12039,"Ġcertamina":12040,"Ġluxuriae":12041,"Ġmeretur":12042,"Ġmuta":12043,"apud":12044,"Ġmagnopere":12045,"Ġmirabili":12046,"Ġprofug":12047,"Ġperdur":12048,"fuit":12049,"edis":12050,"Ġcontinentiam":12051,"Ġexplicare":12052,"Ġuidebis":12053,"Ġadfec":12054,"Ġipsarum":12055,"Ġpropius":12056,"Ġinsult":12057,"Ġmerced":12058,"Ġpudor":12059,"Ġdormit":12060,"Ġindag":12061,"Ġpalatii":12062,"Ġsacerdotali":12063,"Ġclemens":12064,"Ġdetrimentum":12065,"Ġbernardus":12066,"Ġchilde":12067,"Ġpisci":12068,"Ġdeiec":12069,"Ġconuenti":12070,"Ġmirabilis":12071,"Ġcrudeli":12072,"Ġadjuuante":12073,"Ġthesaurum":12074,"Ġinund":12075,"Ġcombur":12076,"Ġquantus":12077,"Ġinnocentiam":12078,"Ġgallias":12079,"Ġsuperare":12080,"Ġimpedit":12081,"Ġthrac":12082,"Ġinnocentia":12083,"Ġcatech":12084,"Ġbertr":12085,"Ġegregius":12086,"Ġcombus":12087,"aue":12088,"Ġpriorum":12089,"Ġabbatibus":12090,"Ġapertum":12091,"Ġciuili":12092,"Ġgeh":12093,"Ġadjuu":12094,"unctum":12095,"Ġmultam":12096,"Ġacceptis":12097,"Ġstabat":12098,"ĠÎµÎ³":12099,"Ġputamus":12100,"Ġpateretur":12101,"pius":12102,"Ñģ":12103,"omus":12104,"Ġima":12105,"Ġpotus":12106,"Ġdoctus":12107,"Ġadjac":12108,"Ġcasum":12109,"Ġconiung":12110,"Ġcongress":12111,"Ġesa":12112,"Ġsustinet":12113,"Ġabstra":12114,"Ġdionysius":12115,"uida":12116,"Ġtribulatio":12117,"Ġpir":12118,"Ġexting":12119,"Ġrescrip":12120,"Ġexpell":12121,"Ġfallacia":12122,"ingere":12123,"Ġpagina":12124,"osius":12125,"rauerunt":12126,"Ġinsani":12127,"issimorum":12128,"Ġadjung":12129,"Ġrediens":12130,"Ġpropitio":12131,"Ġcommisit":12132,"Ġattulit":12133,"Ġmedici":12134,"Ġquint":12135,"Ġnona":12136,"Ġdiamet":12137,"Ġspiritualia":12138,"Ġtribulationibus":12139,"ĠÏĦÎ¿ÏħÏĦÎ¿":12140,".:":12141,"Ġmissae":12142,"elligo":12143,"Ġpossessione":12144,"Ġelementis":12145,"Ġperfidiae":12146,"Ġsimilibus":12147,"Ġinco":12148,"Ġgrauia":12149,"Ġmodos":12150,"Ġclarus":12151,"Ġexhibuit":12152,"Ġreliquos":12153,"Ġuestigiis":12154,"Ġtangere":12155,"Ġcacum":12156,"Ġtell":12157,"Ġneap":12158,"Ġcapell":12159,"Ġquemlibet":12160,"Ġpraedicantur":12161,"Ġciuitatum":12162,"peri":12163,"Ġsubuers":12164,"Ġindiuis":12165,"positione":12166,"Ġdebell":12167,"Ġponat":12168,"Ġpetunt":12169,"Ġpertineat":12170,"Ġdiuisit":12171,"Ġuiolentia":12172,"Ġdabat":12173,"Ġfuimus":12174,"Ġdeced":12175,"Ġgenitum":12176,"ĠÏĦÎ¹Î½":12177,"Ġcongregatio":12178,"Ġdulcedine":12179,"Ġphryg":12180,"Ġtyri":12181,"Ġaditum":12182,"Ġdebit":12183,"Ġcrediderit":12184,"Ġgnaeus":12185,"Ġponuntur":12186,"Ġuirium":12187,"Ġplurimorum":12188,"Ġobsidione":12189,"Ġcorrobor":12190,"fre":12191,"Ġuersa":12192,"Ġexsol":12193,"Ġambula":12194,"Ġdepreh":12195,"Ġsalomonem":12196,"Ġagam":12197,"Ġhostias":12198,"Ġcupiunt":12199,"Ġsubjug":12200,"Ġceteros":12201,"Ġrogauit":12202,"Ġfeminarum":12203,"Ġinnocentem":12204,"Ġsocietas":12205,"Ġnort":12206,"Ġstellas":12207,"Ġconcus":12208,"Ġconcin":12209,"Ġapollo":12210,"abae":12211,"Ġquodcunque":12212,"Ġdecreuimus":12213,"Ġsollicitudo":12214,"Ġdiscrimine":12215,"burg":12216,"eque":12217,"Ġsolitudinem":12218,"Ġpraestitit":12219,"Ġrecenti":12220,"Ġistuc":12221,"Ġobstin":12222,"Ġmiror":12223,"Ġsubire":12224,"Ġdispensatione":12225,"Ġfacultates":12226,"Ġlatitudinem":12227,"Ġlacrymarum":12228,"quas":12229,"Ġnegationem":12230,"Ġscholas":12231,"Ġcere":12232,"Ġrim":12233,"Ġfacilis":12234,"Ġpartum":12235,"Ġcommittere":12236,"Ġminuere":12237,"Ġnouas":12238,"Ġcelebratur":12239,"Ġgentil":12240,"Ġgregorio":12241,"Ġfraternitati":12242,"Ġsubditis":12243,"Î½Î±":12244,"ĠÎµÎ¼":12245,"Ġnatione":12246,"rior":12247,"Ġproueni":12248,"Ġisid":12249,"mox":12250,"Ġdifferunt":12251,"Ġequorum":12252,"Ġactuum":12253,"Ġmeridie":12254,"Ġmeridiem":12255,"Î±Ïħ":12256,"Ġgress":12257,"Ġnotis":12258,"Ġnuntius":12259,"Ġinstitutis":12260,"Ġadditur":12261,"Ġcirculi":12262,"Ġsimplicem":12263,"Ġargumentis":12264,"Ġuocabula":12265,"Ġprouerbi":12266,"Ġueg":12267,"Ġconantur":12268,"actae":12269,"Ġincidit":12270,"Ġpeccauerit":12271,"Ġsignorum":12272,"Ġuidebimus":12273,"Ġlibidinem":12274,"Ġacciperet":12275,"Ġcredant":12276,"Ġconstantiam":12277,"Ġtriang":12278,"Ġabbatia":12279,"Ġmanifestat":12280,"Ġmereatur":12281,"Ġegressi":12282,"Ġflect":12283,"Ġseorsum":12284,"Ġsubinde":12285,"Ġdocens":12286,"Ġuallis":12287,"Ġdamno":12288,"Ġhaereticus":12289,"Ġopposita":12290,"culum":12291,"omnibus":12292,"Ġsuspir":12293,"Ġsatisfactionem":12294,"Ġlor":12295,"Ġiudaeae":12296,"Ġmultiplex":12297,"Ġinnocentii":12298,"Ġcister":12299,"Ġobsequi":12300,"intellig":12301,"Ġsaecularium":12302,"Ġuulneribus":12303,"Ġfortunam":12304,"Ġubera":12305,"Ġpermansit":12306,"Ġchor":12307,"Ġfortem":12308,"interea":12309,"Ġaduerso":12310,"Ġposteris":12311,"Ġdiscept":12312,"Ġdentibus":12313,"Ġillus":12314,"Ġconss":12315,"Ġnepo":12316,"Ġartium":12317,"Ġtransmigr":12318,"Ġportio":12319,"Ġiurauit":12320,"Ġnuntios":12321,"Ġprospic":12322,"Ġdescribit":12323,"Ġperenn":12324,"Ġconsubstanti":12325,"Ġreple":12326,"Ġordinata":12327,"Ġclaritatem":12328,"Ġsimplicitate":12329,"Ġexigere":12330,"Ġhebraeorum":12331,"Ġangustias":12332,"Ġtempestas":12333,"Ġdiscedere":12334,"Ġcontinentiae":12335,"Ġdoloribus":12336,"Ġdeplor":12337,"Ġcleric":12338,"Ġemendare":12339,"Ġcentrum":12340,"Ġperniciem":12341,"Ġinfidelibus":12342,"xiu":12343,"esin":12344,"Ġdiur":12345,"Ġhabui":12346,"Ġtergo":12347,"Ġcommix":12348,"Ġcaed":12349,"Ġfeminis":12350,"Ġsubjectum":12351,"Ġpercussus":12352,"Ġsuprascrip":12353,"Ġaenig":12354,"atarum":12355,"icio":12356,"Ġliby":12357,"Ġueteribus":12358,"Ġinteger":12359,"Ġauster":12360,"Ġserpentes":12361,"Ġcleri":12362,"Ġarmorum":12363,"Ġtribulationis":12364,"Ġrecordationis":12365,"Ġsincer":12366,"Ġpulchritudinem":12367,"Ġchan":12368,"Ġmonumentum":12369,"Ġmathem":12370,"Ġcolles":12371,"Ġextendit":12372,"Ġpendet":12373,"familias":12374,"Ġdans":12375,"Ġacadem":12376,"Ġtraiec":12377,"Ġinfert":12378,"Ġinfideles":12379,"Ġspolia":12380,"Ġobscura":12381,"Ġnatos":12382,"taui":12383,"Ġerump":12384,"Ġnostis":12385,"Ġlaudatur":12386,"Ġmediocr":12387,"Ġquantitas":12388,"imm":12389,"Ġimperatores":12390,"Ġinueniant":12391,"othe":12392,"Ġlemouic":12393,"quant":12394,"Ġuenter":12395,"Ġmonitis":12396,"Ġaggreg":12397,"Ġdilectum":12398,"ÎµÎ¹Î±":12399,"Ġconuersatio":12400,"Ġduxerit":12401,"Ġuocabulis":12402,"Ġgloriari":12403,"Ġlongitudine":12404,"Ġcherubim":12405,"Ġlitt":12406,"Ġrepetit":12407,"Ġuidisti":12408,"Ġdummodo":12409,"Ġdiuersi":12410,"Ġgemitu":12411,"Ġperuersa":12412,"Ġhypocr":12413,"Ġaruer":12414,"Ġliberari":12415,"Ġdissenti":12416,"Ġaltitudine":12417,"Ġtumultus":12418,"Ġincrementum":12419,"Ġpecus":12420,"Ġdecant":12421,"Ġcuiusquam":12422,"Ġcomposuit":12423,"Ġdiffus":12424,"Ġinuidiae":12425,"Ġaspera":12426,"Ġseptuag":12427,"entie":12428,"Ġgrandis":12429,"Ġredde":12430,"Ġpraedicant":12431,"Ġprotest":12432,"Ġpropositione":12433,"Ġtranstulerunt":12434,"Ġcitra":12435,"erati":12436,"ebuntur":12437,"Ġtetig":12438,"Ġuestrarum":12439,"Ġcalor":12440,"facta":12441,"Ġquater":12442,"Ġsurgit":12443,"Ġdiuidit":12444,"Ġstern":12445,"Ġioue":12446,"Ġnecessariis":12447,"Ġfamae":12448,"Ġposterius":12449,"Ġdupliciter":12450,"itato":12451,"Ġuiderint":12452,"Ġarnul":12453,"Ġdesunt":12454,"Ġirrog":12455,"Ġgenerationes":12456,"Ġostende":12457,"isteret":12458,"Ġintelligo":12459,"Ġimport":12460,"Ġinsigni":12461,"itudini":12462,"Ġostendi":12463,"Ġiuramentum":12464,"Ġnumerorum":12465,"Ġquantitate":12466,"ueras":12467,"Ġcrederet":12468,"Ġsexc":12469,"Ġmysterii":12470,"Ġpudore":12471,"Ġornatum":12472,"Ġnormam":12473,"ĠÏĪ":12474,"Ġuates":12475,"inius":12476,"Ġprauis":12477,"Ġfaciemus":12478,"Ġminoribus":12479,"Ġcircumc":12480,"Ġlaed":12481,"bertum":12482,"Ġclericum":12483,"Ġexistit":12484,"cul":12485,"teretur":12486,"Ġuertit":12487,"Î¹Î¿Î½":12488,"Ġmiseris":12489,"Ġexsilio":12490,"Ġinterrogatus":12491,"Ġsomnum":12492,"Ġsuscipiat":12493,"Ġthomas":12494,"otae":12495,"Ġdeserit":12496,"Ġmisera":12497,"Ġseruiunt":12498,"Ġcommoda":12499,"Ġsymmachus":12500,"Ġaerem":12501,"ices":12502,"Ġdicent":12503,"Ġcompati":12504,"Ġeman":12505,"Ġauen":12506,"Ġgerere":12507,"Ġpoenarum":12508,"acc":12509,"Ġuiua":12510,"Ġuiuet":12511,"Ġgenitor":12512,"Ġdoctoribus":12513,"Ġcontinere":12514,"Ġnegotii":12515,"Ġgloriosus":12516,"Ġbenignitate":12517,"Ġradicem":12518,"Ġterribilis":12519,"Ġsess":12520,"Ġalic":12521,"Ġcaussa":12522,"Ġuideamur":12523,"Ġlect":12524,"Ġhumilem":12525,"deat":12526,"Ġcolorem":12527,"Ġsapientibus":12528,"Ġconuenienter":12529,"Ġgeomet":12530,"denique":12531,"Ġproclam":12532,"Ġdiuersum":12533,"Ġimpress":12534,"Ġplagam":12535,"auerant":12536,"Ġtametsi":12537,"Ġcurrus":12538,"Ġultionem":12539,"Ġleone":12540,"Ġlatinis":12541,"Ġstruc":12542,"Ġredemptionis":12543,"Ġaestus":12544,"illud":12545,"Ġordinauit":12546,"Ġpraedestinauit":12547,"Ġcuilibet":12548,"Ġhippon":12549,"Ġperstr":12550,"Ġecclesie":12551,"Ġuoluisti":12552,"Ġagmina":12553,"Ġaudierit":12554,"Ġnolle":12555,"Ġzen":12556,"Ġiubemus":12557,"Ġmonstra":12558,"tir":12559,"ÏĥÏĦÎ¿Î»":12560,"ebitis":12561,"Ġsecret":12562,"Ġlectionis":12563,"Ġcadere":12564,"Ġuineis":12565,"Ġfraternitas":12566,"Ġeccle":12567,"Ġagatur":12568,"Ġornatus":12569,"Ġaedes":12570,"iant":12571,"Ġsedulo":12572,"Ġfrustr":12573,"Ġimmorta":12574,"Ġgauis":12575,"Ġoppida":12576,"Ġfelicitatem":12577,"Ġmaledictus":12578,"Ġexcelsa":12579,"Ġinsequ":12580,"Ġpergit":12581,"Ġnecem":12582,"Ġinstinc":12583,"Ġuocabatur":12584,"Ġportis":12585,"Ġfirmitatem":12586,"Ġpraefigur":12587,"Ġinnocentes":12588,"Ġhonorifice":12589,"Ġaura":12590,"Ġdipl":12591,"Ġpartur":12592,"Ġscorp":12593,"Ġpreter":12594,"Ġinfirmos":12595,"Ġtradiderunt":12596,"Ġconuertere":12597,"Ġpetitionem":12598,"cribitur":12599,"Ġarea":12600,"Ġdignam":12601,"Ġsacerdoti":12602,"Ġdisciplinis":12603,"itia":12604,"xuii":12605,"Ġsard":12606,"Ġagite":12607,"Ġziz":12608,"Ġdubitatione":12609,"Ġfraudul":12610,"Ġsublato":12611,"Ġmelchisedech":12612,"Ġconatur":12613,"Ġeremo":12614,"Ġhabentibus":12615,"Ġimperatorum":12616,"Ġdonat":12617,"Ġtimuit":12618,"Ġcadunt":12619,"Ġprolata":12620,"Ġplagis":12621,"Ġquaerite":12622,"Ġmomento":12623,"elmus":12624,"Ġalue":12625,"Ġhaeredes":12626,"ĠÎ´ÏħÎ½":12627,"Ġconstitutione":12628,"quar":12629,"Ġpermix":12630,"Ġritus":12631,"Ġexstiterit":12632,"Ġdemer":12633,"Ġumbram":12634,"Ġcontradictione":12635,"Ġpiscium":12636,"Ġueneno":12637,"Ġcongregationis":12638,"Ġsterilis":12639,"oler":12640,"Ġdiscordia":12641,"Ġarborum":12642,"Ġagnum":12643,"Ġdifferentias":12644,"Ġqualitates":12645,"Ġnequitia":12646,"Ġeurop":12647,"ipsa":12648,"ertum":12649,"Ġccc":12650,"Ġualuit":12651,"Ġtheb":12652,"Ġemund":12653,"Ġtestem":12654,"Ġpraeterito":12655,"Ġmagi":12656,"Ġconcedere":12657,"Ġdurum":12658,"Ġexistens":12659,"Ġantisti":12660,"inensi":12661,"Ġreor":12662,"Ġprofecti":12663,"numquam":12664,"Ġcantu":12665,"Ġnequit":12666,"Ġostensum":12667,"ĠÎ±Î´":12668,"Ġaperto":12669,"Ġalba":12670,"Ġproponit":12671,"Ġcastitatem":12672,"ton":12673,"Ġlucr":12674,"Ġioui":12675,"homilia":12676,"Ġadmis":12677,"Ġsubtrac":12678,"Ġagmine":12679,"Ġindiffer":12680,"Ġfundum":12681,"Ġseparari":12682,"Ġbeatitudine":12683,"eodem":12684,"torium":12685,"Ġcomparationem":12686,"Ġfornicationis":12687,"utitur":12688,"Ġcoloris":12689,"Ġtenui":12690,"Ġdeport":12691,"Ġmoriuntur":12692,"Ġhieronymi":12693,"Ġfuisti":12694,"Ġnouerunt":12695,"Ġperturbare":12696,"Ġfast":12697,"Ġagente":12698,"Ġfelicitate":12699,"Ġprocedat":12700,"Ġcomplur":12701,"Ġuigiliis":12702,"etibus":12703,"Ġquaest":12704,"ada":12705,"Ġpriora":12706,"Ġcapitoli":12707,"Ġsordibus":12708,"Ġdas":12709,"Ġhem":12710,"Ġexsequi":12711,"Ġstudiorum":12712,"Ġpraecepti":12713,"Ġfatetur":12714,"Ġparata":12715,"Ġreplic":12716,"ĠÎ·Î½":12717,"Ġueh":12718,"Ġdeuotionem":12719,"domino":12720,"sos":12721,"Ġsigni":12722,"Ġuertitur":12723,"ceat":12724,"Ġadhort":12725,"elo":12726,"Ġturris":12727,"Ġsaluare":12728,"Ġnesciat":12729,"Ġdelicto":12730,"ĠÎ±ÏħÏĦÎ¿Î½":12731,"Ġuelimus":12732,"Ġfolia":12733,"Ġsolliciti":12734,"tre":12735,"cede":12736,"Ġcupimus":12737,"Ġfoc":12738,"Ġfuc":12739,"Ġsumpta":12740,"Ġexanim":12741,"Ġperfectione":12742,"Ġobediens":12743,"positionem":12744,"Ġcedere":12745,"Ġnicolai":12746,"ormi":12747,"Ġparat":12748,"Ġarcem":12749,"Ġlectionem":12750,"Ġmanifestius":12751,"Ġperfidia":12752,"Ġuoluptates":12753,"Ġdidicimus":12754,"ublica":12755,"Ġassyriorum":12756,"Ġmisi":12757,"Ġlinguarum":12758,"Ġdistantia":12759,"Ġclausa":12760,"Ġtraditionem":12761,"Ġthronum":12762,"Ġprz":12763,"Ġfru":12764,"Ġpecora":12765,"Ġnouitate":12766,"Ġprimos":12767,"Ġamplect":12768,"Ġsubiecti":12769,"Ġliquido":12770,"dominus":12771,"Ġeua":12772,"Ġsignificari":12773,"Ġunaquaeque":12774,"Ġlicuit":12775,"Ġcessat":12776,"Ġmetaphys":12777,"xuiii":12778,"Ġfen":12779,"Ġasia":12780,"Ġreddita":12781,"Ġcarnalium":12782,"Ġinitia":12783,"Ġlacum":12784,"Ġquaestionis":12785,"Ġfraudem":12786,"Ġlineam":12787,"Ġphilippi":12788,"artic":12789,"Ġpraeerat":12790,"Ġuideor":12791,"Ġquantam":12792,"Ġattentius":12793,"Ġnotus":12794,"Ġfeminas":12795,"Ġuestimentis":12796,"ĠepiÅ¿cop":12797,"Ġlibello":12798,"Ġseruetur":12799,"Ġleuiter":12800,"Ġidoneus":12801,"Ġtypum":12802,"erici":12803,"itque":12804,"Ġspiri":12805,"Ġarcum":12806,"Ġregali":12807,"Ġdeberent":12808,"Ġusquequo":12809,"Ġpraeceptorum":12810,"Ġmensae":12811,"Ġseruientes":12812,"Ġdesiderii":12813,"autem":12814,"Ġconuiuio":12815,"Ġfranci":12816,"Ġnatu":12817,"Ġconcedit":12818,"Ġaditus":12819,"Ġcoin":12820,"Ġpoposc":12821,"Ġgrauitate":12822,"Ġcecin":12823,"Ġuentrem":12824,"Ġlargit":12825,"Ġadimplere":12826,"Ġtue":12827,"Ġurbium":12828,"Ġueniente":12829,"Ġattent":12830,"Ġsinit":12831,"Ġcognosce":12832,"idimus":12833,"ticem":12834,"Ġnihilque":12835,"Ġoperantur":12836,"Ġmittam":12837,"Ġserpentis":12838,"Ġperpetrata":12839,"eng":12840,"Ġquir":12841,"alus":12842,"Ġog":12843,"Ġlinte":12844,"Ġuiuificat":12845,"Ġbulla":12846,"Ġseueri":12847,"Ġmoram":12848,"Ġmartis":12849,"Ġuiuant":12850,"Ġexpertus":12851,"Ġstudiose":12852,"Ġcomitibus":12853,"Ã¾s":12854,"Ġnescis":12855,"Ġorate":12856,"ĠÎµÏĩ":12857,"Ġtimentes":12858,"Ġmirabile":12859,"petrus":12860,"Ġinfirmum":12861,"Ġodore":12862,"Ġspero":12863,"Ġgraecum":12864,"Ġperueniat":12865,"Ġuulgi":12866,"iac":12867,"Ġta":12868,"Ġperjur":12869,"Ġenar":12870,"Ġinteremp":12871,"Î¹Î»":12872,"Ġaggra":12873,"Ġsensuum":12874,"Ġcontentio":12875,"Ġueneratione":12876,"Ġeffecti":12877,"ingitur":12878,"Ġreatum":12879,"Ġcunct":12880,"Ġpraesumps":12881,"Ġcircumcisione":12882,"Ġcolumna":12883,"Ġpraescientia":12884,"tulimus":12885,"Ġconfring":12886,"Ġminora":12887,"Ġexempli":12888,"Ġbreue":12889,"Ġimpletur":12890,"Ġdiacono":12891,"Ġierosolym":12892,"Ġinordin":12893,"Ġsuperuac":12894,"Ġiudicet":12895,"Ġexcr":12896,"Ġflere":12897,"Ġconueniens":12898,"Ġcreaturis":12899,"Ġedita":12900,"uro":12901,"Ġexit":12902,"phus":12903,"Ġconuentum":12904,"Ġmedietatem":12905,"Ġsalutari":12906,"Ġtacere":12907,"Ġcernitur":12908,"Ġoccurrere":12909,"Ġfef":12910,"Ġuersibus":12911,"Ġobseruatione":12912,"Ġomitt":12913,"geniti":12914,"aff":12915,"Ġela":12916,"Ġuarii":12917,"Ġges":12918,"Ġcontemptum":12919,"Ġpugnae":12920,"Ġexistimo":12921,"Ġmart":12922,"Ġspirituum":12923,"Ġuiuente":12924,"Ġcanonicus":12925,"Ġstatuentes":12926,"Ġtribulationes":12927,"Ġsterc":12928,"Ġreos":12929,"opon":12930,"app":12931,"egor":12932,"exs":12933,"Ġaegre":12934,"Ġxxix":12935,"Ġsaba":12936,"Ġministerii":12937,"Ġiulianus":12938,"Ġaliquanto":12939,"Ġham":12940,"aremur":12941,"pedit":12942,"Ġcatholicos":12943,"Ġnescitis":12944,"Ġaccedat":12945,"Ġperuenerunt":12946,"Ġinsigne":12947,"fal":12948,"Ġeust":12949,"aldum":12950,"endarum":12951,"Ġsoll":12952,"Ġliberare":12953,"Ġmaximis":12954,"Ġlacus":12955,"Ġredeat":12956,"Ġbestia":12957,"ĉĉ":12958,"urae":12959,"Ġparem":12960,"ellos":12961,"Ġcreatori":12962,"Ġcolere":12963,"Ġnominat":12964,"Ġuirgam":12965,"Ġuetera":12966,"Ġcircumde":12967,"Ġcorruptionem":12968,"Ġbeatissimus":12969,"isa":12970,"ursum":12971,"ĠÎ¶":12972,"Ġsuperat":12973,"Ġsuauis":12974,"Ġexspoli":12975,"Ġaeternitatis":12976,"Ġconsulere":12977,"Ġsperat":12978,"Ġconsequitur":12979,"Ġdelectatione":12980,"Ġgentilis":12981,"Ġmassa":12982,"Ġproiici":12983,"Ġlaborat":12984,"Ġseptimus":12985,"Ġangustiis":12986,"Ġaltaria":12987,"Ġsubleu":12988,"Ġperquir":12989,"Ġchristianam":12990,"Ġconuersio":12991,"Ġsicilia":12992,"Ġnigr":12993,"Ġrecti":12994,"Ġdocti":12995,"Ġnaturis":12996,"Ġlucra":12997,"Ġindec":12998,"Ġpossed":12999,"Ġuenerant":13000,"Ġcanonicam":13001,"Ġmanducat":13002,"Ġciuilis":13003,"Ġprophetiam":13004,"Ġpraeclara":13005,"uendam":13006,"Ġnationibus":13007,"Ġuiueret":13008,"Ġinduci":13009,"Ġnouissime":13010,"Ġthessalon":13011,"Ġabd":13012,"Ġmunific":13013,"Ġuisionis":13014,"ĠÎ±Î¼":13015,"Ġportionem":13016,"Ġcampos":13017,"Ġillicita":13018,"Ġarchidiaconus":13019,"cula":13020,"glor":13021,"ittis":13022,"Ġarat":13023,"Î·ÏģÎ¹":13024,"Ġputauit":13025,"Ġtractare":13026,"Ġclementiae":13027,"Ġpharaonis":13028,"Ġiracundiam":13029,"Ġsanum":13030,"Ġaui":13031,"Ġcrederent":13032,"Ġatton":13033,"Ġoccidentem":13034,"Ġinterrogauit":13035,"Ġcernere":13036,"Ġsubjaceat":13037,"Ġciuitati":13038,"Ġrapit":13039,"Ġadmonitio":13040,"subi":13041,"Ġinferioribus":13042,"Ġdespons":13043,"Ġseruauit":13044,"Ġproceres":13045,"Ġmiraculorum":13046,"Ġablata":13047,"Ġrespondeat":13048,"mem":13049,"Ġretrah":13050,"Ġchir":13051,"Ġmoris":13052,"Ġimpie":13053,"Ġfaut":13054,"Ġfurtum":13055,"Ġturbas":13056,"Ġdelectatio":13057,"Ġmeliores":13058,"Ġfrigus":13059,"Ġuendi":13060,"Ġfet":13061,"Ġsir":13062,"Ġquamque":13063,"Ġualeamus":13064,"Ġseruatur":13065,"Ġdolus":13066,"illatim":13067,"Ġmolend":13068,"Ġorthograph":13069,"Ġliquet":13070,"Ġtunica":13071,"zz":13072,"elus":13073,"rap":13074,"ÏĦÎ¿ÏĤ":13075,"iose":13076,"Ġdescrips":13077,"Ġostendimus":13078,"Ġmedicinam":13079,"Ġincorpor":13080,"Ġcella":13081,"ophil":13082,"Ġacum":13083,"Ġpotuerint":13084,"Ġagis":13085,"Ġuicibus":13086,"Ġinstitutione":13087,"argumentum":13088,"Ġexhibet":13089,"Ġtristitiam":13090,"Ġnegligentia":13091,"Ġafricae":13092,"Ġconscius":13093,"neg":13094,"rh":13095,"Ġuenimus":13096,"Ġprimas":13097,"Ġauditor":13098,"pice":13099,"Ġaccidentia":13100,"Ġexponere":13101,"Î·Î½Î±Î¹":13102,"Ġhispaniae":13103,"occup":13104,".âĢĶ":13105,"aconi":13106,"Ġrach":13107,"Ġchana":13108,"Ġchorus":13109,"Ġpartu":13110,"Ġintoler":13111,"Ġmissas":13112,"primum":13113,"Î»Î·Î¸":13114,"Ġsublata":13115,"Ġinha":13116,"Ġrar":13117,"Ġquaeri":13118,"Ġintellige":13119,"Ġintelligenda":13120,"Ġtransiit":13121,"Ġprecep":13122,"Ġclaritas":13123,"Ġherba":13124,"Ġdelectat":13125,"Ġcanticorum":13126,"Ġcircumcisio":13127,"mati":13128,"Ġquantis":13129,"Ġmuro":13130,"Ġnuda":13131,"Ġsatanas":13132,"Ġremissio":13133,"Ġcotidie":13134,"Ġtiment":13135,"Ġecclesiastici":13136,"Ġconiec":13137,"Ġpuro":13138,"Ġutiliter":13139,"Ġantiquorum":13140,"Ġincredul":13141,"cet":13142,"Ġcera":13143,"essent":13144,"Ġscrup":13145,"Ġprobari":13146,"Ġinfirmis":13147,"Ġgemin":13148,"Ġfontibus":13149,"Ġconceditur":13150,"Ġteneant":13151,"Ġpercipiant":13152,"Ġcomprehendere":13153,"enarum":13154,"anius":13155,"Ġreser":13156,"Ġperfectae":13157,"Ġeluc":13158,"Ġdisposuit":13159,"nisi":13160,"xisse":13161,"Ġuanum":13162,"Ġmd":13163,"ebius":13164,"Î·Îº":13165,"annum":13166,"Ġcupiditatem":13167,"yma":13168,"arer":13169,"Ġuiuam":13170,"Ġxxxi":13171,"ĠÎµÎºÎµÎ¹Î½":13172,"Î¼Î±ÏĦÎ¿ÏĤ":13173,"ian":13174,"nat":13175,"endorum":13176,"Ġaggredi":13177,"Ġpraebet":13178,"Ġhospes":13179,"Ġobstup":13180,"Ġlatrones":13181,"Ġana":13182,"Ġpeccatorem":13183,"Ġfaciebant":13184,"anna":13185,"ĠÏĢÎ¿Î¹":13186,"Ġgemmis":13187,"propter":13188,"Ġungu":13189,"Ġmomenti":13190,"Ġmessis":13191,"Ġenumer":13192,"Ġpetens":13193,"Ġassensu":13194,"Ġapertissime":13195,"Ġnolumus":13196,"Ġquaerentes":13197,"Ġconcessione":13198,"Ġbai":13199,"Ġcoac":13200,"Ġcoegit":13201,"Ġiurare":13202,"uniuers":13203,"Ġspiritales":13204,"Ġieremiam":13205,"Ġabus":13206,"Ġposuisti":13207,"Ġcrebris":13208,"Ġimpell":13209,"Ġinca":13210,"Ġtemporali":13211,"Ġabbatiam":13212,"quare":13213,"illus":13214,"Ġcognoscant":13215,"Ġminimis":13216,"Ġreprobi":13217,"Ġrelinquit":13218,"Ġretract":13219,"Ġunigeniti":13220,"Ġpuluis":13221,"Ġafflu":13222,"Ġcustodiunt":13223,"Ġextremis":13224,"Ġretinet":13225,"Ġincipiunt":13226,"Ġgehennae":13227,"fid":13228,"xc":13229,"Ġiumenta":13230,"Ġmanent":13231,"uxi":13232,"Ġsequere":13233,"Ġmulieri":13234,"Ġquaestionibus":13235,"Ġedom":13236,"Ġproceditur":13237,"Ġdegen":13238,"Ġliberatus":13239,"Ġaduersarios":13240,"Ġlatinum":13241,"pater":13242,"Ġbaptistae":13243,"Ġeugen":13244,"Ġlog":13245,"Ġarua":13246,"Ġquali":13247,"Ġeiici":13248,"Ġuicti":13249,"Ġdiscessit":13250,"Ġdiuersarum":13251,"Ġuacare":13252,"Ġiosephus":13253,"Ġinstrumentum":13254,"Ġexstat":13255,"ulius":13256,"Ġcompens":13257,"Ġdiligens":13258,"Ġoptamus":13259,"Ġquamplur":13260,"Ġoremus":13261,"Ġnouissimis":13262,"Ġexpositione":13263,"Ġcxx":13264,"abel":13265,"ensione":13266,"Ġamica":13267,"Ġimpletum":13268,"Ġtimeo":13269,"Ġinuenio":13270,"Ġdeuote":13271,"Ġcontrouersia":13272,"eritatis":13273,"Ġfacitis":13274,"Ġlaici":13275,"Ġclamauit":13276,"ÏĥÎ¹ÏĤ":13277,"Ġpersequi":13278,"Ġhabito":13279,"istarum":13280,"Ġpraecipua":13281,"Ġoblationem":13282,"Ġeloquentiae":13283,"Ġabscondi":13284,"Ġfoedere":13285,"interrog":13286,"Ġphilippo":13287,"Ġcatechum":13288,"Ġtob":13289,"Ġsedentem":13290,"Ġquaerebat":13291,"Ġminas":13292,"Ġconjec":13293,"Ġdamus":13294,"Ġlu":13295,"Ġagebat":13296,"Ġsentio":13297,"nulla":13298,"Ġcaligine":13299,"Ġhumeris":13300,"Ġexcaec":13301,"Ġiniti":13302,"Ġirritum":13303,"Ġmultipliciter":13304,"Ġconfitentur":13305,"Ġpropositionibus":13306,"Ġincrementa":13307,"Ġtog":13308,"Ġpotuimus":13309,"Ġmodul":13310,"Ġintegram":13311,"Ġcircumcisionem":13312,"sti":13313,"enarr":13314,"Ġho":13315,"differ":13316,"Ġregere":13317,"Ġflammas":13318,"Ġulcisc":13319,"Â°":13320,"Ġorauit":13321,"Ġasp":13322,"Ġmonumenta":13323,"Ġphal":13324,"Ġnullas":13325,"Ġgaudens":13326,"Ġconiur":13327,"Ġimpietate":13328,"Ġhenricus":13329,"Ġreatus":13330,"Ġamal":13331,"Ġprobatio":13332,"Ġcontendunt":13333,"Ġadjunxit":13334,"Ġsyrac":13335,"Ġdamas":13336,"Ġconfirmare":13337,"Ġinterpretes":13338,"Ġsacrificiis":13339,"Ġpromissionem":13340,"Ġobui":13341,"pho":13342,"Ġcommunionis":13343,"Ġconstituere":13344,"Ġsiluae":13345,"Ġegerunt":13346,"Ġinnocentiae":13347,"Ġoptimus":13348,"Ġrecepta":13349,"Ġimpietas":13350,"Ġtullius":13351,"Ġablu":13352,"Ġexcogit":13353,"Ġconsulem":13354,"Ġausi":13355,"Ġfaucibus":13356,"Ġpraeparauit":13357,"Ġsubstantias":13358,"Ġlongitudinem":13359,"Ġdifficultate":13360,"Ġguido":13361,"Ġpaganorum":13362,"Ġascendens":13363,"Ġcoenobii":13364,"Ġadipisc":13365,"Ġspiritibus":13366,"torqu":13367,"ulisper":13368,"Ġnaturale":13369,"Ġcaeteras":13370,"Ġfamiliam":13371,"Ġfrigore":13372,"Ġconquer":13373,"Ġiniquitatibus":13374,"Ġdap":13375,"Ġneru":13376,"Ġesca":13377,"Ġquaeritis":13378,"Ġresistit":13379,"edes":13380,"Ġsuspi":13381,"Ġtraditum":13382,"Ġcampi":13383,"Ġcodex":13384,"Ġrecipiunt":13385,"Ġabscondita":13386,"Ġmichaelis":13387,"olet":13388,"Ġintueri":13389,"Ġcredas":13390,"Ġdedimus":13391,"Ġauxilia":13392,"Ġaedificare":13393,"Ġcolligere":13394,"Ġpuellam":13395,"Ġconfusionem":13396,"Ġsyllogismus":13397,"Ġecdes":13398,"Ġpeccandi":13399,"Ġaeuo":13400,"Ġdiuersorum":13401,"Ġreferunt":13402,"Ġhistorica":13403,"Ġpostrem":13404,"Ġquesn":13405,"ĠeÅ¿t":13406,"Ġiuncta":13407,"Ġpratis":13408,"Ġamatores":13409,"Ġsculp":13410,"Ġimpune":13411,"Ġsale":13412,"Ġrepudi":13413,"Ġcontineri":13414,"Ġcernimus":13415,"ĠÏĥÏĦ":13416,"Ġmitter":13417,"Ġanteri":13418,"Ġprobatum":13419,"Ġarboribus":13420,"Ġstultitiam":13421,"Ġdatae":13422,"Ġmas":13423,"Ġdiuersos":13424,"Ġzur":13425,"praed":13426,"Ġantiquitus":13427,"Ġsenioribus":13428,"Ġfoliis":13429,"Ġdominicis":13430,"Ġdaretur":13431,"Ġetern":13432,"lices":13433,"Ġfacturum":13434,"itasse":13435,"Ġaegro":13436,"Ġsororis":13437,"Ġsubjectis":13438,"Ġpraesumptione":13439,"Ġegisse":13440,"Ġsensiti":13441,"Ġdeclaratur":13442,"Ġconstantinopoli":13443,"Ġcreditis":13444,"Ġscipio":13445,"cius":13446,"fa":13447,"tili":13448,"Ġpraedictae":13449,"Ġmiraculo":13450,"Ġpericuli":13451,"Ġlignis":13452,"Ġseptimum":13453,"Ġradices":13454,"Ġsubjunxit":13455,"irem":13456,"Ġuenissent":13457,"conc":13458,"ebras":13459,"Ġirrid":13460,"Ġaccedens":13461,"Ġexcellentiam":13462,"Ġleni":13463,"Ġinterueni":13464,"Ġeruditus":13465,"Ġinferiora":13466,"genit":13467,"Ġdeci":13468,"Ġdominos":13469,"Ġpate":13470,"Ġregalis":13471,"Ġlegatione":13472,"ÏīÏģ":13473,"necess":13474,"Ġalexandro":13475,"Ġsolemniter":13476,"Ġancillae":13477,"Ġsecura":13478,"Ġseries":13479,"Ġincensum":13480,"Ġaeternitate":13481,"Ġinteriorem":13482,"asper":13483,"Ġpraeposito":13484,"Ġimponere":13485,"pub":13486,"utorum":13487,"clxx":13488,"ÎµÎ¼":13489,"uide":13490,"Ġhaesit":13491,"Ġsomnium":13492,"Ġinfidelitatis":13493,"Ġhal":13494,"Ġsanctissimo":13495,"Ġassimil":13496,"Ġinspici":13497,"Ġfaciendi":13498,"Ġtraxit":13499,"Ġrogatus":13500,"Ġconcepit":13501,"Ġcontentione":13502,"Ġsolita":13503,"Ġseminis":13504,"Ġxm":13505,"Ġdeclinare":13506,"cat":13507,"oded":13508,"Ġepit":13509,"ÏĥÎµÎ²":13510,"Ġuiciss":13511,"Ġtenentur":13512,"maxim":13513,"Ġuiso":13514,"Ġprudentes":13515,"editores":13516,"Ġalicubi":13517,"Ġfumus":13518,"Ġinique":13519,"Ġdepop":13520,"Ġpropositionem":13521,"Ġceleritate":13522,"Ġcaelestis":13523,"cla":13524,"Ġpecud":13525,"Ġsacer":13526,"Ġintelligant":13527,"Ġdiligenti":13528,"Ġmilitem":13529,"dudum":13530,"uamus":13531,"idisset":13532,"Ġpercip":13533,"Ġcoli":13534,"Ġmaritus":13535,"iderent":13536,"Ġlongam":13537,"Ġuxoribus":13538,"Ġsusceptus":13539,"Ġsuscepimus":13540,"Ġdubitat":13541,"Ġstatimque":13542,"Ġtectum":13543,"Ġamant":13544,"Ġcaute":13545,"Ġnouissimo":13546,"Ġclaudius":13547,"lucius":13548,"Ġcalumniam":13549,"Ġastutia":13550,"Ġpraet":13551,"Ġimpendere":13552,"Ġagath":13553,"Ġcoloni":13554,"Ġpaulisper":13555,"Ġirrep":13556,"Ġsociorum":13557,"Ġultimus":13558,"Ġrelinquitur":13559,"Ġpulchritudo":13560,"Ġinteruallo":13561,"Ġsubtiliter":13562,"Ġdeprom":13563,"Ġpart":13564,"Ġclaustra":13565,"Ġregimine":13566,"Ġinane":13567,
[...]
