{"<|endoftext|>":0,"<|pad|>":1,"!":2,"\"":3,"#":4,"$":5,"%":6,"&":7,"'":8,"(":9,")":10,"*":11,"+":12,",":13,"-":14,".":15,"/":16,"0":17,"1":18,"2":19,"3":20,"4":21,"5":22,"6":23,"7":24,"8":25,"9":26,":":27,";":28,"<":29,"=":30,">":31,"?":32,"@":33,"A":34,"B":35,"C":36,"D":37,"E":38,"F":39,"G":40,"H":41,"I":42,"J":43,"K":44,"L":45,"M":46,"N":47,"O":48,"P":49,"Q":50,"R":51,"S":52,"T":53,"U":54,"V":55,"W":56,"X":57,"Y":58,"Z":59,"[":60,"\\":61,"]":62,"^":63,"_":64,"`":65,"a":66,"b":67,"c":68,"d":69,"e":70,"f":71,"g":72,"h":73,"i":74,"j":75,"k":76,"l":77,"m":78,"n":79,"o":80,"p":81,"q":82,"r":83,"s":84,"t":85,"u":86,"v":87,"w":88,"x":89,"y":90,"z":91,"{":92,"|":93,"}":94,"~":95,"¡":96,"¢":97,"£":98,"¤":99,"¥":100,"¦":101,"§":102,"¨":103,"©":104,"ª":105,"«":106,"¬":107,"®":108,"¯":109,"°":110,"±":111,"²":112,"³":113,"´":114,"µ":115,"¶":116,"·":117,"¸":118,"¹":119,"º":120,"»":121,"¼":122,"½":123,"¾":124,"¿":125,"À":126,"Á":127,"Â":128,"Ã":129,"Ä":130,"Å":131,"Æ":132,"Ç":133,"È":134,"É":135,"Ê":136,"Ë":137,"Ì":138,"Í":139,"Î":140,"Ï":141,"Ð":142,"Ñ":143,"Ò":144,"Ó":145,"Ô":146,"Õ":147,"Ö":148,"×":149,"Ø":150,"Ù":151,"Ú":152,"Û":153,"Ü":154,"Ý":155,"Þ":156,"ß":157,"à":158,"á":159,"â":160,"ã":161,"ä":162,"å":163,"æ":164,"ç":165,"è":166,"é":167,"ê":168,"ë":169,"ì":170,"í":171,"î":172,"ï":173,"ð":174,"ñ":175,"ò":176,"ó":177,"ô":178,"õ":179,"ö":180,"÷":181,"ø":182,"ù":183,"ú":184,"û":185,"ü":186,"ý":187,"þ":188,"ÿ":189,"Ā":190,"ā":191,"Ă":192,"ă":193,"Ą":194,"ą":195,"Ć":196,"ć":197,"Ĉ":198,"ĉ":199,"Ċ":200,"ċ":201,"Č":202,"č":203,"Ď":204,"ď":205,"Đ":206,"đ":207,"Ē":208,"ē":209,"Ĕ":210,"ĕ":211,"Ė":212,"ė":213,"Ę":214,"ę":215,"Ě":216,"ě":217,"Ĝ":218,"ĝ":219,"Ğ":220,"ğ":221,"Ġ":222,"ġ":223,"Ģ":224,"ģ":225,"Ĥ":226,"ĥ":227,"Ħ":228,"ħ":229,"Ĩ":230,"ĩ":231,"Ī":232,"ī":233,"Ĭ":234,"ĭ":235,"Į":236,"į":237,"İ":238,"ı":239,"Ĳ":240,"ĳ":241,"Ĵ":242,"ĵ":243,"Ķ":244,"ķ":245,"ĸ":246,"Ĺ":247,"ĺ":248,"Ļ":249,"ļ":250,"Ľ":251,"ľ":252,"Ŀ":253,"ŀ":254,"Ł":255,"ł":256,"Ń":257,"er":258,"qu":259,"Ġa":260,"um":261,"Ġe":262,"Ġi":263,"us":264,"is":265,"Ġs":266,"Ġp":267,"it":268,"Ġc":269,"nt":270,"at":271,"Ġqu":272,"on":273,"re":274,"Ġd":275,"am":276,"Ġn":277,"Ġm":278,"or":279,"em":280,"li":281,"Ġv":282,"Ġt":283,"Ġin":284,"es":285,"en":286,"in":287,"Ġf":288,"os":289,"ur":290,"ae":291,"Ġet":292,"ic":293,"que":294,"ut":295,"Ġh":296,"im":297,"et":298,"ar":299,"ul":300,"an":301,"Ġpr":302,"ent":303,"om":304,"as":305,"id":306,"ib":307,"Ġl":308,"ec":309,"Ġre":310,"Ġes":311,"oc":312,"un":313,"Ġad":314,"ia":315,"od":316,"Ġsu":317,"ant":318,"ac":319,"ll":320,"Ġde":321,"ibus":322,"ius":323,"Ġex":324,"ere":325,"Ġcon":326,"Ġg":327,"ta":328,"se":329,"Ġse":330,"io":331,"ud":332,"Ġest":333,"op":334,"ol":335,"Ġnon":336,"Ġ\"":337,"ion":338,"Ġut":339,"ra":340,"al":341,"uit":342,"il":343,"ab":344,"unt":345,"ium":346,"per":347,"orum":348,"Ġper":349,"gn":350,"uer":351,"ot":352,"Ġdi":353,"Ġr":354,"iam":355,"ore":356,"end":357,"Ġcum":358,"iss":359,"ip":360,"est":361,"Ġb":362,"Ġsi":363,"ens":364,"Ġqui":365,"Ġquod":366,"ili":367,"uc":368,"el":369,"ob":370,"ost":371,"ir":372,"Ġac":373,"Ġco":374,"Ġca":375,"Ġaut":376,"Ġma":377,"Ġat":378,"Ġver":379,"eg":380,"Ġcons":381,"Ġdic":382,"Ġsed":383,"Ġan":384,"are":385,"ii":386,"Ġli":387,"eb":388,"Ġint":389,"Ġali":390,"ub":391,"Ġim":392,"omn":393,"and":394,"ed":395,"Ġpro":396,"Ġquae":397,"ter":398,"ell":399,"Ġomn":400,"Ġne":401,"Ġar":402,"ect":403,"Ġsc":404,"atur":405,"ui":406,"ist":407,"Ġab":408,"Ġquam":409,"Ġ&":410,"ation":411,"Ġquid":412,"itur":413,"Ġfac":414,"Ġprae":415,"Ġill":416,"ort":417,"pt":418,"omin":419,"Ġesse":420,"Ġcom":421,"lic":422,"itat":423,"Ġpl":424,"Ġid":425,"Ġatque":426,"ult":427,"st":428,"Ġquo":429,"Ġpar":430,"und":431,"Ġu":432,"Ġer":433,"Ġip":434,"Ġtr":435,"Ġme":436,"Ġam":437,"Ġap":438,"ari":439,"ig":440,"Ġop":441,"unc":442,"Ġvid":443,"Ġnec":444,"Ġlib":445,"issim":446,"iae":447,"uis":448,"Ġhab":449,"fic":450,"aec":451,"Ġob":452,"Ġsunt":453,"arum":454,"ro":455,"Ġen":456,"atus":457,"Ġst":458,"Ġqua":459,"Ġtam":460,"Ġor":461,"Ġinter":462,"Ġal":463,"ess":464,"ine":465,"ert":466,"eret":467,"Ġcont":468,"ust":469,"quam":470,"res":471,"Ġ&#":472,"Ġpos":473,"Ġpot":474,"Ġita":475,"inc":476,"eri":477,"rat":478,"emp":479,"Ġsol":480,"ih":481,"iu":482,"Ġhoc":483,"Ġpat":484,"Ġips":485,"Ġpost":486,"Ġvel":487,"tum":488,"imus":489,"Ġautem":490,"sp":491,"Ġrom":492,"Ġsp":493,"Ġsub":494,"isc":495,"Ġleg":496,"ri":497,"atis":498,"Ġant":499,"Ġ1":500,"rip":501,"Ġenim":502,"Ġetiam":503,"ibi":504,"Ġimper":505,"ad":506,"atum":507,"Ġeius":508,"Ġmar":509,"ata":510,"go":511,"Ġvir":512,"Ġtu":513,"Ġun":514,"Ġx":515,"ce":516,"Ġcor":517,"de":518,"uius":519,"itum":520,"iis":521,"ug":522,"Ġverb":523,"Ġprop":524,"ris":525,"Ġsic":526,"uli":527,"Ġoc":528,"Ġinc":529,"Ġneque":530,"Ġtemp":531,"eni":532,"ita":533,"quit":534,"Ġloc":535,"Ġag":536,"oris":537,"rem":538,"rum":539,"Ġser":540,"ores":541,"Ġdec":542,"ull":543,"Ġte":544,"Ġmod":545,"Ġfl":546,"ag":547,"Ġsit":548,"ian":549,"Ġreg":550,"ans":551,"eris":552,"itus":553,"uers":554,"au":555,"ex":556,"ou":557,"Ġcl":558,"erit":559,"Ġnam":560,"Ġhomin":561,"up":562,"tus":563,"set":564,"Ġnost":565,"erum":566,"isse":567,"Ġhaec":568,"cus":569,"Ġquoque":570,"Ġeo":571,"Ġiam":572,"erunt":573,"erat":574,"antur":575,"urb":576,"Ġcur":577,"Ġann":578,"orem":579,"Ġanim":580,"Ġmult":581,"Ġroman":582,"atione":583,"Ġ.":584,"Ġins":585,"Ġsuper":586,"ff":587,"Ġpra":588,"Ġgen":589,"Ġtamen":590,"erc":591,"Ġvoc":592,"Ġprim":593,"Ġcomm":594,"Ġvol":595,"ret":596,"Ġpart":597,"ast":598,"Ġcaus":599,"Ġter":600,"ati":601,"Ġapp":602,"Ġquibus":603,"Ġcap":604,"Ġdix":605,"Ġea":606,"Ġscrip":607,"Ġtant":608,"Ġmin":609,"Ġsec":610,"Ġman":611,"ali":612,"Ġquidem":613,"aud":614,"bus":615,"ue":616,"ias":617,"Ġpub":618,"ione":619,"iter":620,"xim":621,"ate":622,"Ġgr":623,"esc":624,"dic":625,"isset":626,"auit":627,"Ġsum":628,"Ġven":629,"Ġpa":630,"Ġmagn":631,"Ġ..":632,"Ġhis":633,"Ġiud":634,"Ġph":635,"erent":636,"ior":637,"Ġpo":638,"Ġimp":639,"Ġsim":640,"Ġtum":641,"Ġo":642,"Ġimperat":643,"Ġquem":644,"Ġquas":645,"Ġpop":646,"Ġnum":647,"Ġinquit":648,"lius":649,"Ġeum":650,"tor":651,"ina":652,"Ġsen":653,"Ġ'":654,"Ġus":655,"Ġdu":656,"anc":657,"Ġfort":658,"rim":659,"dam":660,"to":661,"ing":662,"sit":663,"Ġaliqu":664,"ihi":665,"ios":666,"eo":667,"ient":668,"ebat":669,"Ġmil":670,"Ġres":671,"Ġconst":672,"sus":673,"int":674,"Ġcomp":675,"Ġmihi":676,"dit":677,"Ġau":678,"era":679,"Ġfili":680,"Ġinf":681,"ionem":682,"Ġis":683,"lig":684,"Ġiudic":685,"Ġrem":686,"etur":687,"Ġrec":688,"Ġquis":689,"Ġvic":690,"Ġfuit":691,"ihil":692,"Ġurb":693,"Ġaud":694,"ti":695,"di":696,"Ġacc":697,"atio":698,"Ġth":699,"Ġvi":700,"ulo":701,"Ġnihil":702,"Ġk":703,"ph":704,"Ġinu":705,"Ġmaxim":706,"Ġesset":707,"Ġmag":708,"ulis":709,"Ġocc":710,"Ġfer":711,"Ġnunc":712,"Ġdef":713,"ene":714,"enti":715,"uisse":716,"itate":717,"Ġerat":718,"Ġlit":719,"Ġnull":720,"Ġiu":721,"pe":722,"Ġist":723,"untur":724,"\",":725,"Ġmo":726,"tis":727,"ulum":728,"inis":729,"Ġcar":730,"Ġing":731,"Ġluc":732,"Ġdeb":733,"ric":734,"entes":735,"isi":736,"ini":737,"irc":738,"Ġtibi":739,"Ġante":740,"Ġbell":741,"ch":742,"ero":743,"umque":744,"Ġvide":745,"Ġ2":746,"ua":747,"Ġmor":748,"nb":749,"nbsp":750,"lin":751,"Ġfuer":752,"95":753,"Ġmed":754,"Ġexp":755,"Ġdisc":756,"ato":757,"itud":758,"Ġcre":759,"Ġrep":760,"Ġpotest":761,"onis":762,"Ġquos":763,"entis":764,"ula":765,"Ġas":766,"Ġnob":767,"Ġ(":768,"Ġhost":769,"Ġmem":770,"Ġnomin":771,"Ġsibi":772,"Ġhon":773,"fect":774,"endi":775,"Ġval":776,"Ġquia":777,"Ġvit":778,"ific":779,"ito":780,"iuit":781,"Ġil":782,"\".":783,"ass":784,"eli":785,"Ġconc":786,"Ġconsul":787,"Ġpet":788,"Ġapud":789,"Ġpublic":790,"Ġvero":791,"entia":792,"ffic":793,"Ġappell":794,"Ġtot":795,"Ġposs":796,"Ġduc":797,"Ġlat":798,"Ġub":799,"ap":800,"Ġego":801,"itas":802,"ente":803,"qui":804,"endum":805,"ern":806,"Ġfr":807,"Ġipse":808,"Ġius":809,"Ġmarcus":810,"Ġfid":811,"Ġille":812,"Ġsign":813,"Ġten":814,"inus":815,"oribus":816,"Ġgra":817,"Ġsal":818,"Ġtra":819,"inem":820,"ationem":821,"ep":822,"Ġdes":823,"Ġfi":824,"Ġgrat":825,"Ġmodo":826,"Ġch":827,"si":828,"Ġpraes":829,"Ġexerc":830,"ma":831,"Ġcuius":832,"Ġsem":833,"entum":834,"Ġnos":835,"Ġit":836,"Ġconf":837,"ura":838,"Ġalter":839,"Ġfec":840,"Ġcontra":841,"Ġign":842,"ulus":843,"ie":844,"Ġvet":845,"Ġnisi":846,"aret":847,"itt":848,"Ġcirc":849,"Ġput":850,"Ġcaes":851,"Ġomnia":852,"Ġlon":853,"ici":854,"Ġubi":855,"Ġep":856,"Ġgraec":857,"Ġdom":858,"Ġga":859,"atu":860,"Ġund":861,"Ġmal":862,"gitur":863,"entem":864,"uen":865,"itu":866,"Ġdiu":867,"Ġred":868,"Ġind":869,"oph":870,"mod":871,"Ġeos":872,"atem":873,"Ġpec":874,"ino":875,"og":876,"ugn":877,"Ġfam":878,"ando":879,"Ġbon":880,"inde":881,"Ġprinc":882,"itatem":883,"Ġomnes":884,"Ġmat":885,"ora":886,"Ġcr":887,"itis":888,"Ġproc":889,"Ġel":890,"ile":891,"Ġcausa":892,"Ġquasi":893,"Ġfor":894,"Ġcorp":895,"Ġprou":896,"Ġlong":897,"Ġsent":898,"Ġopp":899,"Ġei":900,"Ġneg":901,"Ġ3":902,"Ġigitur":903,"Ġcj":904,"Ġdomin":905,"Ġobs":906,"rib":907,"ianus":908,"ilia":909,"Ġciuit":910,"Ġcol":911,"Ġhic":912,"ite":913,"Ġvest":914,"Ġext":915,"Ġsup":916,"Ġquant":917,"96":918,"uti":919,"Ġmet":920,"ilis":921,"Ġgl":922,"Ġsac":923,"Ġsine":924,"Ġcae":925,"Ġcui":926,"Ġlitter":927,"cep":928,"Ġcast":929,"act":930,"Ġcert":931,"Ġcogn":932,"eretur":933,"Ġtrans":934,"ea":935,"Ġlab":936,"bi":937,"dem":938,"ann":939,"Ġverba":940,"oli":941,"Ġamic":942,"Ġquon":943,"isque":944,"Ġmis":945,"iti":946,"Ġomnibus":947,"Ġseru":948,"eat":949,"Ġeorum":950,"entur":951,"yr":952,"sum":953,"Ġprincip":954,"Ġexc":955,"Ġem":956,"Ġsecund":957,"arent":958,"th":959,"Ġdign":960,"iii":961,"uerunt":962,"Ġlic":963,"Ġae":964,"Ġaet":965,"Ġmagis":966,"rae":967,"Ġilla":968,"Ġcet":969,"Ġhuius":970,"Ġtantum":971,"ne":972,"Ġequ":973,"Ġmilit":974,"Ġdem":975,"ire":976,"inum":977,"Ġdum":978,"Ġphil":979,"osc":980,"emus":981,"oct":982,"rec":983,"Ġsan":984,"Ġeam":985,"Ġquin":986,"Ġmort":987,"entibus":988,"itatis":989,"Ġsae":990,"Ġimperator":991,"idem":992,"Ġsus":993,"enta":994,"Ġii":995,"Ġauc":996,"cept":997,"ulta":998,"aris":999,"ill":1000,"omen":1001,"94":1002,"Ġ-":1003,"iens":1004,"ionis":1005,"Ġtrib":1006,"Ġ4":1007,"Ġidem":1008,"Ġra":1009,"Ġresp":1010,"did":1011,"ique":1012,"Ġvis":1013,"eru":1014,"Ġaduers":1015,"iones":1016,"one":1017,"Ġnatur":1018,"pos":1019,"ram":1020,"Ġrei":1021,"Ġrerum":1022,"ecta":1023,"Ġsimul":1024,"Ġadm":1025,"Ġcel":1026,"ilium":1027,"Ġarm":1028,"Ġbene":1029,"Ġinst":1030,"Ġ:":1031,"amus":1032,"oque":1033,"cc":1034,"duc":1035,"tin":1036,"ai":1037,"gu":1038,"Ġsoc":1039,"Ġnou":1040,"Ġprob":1041,"Ġregn":1042,"Ġtest":1043,"Ġhum":1044,"urum":1045,"Ġfug":1046,"eres":1047,"Ġomnium":1048,"uerit":1049,"Ġitem":1050,"enda":1051,"Ġnobis":1052,"Ġref":1053,"Ġsua":1054,"Ġpers":1055,"Ġpraec":1056,"pl":1057,"Ġdis":1058,"Ġmemor":1059,"ulos":1060,"osoph":1061,"Ġto":1062,"Ġpac":1063,"ebant":1064,"uo":1065,"Ġno":1066,"Ġle":1067,"Ġxx":1068,"ei":1069,"Ġ5":1070,"Ġphilosoph":1071,"Ġiii":1072,"Ġaug":1073,"alis":1074,"tu":1075,"Ġarb":1076,"endo":1077,"Ġmun":1078,"Ġeg":1079,"Ġpraet":1080,"Ġliber":1081,"Ġanti":1082,"Ġpatr":1083,"Ġloco":1084,"Ġfaci":1085,"isti":1086,"ont":1087,"Ġcal":1088,"Ġpal":1089,"Ġquint":1090,"Ġmon":1091,"ani":1092,"Ġimm":1093,"ras":1094,"ator":1095,"ationis":1096,"Ġquoniam":1097,"Ġ[":1098,"Ġstud":1099,"Ġsuis":1100,"Ġdeinde":1101,"ign":1102,"Ġiust":1103,"Ġipsa":1104,"ren":1105,"erant":1106,"Ġreli":1107,"andum":1108,"pr":1109,"Ġsatis":1110,"Ġdicitur":1111,"Ġgal":1112,"Ġsemper":1113,"Ġtunc":1114,"Ġprouinc":1115,"Ġciu":1116,"Ġtempore":1117,"ond":1118,"Ġibi":1119,"Ġdixit":1120,"ym":1121,"Ġalia":1122,"antes":1123,"Ġlaud":1124,"Ġcoll":1125,"sa":1126,"Ġmulta":1127,"Ġplur":1128,"Ġord":1129,"odem":1130,"uum":1131,"Ġdicit":1132,"ros":1133,"abat":1134,"Ġillud":1135,"xit":1136,"entiam":1137,"Ġhom":1138,"pic":1139,"onem":1140,"Ġlac":1141,"Ġprod":1142,"Ġpugn":1143,"erea":1144,"Ġdel":1145,"Ġpraeter":1146,"Ġinde":1147,"adem":1148,"hib":1149,"Ġsuo":1150,"andi":1151,"te":1152,"Ġplac":1153,"upt":1154,"Ġabs":1155,"Ġarg":1156,"Ġgaius":1157,"Ġilli":1158,"Ġdol":1159,"Ġdet":1160,"urg":1161,"Ġeff":1162,"Ġeodem":1163,"Ġrebus":1164,"quis":1165,"Ġsint":1166,"elli":1167,"Ġfrat":1168,"Ġitaque":1169,"Ġhanc":1170,"Ġexist":1171,"asc":1172,"itut":1173,"Ġsignific":1174,"Ġnomen":1175,"uere":1176,"ord":1177,"all":1178,"atos":1179,"Ġlibro":1180,"Ġsex":1181,"dum":1182,"Ġhominum":1183,"Ġdep":1184,"rent":1185,"Ġfuisse":1186,"Ġprom":1187,"Ġnecess":1188,"ori":1189,"Ġeu":1190,"Ġsing":1191,"qua":1192,"Ġdicere":1193,"Ġsept":1194,"Ġconstant":1195,"aria":1196,"iorum":1197,"Ġspec":1198,"Ġcop":1199,"Ġiv":1200,"iores":1201,"Ġpecun":1202,"Ġped":1203,"Ġ6":1204,"Ġminus":1205,"imo":1206,"issent":1207,"Ġfortun":1208,"Ġconu":1209,"Ġult":1210,"Ġsiue":1211,"Ġost":1212,"Ġverbis":1213,"Ġsanc":1214,"Ġpul":1215,"ese":1216,"Ġini":1217,"Ġdie":1218,"Ġdon":1219,"ento":1220,"Ġoffic":1221,"Ġposse":1222,"Ġcircum":1223,"Ġcat":1224,"ionibus":1225,"ebatur":1226,"issimum":1227,"Ġcic":1228,"Ġnim":1229,"atim":1230,"Ġunde":1231,"ilius":1232,"uris":1233,"Ġscriptum":1234,"Ġcens":1235,"Ġeadem":1236,"Ġ,":1237,"Ġpoen":1238,"lia":1239,"Ġcred":1240,"Ġprimum":1241,"crip":1242,"Ġfieri":1243,"tut":1244,"Ġtur":1245,"ano":1246,"Ġpom":1247,"Ġnem":1248,"Ġipsum":1249,"irm":1250,"Ġamb":1251,"Ġprof":1252,"Ġthe":1253,"Ġcup":1254,"Ġsumm":1255,"Ġergo":1256,"ach":1257,"su":1258,"uerat":1259,"issime":1260,"itia":1261,"asse":1262,"Ġlae":1263,"Ġdies":1264,"iet":1265,"ax":1266,"erem":1267,"Ġpostea":1268,"ilio":1269,"ulit":1270,"Ġnomine":1271,"Ġvul":1272,"Ġuer":1273,"Ġtribun":1274,"Ġperic":1275,"Ġdub":1276,"Ġopt":1277,"Ġromani":1278,"tab":1279,"esse":1280,"Ġmut":1281,"Ġsui":1282,"Ġnau":1283,"uri":1284,"Ġunum":1285,"Ġfuerit":1286,"quid":1287,"Ġtert":1288,"Ġerant":1289,"Ġdoc":1290,"Ġauctor":1291,"Ġatt":1292,"ica":1293,"Ġpropter":1294,"Ġhac":1295,"Ġusque":1296,"Ġhabet":1297,"Ġcas":1298,"Ġport":1299,"icum":1300,"Ġtim":1301,"ante":1302,"anus":1303,"iant":1304,"Ġbr":1305,"Ġfur":1306,"Ġess":1307,"Ġsese":1308,"Ġvocab":1309,"oqu":1310,"Ġ7":1311,"Ġaf":1312,"urus":1313,"Ġfab":1314,"Ġbellum":1315,"Ġpros":1316,"Ġscrib":1317,"pet":1318,"Ġhos":1319,"Ġaequ":1320,"Ġcapt":1321,"utus":1322,"Ġcog":1323,"Ġingen":1324,"iunt":1325,"Ġexistim":1326,"iles":1327,"entium":1328,"le":1329,"Ġparte":1330,"Ġhomines":1331,"ix":1332,"antibus":1333,"Ġuti":1334,"Ġpopuli":1335,"Ġgenus":1336,"Ġalii":1337,"Ġiure":1338,"eribus":1339,"Ġum":1340,"Ġhunc":1341,"empl":1342,"ide":1343,"aque":1344,"Ġpublius":1345,"Ġmens":1346,"Ġpauc":1347,"uisset":1348,"Ġsicut":1349,"Ġsuum":1350,"Ġxv":1351,"endit":1352,"Ġhi":1353,"arium":1354,"ates":1355,"anum":1356,"Ġsolum":1357,"Ġrex":1358,"Ġarc":1359,"Ġaliis":1360,"uert":1361,"Ġlin":1362,"ulc":1363,"Ġmaxime":1364,"Ġquaedam":1365,"plic":1366,"issimus":1367,"arem":1368,"Ġiub":1369,"Ġanno":1370,"ons":1371,"Ġcommun":1372,"aui":1373,"âĢ":1374,"eros":1375,"ario":1376,"ies":1377,"Ġperm":1378,"Ġuel":1379,"Ġglor":1380,"Ġvirtut":1381,"if":1382,"Ġomnis":1383,"ectus":1384,"Ġfactum":1385,"iri":1386,"Ġcausam":1387,"Ġnoct":1388,"Ġfore":1389,"amn":1390,"antem":1391,"Ġsens":1392,"ationes":1393,"Ġtem":1394,"Ġverum":1395,"Ġveni":1396,"Ġarbit":1397,"Ġuna":1398,"icus":1399,"Ġprimo":1400,"Ġomni":1401,"lim":1402,"Ġquorum":1403,"Ġlucius":1404,"Ġpen":1405,"erm":1406,"Ġded":1407,"Ġnot":1408,"Ġpriu":1409,"Ġaulus":1410,"reg":1411,"Ġcam":1412,"Ġnulla":1413,"ines":1414,"Ġull":1415,"Ġaed":1416,"Ġhist":1417,"iat":1418,"Ġsap":1419,"Ġsil":1420,"Ġkal":1421,"Ġdim":1422,"reh":1423,"rag":1424,"Ġsenatus":1425,"anda":1426,"itio":1427,"Ġhor":1428,"ux":1429,"andem":1430,"Ġsucc":1431,"Ġerit":1432,"Ġmagist":1433,"Ġux":1434,"Ġconi":1435,"Ġform":1436,"Ġpleb":1437,"Ġaeg":1438,"Ġprofect":1439,"Ġsy":1440,"quent":1441,"Ġfacere":1442,"Ġpuer":1443,"Ġiter":1444,"Ġcunc":1445,"Ġmuli":1446,"Ġlibert":1447,"ico":1448,"Ġalex":1449,"Ġact":1450,"Ġoport":1451,"Ġmont":1452,"rep":1453,"rab":1454,"Ġchr":1455,"ane":1456,"Ġaliquid":1457,"oni":1458,"Ġimperatores":1459,"amm":1460,"Ġtua":1461,"Ġrh":1462,"Ġrog":1463,"imum":1464,"Ġoppid":1465,"Ġvar":1466,"Ġtempus":1467,"Ġpoet":1468,"Ġsin":1469,"alem":1470,"issima":1471,"Ġserm":1472,"tare":1473,"Ġforte":1474,"iore":1475,"Ġvolunt":1476,"ima":1477,"Ġcontin":1478,"Ġquidam":1479,"endam":1480,"erentur":1481,"rac":1482,"ilic":1483,"Ġillum":1484,"Ġdiscip":1485,"Ġquintus":1486,"Ġpont":1487,"Ġait":1488,"Ġod":1489,"Ġtut":1490,"Ġhabere":1491,"Ġvii":1492,"enter":1493,"aut":1494,"Ġvos":1495,"endis":1496,"Ġeis":1497,"nam":1498,"uper":1499,"inae":1500,"ilem":1501,"Ġdiss":1502,"elic":1503,"Ġmiss":1504,"Ġintell":1505,"ys":1506,"iorem":1507,"Ġmultis":1508,"Ġquantum":1509,"Ġadul":1510,"atam":1511,"Ġillis":1512,"Ġdictum":1513,"Ġnegot":1514,"Ġkai":1515,"Ġista":1516,"Ġuni":1517,"ox":1518,"Ġads":1519,"Ġdiff":1520,"Ġsalut":1521,"oed":1522,"Ġfut":1523,"ice":1524,"Ġurbem":1525,"Ġalien":1526,"inta":1527,"idi":1528,"Ġbre":1529,"inibus":1530,"Ġaliud":1531,"Ġsaepe":1532,"atae":1533,"uic":1534,"Ġret":1535,"Ġbello":1536,"essit":1537,"ocl":1538,"tam":1539,"Ġprius":1540,"ept":1541,"Ġadf":1542,"ationibus":1543,"idit":1544,"Ġpraest":1545,"Ġ8":1546,"Ġviu":1547,"ariis":1548,"Ġafric":1549,"uet":1550,"Ġvidetur":1551,"anis":1552,"Ġfamili":1553,"Ġipsi":1554,"inam":1555,"Ġquad":1556,"Ġsupra":1557,"Ġmir":1558,"Ġaff":1559,"arb":1560,"Ġaus":1561,"Ġtheod":1562,"Ġhomo":1563,"modi":1564,"Ġmer":1565,"Ġaccip":1566,"ana":1567,"Ġvig":1568,"Ġaqu":1569,"Ġillo":1570,"Ġessent":1571,"Ġpossit":1572,"Ġromae":1573,"Ġfacta":1574,"Ġaccep":1575,"Ġtab":1576,"Ġfau":1577,"Ġopin":1578,"Ġ13":1579,"Ġlocum":1580,"Ġaa":1581,"Ġvinc":1582,"Ġpor":1583,"Ġdiuers":1584,"Ġpotius":1585,"icis":1586,"Ġduo":1587,"Ġgratia":1588,"Ġaduersus":1589,"Ġaur":1590,"Ġpraecip":1591,"Ġipso":1592,"Ġsuam":1593,"Ġalexand":1594,"Ġmagna":1595,"Ġvictor":1596,"na":1597,"Ġexempl":1598,"Ġplus":1599,"Ġadu":1600,"Ġmea":1601,"Ġhere":1602,"Ġcong":1603,"Ġaest":1604,"Ġcrim":1605,"erint":1606,"ulli":1607,"Ġgem":1608,"Ġdici":1609,"itudine":1610,"Ġmol":1611,"Ġturb":1612,"Ġnostra":1613,"rig":1614,"Ġfal":1615,"entus":1616,"Ġlud":1617,"obis":1618,"Ġlicet":1619,"Ġdilig":1620,"Ġhinc":1621,"ulas":1622,"osque":1623,"Ġsecundum":1624,"Ġuir":1625,"ones":1626,"Ġiuli":1627,"tae":1628,"Ġquando":1629,"Ġdist":1630,"Ġiun":1631,"rog":1632,"Ġanimi":1633,"issimi":1634,"Ġiac":1635,"ale":1636,"antia":1637,"Ġpompe":1638,"ereb":1639,"Ġpraed":1640,"Ġtali":1641,"Ġindic":1642,"Ġquic":1643,"Ġmac":1644,"Ġpater":1645,"Ġrest":1646,"Ġmen":1647,"Ġfecit":1648,"Ġnatura":1649,"Ġ10":1650,"Î±":1651,"Ġxi":1652,"ida":1653,"iol":1654,"Ġass":1655,"Ġath":1656,"cip":1657,"Ġvell":1658,"Ġanimo":1659,"les":1660,"Ġmiser":1661,"Ġcaput":1662,"Ġratione":1663,"Ġmaior":1664,"Ġio":1665,"Ġgenere":1666,"urr":1667,"rorum":1668,"ĠÂ":1669,"asque":1670,"Ġpartem":1671,"entiae":1672,"Ġdiem":1673,"Ġnesc":1674,"Ġsuae":1675,"Ġaux":1676,"Ġrelig":1677,"Ġta":1678,"Ġtrium":1679,"Ġprec":1680,"Ġproeli":1681,"Ġpol":1682,"ard":1683,"Ġquaest":1684,"Ġadh":1685,"Ġanton":1686,"ares":1687,"Ġpars":1688,"Ġscripsit":1689,"Ġtor":1690,"Ġperf":1691,"Ġflu":1692,"num":1693,"Ġinp":1694,"Ġdedit":1695,"Ġimpet":1696,"icae":1697,"Ġscip":1698,"Ġusus":1699,"Ġadeo":1700,"Ġtamquam":1701,"Ġvers":1702,"ulam":1703,"sequ":1704,"Ġhistor":1705,"Ġviii":1706,"inianus":1707,"Ġcastra":1708,"Ġtac":1709,"Ġproxim":1710,"Ġprima":1711,"Ġseu":1712,"Ġmox":1713,"Ġdisciplin":1714,"ria":1715,"Ġsor":1716,"Ġintra":1717,"esta":1718,"Ġepist":1719,"Ġtrad":1720,"Ġnunt":1721,"Ġversus":1722,"ales":1723,"Ġgest":1724,"Ġhy":1725,"Ġalio":1726,"Ġillius":1727,"Ġideo":1728,"enus":1729,"Ġfacit":1730,"Ġclaud":1731,"Ġdamn":1732,"Ġceleb":1733,"Ġaugust":1734,"Ġfre":1735,"Ġpopulo":1736,"Ġvitae":1737,"Ġuniuers":1738,"uta":1739,"Ġcaesar":1740,"Ġorb":1741,"arius":1742,"ectum":1743,"eram":1744,"ebantur":1745,"ĠâĢ":1746,"Ġuno":1747,"ime":1748,"Ġiis":1749,"ona":1750,"Ġbarb":1751,"Ġdict":1752,"aus":1753,"Ġve":1754,"Ġterra":1755,"Ġdesid":1756,"Ġviri":1757,"Ġed":1758,"usque":1759,"Ġdiocl":1760,"Ġurbe":1761,"Ġarma":1762,"Ġdecem":1763,"Ġdicunt":1764,"Ġquat":1765,"endere":1766,"Ġsuos":1767,"Î¿":1768,"Ġvita":1769,"ith":1770,"Ġprot":1771,"Ġherc":1772,"Ġgaud":1773,"Ġher":1774,"Ġdei":1775,"Ġcael":1776,"ulae":1777,"Ġpass":1778,"iusque":1779,"Ġposset":1780,"Ġ9":1781,"Ġnostri":1782,"Ġreliqu":1783,"Ġmodum":1784,"Ġterr":1785,"Ġparent":1786,"uenit":1787,"Ġnemo":1788,"Ġui":1789,"Ġcust":1790,"atibus":1791,"Ġampl":1792,"lib":1793,"pan":1794,"Ġreper":1795,"Ġvenit":1796,"thag":1797,"usc":1798,"Ġol":1799,"Ġsane":1800,"Ġsep":1801,"Ġnumero":1802,"Ġuic":1803,"ena":1804,"ites":1805,"itudinem":1806,"Ġfelic":1807,"Ġquar":1808,"odi":1809,"uus":1810,"Ġregem":1811,"uam":1812,"Ġinm":1813,"Ġart":1814,"Ġhominem":1815,"Ġamp":1816,"ang":1817,"oth":1818,"atores":1819,"ule":1820,"Ġclar":1821,"Ġhonor":1822,"Ġscel":1823,"Ġpret":1824,"Ġflum":1825,"Ġinuen":1826,"Ġfund":1827,"Ġsequ":1828,"Ġmanu":1829,"Ġobseru":1830,"anti":1831,"Ġnumquam":1832,"Ġhaud":1833,"Ġconstitut":1834,"Ġvobis":1835,"Ġquot":1836,"Ġregis":1837,"Ġverbum":1838,"atorum":1839,"Ġipsius":1840,"rob":1841,"Ġcan":1842,"Ġoff":1843,"Ġgrau":1844,"ulg":1845,"Ġredd":1846,"lium":1847,"Ġoratione":1848,"ru":1849,"Ġquaer":1850,"abant":1851,"Ġsententia":1852,"Ġintelleg":1853,"Ġseuer":1854,"Ġiuu":1855,"Ġfit":1856,"Ġaure":1857,"Ġfilius":1858,"Ġcompos":1859,"ures":1860,"Ġsangu":1861,"Ġutrum":1862,"Ġbelli":1863,"ress":1864,"ressus":1865,"Ġhostium":1866,"erre":1867,"Ġmanus":1868,"enique":1869,"Ġmot":1870,"Ġadi":1871,"Ġpud":1872,"Ġdil":1873,"ilibus":1874,"Ġvin":1875,"Ġmand":1876,"Ġromam":1877,"957":1878,"Ġlonge":1879,"Ġbenefic":1880,"onia":1881,"Ġlibris":1882,"Ġexs":1883,"didit":1884,"Ġpraesid":1885,"red":1886,"Ġard":1887,"oll":1888,"amque":1889,"Ġquaes":1890,"Ġitali":1891,"Ġvirg":1892,"Ġaccus":1893,"Ġperpet":1894,"Ġratio":1895,"Ġantiqu":1896,"Ġverg":1897,"Ġpraetor":1898,"ilicet":1899,"Ġvult":1900,"Ġiniur":1901,"Ġdenique":1902,"modum":1903,"itudo":1904,"Ġpertin":1905,"Ġclam":1906,"Ġannos":1907,"Ġgalli":1908,"Ġmarc":1909,"enis":1910,"Ġcorn":1911,"Ġtib":1912,"arg":1913,"eper":1914,"Ġiuuen":1915,"Ġfilium":1916,"Ġcontr":1917,"Ġopus":1918,"Ġhonest":1919,"Ġoccup":1920,"Ġexercitus":1921,"Ġmi":1922,"Ġscilicet":1923,"Ġpon":1924,"Ġpraefect":1925,"aretur":1926,"Ġloqu":1927,"Ġstatim":1928,"Ġcy":1929,"Ġsapient":1930,"nis":1931,"antis":1932,"orm":1933,"Ġang":1934,"Ġdia":1935,"Ġcompl":1936,"Ġaper":1937,"Ġfem":1938,"Î¹":1939,"Ġdicta":1940,"Ġalb":1941,"Ġvalent":1942,"Ġvix":1943,"utum":1944,"Ġson":1945,"Ġmater":1946,"Ġstat":1947,"Ġru":1948,"Ġrap":1949,"Ġhuic":1950,"Ġiuris":1951,"Ġpau":1952,"Ġdesc":1953,"Ġadhuc":1954,"Ġtanta":1955,"Ġoccid":1956,"Ġexercitu":1957,"iliter":1958,"Ġfere":1959,"Ġrespon":1960,"Ġtandem":1961,"Ġlege":1962,"rid":1963,"Ġpraedic":1964,"Ġsust":1965,"issa":1966,"iscop":1967,"Ġinim":1968,"arii":1969,"Ġtempl":1970,"Ġurbis":1971,"Ġque":1972,"Ġmilites":1973,"Ġdoct":1974,"Ġarbitr":1975,"Ġtheodos":1976,"Ġpostquam":1977,"Ġcarm":1978,"Ġ11":1979,"Ġeas":1980,"Ġtriumph":1981,"Ġnig":1982,"Ġmitt":1983,"Ġfoed":1984,"Ġlect":1985,"ron":1986,"inos":1987,"ecit":1988,"uerint":1989,"Ġgraeci":1990,"Ġcicero":1991,"Ġsoli":1992,"Ġeiusdem":1993,"Ġmulto":1994,"Ġmetu":1995,"Ġarmis":1996,"iem":1997,"Ġfuerat":1998,"issimo":1999,"Ġsicuti":2000,"ulp":2001,"Ġha":2002,"Ġspect":2003,"Ġfide":2004,"Ġscrips":2005,"Ġpopulum":2006,"Ġgall":2007,"Ġmart":2008,"Ġsumma":2009,"Ġfidem":2010,"Ġnoc":2011,"enn":2012,"Ġprope":2013,"Ġnostris":2014,"Ġz":2015,"endae":2016,"Ġindi":2017,"Ġmilia":2018,"Ġfacile":2019,"iano":2020,"Ġdisp":2021,"etis":2022,"och":2023,"Ġadulesc":2024,"Ġdig":2025,"Ġ12":2026,"Ġaudi":2027,"ebus":2028,"Ġinl":2029,"oi":2030,"Ġou":2031,"Ġdex":2032,"Ġpublicae":2033,"Ġcorporis":2034,"Ġton":2035,"ulorum":2036,"uram":2037,"Ġannis":2038,"Ġconstit":2039,"Ġverborum":2040,"Ġcupid":2041,"Ġinteg":2042,"Ġarist":2043,"âŁ":2044,"eps":2045,"eant":2046,"Ġfortuna":2047,"Ġepiscop":2048,"Ġpron":2049,"Ġorn":2050,"Ġmerc":2051,"asset":2052,"Ġdat":2053,"Ġsper":2054,"Îµ":2055,"Ġix":2056,"Ġcommod":2057,"Ġrespond":2058,"Ġnamque":2059,"Î½":2060,"tos":2061,"Ġgerm":2062,"Ġaliter":2063,"Ġinsign":2064,"Ġcirca":2065,"Ġfig":2066,"Ġpublica":2067,"Ġpraeterea":2068,"Ġcicer":2069,"Ġrelic":2070,"cum":2071,"fac":2072,"Ġvim":2073,"Ġequit":2074,"Ġmilitum":2075,"Ġsupplic":2076,"leg":2077,"ratus":2078,"Ġcoh":2079,"Ġunus":2080,"949":2081,"Ġcura":2082,"Ġvideri":2083,"Ġlocis":2084,"hem":2085,"itiam":2086,"Ġomne":2087,"Ġpraem":2088,"Ġanimum":2089,"empt":2090,"945":2091,"Ġfest":2092,"Ġextrem":2093,"Ġinuid":2094,"Ġcustod":2095,"ionum":2096,"libus":2097,"Ġiudices":2098,"aeque":2099,"Ġnol":2100,"Ġpossess":2101,"issimis":2102,"isit":2103,"ipp":2104,"iani":2105,"me":2106,"non":2107,"Ġtel":2108,"Ġpropri":2109,"alibus":2110,"erius":2111,"Ġiug":2112,"Ġmund":2113,"obus":2114,"Ġasp":2115,"Ġbona":2116,"Ġillam":2117,"Ġpect":2118,"Ġalios":2119,"953":2120,"Ġsenatu":2121,"\";":2122,"Ġverbo":2123,"Ġconsilio":2124,"Ġperc":2125,"andam":2126,"Ġalt":2127,"Ġimperium":2128,"ecim":2129,"Ġnullo":2130,"Ġacer":2131,"Ġhominis":2132,"Ġexper":2133,"abatur":2134,"Ġpre":2135,"Ġeleg":2136,"acch":2137,"Ġmagno":2138,"rah":2139,"Ġmore":2140,"Ġmur":2141,"Ġipsis":2142,"pp":2143,"Ġec":2144,"itiae":2145,"esque":2146,"Ġreu":2147,"Ġrelin":2148,"Ġvolupt":2149,"Ġhuman":2150,"iarum":2151,"Ġhispan":2152,"Ġomnem":2153,"Ġsax":2154,"itos":2155,"Ġcerte":2156,"Ġvarro":2157,"uas":2158,"Ġore":2159,"Ġfirm":2160,"Ġuol":2161,"Ġpostul":2162,"Ġxii":2163,"Ġprud":2164,"resc":2165,"Ġon":2166,"Ġcaec":2167,"Ġtit":2168,"Ġpraef":2169,"Ġot":2170,"onst":2171,"Ġconsilium":2172,"Ġcamp":2173,"Ġprocul":2174,"da":2175,"Ġexercitum":2176,"Ġcer":2177,"Ġdiffic":2178,"Ġorig":2179,"Ġtemporis":2180,"Ġast":2181,"Ġscript":2182,"Ġromanis":2183,"Ġvindic":2184,"orta":2185,"ippe":2186,"Ġtran":2187,"Ġprimus":2188,"Ġhas":2189,"Ġfauor":2190,"Ġincl":2191,"Ġchrist":2192,"Ġuid":2193,"Ġlitteris":2194,"Ġfun":2195,"Ġomnino":2196,"Ġsententiam":2197,"Ġquamuis":2198,"itam":2199,"Ġla":2200,"Ġlap":2201,"Ġinterp":2202,"Ġvirum":2203,"endas":2204,"Ġmortem":2205,"Ġredi":2206,").":2207,"retur":2208,"Ġcognosc":2209,"enum":2210,"Ġvac":2211,"ecum":2212,"Ġasper":2213,"Ġcertam":2214,"Ġcato":2215,"Ġhabent":2216,"Ġdest":2217,"istis":2218,"Ġnasc":2219,"uetud":2220,"ni":2221,"Ġnimis":2222,"Ġnullum":2223,"Ġmale":2224,"Ġconueni":2225,"Ġrur":2226,"edit":2227,"Ġtuae":2228,"Ġobsid":2229,"Ġcn":2230,"ebit":2231,"erim":2232,"Ġpecc":2233,"Ġstatu":2234,"sis":2235,"Ġcoep":2236,"Ġdux":2237,"Ġglad":2238,"Ġmou":2239,"Ġxxx":2240,"Ġuero":2241,"Ġsyr":2242,"Ġmerit":2243,"ensis":2244,"ella":2245,"Ġalterum":2246,"Ġveteres":2247,"Ġinn":2248,"Ġdiebus":2249,"Ġdixi":2250,"Ġflag":2251,"Ġceteris":2252,"ille":2253,"Ġhered":2254,"lis":2255,"Ġexig":2256,"Ġfact":2257,"Ġturp":2258,"Ġcorpus":2259,"Ġtyr":2260,"Ã¦":2261,"ruc":2262,"Ġsuas":2263,"icam":2264,"Ġfin":2265,"onium":2266,"edere":2267,"Ġanimad":2268,"Ġmare":2269,"Ġpatris":2270,"Ġinuit":2271,"Ġcond":2272,"Ġuen":2273,"Ġdebet":2274,"Ġpossunt":2275,"Ġquodam":2276,"Ġmeum":2277,"Ġauct":2278,"itium":2279,"erus":2280,"Ġlabor":2281,"iper":2282,"Ġistius":2283,"inti":2284,"Ġden":2285,"Ġromano":2286,"Ġquinque":2287,"Ġcult":2288,"ido":2289,"Ġspir":2290,"Ġcen":2291,"Ġtui":2292,"ota":2293,"Ġquibusdam":2294,"Ġiussit":2295,"emque":2296,"Ġobl":2297,"Ġdicuntur":2298,"Ġhabuit":2299,"Ġeffic":2300,"Ġobt":2301,"Ġhort":2302,"Ġconsc":2303,"Ġprofecto":2304,"Ġpopulus":2305,"ueni":2306,"Ġerr":2307,"Ġindign":2308,"Ġquadam":2309,"Ġpropr":2310,"Ġmit":2311,"Ġclass":2312,"Ġstip":2313,"Ġstudio":2314,"Ġmeo":2315,"lio":2316,"Ġfa":2317,"Ġhann":2318,"Ġfra":2319,"Ġfilio":2320,"Ġhominibus":2321,"Ġprouincia":2322,"onum":2323,"bat":2324,"Ġretin":2325,"Ġvari":2326,"Ġprohib":2327,"Ġcand":2328,"Ġpotuit":2329,"Ġpulch":2330,"Ġdecre":2331,"Ġtota":2332,"Ġmari":2333,"rin":2334,"ga":2335,"ublic":2336,"Ġquippe":2337,"Ġconsult":2338,"Ġhostes":2339,"iac":2340,"Ġtar":2341,"itati":2342,"Ġsanct":2343,"Ġrepreh":2344,"80":2345,"Ġfu":2346,"Ġcogit":2347,"Ġpu":2348,"Ġimperio":2349,"Ġdomini":2350,"idis":2351,"ath":2352,"Ġsacer":2353,"iit":2354,"Ġdicimus":2355,"itae":2356,"circ":2357,"Ġgramm":2358,"itione":2359,"Ġtres":2360,"orn":2361,"auerunt":2362,"uto":2363,"Ġseptem":2364,"Ġconsuli":2365,"Ġabst":2366,"alia":2367,"xx":2368,"Ġlum":2369,"Ġsolet":2370,"Ġconsili":2371,"oss":2372,"Ġiudicio":2373,"Ġfrequent":2374,"Ġsid":2375,"Ġlep":2376,"Ġalias":2377,"ous":2378,"Ġrecte":2379,"Ġcarthag":2380,"Ġignor":2381,"Ġpror":2382,"ront":2383,"Ġphili":2384,"Ġdefens":2385,"Ġoportet":2386,"Ġtul":2387,"andis":2388,"ceper":2389,"Ġpond":2390,"Ġparum":2391,"Ġsenatum":2392,"ĠÂ«":2393,"Ġpecuniam":2394,"959":2395,"eras":2396,"Ġpere":2397,"Ġdomum":2398,"Ġlitteras":2399,"Ġdulc":2400,"Ġlegibus":2401,"cepit":2402,"uium":2403,"Ġgrammat":2404,"Ġtestam":2405,"Ġvuln":2406,"Ġtuo":2407,"--":2408,"Ġpert":2409,"Ġuoc":2410,"Ġminime":2411,"Ġcastris":2412,"Ġtotum":2413,"Ġdiuis":2414,"Ġpatri":2415,"Ġsatur":2416,"oquent":2417,"Ġsyll":2418,"Ġall":2419,"Ġumquam":2420,"ÏĦ":2421,"Ġinueni":2422,"inas":2423,"Ġsab":2424,"Ġcorpore":2425,"Ġadd":2426,"quir":2427,"Ġciuitatis":2428,"Ġdemonst":2429,"Ġoculos":2430,"Ġagm":2431,"Ġcetera":2432,"Ġtuum":2433,"Ġpraeb":2434,"Ġmei":2435,"ustra":2436,"Ġach":2437,"Ġrege":2438,"Ġquamquam":2439,"Ġnit":2440,"Ġlun":2441,"Ġconsp":2442,"Ġfama":2443,"pot":2444,"Ġbib":2445,"Ġmemoria":2446,"Ġumb":2447,"Ġhannib":2448,"terea":2449,"redi":2450,"Ġtanto":2451,"Ġfert":2452,"Ġexsp":2453,"ioni":2454,"Ġsuccess":2455,"Ġcaesaris":2456,"urp":2457,"ectu":2458,"Ġsollic":2459,"Ġfuerunt":2460,"Ġmaced":2461,"ectis":2462,"Ġinop":2463,"Ġconiu":2464,"Ġconsuetud":2465,"Ġcrud":2466,"Ġplurim":2467,"Ġrefert":2468,"Ġulla":2469,"Ġort":2470,"Ġfat":2471,"yn":2472,"Ġgloria":2473,"Ġcondic":2474,"Ġsag":2475,"Ġinsc":2476,"eno":2477,"Ġtuis":2478,"Ġveterum":2479,"abit":2480,"Ġcapito":2481,"Ġaliqua":2482,"xta":2483,"Ġmedio":2484,"Ġculp":2485,"Ġedic":2486,"Ġferre":2487,"Ġsusp":2488,"Ġiterum":2489,"Ġargum":2490,"entius":2491,"Ġling":2492,"Ġobsc":2493,"ypt":2494,"Ġmorte":2495,"Ġdomus":2496,"Ġidcirc":2497,"Ġduobus":2498,"Ġnostrae":2499,"Ġcompar":2500,"Ġoculis":2501,"Ġrecip":2502,"Ġnecesse":2503,"Ġorient":2504,"uos":2505,"itudinis":2506,"Ġcub":2507,"cumque":2508,"Ġinsid":2509,"Ġprofic":2510,"Ġpropterea":2511,"Ġnostrum":2512,"Ġsigna":2513,"Ġlocus":2514,"Ġpel":2515,"Ġvert":2516,"Ġtemporibus":2517,"Ġusu":2518,"erumque":2519,"Ġdext":2520,"Ġlingu":2521,"Ġaem":2522,"Ġbl":2523,"Ġleu":2524,"Ġscient":2525,"aginta":2526,"Ġromanorum":2527,"Ġfrig":2528,"Ġnar":2529,"Ġrepet":2530,"Ġextra":2531,"Ġcess":2532,"Ġiuss":2533,"Ġoccas":2534,"Ġamplius":2535,"Ġtempest":2536,"Ġiuxta":2537,"Ġillic":2538,"rare":2539,"Ġcomment":2540,"Ġconsid":2541,"Ġnostro":2542,"Ġciuitate":2543,"Ġfront":2544,"Ġsomn":2545,"Ġsacerd":2546,"Ġiudicium":2547,"uae":2548,"Ġsym":2549,"Ġphilipp":2550,"emn":2551,"Ġiste":2552,"Ġvelut":2553,"Ġaccid":2554,"Ġexpl":2555,"Ġconui":2556,"Ġquisque":2557,"Ġfuerint":2558,"Ġenn":2559,"Ġpaulo":2560,"Ġviro":2561,"Ġsuorum":2562,"Ġhosp":2563,"Ġlim":2564,"Ġoppidum":2565,"Ġdixisse":2566,"Ġundique":2567,"eas":2568,"idum":2569,"lu":2570,"Ġanimos":2571,"Ġeur":2572,"Ġutil":2573,"Ġmemb":2574,"Ġuit":2575,"par":2576,"eph":2577,"Ġic":2578,"iora":2579,"Ġferme":2580,"Ġpronunt":2581,"Ġmai":2582,"Ġcentum":2583,"Ġrationem":2584,"Ġcolleg":2585,"Ġsubs":2586,"Ġdioclet":2587,"Ġpropos":2588,"Ġfruc":2589,"Ġnil":2590,"Ġiustinianus":2591,"Ġearum":2592,"Ġregnum":2593,"Ġlux":2594,"Ġful":2595,"uiter":2596,"Ġdur":2597,"Ġleges":2598,"antium":2599,"uol":2600,"Ġlarg":2601,"Ġromanus":2602,"umb":2603,"Ġcern":2604,"Ġconsules":2605,"Ġmorta":2606,"rus":2607,"atorem":2608,"errim":2609,"yl":2610,"Ġsort":2611,"Ġsumpt":2612,"atium":2613,"Ġadhib":2614,"Ġproduc":2615,"Ġimperii":2616,"Ġmanibus":2617,"Ġtribus":2618,"Ġmulti":2619,"alium":2620,"Ġbonis":2621,"Ġvulg":2622,"Ġdeo":2623,"Ġger":2624,"cem":2625,"Ġviol":2626,"Ġdiximus":2627,"Ġnobil":2628,"eu":2629,"Ġnaui":2630,"Ġmeli":2631,"Ġpartic":2632,"itibus":2633,"Ġpartes":2634,"uerant":2635,"Ġdiut":2636,"Ġultra":2637,"Ġfall":2638,"Ġsanguine":2639,"Ġfuisset":2640,"unct":2641,"Ġaudac":2642,"arch":2643,"Ġostend":2644,"Ġnatus":2645,"Ġmanif":2646,"Ġvideretur":2647,"Ġsecundo":2648,"Ġillos":2649,"Ġsubst":2650,"Ġlegem":2651,"inere":2652,"Ġxiii":2653,"onio":2654,"rupt":2655,"Ġsuff":2656,"Ġantioch":2657,"Ġcant":2658,"Ġmoribus":2659,"Ġhuiusmodi":2660,"Ġdesider":2661,"Ġapt":2662,"Ġagit":2663,"Ġsecum":2664,"Ġegreg":2665,"Ġquattu":2666,"Ġmus":2667,"icos":2668,"Ġvitam":2669,"Ġpas":2670,"Ġvidentur":2671,"Ġduod":2672,"Ġvale":2673,"issem":2674,"Ġvict":2675,"Ġgeneris":2676,"aliter":2677,"Ġinstitut":2678,"Ġdelic":2679,"olum":2680,"atas":2681,"Ġtract":2682,"ribus":2683,"Ġprol":2684,"Ġdeduc":2685,"Ġtrah":2686,"Ġagn":2687,"Ġcumque":2688,"Ġforet":2689,"Ġrhod":2690,"Ġappar":2691,"Ġpecunia":2692,"Ġmemin":2693,"Ġfactus":2694,"Ġpropin":2695,"itionem":2696,"sed":2697,"erique":2698,"Ġvocant":2699,"onte":2700,"ring":2701,"Ġir":2702,"onibus":2703,"ict":2704,"Ġfacult":2705,"itates":2706,"Ġconl":2707,"Ġquicquam":2708,"atiu":2709,"Ġpostrem":2710,"Ġsumus":2711,"Ġciuitatem":2712,"eunt":2713,"lam":2714,"Ġvere":2715,"ratum":2716,"Ġidque":2717,"Ġsolis":2718,"Ġdefend":2719,"Ġitaliam":2720,"Ġolim":2721,"Ġfraud":2722,"Ġmanum":2723,"Ġgrad":2724,"entio":2725,"eus":2726,"Ġmultum":2727,"ellig":2728,"eum":2729,"inist":2730,"Ġsubt":2731,"arios":2732,"Ġquondam":2733,"Ġrelinqu":2734,"Ġbella":2735,"uio":2736,"abilis":2737,"Ġmaximianus":2738,"Ġpotestate":2739,"orumque":2740,"Ġrob":2741,"rata":2742,"Ġconiug":2743,"Ġtotius":2744,"Ġdiocletianus":2745,"Ġpati":2746,"Ġrursus":2747,"Ġdiceret":2748,"Ġnud":2749,"undem":2750,"Ġpy":2751,"Ġromanos":2752,"no":2753,"Ġplerumque":2754,"enses":2755,"Ġos":2756,"Ġire":2757,"issum":2758,"Ġsola":2759,"Ġsuperb":2760,"ara":2761,"idus":2762,"Ġaegypt":2763,"arunt":2764,"Ġexst":2765,"Ġaccept":2766,"Ġroma":2767,"Ġperson":2768,"ago":2769,"nae":2770,"Ġib":2771,"Ġtempora":2772,"Ġvirtute":2773,"Ġinterc":2774,"Ġ0":2775,"oniam":2776,"Ġetsi":2777,"Ġasc":2778,"Ġcondit":2779,"Ġnondum":2780,"Ġincip":2781,"Ġdeos":2782,"ho":2783,"Ġian":2784,"Ġbal":2785,"cemodi":2786,"dis":2787,"Ġsuspic":2788,"issimos":2789,"Ġitalia":2790,"Ġcapite":2791,"iose":2792,"Ġterram":2793,"Ġidcirco":2794,"Ġsoll":2795,"ung":2796,"odo":2797,"Ġpariter":2798,"Ġforma":2799,"Ġsar":2800,"Ġobi":2801,"Ġvoce":2802,"Ġplebis":2803,"umus":2804,"Ġprog":2805,"Ġ14":2806,"Ġhostem":2807,"entu":2808,"itor":2809,"Ġcec":2810,"Ġofficio":2811,"Ġplures":2812,"Ġ15":2813,"Ġobtin":2814,"uros":2815,"Ġquattuor":2816,"Ġtuam":2817,"ariam":2818,"Ġpiet":2819,"ucund":2820,"Ġcomper":2821,"Ġloca":2822,"Ġterrae":2823,"Ġhuiuscemodi":2824,"Ġingenio":2825,"icit":2826,"ueris":2827,"ecti":2828,"Ġlacrim":2829,"Ġaristot":2830,"Ġiubet":2831,"arus":2832,"so":2833,"Ġseruit":2834,"lla":2835,"Ġinscrip":2836,"ĠÎ":2837,"Ġexter":2838,"rauit":2839,"Ġdare":2840,"Ġmille":2841,"Ġconsulibus":2842,"Ġcass":2843,"Ġdicam":2844,"Ġnox":2845,"Ġcasu":2846,"Ġtyrann":2847,"ecto":2848,"yc":2849,"Ġproinde":2850,"Ġmorb":2851,"Ġlingua":2852,"yg":2853,"Ġinterpret":2854,"Ġdixerunt":2855,"ioribus":2856,"Ġgerman":2857,"Ġlau":2858,"Ġdeorum":2859,"Ġromanum":2860,"Ġora":2861,"imur":2862,"Ġnocte":2863,"roc":2864,"Ġhabeat":2865,"Ġintellig":2866,"Ïħ":2867,"Ġpup":2868,"Ġgracch":2869,"Ġviginti":2870,"Ġdeum":2871,"Ġbel":2872,"Ġgratiam":2873,"uimus":2874,"ure":2875,"Ġperd":2876,"Ġpatres":2877,"Ġvideatur":2878,"Ġappellant":2879,"Ġset":2880,"Ġinterrog":2881,"Ġnomina":2882,"Ġlo":2883,"Ġpap":2884,"964":2885,"prop":2886,"Ġsaep":2887,"utis":2888,"Ġren":2889,"Ġtrist":2890,"Ġrepente":2891,"Ġpatrem":2892,"961":2893,"Ġpartim":2894,"Ïģ":2895,"Ġtoll":2896,"Ġxxv":2897,"urae":2898,"Ġutr":2899,"Ġtransf":2900,"ides":2901,"Ġmonst":2902,"Ġiur":2903,"endos":2904,"Ġviris":2905,"Ġaene":2906,"Ġced":2907,"Ġcot":2908,"Ġpla":2909,"Ġsingul":2910,"Ġlan":2911,"Ġsyllab":2912,"ellus":2913,"Ġtemper":2914,"Ġobst":2915,"Ġsolus":2916,"Ġinquam":2917,"10":2918,"Ġsubi":2919,"Ġscripta":2920,"lex":2921,"Ġoccis":2922,"Ġdata":2923,"Ġnub":2924,"tio":2925,"Ġmultos":2926,"ientes":2927,"Ġauctoritate":2928,"Ġimag":2929,"Ġreuoc":2930,"Ġdid":2931,"Ġunam":2932,"Ġlittera":2933,"ensi":2934,"raque":2935,"Ġnoua":2936,"Ġcep":2937,"Ġordine":2938,"olis":2939,"Ġvent":2940,"Ġfinem":2941,"Ġhistoria":2942,"ximus":2943,"icorum":2944,"Ġvisum":2945,"Ġlaet":2946,"Ġnut":2947,"Ġpres":2948,"Ġaliquando":2949,"Ġcad":2950,"Ġferunt":2951,"Ġapol":2952,"Ġveli":2953,"Ġinterim":2954,"Ġfranc":2955,"Ġaltera":2956,"ci":2957,"ellum":2958,"Ġnat":2959,"Ġregni":2960,"ute":2961,"Ġtheodosius":2962,"Ġserui":2963,"Ġdubit":2964,"Ġplat":2965,"Ġiact":2966,"Ġmeis":2967,"Ġmaxima":2968,"Ġeandem":2969,"Ġpatre":2970,"Ġiucund":2971,"Ġusum":2972,"Ġgraui":2973,"Ġom":2974,"Ġadmodum":2975,"Ġchar":2976,"Ġpontific":2977,"Ġtrig":2978,"Ġadmir":2979,"Ġpun":2980,"Ġduas":2981,"Ġcreb":2982,"Ġpublicam":2983,"Ġcc":2984,"Ġimb":2985,"Ġdeu":2986,"Ġrefer":2987,"Ġsignificat":2988,"Ġaestim":2989,"Ġfacto":2990,"963":2991,"ete":2992,"Ġmemoriae":2993,"Ġabsol":2994,"Ġrel":2995,"Ġnef":2996,"cepta":2997,"Ġdelect":2998,"Ġcohort":2999,"__":3000,"Ġcib":3001,"arentur":3002,"Ġnescio":3003,"Ġperg":3004,"Ġstell":3005,"Ġvalentinianus":3006,"ba":3007,"idie":3008,"Ġmeae":3009,"Ġterm":3010,"Ġhostibus":3011,"Ġpetit":3012,"Ġtestim":3013,"Ġtumult":3014,"Ġantea":3015,"Ġtertio":3016,"Ġur":3017,"Ġhostis":3018,"Ġuxorem":3019,"Ġnauig":3020,"Ġocta":3021,"Ġlex":3022,"uitur":3023,"Ġspe":3024,"Ġadmon":3025,"Ġhuc":3026,"idium":3027,"Ġaiunt":3028,"ump":3029,"Ġfrum":3030,"Ġinterea":3031,"lix":3032,"Ġdecern":3033,"Ġannum":3034,"Ġmisit":3035,"Ġscire":3036,"'.":3037,"Ġnoster":3038,"Ġeaque":3039,"libet":3040,"Ġflam":3041,"Ġmanifest":3042,"Ġdeus":3043,"Ġduos":3044,"Ġfilii":3045,"ÏĤ":3046,"Ġrecept":3047,"Ġpaucis":3048,"Ġalius":3049,"Ġsacerdot":3050,"Ġincom":3051,"andae":3052,"Ġperse":3053,"Ġquosdam":3054,"Ġvehem":3055,"amur":3056,"Ġerud":3057,"Ġtoto":3058,"Ġaetatis":3059,"Ġadminist":3060,"issimae":3061,"Ġquisquam":3062,"Ġvera":3063,"Ġprouinciae":3064,"Ġecc":3065,"Ġtro":3066,"asti":3067,"eta":3068,"Ġfecisse":3069,"Ġiura":3070,"Ġhonore":3071,"enim":3072,"ensa":3073,"thorn":3074,"item":3075,"Ġbo":3076,"Ġspem":3077,"Ġsentent":3078,"abantur":3079,"achus":3080,"',":3081,"itiones":3082,"rens":3083,"Ġsall":3084,"aribus":3085,"Ġpyr":3086,"Ġanni":3087,"Ġdefin":3088,"Ġconcess":3089,"ianum":3090,"Ġsocrat":3091,"Ġordin":3092,"elix":3093,"iuis":3094,"Ġplura":3095,"Ġnaturae":3096,"Ġdebere":3097,"Ġmagnum":3098,"lud":3099,"yth":3100,"Ġmilitibus":3101,"Ġcu":3102,"Ġconstantinus":3103,"Ġarcad":3104,"esimo":3105,"Ġaristotel":3106,"ha":3107,"Ġves":3108,"Ġrub":3109,"Ġfieret":3110,"Ġdomino":3111,"Ġhaberet":3112,"ueret":3113,"Ġspoli":3114,"Ġvarr":3115,"Ġalexander":3116,"Ġreuer":3117,"issimam":3118,"Ġposc":3119,"modo":3120,"960":3121,"Ġgign":3122,"iosa":3123,"Ġhorum":3124,"Ġlegit":3125,"Ġquare":3126,"Ġexcus":3127,"Ġoptim":3128,"Ġtulli":3129,"isci":3130,"Ġreliquit":3131,"Ġuest":3132,"Ġipsos":3133,"Ġproelio":3134,"nus":3135,"Ġmelius":3136,"Ġcuncta":3137,"ortun":3138,"Ġimperatoris":3139,"962":3140,"Ġunius":3141,"Ġimprob":3142,"Ġinterfect":3143,"quo":3144,"Ġpari":3145,"Ġpaene":3146,"Ġpartibus":3147,"Ġbis":3148,"Ġaliquot":3149,"quaquam":3150,"teret":3151,"Ġpenitus":3152,"Ġorationis":3153,"Ġsuscip":3154,"Ġpereg":3155,"uxit":3156,"hen":3157,"etus":3158,"Ġflamm":3159,"Ġnota":3160,"Ġambig":3161,"Ġtol":3162,"Ġmali":3163,"Ġopera":3164,"roque":3165,"Ġsenti":3166,"Ġamor":3167,"Ġphilosophi":3168,"Ġipsam":3169,"Ġimped":3170,"Ġeccles":3171,"Ġpacem":3172,"Ġcrudel":3173,"Ġnominis":3174,"Ġequitum":3175,"arumque":3176,"sc":3177,"Ġvend":3178,"Ġdiuit":3179,"egit":3180,"Ġpotestatem":3181,"iosus":3182,"Ġcatonis":3183,"inio":3184,"uro":3185,"Ġsallust":3186,"abo":3187,"Ġpluribus":3188,"Ġcit":3189,"Ġpopul":3190,"Ġmoen":3191,"otus":3192,"Ġgener":3193,"Ġmala":3194,"Ġperi":3195,"Ġconsulem":3196,"Ġapollin":3197,"ensum":3198,"Ġpoena":3199,"do":3200,"lus":3201,"Ġw":3202,"eto":3203,"Ġpern":3204,"Ġamore":3205,"Ġbrit":3206,"Ġauf":3207,"iui":3208,"Ġlign":3209,"Ġcasus":3210,"Ġdup":3211,"Ġimpl":3212,"aren":3213,"Ġutriusque":3214,"Ġcausas":3215,"Ġoccult":3216,"Ġnuper":3217,"Ġsingulis":3218,"Ġdonec":3219,"Ġdomi":3220,"Ġaetate":3221,"Ġquaeque":3222,"Ġisdem":3223,"Ġequidem":3224,"uitate":3225,"Ġspecies":3226,"Ġster":3227,"Ġdeque":3228,"Ġprem":3229,"Ġcapit":3230,"Ġhec":3231,"Ġdomo":3232,"Ġlegatos":3233,"Ġquanto":3234,"Ġ::":3235,"Ġincert":3236,"Ġatheni":3237,"quod":3238,"Ġnupt":3239,"erio":3240,"Ġsis":3241,"Ġlibros":3242,"Ġsalutem":3243,"Ġauspic":3244,"Ġxiv":3245,"rium":3246,"licet":3247,"Ġnulli":3248,"uria":3249,"Ġbas":3250,"Ġaliquo":3251,"Ġsta":3252,"ueri":3253,"Ġaccepit":3254,"Ġvia":3255,"Ġdominus":3256,"Ġdissim":3257,"Ġdicebat":3258,"Ġpecuniae":3259,"rop":3260,"Ġscipio":3261,"Ġhercle":3262,"Ġarch":3263,"Ġfides":3264,"Ġquinqu":3265,"Ġpedes":3266,"Ġanimus":3267,"fici":3268,"Ġeundem":3269,"itatum":3270,"Ġ16":3271,"Ġmedium":3272,"issis":3273,"eraque":3274,"Ġequites":3275,"Ġbonum":3276,"Ġcaelo":3277,"Ġsump":3278,"Ġcru":3279,"Ġeloquent":3280,"Ġrestit":3281,"âŁ¨":3282,"âŁ©":3283,"Ġpp":3284,"ensium":3285,"Ġclem":3286,"Ġprocur":3287,"Ġfluuius":3288,"Ġisto":3289,"Ġcoeper":3290,"Ġlegis":3291,"Ġregi":3292,"Ġprincipes":3293,"pon":3294,"acta":3295,"Ġsacri":3296,"ordia":3297,"Ġloci":3298,"Ġconfirm":3299,"Ġforo":3300,"Ġfast":3301,"Ġviros":3302,"lend":3303,"rius":3304,"erae":3305,"Ġmans":3306,"Ġpoeta":3307,"etum":3308,"Ġconsec":3309,"Ġsociet":3310,"nos":3311,"Ġciuitas":3312,"Ġdatur":3313,"eis":3314,"tas":3315,"Ġlibrum":3316,"Ġutrumque":3317,"Ġconced":3318,"Ġfiat":3319,"Ġmalum":3320,"con":3321,"Ġrapt":3322,"auerit":3323,"anos":3324,"Ġdeclin":3325,"tius":3326,"icas":3327,"atumque":3328,"Ġnimium":3329,"ellis":3330,"Ġaqua":3331,"Ġsaec":3332,"Ġtrep":3333,"Ġbe":3334,"Ġpraepos":3335,"Ġciuium":3336,"Ġsat":3337,"Ġrip":3338,"Ġbonorum":3339,"Ġsententiae":3340,"Ġphilosophus":3341,"auc":3342,"Ġisti":3343,"Ġmotus":3344,"Ġexcept":3345,"Ġmedia":3346,"Ġfrustra":3347,"Ġalterius":3348,"ilii":3349,"Ġnullus":3350,"Ġagere":3351,"Ġcaesarem":3352,"Ġauro":3353,"Ġdico":3354,"Ġoce":3355,"Ġpisc":3356,"Ġquicquid":3357,"Ġpraecept":3358,"Ġlegati":3359,"Ġanimaduert":3360,"ectio":3361,"ressi":3362,"Ġvener":3363,"Ġlitterarum":3364,"anae":3365,"Ġruf":3366,"ariae":3367,"otis":3368,"Ġcausis":3369,"Ġocto":3370,"tabat":3371,"Ġconscrip":3372,"Ġstup":3373,"Ġexemplum":3374,"Ġcontum":3375,"Ġdixerit":3376,"Ġmeam":3377,"eremus":3378,"ola":3379,"ebam":3380,"Ġbreui":3381,"Ġioc":3382,"Ġsummo":3383,"Ġmeus":3384,"Ġgar":3385,"Ġvetust":3386,"Ġquum":3387,"Ġspes":3388,"Ġrid":3389,"actus":3390,"isso":3391,"Ġconsist":3392,"iosum":3393,"Ġferro":3394,"Ġetenim":3395,"Ġsubito":3396,"Ġinstit":3397,"Ġduodecim":3398,"endus":3399,"Ġplane":3400,"Ġhiem":3401,"Ġcoron":3402,"orus":3403,"Ġsuffic":3404,"Ġappellatur":3405,"Ġmense":3406,"ca":3407,"Ġul":3408,"Ġversibus":3409,"nox":3410,"antiam":3411,"Ġpace":3412,"Ġvellet":3413,"Ġiouis":3414,"ÏĢ":3415,"Ġand":3416,"Ġpericulo":3417,"Ġvas":3418,"undum":3419,"Ġlen":3420,"ertim":3421,"Ġmagistratus":3422,"Ġfuturum":3423,"Ġnepot":3424,"Ġquidquid":3425,"805":3426,"Ġalium":3427,"Ġlonga":3428,"osa":3429,"Ġvidebatur":3430,"arit":3431,"Ġpectore":3432,"Ġfluc":3433,"Ġprofectus":3434,"Ġpollic":3435,"Ġangust":3436,"Ġpauper":3437,"Ġxvi":3438,"Ġvenire":3439,"Ġnonn":3440,"Ġcopia":3441,"Ġacerb":3442,"Ġprorsus":3443,"Ġsplend":3444,"Ġtertia":3445,"Ġces":3446,"oro":3447,"Ġquom":3448,"opt":3449,"Ġfaceret":3450,"Ġtub":3451,"Ġsolitum":3452,"Ġputat":3453,"Ġofficium":3454,"Ġporro":3455,"Ġcoepit":3456,"Ġsul":3457,"unquam":3458,"Ġadduc":3459,"Ġpleraque":3460,"Ġsect":3461,"Ġpublice":3462,"Ġexplor":3463,"lar":3464,"Ġsolo":3465,"Ġquarto":3466,"Ġgenera":3467,"Ġincend":3468,"Ġcaeter":3469,"Ġoblig":3470,"Ġni":3471,"prob":3472,"rup":3473,"Ġamici":3474,"Ġhib":3475,"Ġpossid":3476,"aed":3477,"Ġmortis":3478,"enas":3479,"erisque":3480,"Ġrhet":3481,"Ġecce":3482,"Ġfiunt":3483,"Ġaetern":3484,"Ġeduc":3485,"Ġhabebat":3486,"Ġgentes":3487,"Ġabund":3488,"Ġpatriae":3489,"952":3490,"Ġmolest":3491,"Ġlinguae":3492,"Ġlig":3493,"Ġmagni":3494,"Ġfaciunt":3495,"Ġplerique":3496,"Ġaput":3497,"Ġsustin":3498,"Ġconstat":3499,"Ġnullam":3500,"Ġciuitates":3501,"Ġira":3502,"Ġinterf":3503,"Ġflore":3504,"Ġspecie":3505,"atoris":3506,"Ġsimil":3507,"ittere":3508,"Ġliberos":3509,"mis":3510,"Ġmores":3511,"Ġmom":3512,"Ġmess":3513,"Ġcommend":3514,"Ġfrug":3515,"Ġdiuin":3516,"Ġsymm":3517,"Ġpis":3518,"Ġmaiores":3519,"exit":3520,"Ġcruc":3521,"Ġfrater":3522,"Ġpericulum":3523,"Ġafrica":3524,"erebat":3525,"atore":3526,"Ġtradit":3527,"Ġcli":3528,"Ġimperatorem":3529,"anorum":3530,"Ġspecta":3531,"Ġinqui":3532,"Ġempt":3533,"enam":3534,"Ġgentium":3535,"Ġintr":3536,"Ġsemel":3537,"ers":3538,"Ġmisc":3539,"hi":3540,"Ġsimplic":3541,"Ġcorpora":3542,"Ġgallic":3543,"uia":3544,"Ġsci":3545,"Ġdiscrim":3546,"Ġmatrim":3547,"Ġplurimum":3548,"met":3549,"igit":3550,"anquam":3551,"Ġplacet":3552,"Ġromana":3553,"Ġcapi":3554,"Ġtriginta":3555,"Ġvirtus":3556,"Ġdispos":3557,"atoribus":3558,"ind":3559,"Ġcaeli":3560,"Ġpest":3561,"entos":3562,"Ġclad":3563,"Ġcompet":3564,"Ġneminem":3565,"Ġmaris":3566,"Ġfortasse":3567,"Ġhonorem":3568,"Ġdifferent":3569,"Ġteg":3570,"Ġduce":3571,"Ġmiles":3572,"Ġgraece":3573,"Ġseuerus":3574,"entorum":3575,"Ġposuit":3576,"Ġingens":3577,"Ġquotiens":3578,"Ġduces":3579,"Ġexspect":3580,"Ġsolent":3581,"Ġcredo":3582,"usa":3583,"Ġfacund":3584,"Ġlibid":3585,"Ġinsol":3586,"Ġauxilium":3587,"icom":3588,"ibusque":3589,"Ġrud":3590,"itatus":3591,"Ġoratio":3592,"urrit":3593,"aem":3594,"Ġcarthagini":3595,"Ġprimis":3596,"Ġbritann":3597,"81":3598,"Ġrede":3599,"Ġmalis":3600,"Ġprinceps":3601,"Ġperfect":3602,"Ġanus":3603,"Ġxvii":3604,"Ġfauorinus":3605,"eam":3606,"Ġcalam":3607,"Ġiunc":3608,"icem":3609,"Ġsur":3610,"Ġfata":3611,"Ġidone":3612,"Ġmaiest":3613,"Ġconp":3614,"Ġvitium":3615,"Ġcunctis":3616,"Ġauri":3617,"Ġment":3618,"Ġpugna":3619,"Ġvocabulum":3620,"Ġvictoria":3621,"hic":3622,"Ġdepos":3623,"Ġmori":3624,"Ġinnoc":3625,"Ġtir":3626,"Ġboni":3627,"Ġimmorta":3628,"Ġaer":3629,"Ġmecum":3630,"Ġoppugn":3631,"Ġloqui":3632,"imis":3633,"Ġveluti":3634,"Ġvestra":3635,"Ġarte":3636,"Ġpall":3637,"Ġordinem":3638,"itiis":3639,"Ġimit":3640,"escere":3641,"Ġprouinciam":3642,"ein":3643,"Ġconuers":3644,"itatibus":3645,"Ġcopiis":3646,"Ġnaues":3647,"Ġbeni":3648,"Ġmagnam":3649,"Ġspar":3650,"Ġpatria":3651,"Ġultro":3652,"Ġeb":3653,"Ġpatern":3654,"Ġrespondit":3655,"enae":3656,"Ġleo":3657,"Ġarti":3658,"dus":3659,"Ġvideo":3660,"Ġaliquis":3661,"Ġtulit":3662,"Ġprosper":3663,"Ġquarum":3664,"Ġconuenit":3665,"Ġverbi":3666,"Ġquanta":3667,"Ġbenign":3668,"Ġfestin":3669,"Ġfidei":3670,"abis":3671,"Ġpossent":3672,"Ġsacra":3673,"Ġproprie":3674,"Ïĥ":3675,"abitur":3676,"Ġlatine":3677,"Ġparc":3678,"Ġfinibus":3679,"ationi":3680,"956":3681,"erta":3682,"ceat":3683,"Ġclaus":3684,"tem":3685,"Ġfont":3686,"Ġsto":3687,"Ġlegiones":3688,"Ġurbes":3689,"Ġvidelicet":3690,"Ġmagistrat":3691,"Ġnigid":3692,"lem":3693,"abile":3694,"undi":3695,"Ġuxor":3696,"uisti":3697,"Ġpersp":3698,"Ġpoterat":3699,"Ġnostros":3700,"Ġnaturam":3701,"Ġpign":3702,"Ġserp":3703,"rept":3704,"aro":3705,"Ġreuers":3706,"Ġfas":3707,"Ġconsens":3708,"Ġuis":3709,"Ġingenium":3710,"Ġperuen":3711,"unda":3712,"Ġteneb":3713,"Ġtemere":3714,"Ġistam":3715,"oniae":3716,"ices":3717,"Ġlam":3718,"ĠÂ»":3719,"rix":3720,"Ġnumerum":3721,"Ġtotam":3722,"Ġpurp":3723,"Ġterras":3724,"Ġpens":3725,"Ġceru":3726,"Ġvast":3727,"Ġheb":3728,"Ġexped":3729,"Ġpraesertim":3730,"Ġdari":3731,"Ġopere":3732,"Ġdignum":3733,"Ġciceronis":3734,"Ġinfam":3735,"Ġaduersum":3736,"piam":3737,"Ġstult":3738,"954":3739,"Ġregno":3740,"Ġrequi":3741,"Ġrust":3742,"Ġincur":3743,"Ġpho":3744,"Ġurg":3745,"Ġhod":3746,"Ġpedibus":3747,"Ġtertium":3748,"Ġadulter":3749,"Ġquadrag":3750,"Ġprosp":3751,"erri":3752,"Ġmentem":3753,"olo":3754,"itata":3755,"Ġincid":3756,"Ġreges":3757,"Ġvisa":3758,"Ġvelle":3759,"Ġaedific":3760,"Ġturba":3761,"Ġsecunda":3762,"Ġtuus":3763,"Ġqualis":3764,"Ġdemum":3765,"dim":3766,"Ġinterdum":3767,"erium":3768,"Ġmatur":3769,"itauit":3770,"quidem":3771,"Ġdigna":3772,"Ġprior":3773,"Ġner":3774,"Ġinsp":3775,"Ġconss":3776,"iantur":3777,"uls":3778,"Ġacies":3779,"ubern":3780,"ientibus":3781,"Ġfacies":3782,"Ġtitus":3783,"Ġproficisc":3784,"ila":3785,"Ġillust":3786,"Ġcaptiu":3787,"Ġsamn":3788,"Ġdatum":3789,"Ġaccess":3790,"Ġconfess":3791,"Ġpuell":3792,"inn":3793,"Ġxxi":3794,"Ġpatriam":3795,"Î·":3796,"Ġnunquam":3797,"Ġhomini":3798,"Ġparua":3799,"Ġviribus":3800,"orsum":3801,"Ġsponte":3802,"Ġ17":3803,"Ġsensus":3804,"09":3805,"ariorum":3806,"ism":3807,"ef":3808,"Ġferi":3809,"Ġseque":3810,"Ġacie":3811,"Ġgraecis":3812,"Ġoportere":3813,"Ġvalet":3814,"Ġfugit":3815,"Ġopinor":3816,"emor":3817,"Ġconuen":3818,"Ġliberis":3819,"Ġhabit":3820,"Ġfiliam":3821,"Ġexim":3822,"Ġpotes":3823,"Ġpossint":3824,"Ġtribunus":3825,"Ġnequaquam":3826,"quin":3827,"Ġcresc":3828,"idam":3829,"Ġaciem":3830,"Ġmodis":3831,"Ġtard":3832,"eti":3833,"Ġconting":3834,"Ġpaul":3835,"Ġmos":3836,"udum":3837,"955":3838,"Ġaeth":3839,"Ġsuscept":3840,"Ġstudium":3841,"Ġiou":3842,"Ġvideb":3843,"Ġaeris":3844,"ularum":3845,"Ġputant":3846,"idia":3847,"Ġpacis":3848,"ran":3849,"Ġistis":3850,"Ġmatris":3851,"Ġstab":3852,"Ġpoll":3853,"iente":3854,"des":3855,"Ġsca":3856,"icip":3857,"auerat":3858,"inia":3859,"Ġprouid":3860,"Ġvestig":3861,"Ġnostram":3862,"rest":3863,"Ġmentis":3864,"Ġsull":3865,"Ġpic":3866,"eth":3867,"isses":3868,"undis":3869,"Ġ18":3870,"Ġfilios":3871,"Ġvox":3872,"Ġerunt":3873,"Ġlegum":3874,"Ġeiusmodi":3875,"Ġmulier":3876,"Ġvag":3877,"Ġdicat":3878,"Ġvidere":3879,"Ġabi":3880,"undus":3881,"Ġputo":3882,"Ġcaesare":3883,"Ġsulpic":3884,"ech":3885,"Ġmaiore":3886,"inceps":3887,"escit":3888,"Ġconstantin":3889,"Ġhodie":3890,"Ġmente":3891,"Ġpatric":3892,"Ġformid":3893,"Ġdisput":3894,"tione":3895,"Ġprisc":3896,"Ġgrauis":3897,"Ġvirtutis":3898,"Ġreip":3899,"Ġillorum":3900,"Ġagg":3901,"Ġmaximo":3902,"Ġprotinus":3903,"Ġsubl":3904,"Ġinsula":3905,"erare":3906,"Ġfulg":3907,"andus":3908,"Ġvulgo":3909,"Ġlibertatem":3910,"Ġvelim":3911,"Ġmaiorum":3912,"Ġamo":3913,"Ġaltero":3914,"ania":3915,"Ġaliorum":3916,"Ġinlust":3917,"acus":3918,"ensibus":3919,"Ġfuga":3920,"Ġvalentin":3921,"Ġmagister":3922,"Ġcrimen":3923,"Ġmodi":3924,"Ġprincipis":3925,"Ġnauibus":3926,"Ġmerito":3927,"Ġsymmachus":3928,"Ġadfect":3929,"Ġsimilis":3930,"Ġuter":3931,"Ġpercus":3932,"admodum":3933,"Ġterrarum":3934,"Ġdeinceps":3935,"Ġconseru":3936,"Ġvocatur":3937,"Ġindig":3938,"Ġfabric":3939,"Ġuictor":3940,"Ġhaut":3941,"Ġcarc":3942,"pro":3943,"Ġpurg":3944,"unque":3945,"Ġorbis":3946,"ello":3947,"Ġducem":3948,"Ġsublim":3949,"Ġsignum":3950,"Ġfertur":3951,"Ġinh":3952,"Ġobsequ":3953,"Ġpostremo":3954,"Ġquer":3955,"ationum":3956,"ientem":3957,"Ġitaliae":3958,"Ġchristian":3959,"Ġgreg":3960,"Ġcoept":3961,"Ġsicili":3962,"Ġvictus":3963,"Ġpacto":3964,"Ġbarbar":3965,"Ġplacuit":3966,"Ġperueni":3967,"Ïī":3968,"iamque":3969,"Ġcapta":3970,"Ġconsule":3971,"Ġtribuni":3972,"Ġsuffrag":3973,"nas":3974,"onii":3975,"Ġcausae":3976,"Ġpalam":3977,"Ġexplic":3978,"Ġcorneli":3979,"Ġnumerus":3980,"Ġoppos":3981,"ister":3982,"Ġquir":3983,"Ġsepar":3984,"Ġcerta":3985,"Ġsuad":3986,"Ġgesta":3987,"Ġaliquam":3988,"Ġiamque":3989,"Ġsimulac":3990,"Ġfacilius":3991,"Ġingenti":3992,"Ġducis":3993,"Ġdoctr":3994,"oti":3995,"Ġtecum":3996,"Ġmagnis":3997,"Ġsimiliter":3998,"Ġcentur":3999,"Ġmagnific":4000,"Ġfiduc":4001,"ioc":4002,"idae":4003,"Ġgentis":4004,"Ġscr":4005,"Ġfortunae":4006,"Ġhispania":4007,"Â»":4008,"Ġapost":4009,"Ġvoluit":4010,"Ġparth":4011,"Ġconsum":4012,"Ġlitterae":4013,"bis":4014,"Ġtog":4015,"Ġtruc":4016,"Ġanimis":4017,"Ġpossum":4018,"Ġosc":4019,"Ġcollig":4020,"opoli":4021,"Ġliceat":4022,"iue":4023,"Ġspeciem":4024,"Ġadsid":4025,"Ġvad":4026,"isce":4027,"Ġtanti":4028,"Ġindust":4029,"Ġassid":4030,"Ġaetas":4031,"Ġsermone":4032,"Ġibidem":4033,"Ġviam":4034,"Ġfeb":4035,"Ġdii":4036,"Ġgraeca":4037,"Ġpublicis":4038,"idas":4039,"Ġgoth":4040,"Ġinfest":4041,"Ġdominum":4042,"iatur":4043,"Ġnoui":4044,"Ġtalia":4045,"ileg":4046,"Ġhonores":4047,"Ġpompeius":4048,"Ġmirab":4049,"Ġdixisset":4050,"Ġsequitur":4051,"itit":4052,"Ġaddit":4053,"Ġphilosophum":4054,"Ġpropria":4055,"Ġeumque":4056,"uissent":4057,"Ġfing":4058,"Ġutraque":4059,"Ġferoc":4060,"Ġsancti":4061,"ioris":4062,"Ġadol":4063,"Ġsequent":4064,"Ġmors":4065,"diderunt":4066,"Ġpraetorem":4067,"Ġaeque":4068,"hor":4069,"itter":4070,"inorum":4071,"Ġsingulos":4072,"Ġquomodo":4073,"Ġvidit":4074,"Ġnoctem":4075,"Ġhomine":4076,"Ġvocis":4077,"Ġaliquant":4078,"Ġlabore":4079,"efac":4080,"Ġinstruc":4081,"atius":4082,"ecund":4083,"Ġceteros":4084,"Ġvex":4085,"Ġminist":4086,"Ġ20":4087,"Ġprouoc":4088,"Ġciues":4089,"Ġnegotium":4090,"reb":4091,"Ġobli":4092,"Ġfugam":4093,"usta":4094,"Ġtalis":4095,"Ġacceper":4096,"Ġaliam":4097,"Ġvenust":4098,"Ġfratris":4099,"Ġtemplum":4100,"ela":4101,"Ġconstitu":4102,"Ġdisciplina":4103,"Ġvergilius":4104,"prae":4105,"Ġlibri":4106,"Ġtrem":4107,"Ġexhib":4108,"Ġoperam":4109,"Ġdomest":4110,"Ġpythag":4111,"Ġ)":4112,"Ġpriusquam":4113,"Ġsemp":4114,"abili":4115,"ittit":4116,"Ġcalc":4117,"Ġvocabulo":4118,"Ġvires":4119,"Ġprincipio":4120,"Ġluna":4121,"Ġorationem":4122,"rump":4123,"Ġdubium":4124,"Ġoppido":4125,"Ġcomposuit":4126,"esset":4127,"Ġfratrem":4128,"yb":4129,"Ġrig":4130,"Ġsimili":4131,"Ġcontumeli":4132,"diu":4133,"itorum":4134,"co":4135,"Ġpraesidio":4136,"Ġtullius":4137,"79":4138,"Ġalic":4139,"Ġagro":4140,"Ġcense":4141,"Ġ19":4142,"Ġagros":4143,"Ġcommuni":4144,"Ġreipublic":4145,"Ġcondem":4146,"Ġdictus":4147,"Ġradic":4148,"Ġdecus":4149,"Ġmora":4150,"Ġseruus":4151,"Ġadulescens":4152,"cons":4153,"Ġsole":4154,"Ġquemadmodum":4155,"Ġpast":4156,"Ġak":4157,"Ġdelib":4158,"enos":4159,"Ġquodque":4160,"Ġchal":4161,"Ġceterum":4162,"ruit":4163,"Ġhe":4164,"Ġmatrem":4165,"Ġformam":4166,"Ġpretium":4167,"Ġcrass":4168,"Ġdestin":4169,"Ġsacrific":4170,"Ġhes":4171,"Ġadn":4172,"Ġdefunc":4173,"Ġinduc":4174,"Ġben":4175,"Ġcomoed":4176,"Ġdignitate":4177,"Ġhyp":4178,"la":4179,"Ġiup":4180,"ulatus":4181,"Ġcomes":4182,"Ġveteribus":4183,"otum":4184,"Ġcogno":4185,"Ġdemost":4186,"Ġcunct":4187,"Ġquaeri":4188,"atque":4189,"Ġmend":4190,"inium":4191,"Ġsurg":4192,"Ġfinis":4193,"ich":4194,"Ġdeg":4195,"Ġrup":4196,"Ġmaria":4197,"Ġprincipem":4198,"Ġlegi":4199,"Ġgrand":4200,"Ġmix":4201,"Ġaures":4202,"Ġamicos":4203,"Ġpauca":4204,"Ġvall":4205,"Ġreuert":4206,"Ġnonne":4207,"Ġsyn":4208,"Ġtusc":4209,"Ġfiliis":4210,"Ġfecerit":4211,"Ġmissus":4212,"reto":4213,"Ġimpos":4214,"Ġcondemn":4215,"Ġcin":4216,"onius":4217,"Ġlegimus":4218,"rentur":4219,"Ġvoluntate":4220,"Ġostent":4221,"Ġnoctis":4222,"atia":4223,"Ġquoc":4224,"Ġdeclar":4225,"Ġarbitror":4226,"Ġax":4227,"Ġrequir":4228,"Ġerip":4229,"Ġintro":4230,"Ġvelit":4231,"Ġnumm":4232,"Ġauar":4233,"Ġkalendas":4234,"Ġdimic":4235,"Ġinibi":4236,"Ġrecus":4237,"Ġgord":4238,"Ġcompreh":4239,"Ġnouum":4240,"Ġauctoritas":4241,"ĠâĢľ":4242,"plex":4243,"Ġreliqua":4244,"Ġcopias":4245,"Ġpraecipue":4246,"Ġdicas":4247,"Ġmonum":4248,"Ġtun":4249,"ensus":4250,"Ġsinist":4251,"Ġorbem":4252,"ientia":4253,"Ġluce":4254,"Ġiung":4255,"aturum":4256,"Ġpaen":4257,"Ġacced":4258,"Ġhoste":4259,"ract":4260,"ych":4261,"Ġperuenit":4262,"Ġdiuid":4263,"Ġostendit":4264,"Ġpropinqu":4265,"Ġcoss":4266,"Ġtet":4267,"Ġutroque":4268,"Ġplerisque":4269,"Ġdebeat":4270,"Ġmel":4271,"Ġmundi":4272,"rarum":4273,"aculum":4274,"Ġaudire":4275,"Ġimpetu":4276,"abus":4277,"Ġtria":4278,"Ġromanae":4279,"Ġitidem":4280,"Ġeph":4281,"Ġingenii":4282,"06":4283,"Ġping":4284,"Ġcing":4285,"Ġsicilia":4286,"eruntur":4287,"08":4288,"jan":4289,"tibus":4290,"Ġvendit":4291,"sequi":4292,"Ġcorrupt":4293,"Ġnouem":4294,"Ġmoenia":4295,"lect":4296,"icere":4297,"Ġposita":4298,"Ġaduoc":4299,"Ġmodest":4300,"Ġterris":4301,"Ġmedioc":4302,"Ġfidel":4303,"Ġprompt":4304,"Ġmonte":4305,"Ġfines":4306,"Ġobnox":4307,"Ġconduc":4308,"Ġperp":4309,"iscum":4310,"Ġgloriam":4311,"idos":4312,"Ġdeh":4313,"piter":4314,"Ġscio":4315,"Ġerga":4316,"Ġvill":4317,"Ġmaximum":4318,"Ġclaudius":4319,"Ġadministr":4320,"rh":4321,"ulerunt":4322,"Ġcapita":4323,"Ġsummum":4324,"acula":4325,"Ġpeper":4326,"Ġmorem":4327,"Ġfilia":4328,"Ġmunus":4329,"Ġnati":4330,"Ġetiamsi":4331,"Ġminor":4332,"Ġsaepius":4333,"nes":4334,"Ġhipp":4335,"Ġtemporum":4336,"Ġmaiorem":4337,"Ġchrys":4338,"Ġartific":4339,"rom":4340,"erata":4341,"Ġpag":4342,"ilo":4343,"Ġba":4344,"Ġdiuina":4345,"Ġxviii":4346,"oniis":4347,"sequent":4348,"andos":4349,"auimus":4350,"rans":4351,"Ġps":4352,"Ġho":4353,"Ġgrauiter":4354,"ak":4355,"illi":4356,"Ġmillia":4357,"Ġamicus":4358,"Ġflumen":4359,"itare":4360,"Ġinnum":4361,"Ġstet":4362,"pa":4363,"Ġversu":4364,"iua":4365,"Ġstudiis":4366,"Ġlaced":4367,"erari":4368,"idio":4369,"Ġaliquod":4370,"Ġphilosophiae":4371,"ors":4372,"ecus":4373,"Ġmancip":4374,"Ġdiscess":4375,"Ġparen":4376,"uerb":4377,"Ġfuerant":4378,"Ġpalm":4379,"Ġexpos":4380,"Ġaliae":4381,"Ġscyth":4382,"Ġciuis":4383,"Ġliberi":4384,"Ġimmo":4385,"etas":4386,"Ġthrac":4387,"Ġmemoriam":4388,"Ġlus":4389,"Ġtantis":4390,"Ġexemplo":4391,"Ġmembra":4392,"Ġoperis":4393,"Ġfratres":4394,"Ġsententiis":4395,"undo":4396,"Ġpoterit":4397,"Ġaliquem":4398,"Ġamicitia":4399,"Ġscribere":4400,"Ġelig":4401,"Ġpan":4402,"Ġlup":4403,"unx":4404,"Ġinclin":4405,"Ġmalo":4406,"Ġmons":4407,"Ġ137":4408,"Ġcapitis":4409,"Ġduae":4410,"uat":4411,"Ġti":4412,"Ġpositum":4413,"Ġcuram":4414,"Ġpublico":4415,"onus":4416,"Ġpend":4417,"Ġhel":4418,"Ġvocabuli":4419,"imam":4420,"rati":4421,"Ġleui":4422,"crib":4423,"iatum":4424,"rio":4425,"Ġere":4426,"Ġredit":4427,"Ġseg":4428,"undam":4429,"Ġdepreh":4430,"Ġreipublicae":4431,"Ġdefic":4432,"iturum":4433,"Ġiudex":4434,"Ġtaurus":4435,"Ġepistula":4436,"Ġvarronis":4437,"Ġmach":4438,"Ġvinum":4439,"Ġamoris":4440,"atusque":4441,"Ġvolo":4442,"Ġmunera":4443,"Ġtela":4444,"Ġcubic":4445,"tur":4446,"Ġtene":4447,"Ġaere":4448,"onere":4449,"Ġfecerunt":4450,"Ġcensor":4451,"Ġpraeda":4452,"Ġagnosc":4453,"Ġaurum":4454,"itque":4455,"Ġfacinus":4456,"Ġhabes":4457,"Ġnosc":4458,"Ġceler":4459,"Ġmunicip":4460,"ienn":4461,"Ġopes":4462,"Ġusurp":4463,"Ġlatina":4464,"Ġvetus":4465,"Ġamicis":4466,"Ġmilibus":4467,"Ġadopt":4468,"Ġoris":4469,"eque":4470,"Ġdot":4471,"utem":4472,"Ġpartis":4473,"Ġinfin":4474,"Ġitin":4475,"Ġquadrig":4476,"Ġsyracus":4477,"eatur":4478,"eratur":4479,"ressum":4480,"Ġdescend":4481,"iana":4482,"Ġcuria":4483,"uall":4484,"Ġtransm":4485,"Ġinscrib":4486,"propter":4487,"Ġistum":4488,"Ġtrec":4489,"Ġdierum":4490,"Ġadt":4491,"Ġinfra":4492,"nec":4493,"Ġvali":4494,"Ġdicis":4495,"onae":4496,"ratis":4497,"Ġda":4498,"iumque":4499,"Ġcepit":4500,"Ġesto":4501,"Ġarith":4502,"Ġarithmet":4503,"fl":4504,"itionis":4505,"Ġquinc":4506,"ono":4507,"Ġrut":4508,"Ġmultitudo":4509,"Ġvalde":4510,"Ġsacris":4511,"Ġequo":4512,"Ġplebe":4513,"eron":4514,"Ġpasc":4515,"Ġnatum":4516,"Ġlongo":4517,"Ġiuppiter":4518,"Ġdein":4519,"Ġfulm":4520,"Ġullo":4521,"Ġantoninus":4522,"Ġprouincias":4523,"hai":4524,"Ġquere":4525,"anim":4526,"Ġadiu":4527,"iare":4528,"Ġgess":4529,"Ġmultitudine":4530,"Ġtantam":4531,"Ġiniqu":4532,"Ġtranqui":4533,"Ġdiutius":4534,"Ġsam":4535,"udit":4536,"olus":4537,"oto":4538,"Ġtransl":4539,"Ġvisus":4540,"Ġdubio":4541,"Ġoptime":4542,"Ġtempt":4543,"Ġennius":4544,"ĠâŁ¨":4545,"atui":4546,"ibile":4547,"Ġmagnitudine":4548,"Ġmoll":4549,"Ġmaioribus":4550,"Ġiniuriam":4551,"Ġpig":4552,"Ġannorum":4553,"Ġdisquis":4554,"Ġcaelum":4555,"uras":4556,"Ġetr":4557,"Ġhae":4558,"Ġreb":4559,"Ġgens":4560,"sign":4561,"Ġignis":4562,"Ġhonorius":4563,"iuntur":4564,"Ġpatrim":4565,"inth":4566,"Ġprocons":4567,"mat":4568,"iamus":4569,"elle":4570,"Ġiniuria":4571,"essus":4572,"Ġaugur":4573,"Ġherod":4574,"Ġinuidia":4575,"Ġtumultu":4576,"Ġatroc":4577,"atura":4578,"Ġoct":4579,"Ġreddit":4580,"Ġdolore":4581,"97":4582,"lii":4583,"Ġdiei":4584,"Ġfacti":4585,"Ġnecessaria":4586,"Ġepiscopo":4587,"emur":4588,"Ġfrag":4589,"Ġapoll":4590,"Ġpotestas":4591,"Ġabsc":4592,"Ġsiquidem":4593,"Ġvirorum":4594,"Ġquaeso":4595,"Ġuinc":4596,"Ġvocem":4597,"Ġcoel":4598,"Ġmilitiae":4599,"Ġnoctur":4600,"Ġpenet":4601,"uir":4602,"quens":4603,"onas":4604,"Ġsuperst":4605,"Ġtenet":4606,"Ġexcell":4607,"Ġculpa":4608,"Ġfus":4609,"Ġacta":4610,"Ġappellantur":4611,"Ġrestitu":4612,"ules":4613,"Ġuet":4614,"Ġresist":4615,"Ġarithmeticae":4616,"inius":4617,"Ġnept":4618,"Ġtenuit":4619,"Ġprodig":4620,"Ġaquis":4621,"Ġhast":4622,"lici":4623,"Ġkata":4624,"Ġnuncup":4625,"Ġlongius":4626,"Ġampli":4627,"rea":4628,"Ġtang":4629,"Ġrum":4630,"Ġprimi":4631,"Ġthes":4632,"Ġdesert":4633,"Ġaquae":4634,"rant":4635,"Ġincolum":4636,"Ġgraecia":4637,"Ġolym":4638,"Ġbland":4639,"Ġdisquisitiones":4640,"Ġsoph":4641,"Ġheres":4642,"Ġcursu":4643,"Ġdolor":4644,"Ġconiunc":4645,"Ġtestamento":4646,"Ġfatig":4647,"urius":4648,"anter":4649,"Ġceteri":4650,"Ġsermonibus":4651,"Ġconsilia":4652,"rouers":4653,"Ġquemquam":4654,"Ġgratias":4655,"Ġviuere":4656,"Ġaugusti":4657,"sectio":4658,"Ġfelix":4659,"Ġlegatis":4660,"Ġexpugn":4661,"irent":4662,"Ġdeprec":4663,"super":4664,"Ġpretio":4665,"Ġpertinet":4666,"Ġnata":4667,"aei":4668,"Ġconuert":4669,"Ġcaut":4670,"Ġmaximus":4671,"Ġdicendi":4672,"Ġcontrouers":4673,"Ġspatio":4674,"Ġspatium":4675,"Ġinfl":4676,"Ġexcip":4677,"Ġpugnam":4678,"Ġhibern":4679,"Ġimmin":4680,"Ġfigura":4681,"Ġpess":4682,"Ġaetatem":4683,"erens":4684,"Ġinque":4685,"Ġgubern":4686,"Ġinfirm":4687,"Ġignob":4688,"Ġaquil":4689,"Ġcod":4690,"osus":4691,"ecut":4692,"Ġanc":4693,"Ġcontempt":4694,"Ġmiseric":4695,"odum":4696,"Ġperag":4697,"âĢĻ":4698,"Ġdiligenter":4699,"Ġpompeio":4700,"Ġscripsisse":4701,"8055":4702,"Ġlacedaem":4703,"Ġexh":4704,"Ġquinto":4705,"Ġodio":4706,"Ġpassus":4707,"Ġsa":4708,"Ġinitio":4709,"Ġmultip":4710,"Ġthess":4711,"Ġforent":4712,"iuum":4713,"Ġsubm":4714,"Ġdesper":4715,"Ġmendac":4716,"36":4717,"Ġech":4718,"entr":4719,"entior":4720,"Ġfoli":4721,"Ġornam":4722,"intra":4723,"uiam":4724,"Ġiras":4725,"Ġciuibus":4726,"olog":4727,"Ġurbi":4728,"Ġactio":4729,"Ġhistoriae":4730,"Ġcertamine":4731,"Ġhabuisse":4732,"Ġiudicem":4733,"Ġpugnae":4734,"Ġdiuersis":4735,"Ġmaius":4736,"Ġtuas":4737,"Ġsignis":4738,"Ġcertum":4739,"Ġpoetarum":4740,"Ġaaa":4741,"Ġproxima":4742,"Ġiuuenis":4743,"Ġsyllaba":4744,"Ġvenisse":4745,"Ġremed":4746,"Ġitinere":4747,"Ġuig":4748,"Ġhabeant":4749,"Ġrescrip":4750,"Ġreduc":4751,"Ġamplex":4752,"ues":4753,"Î¼":4754,"Ġvect":4755,"aturus":4756,"ataque":4757,"Ġrecens":4758,"Ġcognomin":4759,"Ġordo":4760,"Ġathenis":4761,"pes":4762,"olae":4763,"Ġfalsa":4764,"Ġinuenimus":4765,"Ġpraefectus":4766,"Ġreprehend":4767,"Ġquandam":4768,"une":4769,"Ġuelut":4770,"Ġpostum":4771,"Ġhonoris":4772,"Ġvalens":4773,"Ġclassem":4774,"Ġlate":4775,"udic":4776,"ebis":4777,"Ġcolloc":4778,"Ġotium":4779,"antiae":4780,"Ġplut":4781,"Ġargenti":4782,"Ġvino":4783,"ense":4784,"Ġalibi":4785,"Ġcontend":4786,"Ġamicitiae":4787,"ublica":4788,"ebo":4789,"Ġdignitatis":4790,"Ġ--":4791,"Ġorbe":4792,"Ġnatalis":4793,"Ġsermo":4794,"Ġauxili":4795,"Ġdextra":4796,"Ġlent":4797,"Ġplag":4798,"Ġeiusque":4799,"Ġnegotio":4800,"Ġpercont":4801,"Ġpraeterm":4802,"Ġofficia":4803,"Ġinuis":4804,"Ġfato":4805,"Ġrosc":4806,"Ġimperatore":4807,"Ġalteri":4808,"Ġofficiis":4809,"Ġpueri":4810,"Ġflorent":4811,"umn":4812,"Ġactum":4813,"Ġsalub":4814,"Ġsuprem":4815,"Ġsordid":4816,"iebat":4817,"Ġtanquam":4818,"ulari":4819,"ressa":4820,"Ġmemini":4821,"Ġpuls":4822,"Ġmuc":4823,"Ġregum":4824,"Ġappellauit":4825,"Ġgallia":4826,"Ġaccipere":4827,"Ġtend":4828,"Ġconcili":4829,"Ġdesign":4830,"Ġspiritus":4831,"Ġconfect":4832,"Ġinsuper":4833,"assent":4834,"Ġfaciat":4835,"Ġquing":4836,"Ġnus":4837,"Ġinept":4838,"Ġhora":4839,"Ġconiect":4840,"Ġsepult":4841,"Ġiuuent":4842,"Ġperu":4843,"auere":4844,"Ġiussu":4845,"Ġlongum":4846,"Ġamicorum":4847,"Ġpassim":4848,"Ġcoerc":4849,"Ġvelis":4850,"itudines":4851,"Ġcarmina":4852,"Ġorigine":4853,"Ġdicendum":4854,"Ġmirum":4855,"itti":4856,"Ġfic":4857,"Ġprist":4858,"Ġconj":4859,"taque":4860,"Ġagrum":4861,"Ġregna":4862,"Ġmontis":4863,"Ġfacie":4864,"Ġdolorem":4865,"Ġdiuersa":4866,"Ġquinquaginta":4867,"ka":4868,"ogn":4869,"Ġregia":4870,"Ġsagitt":4871,"archus":4872,"Ġna":4873,"issimas":4874,"Ġappellat":4875,"ymph":4876,"Ġfortunam":4877,"Ġausus":4878,"Ġbeneficium":4879,"itumque":4880,"Ġeoque":4881,"Ġpeti":4882,"prim":4883,"Ġconsequ":4884,"ectam":4885,"itura":4886,"Ġinfer":4887,"Ġferu":4888,"Ġcredid":4889,"Ġhannibal":4890,"yd":4891,"Ġedit":4892,"Ġquique":4893,"Ġplaut":4894,"Ġconuic":4895,"Ġioann":4896,"Ġnusquam":4897,"iata":4898,"Î»":4899,"Ġiiii":4900,"Ġhisce":4901,"Ġsocios":4902,"yp":4903,"Ġadg":4904,"Ġdissol":4905,"Ġproprium":4906,"Ġseruos":4907,"nem":4908,"Ġfasc":4909,"Ġintest":4910,"Ġilluc":4911,"Ġcorona":4912,"Ġvitio":4913,"Ġbonus":4914,"Ġamicitiam":4915,"Ġcalli":4916,"Ġedicto":4917,"Ġ21":4918,"Ġ30":4919,"Ġlaude":4920,"Ġantonius":4921,"Ġcoram":4922,"Ġcorne":4923,"iz":4924,"vs":4925,"Ġappellatus":4926,"Ġfamilia":4927,"Ġvulgus":4928,"Ġmultorum":4929,"Ġrect":4930,"Ġfratre":4931,"Ġafricam":4932,"Ġaugustus":4933,"Ġconstituit":4934,"issi":4935,"Ġconspic":4936,"Ġanx":4937,"Ġprimam":4938,"Ġcuiusque":4939,"Ġrad":4940,"Ġquinta":4941,"Ġsecur":4942,"Ġsaltem":4943,"Ġseni":4944,"Ġquendam":4945,"Ġlact":4946,"Ġaliena":4947,"Ġarab":4948,"Ġmall":4949,"Ġperit":4950,"Ġmagnus":4951,"Ġlibrorum":4952,"Ġsecutus":4953,"Ġcopiam":4954,"reditur":4955,"Ġconstantinopoli":4956,"Ġcornelius":4957,"Ġaust":4958,"Ġtale":4959,"uitas":4960,"Ġdesp":4961,"Ġdignitatem":4962,"Ġsociis":4963,"Ġmuros":4964,"Ġconsensu":4965,"Ġhad":4966,"Ġinius":4967,"issimorum":4968,"Ġcapill":4969,"Ġcarmine":4970,"Ġmerced":4971,"erere":4972,"Ġqual":4973,"ulem":4974,"Ġsubd":4975,"Ġnullis":4976,"Ġincommod":4977,"Ġfuere":4978,"Ġplato":4979,"Ġdecimo":4980,"Ġduci":4981,"Ġcommunis":4982,"Ġaegr":4983,"Ġtabulis":4984,"Ġauctores":4985,"Ġram":4986,"Ġidus":4987,"Ġlitore":4988,"Ġubique":4989,"illa":4990,"Ġ-,":4991,"Ġsalutis":4992,"Ġuirtut":4993,"orque":4994,"emin":4995,"Ġrot":4996,"Ġquisquis":4997,"Ġindulg":4998,"Ġliberal":4999,"Ġseptimo":5000,"Ġpompei":5001,"actis":5002,"Ġantequam":5003,"Ġsociorum":5004,"Ġiulianus":5005,"Ġdebent":5006,"Ġcali":5007,"Ġilly":5008,"Ġsicc":5009,"Ġpulcherrim":5010,"Ġperegr":5011,"Ġutique":5012,"toll":5013,"Ġtabulas":5014,"Ġbeneficio":5015,"Ġolymp":5016,"Ġnae":5017,"erentes":5018,"Ġherb":5019,"Ġmateria":5020,"Ġsest":5021,"Ġlocorum":5022,"Ġpersona":5023,"Ġpoetae":5024,"Ġparentes":5025,"Ġsaturn":5026,"orium":5027,"Ġplena":5028,"Ġpraecl":5029,"Ġmontem":5030,"Ġartem":5031,"Ġpaulum":5032,"Ġoccidit":5033,"Ġ22":5034,"Ġsinu":5035,"Ġconsider":5036,"Ġge":5037,"illim":5038,"Ġcau":5039,"Ġproelium":5040,"Ġinex":5041,"Ġris":5042,"Ġphr":5043,"Ġnobilis":5044,"Ġcaede":5045,"Ġultima":5046,"Ġiulius":5047,"Ġars":5048,"Ġlibenter":5049,"Ġpotissimum":5050,"dix":5051,"Ġinuad":5052,"Ġciceronem":5053,"Ġfructus":5054,"Ġianu":5055,"Ġ).":5056,"Ġfisc":5057,"Ġsegn":5058,"Ġmatre":5059,"Ġinstrum":5060,"Ġsexto":5061,"Ġpernic":5062,"Ġinan":5063,"Ġconcept":5064,"Ġfactis":5065,"arias":5066,"Ġhabitu":5067,"ĠâĢĺ":5068,"Ġquadraginta":5069,"taret":5070,"Ġhabeo":5071,"Ġprincipum":5072,"Ġoffend":5073,"Ġquaerere":5074,"Ġcecid":5075,"iret":5076,"ritus":5077,"Ġvaria":5078,"Ġfine":5079,"anam":5080,"ellius":5081,"Ġpopulos":5082,"iosi":5083,"Ġartibus":5084,"uii":5085,"Ġsinc":5086,"actum":5087,"ebas":5088,"arique":5089,"Ġhabens":5090,"Ġpetere":5091,"Ġcorporibus":5092,"Ġcrimine":5093,"Ġcontraria":5094,"Ġartis":5095,"Ġtuos":5096,"Ġmultas":5097,"Ġamicum":5098,"Ġauctoritatem":5099,"Ġvultu":5100,"Ġdexter":5101,"Ġpythagor":5102,"iuo":5103,"Ġterga":5104,"Ġsimile":5105,"Ġignomin":5106,"Ġcerto":5107,"Ġsignificatione":5108,"Ġvocabula":5109,"urrere":5110,"Ġponit":5111,"aet":5112,"Ġvidemus":5113,"Ġnostrorum":5114,"rect":5115,"Ġstipul":5116,"edic":5117,"Ġplen":5118,"Ġeamque":5119,"Ġvultus":5120,"Ġtempla":5121,"Ġmas":5122,"Ġfum":5123,"Ġvolumus":5124,"940":5125,"Ġambul":5126,"Ġpectora":5127,"lo":5128,"imenta":5129,"Ġdicatur":5130,"Ġpraesc":5131,"Ġingressus":5132,"Ġnegleg":5133,"Ġscribit":5134,"Ġsalute":5135,"Ġconsiliis":5136,"hac":5137,"Ġsecus":5138,"Ġpublicum":5139,"Ġreligione":5140,"Ġsard":5141,"Ġhaberi":5142,"Ġsequi":5143,"Ġasia":5144,"Ġvestrae":5145,"Ġcapitolium":5146,"uerter":5147,"Ġfaciam":5148,"Ġlatere":5149,"Î¿Î½":5150,"Ġorator":5151,"Ġlegionibus":5152,"Ġpectus":5153,"Ġsch":5154,"Ġduabus":5155,"Ġpraesens":5156,"Ġpe":5157,"Ġoccur":5158,"Ġvitia":5159,"Ġpoenam":5160,"Ġrediit":5161,"Ġdicens":5162,"Ġiudicis":5163,"Ġrestitut":5164,"Ġquarta":5165,"let":5166,"Ġconsulis":5167,"Ġabl":5168,"Ġpatrum":5169,"Ġsignificare":5170,"Ġflumina":5171,"Ġnepos":5172,"Ġsolitus":5173,"Ġflac":5174,"Ġtemer":5175,"Ġprecibus":5176,"Ġtalem":5177,"Ġpauli":5178,"Ġsenatui":5179,"Ġlitora":5180,"Ġvoluntatem":5181,"Ġcent":5182,"ades":5183,"Ġvirtutem":5184,"Ġcaelest":5185,"Ġpupill":5186,"Ġsallustius":5187,"Ġquale":5188,"Ġquispiam":5189,"Ġsaeui":5190,"Ġpermitt":5191,"ĠÎ±":5192,"org":5193,"Ġual":5194,"ertur":5195,"Ġinsulam":5196,"Ġtranse":5197,"Ġscientia":5198,"Ġtrepid":5199,"abilem":5200,"Ġregio":5201,"Ġcuique":5202,"Ġpene":5203,"Ġceper":5204,"ensem":5205,"Ġputas":5206,"Ġvestrum":5207,"Ġsacram":5208,"ceps":5209,"Ġdistinc":5210,"Ġmorbo":5211,"acia":5212,"Ġcontemn":5213,"Ġciuili":5214,"Ġdeter":5215,"Ġcelebr":5216,"Ġxxxv":5217,"Ġfuissent":5218,"Ġtou":5219,"aci":5220,"Ġcommemor":5221,"Ġcarp":5222,"Ġfaciet":5223,"Ġsummam":5224,"Ġgradu":5225,"Ġadolesc":5226,"04":5227,"atisque":5228,"Ġmunere":5229,"Ġconiur":5230,"Ġtranquill":5231,"pta":5232,"Ġproced":5233,"Ġfluuium":5234,"Ġabstin":5235,"Ġek":5236,"Ġhaberent":5237,"Ġappos":5238,"Ġpossis":5239,"Ġtrago":5240,"Ġmetus":5241,"Ġxxii":5242,"Ġambo":5243,"Ġullum":5244,"Ġresponde":5245,"ilitate":5246,"Ġdictis":5247,"Ġquasdam":5248,"Ġalteram":5249,"Ġpoenas":5250,"Ġtragoed":5251,"01":5252,"icula":5253,"Ġadept":5254,"Ġcras":5255,"Ġpalud":5256,"Ġcommune":5257,"lum":5258,"Ġdio":5259,"Ġhil":5260,"olem":5261,"uitatem":5262,"Ġincon":5263,"iosis":5264,"Ġhumani":5265,"sub":5266,"Ġaquam":5267,"Ġopul":5268,"Ġvidet":5269,"Ġdecur":5270,"Ġepic":5271,"Ġprouinciis":5272,"Ġdisciplinae":5273,"amen":5274,"ego":5275,"Ġveneris":5276,"Ġlumina":5277,"men":5278,"rique":5279,"Ġiudae":5280,"Ġamico":5281,"Ġdecretum":5282,"Ġeurip":5283,"Ġcito":5284,"Ġprost":5285,"Ġinterest":5286,"Ġxix":5287,"Ġvenisset":5288,"Ġtheat":5289,"Ġ136":5290,"Ġmass":5291,"Ġuos":5292,"Ġoppida":5293,"erebant":5294,"Ġfauc":5295,"icul":5296,"Ġplan":5297,"Ġimperia":5298,"Ġflex":5299,"Ġcolor":5300,"Ġchristi":5301,"aton":5302,"Ġcaed":5303,"Ġpalat":5304,"Ġplurima":5305,"Ġinj":5306,"Ġintent":5307,"Ġrepent":5308,"Ġeffus":5309,"Ġverecund":5310,"aue":5311,"Ġvictoriam":5312,"Ġfinit":5313,"tim":5314,"Ġsib":5315,"Ġlax":5316,"Ġreus":5317,"Ġnegat":5318,"Ġexempla":5319,"Ġextremum":5320,"ps":5321,"alam":5322,"Ġneut":5323,"ectos":5324,"Ġapr":5325,"Ġcognita":5326,"Ġequum":5327,"Ġfutura":5328,"Ġpassuum":5329,"hann":5330,"Ġuers":5331,"Ġantist":5332,"Ġvenus":5333,"rimque":5334,"Ġnominibus":5335,"Ġuterque":5336,"dae":5337,"osum":5338,"Ġobuiam":5339,"erior":5340,"Ġipsorum":5341,"Ġvideantur":5342,"Ġfamam":5343,"Ġmissi":5344,"Ġmotu":5345,"Ġoccisus":5346,"Ġro":5347,"rato":5348,"Ġvocabulis":5349,"Ġconiunx":5350,"Ġsedes":5351,"ertia":5352,"Ġveteris":5353,"Ġcaesari":5354,"Ġmuneribus":5355,"Ġgloriae":5356,"Ġalexandri":5357,"Ġmelior":5358,"hoc":5359,"Ġquatu":5360,"Ġforum":5361,"Ġsenect":5362,"Ġvestris":5363,"Ġarcadius":5364,"Ġamorem":5365,"arat":5366,"iturus":5367,"Ġmarm":5368,"Ġvoluc":5369,"Ġscriptis":5370,"Ġeosque":5371,"Ġtempestate":5372,"Ġfess":5373,"ulisse":5374,"Ġmodus":5375,"Ġanima":5376,"Ġconcur":5377,"Ġcontinuo":5378,"Ġrhodiens":5379,"imi":5380,"Ġratus":5381,"Ġiusta":5382,"actenus":5383,"ectab":5384,"Ġsilu":5385,"Ġbellic":5386,"equ":5387,"riae":5388,"Ġnor":5389,"Ġmeg":5390,"oria":5391,"Ġtecta":5392,"Ġlug":5393,"Ġlyc":5394,"Ġadj":5395,"Ġexor":5396,"ole":5397,"Ġagi":5398,"Ġistud":5399,"ĠÏĦ":5400,"Ġliberum":5401,"Ġiudicia":5402,"Ġarmorum":5403,"Ġvehementer":5404,"Ġaristoteles":5405,"atic":5406,"rexit":5407,"Ġimo":5408,"Ġueni":5409,"Ġquapropter":5410,"Ġtheoph":5411,"Ġsaxa":5412,"iperet":5413,"Ġconsulto":5414,"cl":5415,"reta":5416,"estum":5417,"ugit":5418,"ianis":5419,"Ġdeform":5420,"Ġrepud":5421,"Ġpossumus":5422,"Ġcultu":5423,"Ġagmine":5424,"Ġdecet":5425,"Ġpraestare":5426,"Ġaquas":5427,"Ġlaes":5428,"pas":5429,"quae":5430,"Ġcall":5431,"Ġtex":5432,"Ġveniam":5433,"Ġinsidiis":5434,"erii":5435,"Ġaes":5436,"Ġdomn":5437,"urn":5438,"uth":5439,"Ġxl":5440,"Ġagrest":5441,"Ġmulieres":5442,"Ġgentem":5443,"Ġperdit":5444,"Ġcaud":5445,"Ġstren":5446,"Ġmoder":5447,"Ġmultitudinem":5448,"Ġinuas":5449,"Ġpt":5450,"Ġvota":5451,"Ġtrip":5452,"ertus":5453,"Ġregibus":5454,"Ġopportun":5455,"Ġmontes":5456,"Ġaugusto":5457,"erimus":5458,"Ġlub":5459,"Ġutitur":5460,"Ġrost":5461,"Ġdixerat":5462,"Ġlucem":5463,"Ġordinis":5464,"Ġfamiliae":5465,"rub":5466,"Ġamph":5467,"Ġaudio":5468,"Ġnecessitas":5469,"Ġlibertate":5470,"Ġioui":5471,"Ġconuiuio":5472,"umen":5473,"Ġtent":5474,"Ġtal":5475,"Ġutrimque":5476,"abam":5477,"estim":5478,"andas":5479,"Ġstir":5480,"Ġanimal":5481,"Ġnumer":5482,"Ġasiam":5483,"Ġigni":5484,"Ġtantummodo":5485,"Ġherac":5486,"Ġdemonstr":5487,"Ġpell":5488,"onam":5489,"acto":5490,"Ġscop":5491,"Ġfecerat":5492,"iciens":5493,"Ġnegotiis":5494,"Ġideoque":5495,"ĠâĢĿ":5496,"ithrid":5497,"Ġoleum":5498,"Ġdudum":5499,"Ġheu":5500,"Ġexprim":5501,"Ġequis":5502,"Ġpeditum":5503,"Ġlibertatis":5504,"Ġrett":5505,"Ġlangu":5506,"Ġcul":5507,"Ġpariet":5508,"Ġnihilo":5509,"Ġcredit":5510,"Ġnouo":5511,"Ġquatenus":5512,"Ġinclus":5513,"Ġdissimul":5514,"Ġsempron":5515,"Ġalc":5516,"Ġunquam":5517,"Ġincred":5518,"Ġsexaginta":5519,"Ġtestamentum":5520,"Ġfronte":5521,"Ġfiducia":5522,"Ġdaret":5523,"Ġcomme":5524,"Ġsenex":5525,"Ġceter":5526,"Ġequos":5527,"Ġabsur":5528,"Ġturpe":5529,"Ġcongreg":5530,"Ġpict":5531,"Ġintus":5532,"Ġvocibus":5533,"Ġaliqui":5534,"Ġresid":5535,"Ġferrum":5536,"Ġconfid":5537,"Ġsapiens":5538,"Ġimpetum":5539,"Ġgracchus":5540,"Ġexact":5541,"Ġcontent":5542,"Ġnumeros":5543,"ioso":5544,"Ġnobiles":5545,"Ġgratiae":5546,"Ġreliquis":5547,"Ġbreu":5548,"Î¿Ïħ":5549,"Ġpaulatim":5550,"sic":5551,"obrem":5552,"Ġregionibus":5553,"Ġciuitatibus":5554,"Ġsermonis":5555,"03":5556,"Ġinpr":5557,"Ġinitium":5558,"irum":5559,"Ġaccepimus":5560,"Ġtalibus":5561,"Ġhercule":5562,"Ġclassis":5563,"aces":5564,"Ġillas":5565,"Ġcursus":5566,"Ġexpect":5567,"Ġcampan":5568,"Ġcampo":5569,"Ġdifficult":5570,"Ġcertamen":5571,"Ġluxur":5572,"Ġplautus":5573,"olic":5574,"Ġalto":5575,"Ġsenatores":5576,"Ġferri":5577,"Ġtransg":5578,"Ġaccepta":5579,"Ġscriptores":5580,"50":5581,"Ġfou":5582,"Ġprosc":5583,"Ġvoces":5584,"Ġlitteram":5585,"Ġdemet":5586,"947":5587,"Ġauxilio":5588,"Ġvini":5589,"Ġinterdic":5590,"Ġcontrac":5591,"Ġdisced":5592,"Ġfideicom":5593,"Ġincipit":5594,"Ġdicebatur":5595,"Ġdignus":5596,"Ġsensim":5597,"erebatur":5598,"Ġuix":5599,"Ġparticula":5600,"Ġfideicomm":5601,"Ġquoad":5602,"Ġemin":5603,"Ġadiut":5604,"mus":5605,"Ġpares":5606,"Ġlatus":5607,"Ġinteruall":5608,"Ġappet":5609,"Ġstudia":5610,"Ġeuas":5611,"Ġtribuno":5612,"Ġpericula":5613,"Ġpaucos":5614,"Ġadscrip":5615,"Ġmarty":5616,"Ġgladio":5617,"Ġphryg":5618,"rit":5619,"Ġinuicem":5620,"Ġdomit":5621,"Ġdetrah":5622,"Ġconuenire":5623,"hel":5624,"Ġsolem":5625,"Ġ23":5626,"Ġpraesenti":5627,"Ġgraeco":5628,"Ġdomos":5629,"Ġodium":5630,"entissime":5631,"Ġminister":5632,"Ġlucret":5633,"Ġactus":5634,"Ġcorrig":5635,"Ġsenator":5636,"Ġseptentr":5637,"Ġplebi":5638,"Ġdisser":5639,"Ġiuuenes":5640,"Ġsidera":5641,"Ġconsuetudinem":5642,"Ġnigidius":5643,"Ġpaenit":5644,"Ġpep":5645,"Ġmorum":5646,"Ġfini":5647,"aeum":5648,"Ġrationibus":5649,"Ġversum":5650,"Ġvocari":5651,"Ġconsulatum":5652,"Ġemend":5653,"Ġmittit":5654,"Ġniu":5655,"Ġhactenus":5656,"Ġhabita":5657,"Ġtotidem":5658,"Ġexercit":5659,"Ġseruum":5660,"Ġprincipibus":5661,"Ġnauium":5662,"Ġmensibus":5663,"Ġsanctorum":5664,"02":5665,"tium":5666,"Ġvidi":5667,"Ġage":5668,"Ġannali":5669,"Ġmultae":5670,"Ġgratianus":5671,"Ġantiquit":5672,"Ġextrema":5673,"itias":5674,"Ġpersequ":5675,"ultum":5676,"Ġagitur":5677,"Ġagri":5678,"Ġhisp":5679,"Ġignau":5680,"Ġequest":5681,"Ġepiscopi":5682,"Ġagmen":5683,"Ġtestimonium":5684,"Ġrespons":5685,"Ġsapientia":5686,"Ġquatuor":5687,"menta":5688,"ped":5689,"Ġmithrid":5690,"Ġinut":5691,"Ġhabitus":5692,"Ġlocup":5693,"Ġpopulis":5694,"toribus":5695,"Ġbellis":5696,"Ġducibus":5697,"Ġdiceretur":5698,"Ġmoderat":5699,"Ġtantae":5700,"Ġnumeri":5701,"Ġciuilis":5702,"Ġcondita":5703,"Ġcoc":5704,"Ġneb":5705,"Ġsubj":5706,"Ġnecessitate":5707,"Ġpondere":5708,"Ġmeos":5709,"tumque":5710,"Ġegit":5711,"Ġsingula":5712,"Ġumbra":5713,"Ġillyric":5714,"ueretur":5715,"Ġpotuisse":5716,"Ġaccidit":5717,"Ġrepublica":5718,"Ġcatili":5719,"Ġtorqu":5720,"Ġstipend":5721,"Ġintrod":5722,"Ġulc":5723,"Ġinper":5724,"Ġgentibus":5725,"Ġfalsum":5726,"Ġhannibalem":5727,"Ġpann":5728,"emper":5729,"ala":5730,"Ġpauci":5731,"Ġelegant":5732,"Ġplauti":5733,"Ġsacr":5734,"Ġdona":5735,"Ġdidic":5736,"ĠÏĢ":5737,"inarum":5738,"Ġros":5739,"issus":5740,"Ġmarit":5741,"Ġpax":5742,"Ġnecessario":5743,"Ġmontibus":5744,"Ġmaiora":5745,"enes":5746,"aeo":5747,"Ġadest":5748,"estus":5749,"Ġeosdem":5750,"Ġeleph":5751,"Ġphilosophorum":5752,"Ġactionem":5753,"Ġcarmen":5754,"Ġinsidias":5755,"Ġfrem":5756,"Ġpriore":5757,"Ġpotui":5758,"risque":5759,"ientis":5760,"Ġcompell":5761,"Ġdiscept":5762,"Ġtribu":5763,"riter":5764,"Ġignem":5765,"Ġlabores":5766,"Ġdocet":5767,"Ġfamiliar":5768,"Ġmurm":5769,"xxx":5770,"Ġnonnull":5771,"uui":5772,"Ġ;":5773,"Ġstom":5774,"Ġregione":5775,"Ġvolens":5776,"Ġfrang":5777,"Ġcolore":5778,"Ġaccipi":5779,"Ġfoedere":5780,"ke":5781,"yll":5782,"esthai":5783,"Ġquamobrem":5784,"Ġstrag":5785,"Ġanimam":5786,"Ġignosc":5787,"Ġdisper":5788,"Ġportus":5789,"Ġiohann":5790,"Ġinuidiam":5791,"Ġcaecilius":5792,"Ġrhetor":5793,"Ġdiis":5794,"Ġquaerit":5795,"Ġmedic":5796,"Ġaduersa":5797,"Ġlaudibus":5798,"Ġquirites":5799,"amine":5800,"ulerat":5801,"Ġlibera":5802,"Ġrepper":5803,"Ġprincipe":5804,"Ġscripserit":5805,"____":5806,"sam":5807,"uerent":5808,"Ġproi":5809,"Ġflor":5810,"Ġdesin":5811,"Ġoptimum":5812,"Ġreuersus":5813,"qual":5814,"olit":5815,"abiles":5816,"Ġbacch":5817,"Ġstrep":5818,"Ġcorrip":5819,"sitan":5820,"Ġvestri":5821,"Ġalieno":5822,"Ġscelus":5823,"Ġium":5824,"orio":5825,"Ġvocat":5826,"Ġlatinum":5827,"Ġretro":5828,"Ġpraemia":5829,"Ġsiciliam":5830,"ecutus":5831,"Ġducere":5832,"Ġindustria":5833,"ois":5834,"onit":5835,"Ġbest":5836,"Ġabhor":5837,"Ġvides":5838,"ustum":5839,"Ġphys":5840,"Ġnouis":5841,"Ġfaciem":5842,"Ġessem":5843,"Ġcaptus":5844,"numquam":5845,"amentum":5846,"Ġhym":5847,"Ġexort":5848,"Ġcohib":5849,"Ġmariti":5850,"Ġurbs":5851,"Ġaccessit":5852,"Ġundis":5853,"948":5854,"Ġdelph":5855,"Ġimpetus":5856,"Ġouk":5857,"Ġnefas":5858,"Ġherm":5859,"Ġutque":5860,"Ġeras":5861,"Ġcontig":5862,"Ġnostras":5863,"Ġexpet":5864,"Ġpericulis":5865,"Ġdictator":5866,"Ġsollemn":5867,"Ġsulla":5868,"Ġrecepit":5869,"aculo":5870,"Ġconfic":5871,"Ġ\"\"":5872,"Ġrationes":5873,"Ġ25":5874,"Ġdignitas":5875,"Ġpatribus":5876,"Ġreliqui":5877,"Ġreddere":5878,"Ġdescrip":5879,"Ġaudiui":5880,"aph":5881,"uad":5882,"Ġpridem":5883,"iph":5884,"Ġ24":5885,"emplo":5886,"Ġpraesidium":5887,"Ġmeritis":5888,"Îº":5889,"Ġsinus":5890,"Ġlasc":5891,"ueh":5892,"Ġnobili":5893,"Ġbono":5894,"Ġimperatori":5895,"aeus":5896,"Ġspons":5897,"Ġduxit":5898,"Ġiudicii":5899,"Ġfame":5900,"Ġpoenae":5901,"Ġauribus":5902,"Ġcun":5903,"idiam":5904,"Ġclod":5905,"Ġmaximi":5906,"Ġdolab":5907,"Ġcircumd":5908,"Ġhereditatem":5909,"Ġauctore":5910,"Ġtellus":5911,"Ġinr":5912,"sedit":5913,"Ġalta":5914,"Ġsanguinis":5915,"Ġcomplex":5916,"Ġadiuu":5917,"riam":5918,"Ġlegatum":5919,"Ġibique":5920,"Ġplatonis":5921,"min":5922,"Ġeidem":5923,"Ġsud":5924,"Ġsepe":5925,"Ġdirig":5926,"Ġnaturalis":5927,"Ġflumine":5928,"Ġnascitur":5929,"rex":5930,"Ġsug":5931,"Ġnequi":5932,"Ġtenere":5933,"Ġfaciendum":5934,"Ġlaudem":5935,"Ġistiusmodi":5936,"Ġcitra":5937,"az":5938,"icibus":5939,"sel":5940,"ilitas":5941,"Ġprimae":5942,"Ġaequo":5943,"Ġpriuileg":5944,"Ġkalendis":5945,"Ġeup":5946,"Ġungu":5947,"Ġdefini":5948,"Ġtenui":5949,"Ġforsitan":5950,"Ġheredes":5951,"Ġperturb":5952,"Ġsop":5953,"etsi":5954,"Ġbid":5955,"Ġquemque":5956,"Ġtemplo":5957,"Ġtermin":5958,"itatu":5959,"Ġfate":5960,"ellam":5961,"Ġlicentia":5962,"Ġnuntia":5963,"Ġposter":5964,"Ġminore":5965,"Ġhonos":5966,"965":5967,"Ġmortuus":5968,"Ġinscribitur":5969,"yph":5970,"Ġutinam":5971,"Ġhumanis":5972,"Ġnecessarium":5973,"Ġpraefecto":5974,"Ġpoc":5975,"itores":5976,"Ġfren":5977,"Ġbou":5978,"Ġseruis":5979,"Ġdecor":5980,"Ġcurae":5981,"Ġtiberius":5982,"Ġgallorum":5983,"Ġconspectu":5984,"utae":5985,"Ġlaus":5986,"Ġmedit":5987,"Ġopprim":5988,"Ġarmen":5989,"ĠÎµ":5990,"Ġpand":5991,"omet":5992,"Ġpraedam":5993,"Ġtric":5994,"Ġvicit":5995,"Ġtribunis":5996,"Ġfluminis":5997,"Ġfrequenter":5998,"Ġplutarchus":5999,"Ġcos":6000,"Ġvariis":6001,"Ġhar":6002,"Ġsuauit":6003,"ilitatem":6004,"Ġnequit":6005,"Ġcomitia":6006,"Ġopem":6007,"Ġmartis":6008,"Ġapparet":6009,"Ġporc":6010,"Ġparticip":6011,"Ġstare":6012,"Ġcinc":6013,"Ġusquam":6014,"Ġrecuper":6015,"Ġsemet":6016,"Ġstatuit":6017,"Ġlunae":6018,"batur":6019,"erret":6020,"Ġder":6021,"Ġutile":6022,"Ġscae":6023,"Ġminores":6024,"Ġreferre":6025,"Ġdion":6026,"Ġadl":6027,"Ġpraeu":6028,"Ġcapere":6029,"Ġsanguinem":6030,"Ġequitibus":6031,"Ġredire":6032,"Ġvesper":6033,"Ġpae":6034,"Ġvt":6035,"Ġfar":6036,"ulch":6037,"Ġliquid":6038,"Ġpompeium":6039,"Ġproprio":6040,"Ġconsuetudine":6041,"Ġphilippus":6042,"Ġdehinc":6043,"sae":6044,"acti":6045,"Ġtergo":6046,"Ġiudicum":6047,"Ġuxore":6048,"Ġcommentariis":6049,"Ġaeneas":6050,"euit":6051,"ouit":6052,"Ġvenerunt":6053,"Ġistos":6054,"Ġigne":6055,"Î¿ÏĤ":6056,"Ġconsilii":6057,"Ġalicuius":6058,"Ġaeli":6059,"Ġpaph":6060,"Ġappellari":6061,"Ġundas":6062,"Ġextemplo":6063,"Ġleuis":6064,"gr":6065,"Ġplin":6066,"Ġaddidit":6067,"abunt":6068,"Ġrationis":6069,"Ġveloc":6070,"Ġagrip":6071,"Ġlongin":6072,"Ġlaborem":6073,"Ġspecia":6074,"Ġmensis":6075,"Ġdecreta":6076,"Ġlacrimis":6077,"vest":6078,"tax":6079,"tauit":6080,"Ġamnis":6081,"escunt":6082,"Ġhomerus":6083,"Ġhyg":6084,"Ġmira":6085,"Ġintegrum":6086,"Ġnymph":6087,"Ġlegere":6088,"Ġvirgo":6089,"Ġdecess":6090,"erna":6091,"Ġpraetore":6092,"Ġpronunti":6093,"Ġneue":6094,"Ġfacin":6095,"Ġannalibus":6096,"Ġpraen":6097,"Â».":6098,"com":6099,"ik":6100,"Ġinpos":6101,"Ġinprob":6102,"Ġannalium":6103,"Ġcognom":6104,"Ġconstituta":6105,"Ġclamore":6106,"Ġstagn":6107,"uero":6108,"Ġmediam":6109,"ature":6110,"Ġlaudis":6111,"Ġcircumf":6112,"Ġscipione":6113,"Ġrelicta":6114,"ippus":6115,"Ġdifficile":6116,"Ġstellarum":6117,"iur":6118,"yri":6119,"Ġfacis":6120,"Ġflau":6121,"Ġinfelix":6122,"Ġfors":6123,"Ġexcit":6124,"Ġsecundus":6125,"Ġtraditur":6126,"Ġargumentum":6127,"emit":6128,"Ġloquent":6129,"Ġadpet":6130,"Ġprocess":6131,"Ġscelere":6132,"Ġsocrates":6133,"entissimus":6134,"acem":6135,"Ġrecord":6136,"Ġgratul":6137,"Ġcelerit":6138,"Ġvoluntas":6139,"Ġfamiliaris":6140,"Ġplurimis":6141,"Ġgn":6142,"ote":6143,"Ġtois":6144,"Ġlacess":6145,"Ġproelia":6146,"Ġsolid":6147,"Ġhadri":6148,"pis":6149,"Ġpir":6150,"Ġdura":6151,"Ġstatum":6152,"Ġlitig":6153,"Ġlatini":6154,"Ġpraetex":6155,"Ġabsque":6156,"Ġcondicione":6157,"Ġulter":6158,"Ġliqu":6159,"Ġparere":6160,"Ġvocantur":6161,"Ġscripsi":6162,"Ġsecuti":6163,"Ġseptu":6164,"Ġsilentio":6165,"Ġgente":6166,"Ġabest":6167,"Ġpatet":6168,"Ġmiseri":6169,"Ġactione":6170,"Ġopinionem":6171,"Ġpasch":6172,"Ġsententias":6173,"erg":6174,"Ġdato":6175,"Ġdorm":6176,"imul":6177,"ulerit":6178,"Ġconfestim":6179,"Ġindoc":6180,"Ġmortuo":6181,"Ġlacus":6182,"Ġauxilia":6183,"Ġgallis":6184,"Ġseri":6185,"Ġuul":6186,"Ġhorr":6187,"Ġmolli":6188,"Ġpraetorio":6189,"Ġeurop":6190,"Ġmeret":6191,"antum":6192,"Ġbeat":6193,"Ġconsol":6194,"ellit":6195,"Ġpraepar":6196,"Ġincol":6197,"Ġantonio":6198,"Ġartes":6199,"Ġprudentia":6200,"Ġauctorem":6201,"iv":6202,"imae":6203,"Ġcontione":6204,"Ġmoli":6205,"ramque":6206,"Ġfratri":6207,"ordiam":6208,"Ġortus":6209,"bo":6210,"Ġtales":6211,"utos":6212,"acis":6213,"Ġgurg":6214,"Ġfacias":6215,"Ġfortiter":6216,"Ġ26":6217,"Ġciuem":6218,"Ġheredem":6219,"Ġpin":6220,"amin":6221,"Ġscite":6222,"Ġinfelic":6223,"Ġseruo":6224,"Ġictus":6225,"Ġmagistratibus":6226,"\":":6227,"cit":6228,"Ġdabat":6229,"Ġnic":6230,"uch":6231,"Ġopibus":6232,"Ġgrauius":6233,"Ġmulieris":6234,"Ġbreuiter":6235,"Ġvictoriae":6236,"Ġaduentum":6237,"Ġscripserunt":6238,"Ġfacturum":6239,"Ġmanifestum":6240,"Ġsumpta":6241,"Ġsord":6242,"rates":6243,"Ġagris":6244,"Ġportum":6245,"Ġtauri":6246,"Ġuniuersi":6247,"Ġdenunt":6248,"Ġdens":6249,"Ġlet":6250,"Ġincho":6251,"Ġpartium":6252,"Ġmane":6253,"Ġmaximis":6254,"Ġhonoribus":6255,"Ġcontrah":6256,"Ġgraecorum":6257,"Ġcuiquam":6258,"Ġsuscepit":6259,"Ġquaeritur":6260,"Ġvergilii":6261,"Ġ]":6262,"Ġeunt":6263,"Ġvisc":6264,"Ġfactam":6265,"Ġofficii":6266,"Ġfabius":6267,"Ġalienum":6268,"Ġvariet":6269,"972":6270,"decim":6271,"Ġtes":6272,"anth":6273,"enditur":6274,"endique":6275,"Ġpetul":6276,"Ġcensores":6277,"Ġtutel":6278,"Ġadfirm":6279,"Ġmeminisse":6280,"Ġpren":6281,"ulsus":6282,"Ġadesse":6283,"Ġabsum":6284,"Ġfacili":6285,"Ġalac":6286,"erentem":6287,"Ġfortis":6288,"Ġfix":6289,"Ġpersuas":6290,"Ġcatonem":6291,"Ġscipionem":6292,"Ġfrancorum":6293,"Ġoperi":6294,"Ġincrep":6295,"Ġclasse":6296,"atique":6297,"Ġvenerat":6298,"Ġasiae":6299,"Ġconsulatus":6300,"Ġsaeuit":6301,"Ġargente":6302,"Ġfurti":6303,"Ġmenand":6304,"Ġaurea":6305,"man":6306,"empe":6307,"Ġcommitt":6308,"ientiam":6309,"Ġtestis":6310,"Ġquadring":6311,"Ġtradunt":6312,"Ġnasci":6313,"Ġtrucid":6314,"Ġbass":6315,"Ġlegatus":6316,"Ġgeneribus":6317,"Ġxxiii":6318,"Ġpossessionem":6319,"Ġmasc":6320,"Ġperdid":6321,"Ġarce":6322,"Ġmagnae":6323,"Ġsigno":6324,"Ġhomeri":6325,"Ġvigil":6326,"Ġscipionis":6327,"Ġvoluptas":6328,"Ġsert":6329,"Ġpiper":6330,"Ġmes":6331,"Ġaddic":6332,"Ġperl":6333,"Ġcontigit":6334,"Ġconfus":6335,"Ġfacultatem":6336,"aniam":6337,"Ġsuarum":6338,"Ġparu":6339,"Ġvenia":6340,"Ġfiliae":6341,"Ġsext":6342,"Ġclaudio":6343,"Ġrursum":6344,"Ġconqu":6345,"Ġritu":6346,"Ġprolix":6347,"Ġquaecumque":6348,"Ġsimiles":6349,"Ġconsulatu":6350,"Ġgaudia":6351,"Ġparentum":6352,"Ġconsultum":6353,"Ġfructum":6354,"ong":6355,"Ġhed":6356,"Ġperduc":6357,"Ġillae":6358,"Ġsolu":6359,"Ġlocuti":6360,"Ġiudiciis":6361,"Ġaudiuit":6362,"Ġfecisset":6363,"Ġaedes":6364,"Ġaduentu":6365,"Ġiuuat":6366,"Ġcornu":6367,"secus":6368,"Ġprincipium":6369,"Ġiustitia":6370,"Ġsensu":6371,"Ġaegre":6372,"Ġreprehens":6373,"Ġintelligitur":6374,"Ġsati":6375,"Ġcris":6376,"Ġsue":6377,"tag":6378,"Ġcontentus":6379,"Ġmarito":6380,"Ġcuriam":6381,"Ġsuperiore":6382,"ancip":6383,"Ġinuol":6384,"Ġlateb":6385,"Ġcasum":6386,"Ġdoctrina":6387,"Ġrogo":6388,"Ġnaut":6389,"Ġtig":6390,"Ġmars":6391,"Ġvolum":6392,"Ġgraue":6393,"Ġmilitari":6394,"Ġconstantino":6395,"Ġexemplis":6396,"Ġheredit":6397,"Ġgaudio":6398,"Ġpudor":6399,"Ġpelag":6400,"Ġossa":6401,"Ġintercess":6402,"),":6403,"Ġappare":6404,"Ġalexandro":6405,"Ġsugg":6406,"Ġtarent":6407,"Ġtaed":6408,"Ġfoc":6409,"etu":6410,"Ġconatus":6411,"Ġabd":6412,"Ġvicem":6413,"Ġvices":6414,"Ġconfit":6415,"Ġpoenis":6416,"ianae":6417,"Ġaccipit":6418,"Ġresponsum":6419,"Ġconloc":6420,"Ġamoen":6421,"Ġcomit":6422,"Ġcontempl":6423,"Ġpatitur":6424,"Ġdiues":6425,"Ġnegotia":6426,"Ġcustodia":6427,"Ġvestigia":6428,"bantur":6429,"Ġcomiti":6430,"Ġactiones":6431,"Ġinopia":6432,"Ġoriente":6433,"ullius":6434,"uni":6435,"Ġproper":6436,"uersum":6437,"ectare":6438,"Ġpericuli":6439,"Ġnoctu":6440,"Ġadrog":6441,"Ġconpl":6442,"Ġdicendo":6443,"Ġalue":6444,"Ġpotentia":6445,"Ġsparg":6446,"Ġliceret":6447,"Ġeodemque":6448,"Ġuenit":6449,"Ġy":6450,"utius":6451,"Ġsig":6452,"ebunt":6453,"Ġmultam":6454,"Ġsimilia":6455,"Ġundec":6456,"Ġpraetores":6457,"Ġachill":6458,"Ġsorte":6459,"cont":6460,"Ġcilic":6461,"iculum":6462,"Ġquiet":6463,"Ġpositis":6464,"Ġeffug":6465,"Ġnauem":6466,"Ġconiunct":6467,"Ġtarquin":6468,"Ġequi":6469,"Ġiei":6470,"Ġpab":6471,"Ġdedic":6472,"Ġreddidit":6473,"Ġaffirm":6474,"Ġgalliam":6475,"Ġhabetur":6476,"ullus":6477,"Ġannus":6478,"Ġmultaque":6479,"othec":6480,"Ġiniurias":6481,"Ġfraude":6482,"Ġhem":6483,"Ġdicerent":6484,"Ġancip":6485,"ebamus":6486,"ominus":6487,"Ġappellata":6488,"Ġcolum":6489,"Ġequorum":6490,"Ġlaudes":6491,"Ġpenes":6492,"Ġgestis":6493,"Ġcotidie":6494,"Ġpuellae":6495,"Ġaduen":6496,"Ġgab":6497,"Ġconsim":6498,"Ġstric":6499,"Ġinterpos":6500,"Ġingredi":6501,"Ġlibertas":6502,"Ġvergilium":6503,"Ġirr":6504,"Ġduplic":6505,"amb":6506,"etai":6507,"Ġdicebant":6508,"Ġparric":6509,"Ġcorinth":6510,"Ġmanet":6511,"uertit":6512,"Ġvulnera":6513,"Ġsingulari":6514,"Ġspectab":6515,"Ġhell":6516,"Ġobsec":6517,"Ġperman":6518,"Ġquicumque":6519,"Ġrelictis":6520,"Ġgradus":6521,"Ġconscripti":6522,"Ġparens":6523,"drub":6524,"Ġpraecepit":6525,"Ġpartus":6526,"Ġromanam":6527,"Ġpraesum":6528,"Ġcircuit":6529,"Ġpeculi":6530,"Ġcalumn":6531,"Ġsensum":6532,"Ġhumanae":6533,"Ġuolunt":6534,"Ġintroduc":6535,"Ġgel":6536,"Ġurbibus":6537,"Ġpuella":6538,"Ġredeunt":6539,"Ġperspic":6540,"pad":6541,"Ġcac":6542,"Ġmediis":6543,"Ġgraecum":6544,"Ġmetum":6545,"Ġmenses":6546,"Ġdiligentia":6547,"Ġaperte":6548,"Ġstomach":6549,"amina":6550,"Ġvideret":6551,"Ġquaero":6552,"Ġtametsi":6553,"Ġtuorum":6554,"phorus":6555,"Ġnemini":6556,"Ġtribunos":6557,"Ġpuerum":6558,"Ġobsidione":6559,"11":6560,"Ġmyr":6561,"Ġventum":6562,"ulisset":6563,"Ġdea":6564,"Ġpercip":6565,"erti":6566,"Ġinscriptus":6567,"39":6568,"onos":6569,"uitatis":6570,"Ġrump":6571,"Ġpraetoris":6572,"rasse":6573,"Ġsepulch":6574,"Ġperpetua":6575,"Ġagmina":6576,"Ġtoler":6577,"Ġiouem":6578,"aest":6579,"ek":6580,"Ġfatum":6581,"Ġlust":6582,"Ġcarn":6583,"Ġassum":6584,"Ġeuoc":6585,"Ġdialect":6586,"Ġgallos":6587,"Ġacerrim":6588,"Ġaliquanto":6589,"Ġbeniu":6590,"Ġtrid":6591,"Ġagam":6592,"Ġcle":6593,"Ġunda":6594,"Ġuert":6595,"Ġmulierem":6596,"Ġproximo":6597,"Ġnempe":6598,"abiliter":6599,"Ġquoddam":6600,"ressit":6601,"Ġoculorum":6602,"Ġanimae":6603,"Ġdedisse":6604,"Ġpropriis":6605,"Ġtiro":6606,"iennium":6607,"Ġnullius":6608,"etes":6609,"Ġdixisti":6610,"Ġiussus":6611,"Ġtradidit":6612,"Ġmilitaris":6613,"frag":6614,"ocin":6615,"Ġconsulum":6616,"Ġpostero":6617,"remus":6618,"Ġmalorum":6619,"Ġvestro":6620,"Ġemancip":6621,"Ġlicentiam":6622,"Ġpedum":6623,"Ġnimia":6624,"Ġinuenit":6625,"7936":6626,"Ġdemosthen":6627,"Ġimago":6628,"itatio":6629,"escat":6630,"Ġusi":6631,"Ġgraecos":6632,"Ġsenatuscons":6633,"Ġdisciplinam":6634,"Ġuniuersa":6635,"Ġorientem":6636,"eae":6637,"Ġparem":6638,"Ġinuentus":6639,"Ġ27":6640,"Ġaestu":6641,"rinsecus":6642,"dom":6643,"Ġterg":6644,"Ġvalerius":6645,"Ġarbitrab":6646,"Ġinman":6647,"Ġcompositum":6648,"Ġcontrarium":6649,"pat":6650,"Ġdor":6651,"Ġnas":6652,"Ġpoterant":6653,"951":6654,"Ġrepugn":6655,"Ġlaeta":6656,"Ġprecor":6657,"Ġaspern":6658,"Ġrenou":6659,"Ġoctauo":6660,"Ġventur":6661,"Ġfen":6662,"abor":6663,"Ġtotus":6664,"Ġeueni":6665,"Ġoffens":6666,"Ġpraefectum":6667,"Ġorientis":6668,"Ġinstituit":6669,"torum":6670,"Î³":6671,"imas":6672,"ulsa":6673,"Ġconpos":6674,"Ġgessit":6675,"Ġdecret":6676,"Ġdefendere":6677,"Ġsabinus":6678,"Ġoceanum":6679,"Ġfluctus":6680,"haec":6681,"Ġinquis":6682,"Ġabduc":6683,"Ġhabebant":6684,"Ġcorrump":6685,"Ġvideor":6686,"Ġcrimin":6687,"Ġperpetuo":6688,"Ġarbitrio":6689,"ĠÎº":6690,"Ġhir":6691,"ectione":6692,"Ġlocutus":6693,"Ġmultitudinis":6694,"Ġinstitu":6695,"Ġpersarum":6696,"Ġpalatio":6697,"rentes":6698,"Ġbrach":6699,"Ġformae":6700,"Ġafricae":6701,"Ġfoedus":6702,"Ġdirec":6703,"Ġcommut":6704,"Ġsignificet":6705,"Ġhonestum":6706,"Ġ08":6707,"Ġsarc":6708,"Ġquor":6709,"Ġdatus":6710,"Ġlitus":6711,"Ġperque":6712,"Ġanal":6713,"Ġarua":6714,"Ġposui":6715,"Ġmodul":6716,"Ġaues":6717,"Ġponere":6718,"Ġsob":6719,"Ġcoactus":6720,"Ġcomites":6721,"Ġparuo":6722,"Ġenar":6723,"Ġtenu":6724,"Ġfeceris":6725,"Ġliberorum":6726,"Ġfabula":6727,"Ġreligionis":6728,"Ġinopin":6729,"Ġlinguam":6730,"Ġtre":6731,"iculis":6732,"ellae":6733,"Ġdoctus":6734,"Ġparentis":6735,"Ġotio":6736,"Ġpietate":6737,"Ġcotid":6738,"Ġceu":6739,"Ġdere":6740,"arc":6741,"Ġpraecepta":6742,"Ġpotuisset":6743,"Ġexcel":6744,"Ġiustitiae":6745,"Ġtertius":6746,"Ġsucced":6747,"Ġsubscrip":6748,"Ġconsistere":6749,"Ġcrem":6750,"Ġnicom":6751,"Ġgent":6752,"raret":6753,"Ġqualia":6754,"Ġsuperior":6755,"Ġvetere":6756,"Ġsummis":6757,"Ġtertiam":6758,"Ġarcem":6759,"Ġpreter":6760,"Ġhumanarum":6761,"Ġtranst":6762,"Ġobscur":6763,"Ġvectig":6764,"Ġccc":6765,"Ġquales":6766,"anta":6767,"uig":6768,"essent":6769,"Ġemolum":6770,"Ġrauen":6771,"Ġprouinciarum":6772,"Ġconstantius":6773,"Ġportas":6774,"Ġfamiliari":6775,"Ġestin":6776,"Ġdiui":6777,"Ġnequ":6778,"Ġuall":6779,"Ġtrunc":6780,"Ġingeni":6781,"Ġlucis":6782,"Ġseruorum":6783,"Ġuerum":6784,"Ġfrequens":6785,"Ġfemina":6786,"post":6787,"Ġadri":6788,"olam":6789,"endio":6790,"inai":6791,"Ġduorum":6792,"Ġsang":6793,"Ġcredere":6794,"Ġsiluis":6795,"Ġtaurum":6796,"Ġparentibus":6797,"Ġrenunt":6798,"Ġxxiv":6799,"Ġpraescrip":6800,"Ġpull":6801,"Ġcret":6802,"Ġadire":6803,"Ġgrec":6804,"esti":6805,"Ġmaur":6806,"Ġhabitum":6807,"Ġstr":6808,"Ġcursum":6809,"Ġnoll":6810,"Ġtimor":6811,"Ġnuptias":6812,"Ġmultiplic":6813,"Ġnatu":6814,"idius":6815,"Ġflect":6816,"Ġdemoc":6817,"Ġpreces":6818,"Ġspiritu":6819,"Ġdionys":6820,"Ġanth":6821,"erentibus":6822,"Ġtrai":6823,"Ġquonam":6824,"Ġbreuis":6825,"Î±Î¹":6826,"Ġpropriet":6827,"emodum":6828,"Ġattin":6829,"Ġnumid":6830,"Ġpraetere":6831,"Ġdolo":6832,"Ġcaptum":6833,"Ġveh":6834,"Ġpresb":6835,"lico":6836,"Ġagric":6837,"Ġpraesentia":6838,"Ġantiquis":6839,"Ġprofess":6840,"Ġmulierum":6841,"\"\"":6842,"Ġdrus":6843,"taur":6844,"ertum":6845,"Ġhonesta":6846,"Ġignes":6847,"Ġadmitt":6848,"Ġsepulc":6849,"Ġinquiunt":6850,"mo":6851,"Ġunc":6852,"Ġlaque":6853,"Ġveritatem":6854,"Ġcorrept":6855,"Ġpaulus":6856,"Ġnumina":6857,"Ġlatinis":6858,"Ġlatinae":6859,"Ġsingulas":6860,"Ġpertinere":6861,"Ġfeminae":6862,"Ġspero":6863,"Ġtestimonio":6864,"Ġieiun":6865,"Ġvous":6866,"imos":6867,"occ":6868,"ilias":6869,"Ġky":6870,"Ġlucilius":6871,"Ġlaboris":6872,"Ġdisplic":6873,"Ġeuad":6874,"Ġtimore":6875,"Ġaequum":6876,"Ġquorundam":6877,"Ġconsue":6878,"usto":6879,"Ġincor":6880,"Ġgenet":6881,"iosius":6882,"Ġremp":6883,"Ġaudita":6884,"Ġpacu":6885,"tionem":6886,"Ġsauc":6887,"Ġdicto":6888,"Ġscit":6889,"Ġuell":6890,"Ġsolut":6891,"iuus":6892,"Ġvitiis":6893,"Ġauras":6894,"Ġsupplicio":6895,"Ġsupplicium":6896,"Ġpietatis":6897,"uens":6898,"Ġdo":6899,"Ġdan":6900,"Ġintol":6901,"Ġplanc":6902,"Ġerig":6903,"Ġfortuit":6904,"atori":6905,"Ġcasibus":6906,"iendum":6907,"uribus":6908,"peret":6909,"uct":6910,"istere":6911,"Ġageret":6912,"Ġreseru":6913,"ifex":6914,"Ġsoror":6915,"Ġsceleris":6916,"Ġmandatum":6917,"Ġspiritum":6918,"Ġforis":6919,"Ġnono":6920,"Ġrar":6921,"Ġcorde":6922,"Ġpropugn":6923,"Ġgeneri":6924,"Ġingentem":6925,"Ġcongr":6926,"Ġcongru":6927,"Ġnescit":6928,"Ġedictum":6929,"Ġharum":6930,"Ġleni":6931,"Ġador":6932,"Ġquaeris":6933,"Ġvictum":6934,"iciunt":6935,"Ġdocti":6936,"Ġbrut":6937,"Ġhasdrub":6938,"Ġceleritate":6939,"cur":6940,"Ġeae":6941,"Ġpare":6942,"Ġfist":6943,"Ġles":6944,"irma":6945,"Ġcomitiis":6946,"Ġcompon":6947,"Ġ28":6948,"Ġtrab":6949,"Ġargentum":6950,"Ġpraestant":6951,"Ġconstitutus":6952,"Ġmouet":6953,"Ġantiochus":6954,"Ġbalne":6955,"Ġdeliber":6956,"Ġquocumque":6957,"das":6958,"Ġomin":6959,"Ġdam":6960,"otam":6961,"Ġlibet":6962,"Ġquali":6963,"Ġinterfic":6964,"erati":6965,"Ġvolgo":6966,"Ġlaetus":6967,"Ġnotum":6968,"Ġmagistratum":6969,"ĠâĢĻ":6970,"Ġmandata":6971,"Ġthesa":6972,"Ġoth":6973,"Ġexitus":6974,"Ġgeli":6975,"Ġutrique":6976,"Ġagens":6977,"Ġimpud":6978,"Ġsexus":6979,"Ġpueros":6980,"Ġdissens":6981,"Ġoriginem":6982,"Ġcohortes":6983,"Ġetrusc":6984,"Ġproscrip":6985,"mi":6986,"mentis":6987,"Ġlys":6988,"Ġadpos":6989,"Ġacri":6990,"Ġspum":6991,"Ġrepar":6992,"Ġconuoc":6993,"Ġpondus":6994,"eantur":6995,"isa":6996,"Ġfonte":6997,"Ġgenuit":6998,"Ġistae":6999,"Ġiussa":7000,"941":7001,"Ġcopul":7002,"Ġinsignis":7003,"Ġsumptum":7004,"Ġflamma":7005,"eos":7006,"Ġcann":7007,"onias":7008,"issam":7009,"Ġdictu":7010,"Ġminorem":7011,"Ġaccedit":7012,"Ġvestram":7013,"Ġtoi":7014,"Ġantiqui":7015,"Ġporrig":7016,"Ġantonium":7017,"Ġeloquentiae":7018,"Ġceleriter":7019,"Ġnoli":7020,"ibat":7021,"astas":7022,"Ġvicesimo":7023,"Ġconfug":7024,"Ġtransire":7025,"tabant":7026,"Ġnarr":7027,"Ġictu":7028,"Ġpietas":7029,"Ġdifferentia":7030,"hab":7031,"inf":7032,"Ġplenum":7033,"ineat":7034,"atior":7035,"Ġsuppl":7036,"Ġprobe":7037,"Ġludos":7038,"Ġindicium":7039,"Ġsulpicius":7040,"sos":7041,"Ġquac":7042,"Ġdisi":7043,"Ġadsp":7044,"Ġmau":7045,"Ġscis":7046,"Ġbonae":7047,"Ġmilitem":7048,"Ġatting":7049,"Ġargumentis":7050,"Ġhoi":7051,"ensque":7052,"Ġvidimus":7053,"Ġterrib":7054,"Ġcampis":7055,"Ġuitae":7056,"Ġpur":7057,"Ġdabit":7058,"ecerunt":7059,"olos":7060,"Ġperhib":7061,"Ġcaue":7062,"ustus":7063,"Ġipsae":7064,"Ġdecreto":7065,"Ġgrauitate":7066,"Ġobsess":7067,"Ġsacrum":7068,"Ġostendere":7069,"Ġeademque":7070,"Ġdistrib":7071,"Ġfeliciter":7072,"ulephorus":7073,"Ġquaesitum":7074,"Ġpersonam":7075,"Ġtell":7076,"imentis":7077,"Ġration":7078,"Ġmaximam":7079,"Ġnobiscum":7080,"Ġfrond":7081,"Ġcircumu":7082,"Ġprofug":7083,"Ġpoetis":7084,"Ġreliquum":7085,"Ġdemonstrat":7086,"auerint":7087,"amenta":7088,"Ġheli":7089,"Ġcla":7090,"Ġmulieb":7091,"Ġquartum":7092,"Ġgallias":7093,"Ġaudacia":7094,"Ġcecidit":7095,"bulephorus":7096,"erantur":7097,"Ġeuenit":7098,"Ġfores":7099,"ecerit":7100,"Ġreleg":7101,"Ġoperae":7102,"Ġens":7103,"Ġantec":7104,"Ġgeneros":7105,"Ġciuile":7106,"Ġeuid":7107,"Ġaquarum":7108,"Ġpudic":7109,"Ġbeneficia":7110,"ridie":7111,"Ġrelicto":7112,"Ġsomno":7113,"Ġscaeuol":7114,"sisse":7115,"Ġpius":7116,"Ġham":7117,"Ġcada":7118,"Ġregina":7119,"Ġmanub":7120,"Ġthalam":7121,"Ġkak":7122,"Ġbellorum":7123,"Ġsalus":7124,"Ġcircumst":7125,"Ġcommunem":7126,"Ġafricanus":7127,"Ġperpetuum":7128,"Ġlumine":7129,"Ġfastig":7130,"taxat":7131,"mas":7132,"Ġabesse":7133,"Ġaltum":7134,"Ġincogn":7135,"ientium":7136,"Ġoccurrit":7137,"Ġdeberet":7138,"Ġexcog":7139,"Ġdumtaxat":7140,"Ġdeput":7141,"Ġpede":7142,"Ġuxoris":7143,"Ġuniuersis":7144,"Ġneru":7145,"aster":7146,"uitque":7147,"Ġnex":7148,"Ġpraesentibus":7149,"Ġquindecim":7150,"Ġuxores":7151,"Ġtorque":7152,"Ġinimic":7153,"atiuo":7154,"].":7155,"liter":7156,"yst":7157,"Ġconleg":7158,"Ġbith":7159,"Ġluctu":7160,"Ġofficiorum":7161,"Ġadueni":7162,"Ġgallus":7163,"Ġsagit":7164,"Ġfructu":7165,"Ġsubstantia":7166,"Ġecclesiae":7167,"tes":7168,"uerim":7169,"Ġdicant":7170,"Ġmoueri":7171,"Ġpersuad":7172,"Ġproximum":7173,"Ġlaetitia":7174,"Ġaristotelis":7175,"Ġvaletud":7176,"Ġnug":7177,"imen":7178,"raph":7179,"ilum":7180,"Ġmagnitudinem":7181,"Ġsancimus":7182,"Ġvincula":7183,"Ġgemitus":7184,"Ġpraedae":7185,"Ġinuenire":7186,"Ġpestil":7187,"Ġaue":7188,"Ġso":7189,"Ġmam":7190,"aequ":7191,"Ġconsent":7192,"Ġstatus":7193,"Ġgenit":7194,"Ġurbium":7195,"Ġfeci":7196,"Ġputes":7197,"Ġsusc":7198,"Ġplacere":7199,"onsult":7200,"Ġtraditum":7201,"Ġcornua":7202,"Ġperseuer":7203,"cae":7204,"inctus":7205,"Ġdecum":7206,"Ġcommis":7207,"Ġfiliorum":7208,"Ġdefl":7209,"Ġiussi":7210,"Ġdeser":7211,"Ġsacro":7212,"Ġargut":7213,"Ġconstitutum":7214,"Ġfacundia":7215,"Ġdemosth":7216,"uturum":7217,"Ġaditus":7218,"Ġline":7219,"Ġtrit":7220,"Ġoro":7221,"Ġsecret":7222,"Ġappellatum":7223,"Ġindut":7224,"Ġmetall":7225,"Ġseruare":7226,"Ġflagit":7227,"Ġlepide":7228,"Ġmeretric":7229,"Ġorta":7230,"Ġpropius":7231,"Ġpulc":7232,"Ġsensit":7233,"Ġopinione":7234,"Ġutilitas":7235,"Ġincredib":7236,"rax":7237,"Ġperquam":7238,"Ġliquam":7239,"Ġvoluerit":7240,"Ġtotiens":7241,"Ġlatino":7242,"Ġbonos":7243,"Ġverbaque":7244,"Ġcolloqu":7245,"Ġcircumsp":7246,"Ġmagistro":7247,"Ġplebem":7248,"Ġsermones":7249,"Ġcrimina":7250,"Ġdit":7251,"Ġtrop":7252,"empta":7253,"Ġsolita":7254,"Ġcomprob":7255,"Ġmaledic":7256,"Ġfamae":7257,"Ġmatern":7258,"Ġsocii":7259,"Ġmissa":7260,"Ġaureli":7261,"Ġsocietatem":7262,"aniae":7263,"Ġaderant":7264,"olet":7265,"Ġconsort":7266,"Ġtram":7267,"Ġiudicibus":7268,"Ġnobilium":7269,"Ġvitelli":7270,"Ġquanti":7271,"Ġfurtum":7272,"Ġcontinu":7273,"ÏīÎ½":7274,"Ġhesper":7275,"Ġgordianus":7276,"nou":7277,"Ġmarte":7278,"Ġclari":7279,"Ġvocum":7280,"Ġvoluisse":7281,"Ġreced":7282,"Ġcirciter":7283,"Ġarbore":7284,"Ġvirtutibus":7285,"Ġtitulo":7286,"Ġpeccatum":7287,"12":7288,"cap":7289,"Ġauers":7290,"ituit":7291,"Ġmob":7292,"Ġfo":7293,"icia":7294,"Ġdeae":7295,"Ġacadem":7296,"Ġdicti":7297,"Ġsuperest":7298,"Ġcapess":7299,"Ġmediol":7300,"Ġputet":7301,"Ġextr":7302,"Ġdoloris":7303,"Ġflammis":7304,"erua":7305,"Ġmulc":7306,"Ġlx":7307,"Ġreum":7308,"Ġexitum":7309,"Ġmeorum":7310,"Ġamis":7311,"Ġoculi":7312,"Ġager":7313,"ages":7314,"Ġvoluerunt":7315,"die":7316,"omenon":7317,"Ġfaciebat":7318,"rena":7319,"Ġdetest":7320,"Ġpericulos":7321,"Ġcommodum":7322,"Ġconsuetudo":7323,"Ġcollega":7324,"Ġpropositum":7325,"Ġseruitutem":7326,"05":7327,"erp":7328,"Ġinb":7329,"arn":7330,"ellas":7331,"Ġvocatus":7332,"Ġtherm":7333,"Ġinuic":7334,"Ġnaufrag":7335,"Ġpulchr":7336,"Ġrobore":7337,"Ġsimulacrum":7338,"eamus":7339,"Ġrati":7340,"Ġquaque":7341,"Ġxen":7342,"Ġsitu":7343,"Ġnecessum":7344,"idiatum":7345,"Ġaccepisse":7346,"Ġintegra":7347,"Ġhospes":7348,"atiua":7349,"eia":7350,"Ġquanquam":7351,"Ġlata":7352,"Ġutuntur":7353,"Ġinterm":7354,"Ġcurr":7355,"oremque":7356,"Ġrecta":7357,"Ġistorum":7358,"Ġiustum":7359,"Ġattico":7360,"Ġfamilias":7361,"Ġproeliis":7362,"Ġrelictum":7363,"Ġscientiam":7364,"Ġeloquentia":7365,"Ġcoeptum":7366,"Ġartus":7367,"Ġope":7368,"Ġpropemodum":7369,"Ġpraecipimus":7370,"Ġioue":7371,"7952":7372,"estis":7373,"Ġtris":7374,"Ġtantus":7375,"iosam":7376,"Ġputaui":7377,"Ġneglig":7378,"Ġantiqua":7379,"Ġepistulam":7380,"Ġiuuenem":7381,"Ġfronto":7382,"Ġsumptus":7383,"Ġcoeperunt":7384,"Ġpurpure":7385,"Ġaui":7386,"itteret":7387,"oma":7388,"Ġexinde":7389,"ellere":7390,"Ġconcessit":7391,"Ġcorporum":7392,"Ġveste":7393,"Ġpuero":7394,"Ġuict":7395,"Ġhispaniam":7396,"Ġcognoscere":7397,"Ġobiurg":7398,"Ġcim":7399,"Ġinerm":7400,"Ġfui":7401,"Ġhect":7402,"Ġhabeas":7403,"Ġtamque":7404,"Ġpostridie":7405,"Ġapplic":7406,"Ġgrata":7407,"Ġhumana":7408,"Ġphilosophis":7409,"Ġordines":7410,"Ġdeleg":7411,"Ġveniens":7412,"Ġconditam":7413,"Ġtullii":7414,"homin":7415,"Ġare":7416,"Ġpact":7417,"Ġmuris":7418,"oras":7419,"Ġfann":7420,"Ġadst":7421,"Ġfaciant":7422,"Ġtrac":7423,"Ġposterum":7424,"ienti":7425,"Ġaccom":7426,"Ġinuenta":7427,"Ġmouit":7428,"Ġhuiusce":7429,"repta":7430,"Ġopinio":7431,"Ġartium":7432,"eratus":7433,"Ġdedi":7434,"Ġproximus":7435,"iisque":7436,"ullo":7437,"Ġresc":7438,"Ġcupide":7439,"Ġaffect":7440,"Ġdecemb":7441,"Ġmundo":7442,"Ġmatrimonium":7443,"Ġinnumer":7444,"enso":7445,"Ġ29":7446,"Ġmedius":7447,"Ġconcub":7448,"Ġveterem":7449,"Ġmatri":7450,"Ġ32":7451,"Ġcoloris":7452,"Ġvehic":7453,"Ġfundum":7454,"Ġuiginti":7455,"Ġseptuaginta":7456,"Ġcrisp":7457,"Ġsanguis":7458,"Ġamare":7459,"Ġliby":7460,"Ġipsas":7461,"Ġsuperf":7462,"Ġimpon":7463,"Ġcha":7464,"Ġmiserum":7465,"Ġpedem":7466,"Ġscribis":7467,"Ġullam":7468,"Ġhoram":7469,"erer":7470,"Ġili":7471,"Ġcuc":7472,"inu":7473,"ptis":7474,"Ġmaritus":7475,"Ġferens":7476,"Ġpriuatis":7477,"Ġpriuata":7478,"Ġvirginis":7479,"Ġnauis":7480,"mar":7481,"amento":7482,"icio":7483,"Ġcondidit":7484,"ellos":7485,"Ġcausarum":7486,"Ġauium":7487,"Ġdominis":7488,"Ġtestes":7489,"Ġaegypto":7490,"esi":7491,"auitque":7492,"Ġsimilem":7493,"Ġpraeced":7494,"Ġcolla":7495,"Ġnimirum":7496,"Ġaltius":7497,"Ġmentes":7498,"Ġdelig":7499,"oponus":7500,"Ġbab":7501,"Ġintend":7502,"Ġpoeni":7503,"Ġpublici":7504,"Ġrab":7505,"Ġmalefic":7506,"Ġcandid":7507,"nunc":7508,"Ġsqual":7509,"Ġvias":7510,"Ġnonnumquam":7511,"abimus":7512,"Ġbuc":7513,"Ġpotuerunt":7514,"Ġgenerum":7515,"Ġvirtutum":7516,"Ġvellent":7517,"Ġcoha":7518,"Ġcruci":7519,"Ġauaritia":7520,"Ġstetit":7521,"Ġcadauer":7522,"Ġactu":7523,"Ġuide":7524,"Ġinsulae":7525,"Ġingenia":7526,"Ġdimitt":7527,"ublicam":7528,"iebant":7529,"nth":7530,"Ġatta":7531,"Ġalum":7532,"Ġpaulis":7533,"Ġmatron":7534,"Ġinstar":7535,"Ġadeptus":7536,"Ġrempublicam":7537,"Ġcanis":7538,"Ġrecep":7539,"Ġpraeceps":7540,"Ġpotuerit":7541,"Ġcuras":7542,"Ġanimalia":7543,"Ġdebemus":7544,"Ġportam":7545,"Ġbrutus":7546,"Ġpraecipit":7547,"nosoponus":7548,"riti":7549,"Ġqualem":7550,"Ġdatis":7551,"omp":7552,"idere":7553,"Ġveri":7554,"966":7555,"967":7556,"Ġlaberius":7557,"Ġegressus":7558,"Ġvincere":7559,"Ġgestarum":7560,"Ġardua":7561,"Ġorigo":7562,"Ġinmod":7563,"Ġhare":7564,"Ġadp":7565,"Ġmeas":7566,"Ġoritur":7567,"Ġnumeris":7568,"Ġistas":7569,"Ġvalere":7570,"Ġteneri":7571,"969":7572,"Ġcertis":7573,"Ġleonem":7574,"Ġpraestit":7575,"Ġintellegi":7576,"Ġvergilio":7577,"Ġtelis":7578,"Ġoptimi":7579,"Ġdiscrimine":7580,"Ġphoeb":7581,"Ġantiquitus":7582,"Ġ+":7583,"ipat":7584,"Ġalieni":7585,"Ġarrip":7586,"aturos":7587,"Ġposthac":7588,"Ġphal":7589,"Ġpossim":7590,"Ġgraecae":7591,"Ġmetellus":7592,"Ġmissis":7593,"Ġludis":7594,"Ġapollinaris":7595,"bum":7596,"cunque":7597,"mata":7598,"Ġanastas":7599,"Ġvidebantur":7600,"Ġincess":7601,"Ġsuperius":7602,"Ġepig":7603,"Ġdepop":7604,"Ġveniunt":7605,"Ġconiung":7606,"urrunt":7607,"Ġiugum":7608,"Ġimaginem":7609,"Ġpernici":7610,"Ġpsych":7611,"Ġcrassus":7612,"Ġpaulisper":7613,"Ġdard":7614,"Ġpridie":7615,"uno":7616,"Ġrite":7617,"Ġteque":7618,"Ġviuit":7619,"Ġpeto":7620,"Ġconfl":7621,"Ġcaedem":7622,"Ġexclam":7623,"Ġsummae":7624,"Ġvirtutes":7625,"Ġinsignia":7626,"Ġacha":7627,"Ġdesiderio":7628,"Ġlacrimas":7629,"Ġmoenibus":7630,"Ġpi":7631,"Ġfunc":7632,"Ġber":7633,"Ġeris":7634,"Ġviderentur":7635,"empiam":7636,"Ġgrac":7637,"Ġtraduc":7638,"Ġeques":7639,"Ġdetrim":7640,"Ġdistrah":7641,"Ġxxvi":7642,"Ġstern":7643,"ritum":7644,"Ġsali":7645,"Ġargu":7646,"Ġreman":7647,"Ġvice":7648,"Ġvilla":7649,"Ġpossem":7650,"Ġuirg":7651,"Ġclara":7652,"Ġaccidere":7653,"Ġrebell":7654,"Ġiram":7655,"itionibus":7656,"Ġeth":7657,"Ġcaer":7658,"Ġautum":7659,"itaque":7660,"Ġlatr":7661,"Ġlongae":7662,"Ġsupp":7663,"Ġcastig":7664,"Ġtestibus":7665,"Ġrefug":7666,"Ġiubemus":7667,"Ġclamor":7668,"Ġconstitit":7669,"Ġculpam":7670,"Ġsyllabam":7671,"Ġirasc":7672,"Ġiurg":7673,"alus":7674,"ensius":7675,"Ġsedem":7676,"Ġopper":7677,"Ġquaenam":7678,"Ġnumen":7679,"Ġcuiusdam":7680,"Ġoppress":7681,"Ġimman":7682,"Ġsanctae":7683,"Ġalienis":7684,"Ġtacitus":7685,"Ġinuenitur":7686,"Ġargumento":7687,"Ġdotem":7688,"Ġculm":7689,"uorum":7690,"Ġexar":7691,"Ġutramque":7692,"Ġpotens":7693,"Ġimperauit":7694,"Ġiudice":7695,"Ġvituper":7696,"Ġgraeciae":7697,"Ġelem":7698,"Ġoptima":7699,"Ġaestate":7700,"onios":7701,"Ġdrac":7702,"Ġferat":7703,"Ġbrum":7704,"Ġamat":7705,"Ġlegisse":7706,"Ġcurs":7707,"Ġresol":7708,"Ġelect":7709,"Ġcolumb":7710,"Ġlabe":7711,"Ġpluris":7712,"Ġatton":7713,"Ġdisciplinis":7714,"Ġgalliae":7715,"Ġerrore":7716,"Ġsimilitudinem":7717,"Ġeuph":7718,"iendi":7719,"ericus":7720,"Ġaera":7721,"osp":7722,"icium":7723,"omed":7724,"Ġexanim":7725,"Ġiudici":7726,"Ġducit":7727,"Ġcastrorum":7728,"Ġaequora":7729,"Ġaspera":7730,"dimidium":7731,"Ġpaphn":7732,"Ġiunct":7733,"Ġfef":7734,"etae":7735,"olom":7736,"Ġperfic":7737,"Ġistuc":7738,"Ġredim":7739,"Ġpecunias":7740,"Ġprofecti":7741,"idiem":7742,"Ġfacultas":7743,"Ġstellas":7744,"8150":7745,"Ġlocuplet":7746,"Ġanalog":7747,"bant":7748,"Ġmae":7749,"Ġquodsi":7750,"Ġuobis":7751,"Ġpotent":7752,"Ġpetri":7753,"Ġfiet":7754,"Ġultimum":7755,"Ġplurimos":7756,"quem":7757,"Ġaquit":7758,"Ġmic":7759,"Ġinaud":7760,"ilit":7761,"uerti":7762,"Ġcare":7763,"Ġhabemus":7764,"Ġalp":7765,"Ġinsect":7766,"Ġlaboribus":7767,"Ġmuneris":7768,"Ġsyria":7769,"Ġdeuot":7770,"Ġathenienses":7771,"Ġpaululum":7772,"Ġcarcere":7773,"eria":7774,"itius":7775,"Ġfons":7776,"Ġhun":7777,"ecerat":7778,"Ġgrem":7779,"Ġcoegit":7780,"ituros":7781,"Ġsubduc":7782,"Ġmarg":7783,"Ġsecuri":7784,"Ġmonaster":7785,"Ġeffig":7786,"oriarum":7787,"Ġsanctum":7788,"Ġportu":7789,"Ġfuror":7790,"erosque":7791,"Ġloquitur":7792,"Ġreferri":7793,"prof":7794,"uiri":7795,"Ġnationes":7796,"Ġfiant":7797,"Ġhan":7798,"Ġly":7799,"Ġprouerb":7800,"unde":7801,"Ġoperibus":7802,"Ġrecess":7803,"Ġfru":7804,"Ġmeridiem":7805,"Ġterrore":7806,"Ġgraues":7807,"Ġiuuenum":7808,"Ġdant":7809,"Ġvatic":7810,"Ġhs":7811,"anas":7812,"rau":7813,"rouis":7814,"Ġquibusque":7815,"Ġistaec":7816,"Ġdebuit":7817,"Ġnegare":7818,"Ġciuitati":7819,"Ġmilitiam":7820,"Ġsuccessit":7821,"Ġpondo":7822,"Ġmaioris":7823,"Ġtenebris":7824,"cili":7825,"Ġpant":7826,"imentum":7827,"angu":7828,"ecisse":7829,"iauit":7830,"aculis":7831,"Ġtristis":7832,"Ġtep":7833,"Ġscripto":7834,"Ġoud":7835,"Ġcuiusmodi":7836,"Ġhyper":7837,"Ġloquendi":7838,"Ġzen":7839,"Ġpersonae":7840,"Ġornamenta":7841,"Ġconstantinopolim":7842,"osis":7843,"Ġconsump":7844,"Ġcomitem":7845,"ressu":7846,"Ġimplic":7847,"Ġreciper":7848,"Ġcarb":7849,"Ġimmol":7850,"Ġlaeua":7851,"Î¹Î±":7852,"Ġoccasione":7853,"Ġphilippi":7854,"Ġplatonem":7855,"Ġinterfectus":7856,"Ġmalign":7857,"Ġclade":7858,"Ġmaiestatis":7859,"Ġlusit":7860,"Ġlacte":7861,"ienda":7862,"Ġpiac":7863,"ioque":7864,"Ġperinde":7865,"Ġcontulit":7866,"Ġaccur":7867,"Ġpugnare":7868,"Ġdederunt":7869,"Ġaduent":7870,"Ġabstulit":7871,"Ġgothorum":7872,"):":7873,"ulsi":7874,"Ġadim":7875,"opo":7876,"ilitatis":7877,"Ġcalig":7878,"Ġspatia":7879,"Ġvolg":7880,"Ġmetelli":7881,"Ġnouam":7882,"Ġdeport":7883,"Ġpromitt":7884,"Ġlaed":7885,"Ġhistoriam":7886,"Ġgestum":7887,"Ġecquid":7888,"Ġcandida":7889,"Ġanimaduertimus":7890,"Ġfateor":7891,"Ġuuln":7892,"rud":7893,"rimus":7894,"Ġeut":7895,"itabat":7896,"Ġmenti":7897,"Ġlar":7898,"Ġdeli":7899,"Ġdirip":7900,"Ġsimplex":7901,"Ġremitt":7902,"Ġinuent":7903,"Ġcard":7904,"Ġmorbi":7905,"Ġsalua":7906,"Ġhumili":7907,"Ġmemoratu":7908,"onta":7909,"oquin":7910,"Ġcontract":7911,"Ġcapitolio":7912,"Ġpyrrh":7913,"Ġduplex":7914,"Ġcomoedia":7915,"Ġadsign":7916,"acium":7917,"Ġestis":7918,"Ġabn":7919,"Ġobr":7920,"Ġpotu":7921,"Ġinced":7922,"eratio":7923,"Ġaccedere":7924,"Ġcrep":7925,"Ġputauit":7926,"Ġsaeua":7927,"Ġoptimo":7928,"Ġsororis":7929,"Ġinueniri":7930,"Ġsustinere":7931,"sen":7932,"ĠquÃ¦":7933,"Ġlatio":7934,"Ġamar":7935,"Ġxli":7936,"Ġvolet":7937,"Ġrectius":7938,"Ġko":7939,"Ġtout":7940,"Ġtuta":7941,"Ġvellem":7942,"Ġlumen":7943,"Ġgraccho":7944,"Ġmarmore":7945,"Ġpaphnutius":7946,"Ġpam":7947,"Ġnom":7948,"Ġtreb":7949,"esum":7950,"Ġfati":7951,"endarum":7952,"Ġcoeli":7953,"Ġveritatis":7954,"Ġsenec":7955,"Ġcarne":7956,"Ġconstantia":7957,"Ġmeritum":7958,"Ġaccipiunt":7959,"Ġornat":7960,"Ġascend":7961,"Ġferuntur":7962,"Ġperegrin":7963,"Ġsocietate":7964,"Ġquacumque":7965,"Ġscept":7966,"Ġerump":7967,"Ġcommou":7968,"Ġcolonia":7969,"Ġnaturali":7970,"Ġpraeterquam":7971,"leu":7972,"Ġaedem":7973,"Ġalienam":7974,"Ġathenas":7975,"Ġcommode":7976,"Ġvertice":7977,"Ġphilippo":7978,"Ġfrumentum":7979,"Ġpurpura":7980,"Ġquempiam":7981,"arer":7982,"iai":7983,"Ġdicemus":7984,"Ġspond":7985,"Ġdeced":7986,"Ġparti":7987,"Ġdetin":7988,"Ġpomp":7989,"ixa":7990,"Ġproxime":7991,"Ġvulnere":7992,"Ġplurimi":7993,"8059":7994,"Ġaccommod":7995,"ez":7996,"Ġsod":7997,"aea":7998,"Ġadsum":7999,"Ġconm":8000,"Ġamnem":8001,"Ġmilite":8002,"Ġocculta":8003,"Ġconsulari":8004,"Ġreddid":8005,"Ġarmatorum":8006,"Ġtouto":8007,"Ġphilosopho":8008,"Ġcampos":8009,"Ġdeneg":8010,"Ġvidebitur":8011,"rari":8012,"Î´":8013,"Ġatqui":8014,"ubi":8015,"Ġoper":8016,"Ġsolebat":8017,"Ġminut":8018,"Ġtotis":8019,"Ġciuitatum":8020,"Ġsecundae":8021,"Ġquintum":8022,"Ġhomerum":8023,"Ġpromis":8024,"Ġpriuatus":8025,"Ġiuliano":8026,"Ġonus":8027,"Ġpropriam":8028,"Ġvespas":8029,"Ġagripp":8030,"Ġinsequent":8031,"ered":8032,"Ġsolam":8033,"Ġmagnitudo":8034,"Ġiudicare":8035,"ifariam":8036,"Ġsilentium":8037,"Ġpossessione":8038,"Ġaspectu":8039,"Ġfauorini":8040,"Ġdenuo":8041,"Ġmatrimonio":8042,"Ġperuenire":8043,"Ġeinai":8044,"llis":8045,"Ġgut":8046,"Ġfacerent":8047,"Ġsubit":8048,"Ġproph":8049,"Ġseren":8050,"entesimo":8051,"Ġconclud":8052,"Ġappellauerunt":8053,"Ġexclud":8054,"Ġfratribus":8055,"Ġnecessitatem":8056,"Ġaequore":8057,"Ġpermut":8058,"Ġpriuato":8059,"Ġcriminis":8060,"Ġreligio":8061,"Ġ09":8062,"Ġdiscrimen":8063,"Ġhesi":8064,"Ġhanib":8065,"mon":8066,"atric":8067,"unum":8068,"iop":8069,"ptus":8070,"itato":8071,"Ġvidisse":8072,"Ġanimorum":8073,"Ġmanere":8074,"Ġferas":8075,"Ġhosti":8076,"Ġpetitur":8077,"Ġsusceper":8078,"Ġaduerso":8079,"Ġpalatium":8080,"Ġcreditur":8081,"Ġbrundis":8082,"Ġpraemium":8083,"Ġobsides":8084,"ĠÎ¼":8085,"Ġxxvii":8086,"Ġimagines":8087,"Ġincertum":8088,"Ġanthrop":8089,"Ġiul":8090,"itans":8091,"Ġqualiter":8092,"ilus":8093,"Ġabrah":8094,"Ġnecem":8095,"Ġagendum":8096,"Ġnobilem":8097,"Ġsemen":8098,"Ġdiuus":8099,"Ġsocium":8100,"Ġitemque":8101,"Ġeffectus":8102,"Ġesses":8103,"Ġporta":8104,"Ġadha":8105,"Ġtradita":8106,"Ġdulced":8107,"Ġcoronam":8108,"Ġnis":8109,"Ġventus":8110,"Ġinest":8111,"Ġetc":8112,"Ġuiri":8113,"Ġamitt":8114,"Ġinferi":8115,"Ġinferre":8116,"Ġpotestatis":8117,"ogism":8118,"Ġuerba":8119,"Ġreliquos":8120,"Ġtibic":8121,"Ġeasdem":8122,"orius":8123,"Ġtueri":8124,"iculos":8125,"Ġaduerb":8126,"issemus":8127,"aturi":8128,"Ġinstaur":8129,"Ġlicinio":8130,"Ġsexta":8131,"Ġiisdem":8132,"Ġzeno":8133,"Ġcupiditate":8134,"Ġretinere":8135,"Ġrestitui":8136,"Ġnicomed":8137,"eramus":8138,"Ġara":8139,"Ġventi":8140,"Ġaddid":8141,"Ġaliarum":8142,"Ġregiones":8143,"Ġoli":8144,"Ġconcip":8145,"Ġextrinsecus":8146,"Ġregnauit":8147,"Ġdocuit":8148,"Ġtriumphum":8149,"Ġmittere":8150,"Ġanimaduers":8151,"eratis":8152,"Ġnup":8153,"Ġprand":8154,"opon":8155,"ubuit":8156,"Ġaras":8157,"Ġsciat":8158,"Ġitalic":8159,"Ġlegat":8160,"Ġaedibus":8161,"Ġmagistri":8162,"Ġnuntiatum":8163,"Ġgrauem":8164,"Ġmortalibus":8165,"Ġaccepto":8166,"Ġinscripta":8167,"Ġexitium":8168,"Ġcontionem":8169,"Ġincrem":8170,"Ġusui":8171,"Ġremans":8172,"Ġdomine":8173,"Ġbeneuol":8174,"Ġtabern":8175,"Ġperfug":8176,"Ġconscientia":8177,"Ġbasilic":8178,"lat":8179,"serunt":8180,"Ġauert":8181,"Ġquies":8182,"Ġveris":8183,"Ġfacet":8184,"Ġsecuta":8185,"Ġvite":8186,"Ġoporteat":8187,"Ġreligionem":8188,"Ġquaestionem":8189,"Ġefficere":8190,"Ġsacerdos":8191,"Ġcuidam":8192,"Ġfluctu":8193,"17":8194,"Ġtectis":8195,"Ġinus":8196,"ĠprÃ¦":8197,"Ġexag":8198,"olas":8199,"abilia":8200,"Ġpetunt":8201,"Ġiusiur":8202,"Ġfideli":8203,"Ġtenebat":8204,"Ġ35":8205,"Ġnouas":8206,"Ġargento":8207,"Ġquaestio":8208,"Ġbarbari":8209,"Ġhercules":8210,"Ġiuuentus":8211,"Ġlapid":8212,"Ġhieme":8213,"Ġmagistratu":8214,"Ġchalc":8215,"Ġcort":8216,"indic":8217,"Ġcumul":8218,"Ġanhel":8219,"Ġpropon":8220,"Ġmineru":8221,"Ġconcordia":8222,"Ġconflic":8223,"Ġcreditum":8224,"Ġcommunia":8225,"rabat":8226,"Ġviuo":8227,"Ġmarcellus":8228,"Ġfeminis":8229,"Ġmateriam":8230,"Ġarbitrium":8231,"Ġumbras":8232,"Ġnonnulli":8233,"Ġbithyn":8234,"Ġnuc":8235,"Ġvento":8236,"olorum":8237,"Ġprael":8238,"Ġapta":8239,"Ġobiit":8240,"Ġsolito":8241,"Ġdebit":8242,"Ġgradum":8243,"Ġmensura":8244,"Ġpoetam":8245,"erebantur":8246,"Ġsonus":8247,"Ġadulescentem":8248,"emptus":8249,"Ġnolo":8250,"Ġsacerdotes":8251,"Ġprospere":8252,"Ġancill":8253,"Ġinteruallo":8254,"Ġiusiurandum":8255,"trans":8256,"Ġhoris":8257,"Ġadc":8258,"Ġsubinde":8259,"Ġcappad":8260,"Ġtha":8261,"Ġcognomen":8262,"Ġfugiens":8263,"Ġspecul":8264,"Ġhonorific":8265,"Ġvirgine":8266,"Ġextremo":8267,"Ġgrammaticus":8268,"Ġmartyris":8269,"nost":8270,"sac":8271,"Ġiri":8272,"oram":8273,"Ġvotis":8274,"eceb":8275,"ecism":8276,"Ġutero":8277,"edum":8278,"Ġplebs":8279,"Ġludib":8280,"Ġoccasionem":8281,"Ġutilitatis":8282,"Ġdesiderium":8283,"Ġimmortales":8284,"xerunt":8285,"Ġpia":8286,"onde":8287,"osi":8288,"uriam":8289,"Ġsciens":8290,"Ġparat":8291,"Ġpoteris":8292,"assis":8293,"Ġducum":8294,"Ġvestib":8295,"Ġtransc":8296,"Ġsecundis":8297,"Ġcommunic":8298,"Ġsermonem":8299,"Ġmacedoniam":8300,"iendo":8301,"mult":8302,"itto":8303,"oso":8304,"Ġalioquin":8305,"Ġdecip":8306,"Ġregionem":8307,"Ġaequa":8308,"Ġleonis":8309,"rendum":8310,"Ġnuntius":8311,"Ġuniuersos":8312,"Ġfiguram":8313,"Ġvoluptatibus":8314,"Ġapte":8315,"Ġinstituta":8316,"Ġclades":8317,"Ġidoneum":8318,"Ġopposita":8319,"Ġsuus":8320,"ptum":8321,"Ġspei":8322,"Ġpropag":8323,"ianos":8324,"Ġrecit":8325,"Ġtradid":8326,"igne":8327,"Ġvereor":8328,"Ġcrebris":8329,"quisque":8330,"Ġdy":8331,"Ġlog":8332,"abilius":8333,"Ġconson":8334,"Ġseruius":8335,"Ġnumine":8336,"Ġdiscere":8337,"Ġconcup":8338,"Ġgratum":8339,"Ġredig":8340,"Ġprodesse":8341,"Ġcensuit":8342,"Ġmissum":8343,"Ġbarbaris":8344,"Ġgaudium":8345,"Ġoleo":8346,"Ġlecto":8347,"Ġvoluptatem":8348,"Ġorth":8349,"Ġgracchi":8350,"Ġcarthaginienses":8351,"Ġapollo":8352,"cor":8353,"Ġdentes":8354,"Ġdcc":8355,"Ġexit":8356,"Ġconfici":8357,"Ġsede":8358,"isch":8359,"Ġkar":8360,"Ġlatius":8361,"Ġaelius":8362,"Ġphilosophos":8363,"Ġpromuntur":8364,"uxerat":8365,"Ġactionibus":8366,"Ġmeruit":8367,"Ġdamna":8368,"Ġmortalium":8369,"Ġmendacium":8370,"Ġsk":8371,"Ġdal":8372,"Ġdicantur":8373,"Ġintu":8374,"Ġmarius":8375,"eritas":8376,"Ġcuris":8377,"Ġvictu":8378,"Ġveter":8379,"Ġtransi":8380,"Ġaeuo":8381,"ordiae":8382,"Ġarcess":8383,"Ġaedium":8384,"Ġmagistrum":8385,"Ġvoluntatis":8386,"Ġadscrib":8387,"Ġnuptiis":8388,"rach":8389,"quad":8390,"Ġaesc":8391,"ulce":8392,"ialis":8393,"antius":8394,"Ġverrem":8395,"Ġprout":8396,"Ġparia":8397,"Ġhabuerit":8398,"Ġsuscep":8399,"praec":8400,"Ġcopiae":8401,"Ġauctoribus":8402,"Ġludo":8403,"Ġuiribus":8404,"Ġiacet":8405,"Ġhasta":8406,"atiuum":8407,"Ġcaeteris":8408,"ilior":8409,"Ġdicamus":8410,"Ġsuperu":8411,"Ġpoposc":8412,"Ġcrede":8413,"Ġprobus":8414,"Ġdepugn":8415,"Ġoptimus":8416,"tabatur":8417,"Ġportis":8418,"Ġproximis":8419,"Ġspern":8420,"ÎµÏģ":8421,"Ġrecipit":8422,"Ġennium":8423,"Ġmortales":8424,"Ġpapir":8425,"Ġfrumenti":8426,"Ġiap":8427,"Ġaderat":8428,"Ġexilium":8429,"ueram":8430,"Ġbore":8431,"Ġbub":8432,"Ġnequam":8433,"uiis":8434,"Ġregiam":8435,"Ġinsper":8436,"Ġprocessit":8437,"Ġpriuatim":8438,"Ġcamill":8439,"Ġdescendit":8440,"Ġdifficillim":8441,"Ġturpia":8442,"Ġquadrigarius":8443,"Ġpenetra":8444,"Ġcappadoc":8445,"mor":8446,"penus":8447,"ver":8448,"Ġesc":8449,"Ġnonas":8450,"alae":8451,"peram":8452,"tori":8453,"Ġdefendit":8454,"Ġdiscur":8455,"Ġcastellum":8456,"Ġpalaest":8457,"Ġpromulg":8458,"Ġconstantio":8459,"Ġquaesi":8460,"Ġornatus":8461,"Ġcarthaginem":8462,"Ġpersonas":8463,"Ġsollertia":8464,"Ġsenatusconsultum":8465,"Ġvr":8466,"Ġfatis":8467,"aeis":8468,"Ġlegionis":8469,"Ġ31":8470,"Ġcircums":8471,"ixus":8472,"Ġuirum":8473,"Ġcomplures":8474,"Ġtumultus":8475,"Ġhippoc":8476,"Ġoctob":8477,"Ġulcisc":8478,"pi":8479,"ins":8480,"Ġliter":8481,"Ġexha":8482,"Ġquiesc":8483,"Ġabol":8484,"Ġiugo":8485,"Ġcaesellius":8486,"Ġinstru":8487,"Ġdocere":8488,"Ġhistoriarum":8489,"Ġlibertus":8490,"Ġpraestat":8491,"Ġchristo":8492,"Ġmembris":8493,"Ġinscripsit":8494,"Ġceruice":8495,"Ġtuscul":8496,"Ġundecimo":8497,"Ġcedere":8498,"Ġinsequ":8499,"aram":8500,"Ġperst":8501,"Ġintemp":8502,"Ġintulit":8503,"Ġparuis":8504,"Ġanimalium":8505,"Ġcommerc":8506,"Ġpoem":8507,"Ġlitem":8508,"Ġdebitum":8509,"Ġpersecut":8510,"Ġnouit":8511,"quaque":8512,"Ġpermix":8513,"Ġcontinet":8514,"Ġdescrib":8515,"Ġinimicum":8516,"Ġepiscopus":8517,"Ġaudaciam":8518,"Ġcesar":8519,"Ġfasces":8520,"Ġpress":8521,"Ġmig":8522,"Ġveritas":8523,"Ġcorda":8524,"Ġdefer":8525,"Ġistic":8526,"Ġeloqu":8527,"Ġprincipia":8528,"Ġimmun":8529,"Ġmutata":8530,"Ġbritt":8531,"],":8532,"Ġauris":8533,"Ġirac":8534,"Ġmusc":8535,"utam":8536,"astis":8537,"Ġremot":8538,"entesque":8539,"Ġdelub":8540,"Ġpromissa":8541,"Ġmontium":8542,"Ġfuturi":8543,"Ġafricani":8544,"Ġcenam":8545,"Ġioannes":8546,"uunt":8547,"Ġextor":8548,"erto":8549,"Ġposteri":8550,"Ġapprob":8551,"Ġappellati":8552,"Ġdeserta":8553,"Ġhomero":8554,"Ġfabulam":8555,"aremus":8556,"ifer":8557,"Ġpudore":8558,"Ġhaes":8559,"Ġcultus":8560,"Ġerrorem":8561,"Ġcollegae":8562,"Ġtyranni":8563,"Ġomitt":8564,"Ġcibo":8565,"Ġsumpsit":8566,"Ġsiciliae":8567,"Ġoscula":8568,"eius":8569,"Ġmentio":8570,"Ġfera":8571,"urium":8572,"ebitur":8573,"Ġplum":8574,"Ġalpes":8575,"Ġprofit":8576,"Ġexistimabat":8577,"Ġdederit":8578,"Ġpontifex":8579,"Ġnegotii":8580,"Ġquadrup":8581,"Ġclaudii":8582,"Ġtheodosio":8583,"Ġrelinquere":8584,"Ġnepotes":8585,"Ġintoler":8586,"fam":8587,"vide":8588,"yli":8589,"Å¿":8590,"Ġpad":8591,"Ġventis":8592,"Ġabiit":8593,"Ġplerosque":8594,"usti":8595,"situd":8596,"Ġremig":8597,"Ġduct":8598,"Ġdocum":8599,"Ġsensibus":8600,"Ġdifferre":8601,"Ġfalso":8602,"Ġbeneficiis":8603,"Ġiuga":8604,"Ġinstitutum":8605,"Ġfluctibus":8606,"Ġquinctius":8607,"Ġinflamm":8608,"Ġdemosthenes":8609,"Ġabraham":8610,"Ġcessit":8611,"Ġadop":8612,"acc":8613,"uique":8614,"incta":8615,"Ġmanlius":8616,"Ġdebes":8617,"Ġdomic":8618,"Ġphilosophia":8619,"Ġdederat":8620,"Ġodor":8621,"Ġiniuriae":8622,"Ġsapientiae":8623,"Ġcohors":8624,"Ġortum":8625,"Ġinterced":8626,"Ġfrument":8627,"Ġimplor":8628,"bit":8629,"Ġqueat":8630,"Ġvesta":8631,"Ġfoss":8632,"Ġharus":8633,"imonia":8634,"omus":8635,"uerem":8636,"Ġsedibus":8637,"Ġanch":8638,"Ġquidnam":8639,"Ġincidit":8640,"Ġmaluit":8641,"Ġcolorem":8642,"Ġsatisfac":8643,"Ġambit":8644,"Ġpericl":8645,"ardus":8646,"Ġalioqui":8647,"Ġnoluit":8648,"Ġproposita":8649,"Ġapparuit":8650,"Ġconiugis":8651,"Ġinterfecit":8652,"Ġimitari":8653,"Ġsepulchrum":8654,"Ġdeuic":8655,"abuntur":8656,"Ġseruari":8657,"Ġnimio":8658,"Ġrogatus":8659,"Ġfuturus":8660,"Ġporrec":8661,"Ġtorp":8662,"Ġdesiderat":8663,"Ġgaudet":8664,"Ġrespondere":8665,"Ġhispaniae":8666,"Ġastra":8667,"Ġpertim":8668,"Ġstad":8669,"Ġcaptiuos":8670,"gi":8671,"Ġaura":8672,"Ġviae":8673,"abamus":8674,"Ġperter":8675,"endumque":8676,"Ġcoqu":8677,"Ġaris":8678,"Ġvidetis":8679,"Ġlegionum":8680,"erog":8681,"Ġasiat":8682,"Ġhumano":8683,"Ġeffl":8684,"racta":8685,"Ġdisting":8686,"Ġsors":8687,"Ġinimicus":8688,"Ġnascuntur":8689,"Ġerror":8690,"Ġsollem":8691,"Ġnummum":8692,"Ġarea":8693,"Ġpriores":8694,"Ġdeesse":8695,"Ġutilia":8696,"Ġrura":8697,"Ġmagnas":8698,"iosae":8699,"Ġdefect":8700,"Ġdedec":8701,"Ġpraesidia":8702,"Ġvirgines":8703,"Ġelegantia":8704,"Ġclementia":8705,"Ġcrasso":8706,"Ġeun":8707,"Ġdau":8708,"Ġfreg":8709,"Ġexeunt":8710,"Ġagunt":8711,"Ġtheb":8712,"linc":8713,"Ġcreatus":8714,"Ġtradiderunt":8715,"Ġcontraque":8716,"Ġlicere":8717,"Ġfugae":8718,"Ġsilua":8719,"Ġhorosc":8720,"Ġoccidere":8721,"Ġsingularis":8722,"Ġcitius":8723,"Ġauspiciis":8724,"lep":8725,"simus":8726,"tionis":8727,"vir":8728,"inoct":8729,"Ġadort":8730,"Ġdir":8731,"Ġpler":8732,"Ġuim":8733,"Ġcordis":8734,"Ġinser":8735,"Ġremis":8736,"Ġdebita":8737,"Ġcaedes":8738,"Ġpersol":8739,"Ġponti":8740,"Ġmole":8741,"Ġherculis":8742,"Ġcustodi":8743,"Ġinmorta":8744,"Ġmuro":8745,"Ġsaecula":8746,"Ġcarcerem":8747,"Ġhyginus":8748,"Ġvib":8749,"Ġlaut":8750,"Ġexul":8751,"abar":8752,"Ġcaduc":8753,"Ġquolibet":8754,"Ġhabentes":8755,"Ġhabebit":8756,"ade":8757,"Ġdecept":8758,"Ġsaluti":8759,"Ġexclus":8760,"Ġrogat":8761,"Ġquaestor":8762,"Ġsustulit":8763,"Ġcoepta":8764,"Ġvarie":8765,"Ġvarronem":8766,"Ġattinet":8767,"huius":8768,"Ġino":8769,"Ġineunt":8770,"ecisset":8771,"Ġadquir":8772,"Ġparui":8773,"Ġnecdum":8774,"Ġcurric":8775,"Ġaudisse":8776,"Ġpersonis":8777,"Ġeuentu":8778,"leuc":8779,"Ġponto":8780,"Ġinsigne":8781,"Ġinclud":8782,"Ġfunere":8783,"Ġgladiat":8784,"Ġvulgi":8785,"Ġvelint":8786,"Ġais":8787,"iculo":8788,"iou":8789,"Ġdianae":8790,"Ġraro":8791,"Ġmad":8792,"Ġlego":8793,"Ġferox":8794,"Ġdiscern":8795,"Ġexercitibus":8796,"Ġcaesa":8797,"Ġpecud":8798,"Ġexcess":8799,"Ġdolores":8800,"urgit":8801,"Ġsummi":8802,"Ġhyd":8803,"Ġfemine":8804,"Ġrespondisse":8805,"Ġoccasum":8806,"Ġpostremum":8807,"Ġbeati":8808,"Ġhebdom":8809,"Ġamplexus":8810,"Ġsiluest":8811,"Ġperniciem":8812,"Ġpipp":8813,"raes":8814,"Ġconsuet":8815,"Ġneap":8816,"erito":8817,"Ġdiuo":8818,"Ġbonam":8819,"Ġlabi":8820,"Ġpersas":8821,"Ġfratrum":8822,"Ġcapti":8823,"Ġfeminam":8824,"Ġfigur":8825,"Ġmitter":8826,"Ġfraudem":8827,"Ġcibum":8828,"Ġtenebras":8829,"Ġcubiculum":8830,"Ġfisco":8831,"Ġdonis":8832,"Ġincept":8833,"Ġfet":8834,"Ġfuc":8835,"Ġpriorem":8836,"iderat":8837,"Ġattoll":8838,"Ġimmod":8839,"Ġposito":8840,"Ġminoribus":8841,"Ġsenes":8842,"Ġvaleri":8843,"Ġdiuinae":8844,"Ġsentio":8845,"Ġlaborum":8846,"Ġeisdem":8847,"Ġdamnum":8848,"ressos":8849,"Ġiniuriis":8850,"Ġproficisci":8851,"Ġfaucibus":8852,"Ġbabyl":8853,"cis":8854,"Ġaisch":8855,"Ġlass":8856,"Ġbar":8857,"Ġversa":8858,"Ġsuperioribus":8859,"Ġextit":8860,"Ġmeta":8861,"Ġpromiss":8862,"Ġpuluere":8863,"Ġcatone":8864,"Ġexistimauit":8865,"Ġmonumentis":8866,"iretur":8867,"rod":8868,"serit":8869,"Ġj":8870,"usus":8871,"iniam":8872,"Ġeram":8873,"Ġtempli":8874,"Ġmoram":8875,"Ġnosse":8876,"Ġtestem":8877,"Ġpapa":8878,"Ġspectare":8879,"Ġboues":8880,"Ġquietem":8881,"Ġauis":8882,"Ġeuen":8883,"eton":8884,"Ġadip":8885,"Ġseleuc":8886,"oles":8887,"obnox":8888,"Ġmax":8889,"ultus":8890,"Ġamant":8891,"Ġspat":8892,"Ġflaui":8893,"Ġvenenum":8894,"Ġimpend":8895,"atoque":8896,"itasse":8897,"icies":8898,"Ġnegant":8899,"Ġexting":8900,"Ġarbores":8901,"Ġfabio":8902,"Ġfalsis":8903,"Ġquaestione":8904,"Ġreperta":8905,"Ġculpae":8906,"Ġaemul":8907,"Ġincendio":8908,"praepet":8909,"Ġtheophras":8910,"Ġinprud":8911,"yter":8912,"Ġeuers":8913,"itionum":8914,"Ġlxx":8915,"uill":8916,"iuimus":8917,"Ġprincipi":8918,"Ġlicinius":8919,"Ġequus":8920,"942":8921,"ennium":8922,"Ġsumptu":8923,"Ġclipe":8924,"Ġparendum":8925,"Ġflaccus":8926,"Ġcatilina":8927,"Ġgurgite":8928,"Ġcibus":8929,"Ġamisit":8930,"Ġstrid":8931,"Ġrecond":8932,"Ġnullas":8933,"Ġcaedis":8934,"olim":8935,"Ġequitatu":8936,"Ġsancta":8937,"Ġmirific":8938,"Ġclaudium":8939,"Ġfoedera":8940,"Ġsyriam":8941,"Ġennii":8942,"Ġspolia":8943,"Ġsufficit":8944,"Ġsimulacra":8945,"Ġradicibus":8946,"Ġirae":8947,"Ġnauit":8948,"Ġprioris":8949,"Ġutendum":8950,"Ġrus":8951,"Ġfacilis":8952,"Ġmaximas":8953,"Ġillinc":8954,"Ġfames":8955,"Ġ37":8956,"Ġ40":8957,"Ġnouus":8958,"Ġinimici":8959,"Ġvoluptate":8960,"Ġcornelium":8961,"vii":8962,"itant":8963,"Ġtis":8964,"Ġfisci":8965,"Ġexire":8966,"Ġlibens":8967,"Ġpatefac":8968,"rie":8969,"Ġincumb":8970,"Ġcommor":8971,"Ġvolu":8972,"Ġrecon":8973,"itudini":8974,"Ġpraesentis":8975,"Ġproflig":8976,"Ġfauore":8977,"Ġiuno":8978,"Ġmarci":8979,"Ġpossessio":8980,"Ġbibli":8981,"Ġexstit":8982,"Ġimagine":8983,"Ġnatalem":8984,"Ġmansuetud":8985,"Ġchrysippus":8986,"Ġnatos":8987,"Ġvina":8988,"inat":8989,"initatis":8990,"Ġgad":8991,"Ġatro":8992,"Ġdicebantur":8993,"Ġfacio":8994,"Ġmaritum":8995,"Ġferarum":8996,"Ġprocre":8997,"Ġglauc":8998,"Ġsacrorum":8999,"Ġafricano":9000,"Ġaccepi":9001,"Ġvirginem":9002,"Ġsonum":9003,"Ġdigito":9004,"Ġgladiis":9005,"Ġinuitus":9006,"Ġdiutur":9007,"ruptum":9008,"Ġcth":9009,"Ġcuper":9010,"Ġexquis":9011,"Ġpraedi":9012,"Ġregionis":9013,"Ġcurrus":9014,"Ġinsulas":9015,"Ġtrag":9016,"ioresque":9017,"Ġtutum":9018,"Ġnegoti":9019,"Ġaduentus":9020,"Ġepistularum":9021,"Ġscelerum":9022,"Ġexperiri":9023,"Ġiusserunt":9024,"Ġceterorum":9025,"Ġancipiti":9026,"aur":9027,"ritate":9028,"Ġdulce":9029,"Ġnemus":9030,"ulenta":9031,"Ġgorg":9032,"Ġcadit":9033,"Ġuac":9034,"Ġinteresse":9035,"ertis":9036,"Ġlegatorum":9037,"Ġanthem":9038,"exi":9039,"Ġgenu":9040,"Ġsecurus":9041,"Ġmoi":9042,"erno":9043,"Ġpraesente":9044,"Ġepict":9045,"Ġeique":9046,"Ġnegl":9047,"Ġeffectum":9048,"Ġafran":9049,"Ġdisciplinas":9050,"Ġspectaculum":9051,"Ġdulcis":9052,"Ġegregia":9053,"Ġatheniensium":9054,"Ġoceani":9055,"Ġcontumelia":9056,"Ġbapt":9057,"Ġerasist":9058,"37":9059,"laud":9060,"Ġiret":9061,"orae":9062,"Ġconcus":9063,"Ġperperam":9064,"Ġdicenda":9065,"Ġuiol":9066,"Ġmeque":9067,"Ġpartu":9068,"Ġvicti":9069,"Ġmilitia":9070,"Ġtribunorum":9071,"Ġprospic":9072,"Ġprecip":9073,"Ġfundo":9074,"Ġtiberim":9075,"Ġloquor":9076,"Ġcampum":9077,"Ġmacedonia":9078,"Ġrecipere":9079,"Ġcoeperat":9080,"Ġprospera":9081,"Ġpresbyter":9082,"Ġcis":9083,"inqu":9084,"Ġadde":9085,"Ġutrisque":9086,"Ġruit":9087,"Ġarcus":9088,"Ġagat":9089,"Ġteuc":9090,"Ġfluit":9091,"Ġclarum":9092,"Ġcurauit":9093,"Ġvenerit":9094,"Ġisque":9095,"Ġrecre":9096,"Ġpetiit":9097,"Ġfurore":9098,"Ġarces":9099,"Ġveniret":9100,"Ġaccipe":9101,"Ġgemm":9102,"Ġclaudi":9103,"Ġamplect":9104,"Ġpostulat":9105,"selli":9106,"Ġcognomentum":9107,"Ġsita":9108,"Ġvap":9109,"Ġvlix":9110,"enem":9111,"aciter":9112,"Ġactis":9113,"Ġapo":9114,"Ġinterueni":9115,"ratu":9116,"Ġvenerem":9117,"erente":9118,"Ġimpune":9119,"Ġaurem":9120,"Ġluctus":9121,"magn":9122,"Ġsemina":9123,"Ġfugere":9124,"Ġfelicis":9125,"Ġhoneste":9126,"Ġtemplis":9127,"ÎµÎ¹":9128,"Ġunusquisque":9129,"Ġlapide":9130,"erusalem":9131,"Ġnititur":9132,"pote":9133,"Ġconloqu":9134,"Ġtristia":9135,"Ġatheniensibus":9136,"Ġcontrouersia":9137,"Ġmasculi":9138,"''":9139,"zz":9140,"Ġibat":9141,"Ġsesc":9142,"Ġpuerit":9143,"itatisque":9144,"Ġminima":9145,"Ġreme":9146,"Ġaudito":9147,"Ġconsularis":9148,"Ġgraeciam":9149,"Ġfamiliam":9150,"Ġdiuersas":9151,"Ġgestas":9152,"Ġfretum":9153,"Ġinmut":9154,"Ġsustent":9155,"Ġsaxo":9156,"Ġsiderum":9157,"Ġphilippum":9158,"Ġgrauior":9159,"Ġexceptis":9160,"Ġgeomet":9161,"Ġdextera":9162,"serat":9163,"Ġtort":9164,"Ġseorsum":9165,"Ġrupt":9166,"Ġabb":9167,"Ġparta":9168,"Ġcontendit":9169,"Ġminoris":9170,"erenti":9171,"Ġimple":9172,"entemque":9173,"Ġmisere":9174,"Ġexced":9175,"Ġdelectab":9176,"Ġnoctes":9177,"Ġdamnatus":9178,"Ġamput":9179,"Ġpertinent":9180,"Ġruina":9181,"Ġrapit":9182,"Ġstatuam":9183,"Ġtarqu":9184,"Ġconspectum":9185,"Ġortu":9186,"Ġmeliora":9187,"Ġantiocho":9188,"Ġbenigne":9189,"Ġmisericordia":9190,"kos":9191,"tr":9192,"Ġuteretur":9193,"Ġcoeg":9194,"Ġdecid":9195,"Ġveneno":9196,"Ġauctoritatis":9197,"Ġdedisset":9198,"uxisse":9199,"Ġpueris":9200,"Ġfamiliares":9201,"Ġaestus":9202,"Ġaugustum":9203,"Ġcommoda":9204,"Ġsursum":9205,"herc":9206,"irab":9207,"yz":9208,"Ġell":9209,"Ġion":9210,"eso":9211,"Ġlint":9212,"Ġamiss":9213,"Ġopor":9214,"Ġstim":9215,"Ġpotentiam":9216,"Ġaudit":9217,"Ġoccurr":9218,"Ġmedicam":9219,"Ġappellare":9220,"Ġsecundi":9221,"Ġaugusta":9222,"Ġiustitiam":9223,"Ġsinguli":9224,"Ġcatho":9225,"Ġambitu":9226,"Ġperfecta":9227,"Ġgrammatici":9228,"iudic":9229,"mihi":9230,"rebat":9231,"Ġdumque":9232,"Ġvesc":9233,"Ġinpl":9234,"esin":9235,"Ġlor":9236,"Ġprouis":9237,"Ġcuiusquam":9238,"Ġputabat":9239,"Ġ34":9240,"Ġarboribus":9241,"Ġpatrio":9242,"Ġstudios":9243,"Ġdubia":9244,"Ġfeminas":9245,"Ġalbum":9246,"Ġdigitis":9247,"Ġsuperbiam":9248,"Ġlance":9249,"Ġnutric":9250,"Ġsentire":9251,"Ġsestert":9252,"Ġliquamen":9253,"Ġfirma":9254,"Ġadprob":9255,"Ġliu":9256,"Ġquiddam":9257,"Ġsubter":9258,"Ġannonae":9259,"iori":9260,"Ġrecur":9261,"Ġdemin":9262,"rentibus":9263,"Ġeuol":9264,"Ġtutela":9265,"Ġsororem":9266,"Ġreuol":9267,"Ġlapidem":9268,"Ġacceptum":9269,"Ġnepotem":9270,"Ġsimpliciter":9271,"Ġsciret":9272,"Ġmentionem":9273,"Ġconuertit":9274,"Ġmercede":9275,"Ġsempronius":9276,"Ġmelle":9277,"Ġtan":9278,"Ġconsequent":9279,"Ġutilis":9280,"ipot":9281,"este":9282,"Ġalg":9283,"Ġsolst":9284,"Ġgenitor":9285,"Ġterentius":9286,"Ġnullos":9287,"Ġmorbus":9288,"Ġvaler":9289,"Ġignibus":9290,"Ġputauerunt":9291,"Ġbonarum":9292,"Ġcognou":9293,"Ġ42":9294,"Ġfaciendi":9295,"Ġexistum":9296,"Ġattig":9297,"uxerunt":9298,"Ġtutores":9299,"Ġdisciplinarum":9300,"Ġedoc":9301,"Ġparentem":9302,"Ġinscite":9303,"Ġuitam":9304,"Ġprogredi":9305,"Ġadmiratione":9306,"Ġconsecutus":9307,"Ġstoici":9308,"Ġcornelio":9309,"Ġaliquantum":9310,"transg":9311,"18":9312,"66":9313,"ratione":9314,"Ġedid":9315,"Ġcus":9316,"Ġcith":9317,"Ġnero":9318,"idane":9319,"Ġreo":9320,"alp":9321,"elis":9322,"undae":9323,"Ġlibras":9324,"Ġpositus":9325,"Ġincerta":9326,"Ġclau":9327,"Ġminu":9328,"Ġfortes":9329,"Ġsacrat":9330,"946":9331,"Ġleue":9332,"Ġattrib":9333,"Ġmensam":9334,"Ġmerita":9335,"Ġobseruari":9336,"Ġadiung":9337,"Ġcyp":9338,"Ġconstituti":9339,"Ġmonstra":9340,"Ġocculte":9341,"Ġconpreh":9342,"Ġtragoedia":9343,"Ġinuasit":9344,"Ġeli":9345,"Ġdetur":9346,"Ġadse":9347,"Ġconper":9348,"Ġverius":9349,"Ġdices":9350,"Ġsoluit":9351,"Ġcredidit":9352,"Ġrepl":9353,"Ġaduersis":9354,"Ġiusto":9355,"Ġciuilibus":9356,"Ġvocabulorum":9357,"Ġrhenum":9358,"Ġtuto":9359,"Ġhistoriis":9360,"Î¿Î¹":9361,"Ġsequuntur":9362,"Ġmandauit":9363,"Ġtibur":9364,"Ġoblitus":9365,"Ġconsiderat":9366,"Ġutilitatem":9367,"Ġvictoris":9368,"Ġconiuge":9369,"Ġreuerti":9370,"Ġfabricius":9371,"Ġgrande":9372,"Ġ#":9373,"Ġdap":9374,"Ġade":9375,"Ġperdidit":9376,"Ġserua":9377,"Ġtenuis":9378,"Ġalterut":9379,"Ġlongis":9380,"Ġsentit":9381,"Ġcensura":9382,"Ġpraesto":9383,"Ġtaur":9384,"Ġaccusator":9385,"Ġsperare":9386,"Ġcicerone":9387,"Ġfactas":9388,"Ġvertit":9389,"Ġoccasio":9390,"Ġconcessum":9391,"Ġlignum":9392,"vi":9393,"Ġulli":9394,"ulsum":9395,"Ġprioribus":9396,"abundus":9397,"iped":9398,"Ġcauer":9399,"Ġveritate":9400,"Ġdictae":9401,"ectae":9402,"Ġapuli":9403,"Ġlibido":9404,"iuos":9405,"Ġaliquos":9406,"Ġinuentum":9407,"Ġingentes":9408,"rica":9409,"Ġconclus":9410,"Ġignarus":9411,"Ġdiuino":9412,"Ġredund":9413,"Ġexcub":9414,"Ġlicebit":9415,"Ġidemque":9416,"Ġpromont":9417,"Ġdimisit":9418,"Ġdestitut":9419,"Ġvulneribus":9420,"Ġiusserat":9421,"Ġlimine":9422,"Ġproposito":9423,"Ġxxviii":9424,"Ġapollinis":9425,"Ġoctog":9426,"Ġleniter":9427,"rupta":9428,"Ġcarthaginiensium":9429,"Ġcodici":9430,"Ġharuspic":9431,"fa":9432,"sal":9433,"yx":9434,"Ġah":9435,"imet":9436,"Ġlecta":9437,"Ġadgn":9438,"Ġquoquo":9439,"Ġpropuls":9440,"Ġscriptor":9441,"Ġsententi":9442,"Ġaeuum":9443,"Ġtribuit":9444,"Ġtous":9445,"Ġaugures":9446,"Ġtriumpho":9447,"Ġdispon":9448,"Ġiugis":9449,"Ġmundum":9450,"Ġmitig":9451,"Ġripam":9452,"Ġoceano":9453,"15":9454,"Ġulp":9455,"Ġaffic":9456,"Ġeasque":9457,"pers":9458,"uerentur":9459,"Ġdirept":9460,"iliae":9461,"ubium":9462,"Ġalis":9463,"Ġsecreta":9464,"Ġlatroc":9465,"Ġtenus":9466,"Ġindom":9467,"Ġplurium":9468,"Ġeuentus":9469,"Ġcuncti":9470,"Ġdissip":9471,"Ġadflic":9472,"Ġclarus":9473,"Ġuidetur":9474,"Ġprogen":9475,"Ġapostolic":9476,"Ġvalid":9477,"Ġrhodienses":9478,"Ġbrutt":9479,"Ġepigram":9480,"Ġoporteret":9481,"Ġeat":9482,"Ġsist":9483,"Ġmu":9484,"estab":9485,"imento":9486,"Ġintemper":9487,"Ġagebat":9488,"Ġferret":9489,"Ġreditum":9490,"Ġcroc":9491,"Ġaequi":9492,"Ġcensuerunt":9493,"Ġpoenit":9494,"Ġepistulae":9495,"Ġintellego":9496,"Ġarduum":9497,"Ġoccupat":9498,"Ġcapitolin":9499,"Ġrestituit":9500,"Ġvetustatis":9501,"Ġfacundiae":9502,"Î·ÏĤ":9503,"Ġvillam":9504,"Ġfulmine":9505,"Ġfauces":9506,"Ġdisseruit":9507,"hum":9508,"Ġcanc":9509,"Ġdarent":9510,"Ġmili":9511,"anes":9512,"Ġdeorsum":9513,"Ġobuia":9514,"Ġsubire":9515,"Ġincaut":9516,"Ġaccius":9517,"Ġvalerio":9518,"Ġpraeses":9519,"Ġprodest":9520,"Ġconuentus":9521,"Ġprosequ":9522,"Ġpermis":9523,"Ġhorde":9524,"Ġausi":9525,"Ġmerid":9526,"Ġobseruatum":9527,"Ġtriumphauit":9528,"Ġcupido":9529,"Ġsyriae":9530,"Ġoblitter":9531,"Ġmitti":9532,"Ġostenditur":9533,"Ġptolem":9534,"loc":9535,"Ġmere":9536,"Ġfunct":9537,"antque":9538,"alli":9539,"Ġabire":9540,"Ġfactae":9541,"Ġvolsc":9542,"Ġpopulorum":9543,"Ġdebeo":9544,"950":9545,"Ġsecundam":9546,"Ġconuentu":9547,"Ġcriminibus":9548,"Ġmotibus":9549,"Ġprudent":9550,"Ġinterpell":9551,"Ġflagr":9552,"Ġcondicio":9553,"Ġantiochum":9554,"Ġaeneae":9555,"Ġauspicia":9556,"Ġrufino":9557,"rii":9558,"Ġsinum":9559,"Ġfict":9560,"iciam":9561,"ibilis":9562,"aciam":9563,"Ġcaerim":9564,"uncta":9565,"Ġvidisset":9566,"Ġpotitus":9567,"Ġcuriae":9568,"Ġcommissa":9569,"Ġnuminis":9570,"Ġsenem":9571,"Ġvixit":9572,"Ġmateri":9573,"Ġ33":9574,"Ġquantam":9575,"Ġglob":9576,"Ġmisero":9577,"Ġprincipiis":9578,"Ġleuc":9579,"Ġarbor":9580,"Ġgalb":9581,"Ġpraedia":9582,"Ġrestat":9583,"Ġquater":9584,"Ġuires":9585,"Ġfideius":9586,"Ġtransp":9587,"Ġaddita":9588,"Ġgerere":9589,"Ġincurs":9590,"Ġbibliothec":9591,"00":9592,"retum":9593,"Ġmilium":9594,"ecuti":9595,"ucius":9596,"Ġscias":9597,"Ġimperare":9598,"Ġprimos":9599,"Ġdixerim":9600,"Ġmanes":9601,"ernum":9602,"illum":9603,"Ġarmati":9604,"Ġprobare":9605,"Ġarborum":9606,"Ġcaptam":9607,"Ġnotae":9608,"Ġoppidi":9609,"Ġalexandrum":9610,"Ġalba":9611,"Ġfunera":9612,"Ġfaust":9613,"Ġbassus":9614,"Ġinhum":9615,"Ġpraetermitt":9616,"Ġdistinctio":9617,"Ġfenest":9618,"Ġdauid":9619,"Ġtaut":9620,"untque":9621,"estig":9622,"aturam":9623,"Ġstring":9624,"Ġsolere":9625,"rific":9626,"Ġminora":9627,"Ġcreati":9628,"Ġnominatim":9629,"neque":9630,"Ġdepon":9631,"Ġcensemus":9632,"Ġpoenus":9633,"Ġdecemuir":9634,"Ġreliquias":9635,"Ġtitulus":9636,"Ġindignum":9637,"Ġlepid":9638,"Ġobscura":9639,"Ġuita":9640,"Ġrobur":9641,"Ġelephant":9642,"Ġaula":9643,"Ġtas":9644,"Ġdeest":9645,"Ġprotag":9646,"Ġparatus":9647,"Ġremiss":9648,"Ġdefuit":9649,"Ġingred":9650,"Ġfierent":9651,"Ġche":9652,"Ġfecimus":9653,"Ġfori":9654,"Ġcupit":9655,"Ġveniat":9656,"Ġaede":9657,"Ġhistr":9658,"Ġiulia":9659,"Ġherba":9660,"Ġreddita":9661,"Ġtiberio":9662,"Ġiugur":9663,"Ġsatura":9664,"Ġpraebuit":9665,"Ġreciproc":9666,"luens":9667,"Ġcernere":9668,"Ġspecialiter":9669,"Ġtheophrastus":9670,"auerant":9671,"Ġies":9672,"Ġias":9673,"enna":9674,"anius":9675,"Ġbos":9676,"iliam":9677,"Ġomnim":9678,"pto":9679,"Ġplect":9680,"Ġlegato":9681,"Ġung":9682,"Ġanimalibus":9683,"Ġcrit":9684,"Ġpacific":9685,"Ġmonach":9686,"Ġnauicul":9687,"Ġhoras":9688,"Ġactibus":9689,"Ġadsc":9690,"Ġludou":9691,"Ġtauro":9692,"Ġaureis":9693,"iperent":9694,"Ġabunde":9695,"Ġchristianorum":9696,"Ġbarbaros":9697,"Ġptolom":9698,"16":9699,"ÏĨ":9700,"Ġferebat":9701,"Ġverus":9702,"Ġalim":9703,"tern":9704,"Ġallig":9705,"iuae":9706,"Ġduarum":9707,"Ġvicissim":9708,"Ġsuppet":9709,"Ġprobat":9710,"Ġcollo":9711,"Ġpugnatum":9712,"Ġeffund":9713,"Ġhaudquaquam":9714,"Ġquaereretur":9715,"resso":9716,"Ġoccupauit":9717,"Ġhaeret":9718,"Ġgladium":9719,"Ġsidere":9720,"Ġsollert":9721,"Ġiucunda":9722,"Ġdecernimus":9723,"Ġconcessa":9724,"Ġsuscipere":9725,"Ġadductus":9726,"Ġinquiet":9727,"las":9728,"Ġinesse":9729,"Ġlyd":9730,"olast":9731,"Ġfacillim":9732,"Ġamores":9733,"inctum":9734,"Ġromuli":9735,"auisset":9736,"iorque":9737,"rimis":9738,"Ġvicina":9739,"Ġpecus":9740,"rael":9741,"Ġmutare":9742,"Ġscriberet":9743,"Ġsiluas":9744,"Ġmiror":9745,"Ġalexandr":9746,"Ġturbine":9747,"Ġpudet":9748,"Ġboe":9749,"Ġfebr":9750,"fr":9751,"yt":9752,"Ġ<":9753,"utas":9754,"Ġexilio":9755,"ipiam":9756,"Ġuia":9757,"Ġsuperesse":9758,"iasse":9759,"Ġconsularem":9760,"Ġtenent":9761,"Ġ36":9762,"Ġegressi":9763,"Ġpalli":9764,"âĢĿ":9765,"Ġnegotiorum":9766,"Ġpraecipua":9767,"Ġiunonis":9768,"Ġtelum":9769,"Ġprudens":9770,"Ġdenomin":9771,"Ġseptemb":9772,"Ġegregie":9773,"Ġsubtrah":9774,"Ġreuerentia":9775,"Ġsentiat":9776,"Ġsulpicium":9777,"Ġcensebat":9778,"vit":9779,"Ġmim":9780,"icumque":9781,"Ġreceper":9782,"Ġseuere":9783,"Ġsolos":9784,"Ġdeclam":9785,"index":9786,"Ġmatut":9787,"Ġtestud":9788,"Ġmutua":9789,"Ġdedecus":9790,"Ġcomposita":9791,"Ġacceptis":9792,"Ġobtinuit":9793,"84":9794,"Ïĩ":9795,"Ġilico":9796,"atarum":9797,"Ġfaui":9798,"Ġadsu":9799,"Ġdirim":9800,"Ġdecessit":9801,"exerit":9802,"Ġrecto":9803,"Ġvaleat":9804,"uxerit":9805,"Ġuxori":9806,"Ġfals":9807,"Ġquandoque":9808,"Ġperfidia":9809,"Ġsorores":9810,"Ġtradere":9811,"Ġcarminibus":9812,"Ġgermani":9813,"Ġxxxii":9814,"Ġluminibus":9815,"Ġscientiae":9816,"ĠÎ´":9817,"Ġquodcumque":9818,"Ġliuius":9819,"Ġense":9820,"Ġsubdit":9821,"Ġdecert":9822,"Ġtei":9823,"Ġregium":9824,"Ġsimult":9825,"Ġisrael":9826,"Ġrector":9827,"Ġvideas":9828,"Ġhonorum":9829,"Ġductus":9830,"Ġsacros":9831,"Ġadmirab":9832,"Ġgallin":9833,"Ġdono":9834,"Ġcunctos":9835,"Ġdiuersum":9836,"Ġdamno":9837,"Ġdecemuiri":9838,"Ġbeneficii":9839,"Ġinuidiae":9840,"Ġtrahit":9841,"Ġprogressus":9842,"Ġcompetit":9843,"Ġiuncta":9844,"Ġformidine":9845,"Ġbarbarorum":9846,"Ġdegen":9847,"Ġsuprema":9848,"Ġsepeli":9849,"Ġplinius":9850,"Ġlesb":9851,"Ġfideiuss":9852,"07":9853,"14":9854,"fact":9855,"eratum":9856,"idii":9857,"Ġuindic":9858,"rate":9859,"escens":9860,"Ġlatinos":9861,"Ġfrust":9862,"Ġindag":9863,"Ġproceres":9864,"Ġforn":9865,"Ġvestae":9866,"Ġaetati":9867,"Ġradi":9868,"Ġnouer":9869,"Ġcupiens":9870,"Ġtutor":9871,"Ġoues":9872,"ÎµÎ½":9873,"Ġvarias":9874,"Ġpraeceptum":9875,"Ġscrut":9876,"Ġpist":9877,"Ġexord":9878,"Ġtracta":9879,"Ġcontemp":9880,"Ġcontentio":9881,"adas":9882,"oue":9883,"Ġimprouis":9884,"Ġinfortun":9885,"tisque":9886,"Ġquantus":9887,"Ġprobum":9888,"Ġalienae":9889,"Ġgemitu":9890,"Ġcycl":9891,"Ġprorsum":9892,"Ġmacedonum":9893,"Ġidcircoque":9894,"Ġpelago":9895,"Ġlimina":9896,"dere":9897,"uque":9898,"vid":9899,"Ġelic":9900,"Ġva":9901,"urio":9902,"Ġhero":9903,"Ġlas":9904,"Ġutpote":9905,"alo":9906,"Ġacriter":9907,"isth":9908,"Ġdetract":9909,"rentis":9910,"Ġnauali":9911,"Ġattulit":9912,"Ġbruto":9913,"Ġcustodiam":9914,"Ġpersequi":9915,"Ġgigni":9916,"Ġtullio":9917,"Ġcontingit":9918,"Ġmonumenta":9919,"Ġdiog":9920,"Ġsacrileg":9921,"Ġviscera":9922,"xi":9923,"Ġmoris":9924,"Ġvine":9925,"Ġfetus":9926,"aca":9927,"Ġorationes":9928,"Ġaccers":9929,"Ġcontradic":9930,"Ġmorti":9931,"Ġhumanum":9932,"Ġdiluc":9933,"Ġhumanitatis":9934,"Ġorest":9935,"Ġmouere":9936,"Ġvulnus":9937,"Ġcassius":9938,"Ġcuipiam":9939,"Ġalicui":9940,"Ġconjug":9941,"Ġstirpe":9942,"Ġsuperuac":9943,"isus":9944,"Ġpone":9945,"Ġdati":9946,"Ġforibus":9947,"Ġhot":9948,"entam":9949,"olor":9950,"Ġcaret":9951,"lices":9952,"itatae":9953,"Ġparatum":9954,"Ġsteph":9955,"Ġposuimus":9956,"eritis":9957,"Ġcurrum":9958,"Ġcurru":9959,"Ġcapiti":9960,"Ġdespic":9961,"Ġcolunt":9962,"Ġcensus":9963,"Ġpompon":9964,"Ġpenates":9965,"Ġscipioni":9966,"Ġdesiderant":9967,"Ġpraesidiis":9968,"Ġhannibalis":9969,"Ġcollegam":9970,"Ġdeliciis":9971,"Ġocciso":9972,"Ġsuffragiis":9973,"Ġpamph":9974,"Ġintempest":9975,"fi":9976,"iar":9977,"Ġ~":9978,"Ġauer":9979,"Ġent":9980,"isis":9981,"relig":9982,"eci":9983,"Ġexsequ":9984,"Ġextoll":9985,"tarent":9986,"Ġsedet":9987,"Ġneu":9988,"Ġvirium":9989,"Ġsero":9990,"Ġmodicum":9991,"Ġimperatoribus":9992,"Ġfecisti":9993,"Ġnotus":9994,"Ġtabul":9995,"Ġsonitus":9996,"Ġresponsa":9997,"Ġscriptorum":9998,"Ġpropriae":9999,"Ġillico":10000,"Ġsuperbia":10001,"Ġuictoria":10002,"Ġremedium":10003,"Ġneutrum":10004,"nihil":10005,"Ġierusalem":10006,"Ġvil":10007,"Ġlis":10008,"unus":10009,"perent":10010,"andique":10011,"iscere":10012,"Ġsuperioris":10013,"Ġoun":10014,"irca":10015,"Ġexercere":10016,"Ġepulas":10017,"Ġdominos":10018,"Ġleuiter":10019,"rentem":10020,"Ġpedites":10021,"Ġaequinoct":10022,"erosol":10023,"Ġglorios":10024,"Ġbreue":10025,"Ġfalc":10026,"Ġterror":10027,"Ġdoctrin":10028,"Ġcupidine":10029,"Ġpostulare":10030,"Ġ04":10031,"Ġnubes":10032,"Ġfontes":10033,"Ġherodotus":10034,"Ġbeniuol":10035,"32":10036,"uarum":10037,"Ġauit":10038,"Ġiratus":10039,"aticum":10040,"omo":10041,"Ġconsenti":10042,"Ġenum":10043,"iug":10044,"Ġdixerint":10045,"Ġauunc":10046,"Ġconcilium":10047,"Ġele":10048,"Ġcertus":10049,"Ġdemir":10050,"Ġhomer":10051,"Ġsignificationis":10052,"Ġconuent":10053,"Ġaequor":10054,"Ġpriuatum":10055,"Ġuniuersum":10056,"Ġvindicare":10057,"Ġfauorinum":10058,"Ġfunus":10059,"Ġefficit":10060,"ÏĦÎ±":10061,"Ġcondicionem":10062,"Ġleues":10063,"Ġapparatu":10064,"Ġseruire":10065,"Ġoctaui":10066,"Ġsimilitudine":10067,"Ġnigidii":10068,"dimidiatum":10069,"Ġsamnitibus":10070,"Ġadfectus":10071,"Ġitineris":10072,"superesse":10073,"Ġnequiquam":10074,"Ġpocula":10075,"Ġcatholic":10076,"onica":10077,"Ġmisi":10078,"asi":10079,"antas":10080,"Ġbiennium":10081,"Ġariet":10082,"Ġabdic":10083,"Ġpraedit":10084,"Ġinteri":10085,"Ġinsist":10086,"Ġiudicatum":10087,"Ġredhib":10088,"Ġ44":10089,"Ġiusti":10090,"Ġconstantini":10091,"Ġloquar":10092,"Ġadulescentes":10093,"Ġconueniat":10094,"Ġceterisque":10095,"Ġmanifesta":10096,"Ġinfamia":10097,"Ġsamnites":10098,"Ġquocirca":10099,"grani":10100,"Ġgremio":10101,"lt":10102,"lau":10103,"Ġvana":10104,"ulisti":10105,"ensam":10106,"ande":10107,"Ġpraelio":10108,"Ġamnes":10109,"Ġorationibus":10110,"exa":10111,"Ġcompend":10112,"Ġrecogn":10113,"Ġmedios":10114,"Ġreditus":10115,"Ġxxix":10116,"Ġcallim":10117,"antesque":10118,"Ġseptima":10119,"Ġsummus":10120,"Ġbrutum":10121,"Ġullus":10122,"Ġspectat":10123,"Ġerroris":10124,"Ġreprehendit":10125,"Ġmeminit":10126,"Ġaegyptum":10127,"Ġnutri":10128,"Ġdiuitias":10129,"Ġconscripsit":10130,"Ġinfinita":10131,"Ġhereditas":10132,"';":10133,"po":10134,"Ġoss":10135,"oros":10136,"Ġvates":10137,"iculi":10138,"utione":10139,"Ġhal":10140,"Ġhaus":10141,"Ġprau":10142,"Ġsuau":10143,"endens":10144,"ultis":10145,"Ġphoc":10146,"rime":10147,"Ġauditis":10148,"Ġcarere":10149,"Ġingentibus":10150,"Ġsalt":10151,"Ġconfund":10152,"Ġcastric":10153,"Ġmisera":10154,"Ġrabi":10155,"Ġdedere":10156,"Ġsupradic":10157,"Ġnuntio":10158,"Ġvirgis":10159,"Ġfestiuit":10160,"Ġcrebro":10161,"Ġforsan":10162,"Ġeus":10163,"Ġsquam":10164,"Ġfib":10165,"utio":10166,"ulsit":10167,"iab":10168,"Ġana":10169,"Ġerub":10170,"Ġoras":10171,"ianorum":10172,"Ġsuperiorem":10173,"Ġcommon":10174,"Ġinform":10175,"Ġpeteret":10176,"Ġcirculo":10177,"Ġdiuum":10178,"Ġcetero":10179,"illis":10180,"Ġnouae":10181,"Ġdubito":10182,"Ġpraeditus":10183,"Ġinsignibus":10184,"Ġexpertus":10185,"Ġturpi":10186,"Ġconuiuium":10187,"Ġfuluius":10188,"Ġpallad":10189,"Ġsequenti":10190,"Ġcontumeliam":10191,"Ġdefuncto":10192,"ologia":10193,"ritas":10194,"Ġsimus":10195,"inxit":10196,"Ġferet":10197,"Ġdeper":10198,"Ġparata":10199,"inctu":10200,"Ġspur":10201,"Ġprimores":10202,"Ġvolui":10203,"Ġdebeant":10204,"Ġlaudare":10205,"Ġseptimum":10206,"Ġcupio":10207,"Ġmarique":10208,"Ġdeducta":10209,"Ġaerarium":10210,"Ġmixta":10211,"Ġmancipia":10212,"Ġvario":10213,"eng":10214,"ossa":10215,"icitur":10216,"Ġexer":10217,"Ġtri":10218,"Ġoperum":10219,"Ġaltis":10220,"Ġpoti":10221,"Ġfortem":10222,"Ġmota":10223,"Ġcredi":10224,"Ġdesit":10225,"Ġmalus":10226,"Ġprocedit":10227,"Ġprocedere":10228,"Ġceteras":10229,"Ġreform":10230,"Ġposteaquam":10231,"Ġfabulae":10232,"ippi":10233,"Ġexpers":10234,"Ġinuito":10235,"Ġinops":10236,"Ġexsting":10237,"Ġpergam":10238,"Ġsublata":10239,"Ġnaeuius":10240,"Ġgeorg":10241,"239":10242,"Ġie":10243,"iceret":10244,"iderunt":10245,"Ġcondi":10246,"Ġcoact":10247,"Ġpraeerat":10248,"ineant":10249,"Ġsecess":10250,"Ġvenum":10251,"Ġkat":10252,"Ġconferre":10253,"Ġforas":10254,"Ġarboris":10255,"Ġmunific":10256,"Ġabsente":10257,"Ġpromisc":10258,"Ġconual":10259,"Ġfurta":10260,"Ġfamiliarem":10261,"Ġludic":10262,"Ġindicia":10263,"Ġmerces":10264,"Ġoriginum":10265,"Ġdecreuit":10266,"Ġsabini":10267,"Ġsortem":10268,"Ġsubstantiam":10269,"Ġobtinere":10270,"Ġpiso":10271,"Ġlibidine":10272,"Ġacceperit":10273,"Ġsempiter":10274,"Ġpastor":10275,"Ġfoliis":10276,"Ġvom":10277,"imodi":10278,"Ġloth":10279,"Ġ\".":10280,"Ġperitus":10281,"Ġfacimus":10282,"Ġamas":10283,"iaeque":10284,"Ġpropere":10285,"Ġserius":10286,"Ġinsidi":10287,"Ġsenis":10288,"Ġaudiens":10289,"fecto":10290,"erni":10291,"Ġcoloni":10292,"Ġdignos":10293,"Ġtribut":10294,"Ġfortunas":10295,"Ġtribunum":10296,"Ġmutuam":10297,"Ġexistimat":10298,"Ġcommunibus":10299,"Ġdilectus":10300,"Ġlectit":10301,"Ġtestamenti":10302,"Ġprouidentia":10303,"Ġpercuss":10304,"Ġpercussit":10305,"Ġscribi":10306,"Ġcognouit":10307,"Ġproconsul":10308,"Ġuirtute":10309,"Ġulterius":10310,"Ġxenoph":10311,"Ġ<>":10312,"35":10313,"mille":10314,"itie":10315,"Ġcunt":10316,"esp":10317,"uriens":10318,"endorum":10319,"iris":10320,"Ġconstare":10321,"aturque":10322,"Ġcomiter":10323,"Ġpartum":10324,"Ġamator":10325,"Ġhabuerat":10326,"Ġcontest":10327,"Ġdesuper":10328,"itatemque":10329,"Ġmatres":10330,"Ġsemperque":10331,"Ġlacum":10332,"Ġrogauit":10333,"Ġpectoris":10334,"rescit":10335,"Ġxxxi":10336,"Ġfacturus":10337,"quirere":10338,"Ġaemilius":10339,"Ġmeliorem":10340,"Ġproles":10341,"Ġassidue":10342,"Ġpeperit":10343,"Ġextrane":10344,"Ġdoli":10345,"Ġvan":10346,"iaque":10347,"llam":10348,"Ġverae":10349,"Ġarter":10350,"Ġstyg":10351,"Ġexistimo":10352,"Ġsingulorum":10353,"Ġvinculis":10354,"Ġdiligentiam":10355,"Ġcelebrauit":10356,"Ġmarcellum":10357,"Ġacerba":10358,"Ġpronuntia":10359,"Ġnuda":10360,"Ġpignus":10361,"ĠÂ».":10362,"Ġneronis":10363,"Ġintestato":10364,"Ġtranseunt":10365,"Ġnupta":10366,"urem":10367,"amentis":10368,"Ġmero":10369,"emini":10370,"ioi":10371,"Ġarat":10372,"Ġfaces":10373,"Ġpraeiudic":10374,"Ġlibr":10375,"iuid":10376,"quitas":10377,"Ġgrass":10378,"Ġphar":10379,"Ġferam":10380,"Ġferae":10381,"Ġteneret":10382,"Ġtenetur":10383,"Ġcrura":10384,"Ġlabeo":10385,"Ġmiserunt":10386,"Ġaeui":10387,"Ġstudiorum":10388,"Ġnoctibus":10389,"Ġnotis":10390,"Ġmuliere":10391,"Ġiuliani":10392,"Ġdictatorem":10393,"Ġdiadem":10394,"Ġsonitu":10395,"Ġpraemio":10396,"Ġvarietas":10397,"Ġsuspir":10398,"Ġfacultate":10399,"Ġligno":10400,"Ġanimaduertit":10401,"Ġpaupert":10402,"Ġprisca":10403,"Ġobsequium":10404,"Ġreditu":10405,"Ġvolucres":10406,"Ġscaeuola":10407,"Ġboeot":10408,"ry":10409,"rita":10410,"Ġprens":10411,"Ġdabo":10412,"entissimum":10413,"Ġquiete":10414,"Ġmaest":10415,"Ġerrare":10416,"Ġamne":10417,"Ġlegunt":10418,"Ġvicta":10419,"Ġauditor":10420,"Ġcarolus":10421,"Ġdebetur":10422,"Ġdiscus":10423,"Ġsextum":10424,"Ġscribam":10425,"Ġnotitiam":10426,"Ġcanes":10427,"Ġretinet":10428,"Ġcommentario":10429,"Ġvictores":10430,"Ġsplendore":10431,"Ġleont":10432,"Ġitineribus":10433,"Ġfolia":10434,"Ġsenior":10435,"rast":10436,"ve":10437,"Ġcera":10438,"Ġpriam":10439,"otes":10440,"Ġcordi":10441,"dep":10442,"rumque":10443,"Ġannales":10444,"Ġvenissent":10445,"Ġnominatur":10446,"Ġcorpori":10447,"Ġdominium":10448,"Ġprincipatum":10449,"Ġmortuum":10450,"Ġprobo":10451,"Ġperscrip":10452,"Ġegisse":10453,"Ġabsens":10454,"Ġargent":10455,"Ġuerbis":10456,"Ġmissos":10457,"Ġepistola":10458,"Ġcustos":10459,"Ġsapientem":10460,"Ġcomplect":10461,"Ġiurisdic":10462,"Ġegregius":10463,"Ġvasa":10464,"Ġrustica":10465,"Ġnouemb":10466,"Ġcubiculo":10467,"runc":10468,"Ġaerum":10469,"Ġdurum":10470,"Ġmys":10471,"iades":10472,"Ġsuc":10473,"opolit":10474,"Ġperiit":10475,"Ġdira":10476,"Ġbulg":10477,"Ġlibere":10478,"Ġstrat":10479,"Ġpatientia":10480,"Ġmanip":10481,"esceret":10482,"Ġtumulum":10483,"Ġauoc":10484,"Ġmoras":10485,"Ġpublicas":10486,"Ġputaret":10487,"Ġproba":10488,"Ġlaudat":10489,"Ġtalium":10490,"Ġfelicitatis":10491,"Ġexsec":10492,"Ġcustodes":10493,"Ġinnox":10494,"Ġheredibus":10495,"Ġhortensius":10496,"Ġdextro":10497,"Ġcoeperit":10498,"Ġraptim":10499,"Ġandr":10500,"Ġtuba":10501,"Ġpalmam":10502,"mos":10503,"viii":10504,"Ġpil":10505,"Ġcena":10506,"unxit":10507,"ace":10508,"acum":10509,"opere":10510,"tertium":10511,"Ġquamdiu":10512,"Ġfactos":10513,"Ġsubita":10514,"Ġcommittere":10515,"Ġimperatorum":10516,"Ġinferior":10517,"Ġdefendi":10518,"ricis":10519,"Ġconsulta":10520,"Ġsale":10521,"Ġreddi":10522,"Ġoppon":10523,"Ġsupplex":10524,"Ġtransuers":10525,"Ġmiseris":10526,"Ġarmatis":10527,"Ġdonauit":10528,"Ġcredimus":10529,"Ġexistimant":10530,"Ġtacito":10531,"Ġepistulis":10532,"Ġpassi":10533,"Ġmotum":10534,"Ġcyn":10535,"Ġcultum":10536,"Ġfurem":10537,"Ġdulcia":10538,"Ġmacedon":10539,"Ġconsuetudinis":10540,"Ġtullium":10541,"Ġligust":10542,"Ġincuriose":10543,"Ġproficiscitur":10544,"Ġmasurius":10545,"Ġtransgressus":10546,"34":10547,"Ġcir":10548,"Ġinani":10549,"osam":10550,"Ġrecepta":10551,"Ġexamin":10552,"Ġrata":10553,"Ġcomitis":10554,"Ġtristi":10555,"itusque":10556,"Ġmultarum":10557,"Ġvenere":10558,"Ġauent":10559,"assem":10560,"Ġfrut":10561,"Ġsaltus":10562,"Ġindiuid":10563,"Ġiuste":10564,"Ġmensem":10565,"Ġrogare":10566,"Ġaffectus":10567,"Ġherculem":10568,"Ġaperto":10569,"Ġzo":10570,"Ġgrammaticis":10571,"Ġdiuisa":10572,"Ġuestig":10573,"Ġdiuinitus":10574,"Ġfontem":10575,"Ġphoen":10576,"Ġrettulit":10577,"Ġpraetext":10578,"hon":10579,"por":10580,"Ġmech":10581,"inon":10582,"ulsis":10583,"abas":10584,"Ġcautum":10585,"Ġmaer":10586,"aturae":10587,"Ġcomed":10588,"Ġerrat":10589,"Ġerupt":10590,"Ġvideris":10591,"Ġvirili":10592,"Ġlocos":10593,"Ġdecima":10594,"Ġinsip":10595,"Ġmilitis":10596,"Ġvalerium":10597,"Ġlatinorum":10598,"Ġputarent":10599,"Ġindec":10600,"Ġdignam":10601,"Ġlicuit":10602,"Ġpromisit":10603,"Ġlaeti":10604,"Ġarbitra":10605,"Ġinleceb":10606,"Ġuolupt":10607,"Ġcogitare":10608,"Ġtyrannus":10609,"Ġchristianos":10610,"Ġcontentione":10611,"Ġeud":10612,"Ġcrat":10613,"ebimus":10614,"ituri":10615,"Ġpara":10616,"Ġinteritum":10617,"Ġsoles":10618,"Ġinsinu":10619,"escant":10620,"escente":10621,"Ġpharet":10622,"Ġsenectus":10623,"Ġmedicus":10624,"Ġneglex":10625,"Ġmetello":10626,"Ġcelt":10627,"Ġpulm":10628,"Ġoportuit":10629,"Ġreperi":10630,"Ġhonorio":10631,"Ġintellegere":10632,"Ġfeminarum":10633,"Ġignorat":10634,"Ġceteraque":10635,"Ġpergit":10636,"Ġclementiae":10637,"Ġangustias":10638,"iennio":10639,"Ġignominia":10640,"Ġcircuitu":10641,"Ġatrox":10642,"pugn":10643,"suc":10644,"Ġnod":10645,"Ġlang":10646,"Ġexaud":10647,"Ġperire":10648,"Ġomnisque":10649,"uios":10650,"Ġuast":10651,"Ġintersit":10652,"ratio":10653,"Ġsolitos":10654,"Ġincus":10655,"Ġveneri":10656,"Ġinuiol":10657,"Ġdiscedere":10658,"apsa":10659,"Ġmilitaribus":10660,"Ġinstr":10661,"Ġpulsus":10662,"Ġpomerium":10663,"Ġvulc":10664,"Ġbruti":10665,"Ġviuendi":10666,"Ġopinionis":10667,"Ġsolidum":10668,"Ġzeph":10669,"Ġtelo":10670,"Ġeleganti":10671,"Ġsaxones":10672,"Ġpatriarch":10673,"Ġecclesia":10674,"Ġcruore":10675,"Ġrudis":10676,"Ġidoneos":10677,"Ġmaiestate":10678,"Ġpostumius":10679,"Ġdomnus":10680,"vestrum":10681,"Ġtarquinius":10682,"ierit":10683,"Ġnato":10684,"enarum":10685,"Ġlibero":10686,"ustis":10687,"Ġsoluta":10688,"Ġvela":10689,"Ġxlu":10690,"Ġscriptus":10691,"Ġexpedit":10692,"Ġtenens":10693,"Ġprincipali":10694,"Ġcels":10695,"ontis":10696,"Ġsignificant":10697,"Ġdiscipuli":10698,"Ġdiuerso":10699,"Ġtacere":10700,"Ġmarco":10701,"Ġfauorino":10702,"Ġrediens":10703,"Ġproduci":10704,"Ġegregium":10705,"Ġtollere":10706,"Ġdubitare":10707,"Ġmolestia":10708,"Ġebur":10709,"Ġcontingere":10710,"Ġpalatii":10711,"Ġluxuriae":10712,"Ġiracund":10713,"Ġiugurth":10714,"Ġedidit":10715,"itari":10716,"Ġdent":10717,"Ġniue":10718,"Ġmurum":10719,"urit":10720,"icines":10721,"Ġadfic":10722,"endunt":10723,"Ġdiceres":10724,"adi":10725,"Ġproperant":10726,"Ġminimum":10727,"Ġexpon":10728,"Ġlatet":10729,"Ġsaltu":10730,"Ġite":10731,"Ġregnante":10732,"ontai":10733,"Ġplacide":10734,"Ġgemin":10735,"Ġobseruationem":10736,"Ġoua":10737,"Ġtonit":10738,"Ġcupidus":10739,"emptum":10740,"Ġvoluptates":10741,"Ġfung":10742,"Ġcarthagine":10743,"Ġfrontem":10744,"Ġdelicias":10745,"Ġstellae":10746,"Ġsocietas":10747,"Ġvalentiniano":10748,"Ġcenseo":10749,"Ġsinistra":10750,"agesimum":10751,"oniorum":10752,"Ġinitia":10753,"tali":10754,"ele":10755,"Ġsedis":10756,"Ġscrin":10757,"Ġfaciens":10758,"unctum":10759,"Ġhabitat":10760,"Ġenit":10761,"Ġenunt":10762,"Ġcontag":10763,"Ġcontubern":10764,"Ġantig":10765,"Ġauid":10766,"Ġinfre":10767,"Ġremou":10768,"Ġrecenti":10769,"Ġvictis":10770,"pluria":10771,"Ġcensoribus":10772,"Ġbracch":10773,"Ġpermisit":10774,"Ġtabularum":10775,"Ġfelicitate":10776,"Ġsonat":10777,"Ġhaere":10778,"Ġhereditate":10779,"Ġcadunt":10780,"Ġcaptiuorum":10781,"Ġrhodiensibus":10782,"citra":10783,"Ġsagittis":10784,"Ġdepopul":10785,"bet":10786,"dos":10787,"hare":10788,"enc":10789,"etiam":10790,"Ġadam":10791,"Ġbi":10792,"Ġmares":10793,"Ġanceps":10794,"Ġplumb":10795,"Ġtractus":10796,"Ġoptin":10797,"Ġpha":10798,"Ġmiliti":10799,"Ġconstans":10800,"Ġvitii":10801,"Ġpraesentes":10802,"iensis":10803,"Ġvisu":10804,"Ġteste":10805,"Ġegest":10806,"ordin":10807,"rente":10808,"Ġaedis":10809,"Ġcontrario":10810,"Ġcontrariis":10811,"Ġocciditur":10812,"Ġinimico":10813,"Ġinimicit":10814,"Ġintegro":10815,"Ġcertamina":10816,"Ġturpis":10817,"Ġquodammodo":10818,"Ġsulpicio":10819,"Ġsepultus":10820,"Ġexortum":10821,"Ġobsecro":10822,"lae":10823,"sim":10824,"Ġsot":10825,"uriae":10826,"Ġperipat":10827,"Ġcoetu":10828,"Ġplaus":10829,"Ġliberat":10830,"Ġhabebatur":10831,"Ġromulus":10832,"Ġcorusc":10833,"Ġincub":10834,"ricum":10835,"Ġpetens":10836,"Ġpetiuit":10837,"Ġpraesentium":10838,"illo":10839,"Ġarmatus":10840,"Ġregnare":10841,"Ġcaptiuis":10842,"Ġmirari":10843,"Ġnuntium":10844,"Ġbarbare":10845,"Ġsequens":10846,"Ġalbo":10847,"Ġdoctissimus":10848,"Ġornatum":10849,"Ġmercurius":10850,"Ġaerario":10851,"Ġdefuncti":10852,"Ġverecundia":10853,"Ġgelu":10854,"dudum":10855,"Ġpug":10856,"Ġnactus":10857,"Ġleto":10858,"Ġutatur":10859,"Ġperfici":10860,"Ġrod":10861,"Ġero":10862,"Ġmeherc":10863,"Ġvidens":10864,"essi":10865,"Ġmario":10866,"Ġnosti":10867,"Ġcomput":10868,"Ġmoriens":10869,"Ġcham":10870,"Ġpraestab":10871,"Ġfecund":10872,"Ġdomina":10873,"Ġcognitum":10874,"Ġcapto":10875,"Ġuniuerso":10876,"Ġfelicitas":10877,"Ġardor":10878,"Ġnigro":10879,"Ġinsignem":10880,"Ġfigurae":10881,"Ġvoluptatis":10882,"Ġconsiliorum":10883,"Ġfrigore":10884,"Ġaliquotiens":10885,"Ġdiscrimina":10886,"Ġperfectum":10887,"Ġcoelo":10888,"Ġdolabella":10889,"Ġmamert":10890,"Ġcurrere":10891,"Ġlapidibus":10892,"enit":10893,"icius":10894,"art":10895,"Ġaduert":10896,"Ġburg":10897,"uiorum":10898,"iger":10899,"Ġhabendi":10900,"Ġlegatione":10901,"Ġocius":10902,"Ġregiae":10903,"Ġcommissum":10904,"Ġreson":10905,"Ġmedici":10906,"Ġcreta":10907,"Ġpossimus":10908,"Ġductor":10909,"Ġgratis":10910,"Ġdiuinis":10911,"Ġemere":10912,"Ġadmin":10913,"Ġpugnas":10914,"Ġpraeteritum":10915,"Ġcateru":10916,"âĢº":10917,"Ġdiffert":10918,"Ġvinci":10919,"ĠâĢ¹":10920,"Ġintellegitur":10921,"Ġdescendere":10922,"Ġluxuria":10923,"Ġaenea":10924,"Ġventos":10925,"Ġtheatro":10926,"Ġrostris":10927,"Ġderelic":10928,"erosolym":10929,"':":10930,"he":10931,"vel":10932,"Ġmanda":10933,"Ġetym":10934,"Ġacrius":10935,"Ġacetum":10936,"Ġdictam":10937,"Ġarus":10938,"Ġuidit":10939,"Ġsoluere":10940,"Ġsubn":10941,"Ġcomminus":10942,"ebatque":10943,"Ġcrast":10944,"Ġnegauit":10945,"Ġmiserat":10946,"Ġceterae":10947,"Ġpraeclar":10948,"Ġcommunes":10949,"Ġaedilis":10950,"Ġtabula":10951,"Ġcongredi":10952,"Ġscelerat":10953,"Ġadiit":10954,"Ġexsol":10955,"Ġadulescent":10956,"Ġtarpe":10957,"Ġpondera":10958,"Ġoptimis":10959,"Ġripis":10960,"Ġscaen":10961,"itterent":10962,"necess":10963,"Ġthessali":10964,"Ġcognomine":10965,"Ġparietes":10966,"Ġexercitui":10967,"ĠÎºÎ±Î¹":10968,"Ġelleb":10969,"dub":10970,"Ġmitis":10971,"urarum":10972,"Ġexeg":10973,"Ġconch":10974,"uerimus":10975,"Ġrara":10976,"Ġquamque":10977,"lice":10978,"Ġamissa":10979,"Ġoratores":10980,"Ġagrorum":10981,"ditas":10982,"Ġauibus":10983,"Ġaudisset":10984,"Ġacciperet":10985,"Ġinuoc":10986,"Ġassign":10987,"Ġsalu":10988,"Ġgauius":10989,"Ġprodit":10990,"Ġarbitratu":10991,"Ġdicturus":10992,"Ġfunditus":10993,"Ġfemin":10994,"Ġtriumphi":10995,"Ġsaturnus":10996,"Ġsubstitut":10997,"Ġcomperta":10998,"Ġtriste":10999,"ÏģÎ±":11000,"Ġdiduc":11001,"Ġprosperis":11002,"Ġobnoxia":11003,"Ġionath":11004,"mun":11005,"sunt":11006,"ersit":11007,"esis":11008,"raxit":11009,"oton":11010,"Ġdiur":11011,"Ġambi":11012,"Ġstella":11013,"Ġalte":11014,"Ġviridi":11015,"ullum":11016,"Ġterren":11017,"Ġcapiunt":11018,"Ġcapuam":11019,"Ġconstet":11020,"Ġaudeat":11021,"Ġmoritur":11022,"Ġexprob":11023,"Ġcensum":11024,"Ġessemus":11025,"ractus":11026,"Ġfutt":11027,"Ġreligionibus":11028,"Ġseuero":11029,"Ġexsult":11030,"Ġpraefecti":11031,"Ġdestit":11032,"Ġhereditatis":11033,"Ġhortatur":11034,"Ġgrammaticum":11035,"Ġconiugem":11036,"Ġtyrannum":11037,"irentur":11038,"Ġignobilis":11039,"Ġolympia":11040,"82":11041,"Ġomen":11042,"Ġsulc":11043,"Ġdatam":11044,"Ġfret":11045,"imonium":11046,"Ġlut":11047,"opat":11048,"ende":11049,"ipsum":11050,"Ġbyz":11051,"Ġconsangu":11052,"ecte":11053,"Ġue":11054,"Ġviderat":11055,"ansque":11056,"Ġsimilibus":11057,"ricus":11058,"ernis":11059,"Ġlongior":11060,"Ġdominae":11061,"Ġsuppos":11062,"Ġeorumque":11063,"Ġmonet":11064,"Ġtabulae":11065,"Ġfelices":11066,"Ġmetuens":11067,"Ġmartyr":11068,"Ġmundus":11069,"Ġpulcher":11070,"Ġaemili":11071,"Ġtractu":11072,"Ġcompertum":11073,"Ġinterpretatio":11074,"Ġtollit":11075,"Ġtransfug":11076,"Ġpontifices":11077,"Ġvehementius":11078,"Ġripas":11079,"Ġaeternum":11080,"Ġdepositio":11081,"Ġinspect":11082,"Ġabsurdum":11083,"mae":11084,"quiri":11085,"Ġeug":11086,"Ġedi":11087,"usi":11088,"Ġsau":11089,"Ġmimo":11090,"Ġvot":11091,"entas":11092,"una":11093,"Ġutar":11094,"ensas":11095,"Ġverres":11096,"Ġparce":11097,"Ġoboed":11098,"Ġvocamus":11099,"ientiae":11100,"Ġauus":11101,"Ġauditu":11102,"Ġinuestig":11103,"Ġdiscret":11104,"Ġfecere":11105,"Ġvester":11106,"Ġglori":11107,"Ġseruata":11108,"Ġ45":11109,"Ġsimulque":11110,"Ġadmou":11111,"Ġceleri":11112,"Ġarmatos":11113,"Ġsocia":11114,"Ġprobari":11115,"plor":11116,"Ġpontum":11117,"Ġmiseram":11118,"Ġsapientes":11119,"Ġmacedoniae":11120,"Ġrecipi":11121,"Ġmercedem":11122,"Ġinanes":11123,"Ġepicurus":11124,"Ġtranstulit":11125,"Ġmineruae":11126,"sol":11127,"Î¸":11128,"Ġmell":11129,"Ġty":11130,"Ġfures":11131,"idiae":11132,"ocli":11133,"acius":11134,"acio":11135,"Ġexitu":11136,"sept":11137,"ulti":11138,"igi":11139,"Ġlegio":11140,"Ġgenitus":11141,"Ġiudiciorum":11142,"Ġremisit":11143,"Ġlitis":11144,"Ġpetrus":11145,"Ġlatinam":11146,"Ġchil":11147,"Ġvestes":11148,"Ġamica":11149,"Ġegredi":11150,"Ġpalma":11151,"Ġiustus":11152,"Ġsignificatio":11153,"Ġmagistris":11154,"Ġmisso":11155,"Ġtheodericus":11156,"Ġpraecipiti":11157,"Ġmaiori":11158,"Ġantiquae":11159,"Ġsapientiam":11160,"Ġinimicis":11161,"Ġinimicos":11162,"Ġhannibale":11163,"Ġgermania":11164,"Ġpraepositio":11165,"Ġpraeceptis":11166,"Ġebri":11167,"Ġpercontatus":11168,"Ġsuauitate":11169,"25":11170,"Ġcari":11171,"Ġreos":11172,"Ġdicerem":11173,"Ġscor":11174,"Ġidibus":11175,"Ġori":11176,"Ġinteritu":11177,"rior":11178,"Ġsuperos":11179,"Ġprimitus":11180,"Ġterrest":11181,"Ġcapitur":11182,"Ġvenenis":11183,"Ġforti":11184,"Ġmilli":11185,"Ġmillibus":11186,"Ġdiscordia":11187,"Ġappellatae":11188,"Ġpatroni":11189,"Ġeuang":11190,"Ġpoenorum":11191,"Ġviuus":11192,"Ġdiligentius":11193,"Ġiulio":11194,"Ġquotidie":11195,"Ġtiberium":11196,"Ġverborumque":11197,"Ġcupiditas":11198,"Ġaltitudine":11199,"Ġpontificis":11200,"Ġtutelam":11201,"Ġadrianus":11202,"Ġvolgus":11203,"aulus":11204,"Ġios":11205,"Ġpind":11206,"Ġtect":11207,"Ġting":11208,"Ġinhib":11209,"Ġprag":11210,"ibunda":11211,"tal":11212,"Ġsciant":11213,"Ġstruc":11214,"Ġinterfici":11215,"Ġspon":11216,"Ġsitis":11217,"Ġdixeris":11218,"ionemque":11219,"Ġreput":11220,"Ġnominum":11221,"Ġpraesag":11222,"Ġfamem":11223,"Ġlabori":11224,"Ġiustin":11225,"Ġpugnauit":11226,"Ġsancto":11227,"Ġpriuati":11228,"Ġdiuersae":11229,"Ġindictione":11230,"Ġparente":11231,"Ġpretii":11232,"Ġquaerimus":11233,"Ġponitur":11234,"Ġarbitrantur":11235,"Ġcoepisse":11236,"Ġgladi":11237,"Ġobtemper":11238,"Ġtart":11239,"Ġconspir":11240,"Ġutilitate":11241,"Ġfacultates":11242,"Ġsuspicione":11243,"Ġiurare":11244,"Ġventorum":11245,"Ġpontificum":11246,"Ġtoga":11247,"Ġacceperat":11248,"Ġappareat":11249,"irare":11250,"Ġquerim":11251,"Ġmuri":11252,"Ġgy":11253,"Ġquidquam":11254,"Ġparuum":11255,"Ġcoronis":11256,"Ġverbera":11257,"Ġapprop":11258,"Ġmoes":11259,"Ġpetis":11260,"Ġtraxit":11261,"annis":11262,"Ġordinibus":11263,"Ġcontinetur":11264,"Ġponte":11265,"Ġludi":11266,"Ġdiligentissime":11267,"Ġindicio":11268,"Ġfelicem":11269,"Ġcanere":11270,"Ġanimaduerter":11271,"Ġuoce":11272,"Ġargumenta":11273,"Ġduodec":11274,"Ġsallustii":11275,"Ġsatell":11276,"Ġillustris":11277,"Ġsamnitium":11278,"Ġinhon":11279,"Ġinfinitum":11280,"85":11281,"Î²":11282,"Ġiec":11283,"Ġtae":11284,"ulerant":11285,"Ġconqui":11286,"Ġdiomed":11287,"issae":11288,"Ġbina":11289,"Ġsedens":11290,"Ġpraepon":11291,"Ġtriennium":11292,"Ġlibrarum":11293,"iuam":11294,"Ġserg":11295,"Ġiamdudum":11296,"Ġscriptoribus":11297,"Ġmanc":11298,"erentia":11299,"Ġaudias":11300,"Ġiussum":11301,"Ġredempt":11302,"Ġinstat":11303,"Ġfabul":11304,"Ġmensae":11305,"Ġiulianum":11306,"ĠâĢł":11307,"Ġinsigni":11308,"Ġinopiam":11309,"Ġsuspicionem":11310,"Ġfastid":11311,"Ġsurc":11312,"Ġchaldae":11313,"Ġcimb":11314,"Ġaesch":11315,"tores":11316,"tiones":11317,"uinus":11318,"Ġinert":11319,"Ġloque":11320,"Ġconsurg":11321,"Ġscisc":11322,"ratae":11323,"Ġfla":11324,"agesimo":11325,"Ġcler":11326,"Ġvenis":11327,"Ġmagnos":11328,"Ġconcilio":11329,"Ġconfert":11330,"Ġfecerint":11331,"Ġignot":11332,"Ġdiuini":11333,"Ġmutari":11334,"Ġtimet":11335,"Ġdisserit":11336,"ocles":11337,"Ġuirtus":11338,"Ġterrorem":11339,"Ġmarcello":11340,"Ġstatuta":11341,"Ġconstiterit":11342,"Ġcommodis":11343,"Ġvacat":11344,"Ġturpiter":11345,"Ġeury":11346,"Ġperdere":11347,"Ġterminos":11348,"Ġdecernit":11349,"Ġcarthaginiensibus":11350,"Ġquadrages":11351,"Ġvallum":11352,"Ġhiberna":11353,"Ġincommoda":11354,"Ġillyricum":11355,"Ġsententiarum":11356,"Ġhodi":11357,"sell":11358,"iot":11359,"ellin":11360,"Ġarde":11361,"Ġagerent":11362,"Ġdecuit":11363,"Ġvocandi":11364,"iosos":11365,"Ġcertior":11366,"Ġcognito":11367,"Ġseruat":11368,"Ġ55":11369,"Ġlacer":11370,"Ġseptim":11371,"Ġaccepisset":11372,"Ġfretus":11373,"Ġcornibus":11374,"Ġnocere":11375,"Ġplurimas":11376,"Ġdelicta":11377,"Ġqualitate":11378,"Ġclaustra":11379,"Ġhoroscopo":11380,"iatis":11381,"pem":11382,"uoque":11383,"Ġvindex":11384,"Ġinha":11385,"imper":11386,"aron":11387,"ulissent":11388,"Ġexitio":11389,"Ġintrep":11390,"Ġscrup":11391,"Ġsuperi":11392,"Ġpoli":11393,"Ġcompens":11394,"Ġpetitum":11395,"Ġlongam":11396,"Ġpedest":11397,"eremur":11398,"Ġpaucorum":11399,"uicesimo":11400,"Ġinuenies":11401,"Ġcohortibus":11402,"Ġcaetera":11403,"rupit":11404,"Ġmaiestatem":11405,"Ġsepulcro":11406,"norum":11407,"Ġveg":11408,"enorum":11409,"Ġexsuper":11410,"andro":11411,"Ġscand":11412,"Ġabeunt":11413,"Ġlocutum":11414,"Ġmodice":11415,"Ġsuperfl":11416,"Ġthan":11417,"Ġdebuisse":11418,"Ġveteri":11419,"Ġcoloribus":11420,"Ġmortui":11421,"Ġprobi":11422,"Ġtestatur":11423,"Ġlacu":11424,"Ġindef":11425,"Ġplacent":11426,"Ġhorrid":11427,"Ġafflic":11428,"Ġextremis":11429,"enumero":11430,"Ġpronuntiare":11431,"Ġinstituto":11432,"Ġsarm":11433,"Ġgallicanus":11434,"Ġobsequio":11435,"Ġthessal":11436,"Ġroscio":11437,"Ġlonginqua":11438,"Ġbereng":11439,"be":11440,"cam":11441,"iari":11442,"ugo":11443,"Ġsitum":11444,"Ġexult":11445,"opotam":11446,"eleb":11447,"Ġplenus":11448,"Ġpluui":11449,"Ġhabuerunt":11450,"Ġcapitibus":11451,"Ġscripti":11452,"Ġvenerant":11453,"Ġphas":11454,"ientur":11455,"Ġrepos":11456,"Ġnomini":11457,"Ġlongi":11458,"Ġvestros":11459,"Ġcaelius":11460,"Ġaetoli":11461,"Ġmemorat":11462,"Ġstudiose":11463,"Ġtimere":11464,"Ġuiro":11465,"Ġnescis":11466,"Ġceleberrim":11467,"Ġastu":11468,"Ġchristiani":11469,"Ġcassio":11470,"Ġinterfecto":11471,"Ġripa":11472,"Ġbritanniam":11473,"Ġtardius":11474,"Ġinstructa":11475,"Ġdomesticis":11476,"Ġmisericordiam":11477,"Ġplaga":11478,"Ġsibimet":11479,"Ġbrachia":11480,"Ġfefellit":11481,"Ġeuseb":11482,"\"?":11483,"sup":11484,"ulare":11485,"Ġconsequi":11486,"Ġutilius":11487,"iturae":11488,"Ġamm":11489,"exisse":11490,"Ġanimas":11491,"Ġvoles":11492,"Ġcomple":11493,"Ġnihilque":11494,"Ġconcurr":11495,"Ġlatron":11496,"Ġchir":11497,"Ġpraesentem":11498,"Ġtransitum":11499,"Ġ50":11500,"Ġgalba":11501,"Ġcollum":11502,"Ġsextus":11503,"Ġturc":11504,"Ġscribendum":11505,"Ġarca":11506,"Ġmulieri":11507,"Ġmittunt":11508,"Ġprest":11509,"Ġdifficilis":11510,"Ġnobilitas":11511,"Ġfallere":11512,"Ġfacultatibus":11513,"Ġinterrogauit":11514,"Ġignobiles":11515,"quadrig":11516,"Ġoctoginta":11517,"Ġhotan":11518,"ns":11519,"uendum":11520,"ose":11521,"Ġutiles":11522,"Ġutimur":11523,"Ġcoag":11524,"iste":11525,"Ġtempor":11526,"Ġdecoc":11527,"Ġmagnitudinis":11528,"Ġnullae":11529,"Ġluct":11530,"Ġdebell":11531,"Ġmedull":11532,"Ġfecissent":11533,"Ġcaeselli":11534,"Ġvestem":11535,"Ġcolles":11536,"Ġplacitum":11537,"Ġpraestitit":11538,"Ġmeridie":11539,"Ġmoles":11540,"Ġiulii":11541,"Ġfundi":11542,"Ġmartem":11543,"Ġnoluisse":11544,"Ġconueniret":11545,"Ġdiuisit":11546,"Ġcadere":11547,"Ġcohortis":11548,"Ġeruditi":11549,"Ġherodes":11550,"Ġhastam":11551,"Ġapril":11552,"Ġmartyrum":11553,"Ġvarietate":11554,"Ġcleopat":11555,"Ġhasdrubal":11556,"Ġaiebat":11557,"Ġcyr":11558,"Ġdog":11559,"Ġnih":11560,"Ġvn":11561,"Ġferis":11562,"icarum":11563,"Ġreor":11564,"Ġscut":11565,"Ġscimus":11566,"Ġabsit":11567,"Ġhabuere":11568,"Ġaluum":11569,"Ġantoni":11570,"Ġvirid":11571,"Ġregressus":11572,"Ġcuruli":11573,"Ġmultisque":11574,"Ġsuperauit":11575,"Ġvolebat":11576,"Ġphyl":11577,"Ġauderet":11578,"Ġauditum":11579,"rico":11580,"Ġconsulere":11581,"Ġfrui":11582,"Ġquantumque":11583,"Ġseruili":11584,"Ġmilitares":11585,"Ġhumi":11586,"Ġlactis":11587,"Ġnomenque":11588,"Ġmutuo":11589,"Ġusquequaque":11590,"Ġfabulis":11591,"Ġfabulas":11592,"Ġcaptis":11593,"Ġnuntios":11594,"Ġpassum":11595,"Ġclarissimi":11596,"Ġobseruatione":11597,"Ġgallien":11598,"Ġtriumphus":11599,"Ġciceron":11600,"Ġpossessionis":11601,"Ġcampi":11602,"Ġconueniunt":11603,"Ġfinxit":11604,"Ġobtrect":11605,"Ġtempestas":11606,"Ġdelectat":11607,"Ġimmortalibus":11608,"Ġserpens":11609,"Ġradice":11610,"Ġdeprehend":11611,"Ġancilla":11612,"pra":11613,"Ġpanis":11614,"Ġteret":11615,"Ġaditum":11616,"aculi":11617,"Ġconpar":11618,"Ġgeg":11619,"Ġpleno":11620,"Ġobn":11621,"Ġqualibet":11622,"Ġsolebant":11623,"Ġsubueni":11624,"Ġcladem":11625,"Ġvenund":11626,"Ġthem":11627,"Ġnecessariis":11628,"Ġconuentum":11629,"Ġdimidium":11630,"Ġcontinentur":11631,"Ġquadri":11632,"Ġintrauit":11633,"Ġperpetuam":11634,"Ġmateriae":11635,"Ġscriptura":11636,"Ġvacuum":11637,"Ġsarrac":11638,"Ġtumultum":11639,"Ġauxiliis":11640,"Ġpraeclara":11641,"Ġanteced":11642,"90":11643,"Ġmamm":11644,"etibus":11645,"Ġlustra":11646,"alas":11647,"ensos":11648,"obard":11649,"ander":11650,"Ġerog":11651,"Ġimperi":11652,"Ġflores":11653,"Ġvocauit":11654,"Ġscriptam":11655,"Ġsenio":11656,"Ġrepraes":11657,"Ġquosque":11658,"Ġcuiuslibet":11659,"Ġcolores":11660,"Ġcastella":11661,"Ġpersae":11662,"Ġciuilia":11663,"Ġdeterm":11664,"Ġsepten":11665,"Ġmuta":11666,"Ġauctoritates":11667,"Ġcaptiuit":11668,"iform":11669,"Ġcausamque":11670,"Ġauster":11671,"Ġvigili":11672,"Ġbarba":11673,"Ġpudoris":11674,"Ġpraemiis":11675,"Ġpraebere":11676,"Ġsaepenumero":11677,"Ġsubiecta":11678,"Ġmasin":11679,"Ġdolabellam":11680,"Ġcacum":11681,"rut":11682,"Ġaren":11683,"Ġquati":11684,"icii":11685,"anea":11686,"Ġsev":11687,"Ġscito":11688,"Ġuiam":11689,"Ġcontex":11690,"Ġsubegit":11691,"Ġagath":11692,"Ġsuperque":11693,"Ġminas":11694,"Ġgrandi":11695,"Ġsumere":11696,"Ġoccidi":11697,"Ġcarth":11698,"Ġexpress":11699,"Ġsemine":11700,"Ġdiuinam":11701,"Ġcolch":11702,"Ġcaep":11703,"Ġcertatim":11704,"Ġrerumque":11705,"Ġprobatur":11706,"Ġdedisti":11707,"Ġaeger":11708,"Ġindicat":11709,"Ġquaestionis":11710,"Ġquartam":11711,"Ġquaesita":11712,"Ġantiquitatis":11713,"Ġcogitatione":11714,"Ġtempestates":11715,"Ġcantu":11716,"Ġpropinquis":11717,"Ġaegypti":11718,"Ġcassium":11719,"Ġplaust":11720,"Ġambiguum":11721,"Ġurget":11722,"Ġsuffragium":11723,"Ġrescripsit":11724,"Ġpulcherrima":11725,"Ġcallist":11726,"Ġantiquitas":11727,"Ġstrage":11728,"Ġrepperi":11729,"Ġdemocritus":11730,"Ġfacillime":11731,"Ġexerce":11732,"Ġperipatet":11733,"ful":11734,"hinc":11735,"pen":11736,"Ġago":11737,"Ġasell":11738,"amini":11739,"Ġvec":11740,"Ġtectum":11741,"iden":11742,"Ġlxxx":11743,"Ġexorn":11744,"Ġgenti":11745,"ectas":11746,"Ġpraeg":11747,"Ġoram":11748,"Ġalam":11749,"Ġsuburb":11750,"Ġmarium":11751,"Ġauxit":11752,"Ġnihilominus":11753,"Ġfero":11754,"fectum":11755,"Ġconsulares":11756,"Ġvestis":11757,"Ġcognitis":11758,"Ġconstantiam":11759,"Ġdonatum":11760,"Ġcredas":11761,"Ġviiii":11762,"Ġperpetuae":11763,"Ġvergili":11764,"Ġsono":11765,"Ġnigrum":11766,"Ġfrequentia":11767,"Ġsagunt":11768,"Ġdextram":11769,"Ġtempestatibus":11770,"Ġvictorem":11771,"Ġascendit":11772,"Ġsuspicio":11773,"Ġobiecta":11774,"Ġecclesiam":11775,"Ġdiiudic":11776,"prime":11777,"Ġsardinia":11778,"Ġincondit":11779,"Ġintentionem":11780,"Ġscopulos":11781,"Ġiohanni":11782,"Ġpraeual":11783,"Ġseneca":11784,"Ġbrundisium":11785,"long":11786,"xerat":11787,"enia":11788,"Ġprona":11789,"estor":11790,"ensu":11791,"licis":11792,"Ġplor":11793,"Ġamissis":11794,"Ġquaerunt":11795,"Ġappellatione":11796,"Ġduceret":11797,"Ġepir":11798,"Ġundecim":11799,"Ġomnesque":11800,"Ġdemens":11801,"Ġleon":11802,"Ġspeci":11803,"Ġfurto":11804,"Ġaccipiat":11805,"Ġgemmis":11806,"Ġuictus":11807,"Ġtitulum":11808,"Ġuocant":11809,"Ġnobilitate":11810,"Ġfallit":11811,"Ġincipiunt":11812,"Ġfrancis":11813,"Ġiactura":11814,"Ġlegitima":11815,"Ġincendia":11816,"Ġlibidinis":11817,"Ġmaiestas":11818,"Ġbenedic":11819,"Ġceciderunt":11820,"Ġpascha":11821,"pae":11822,"sanc":11823,"uent":11824,"Ġdaem":11825,"inare":11826,"urs":11827,"etque":11828,"ulere":11829,"Ġgerit":11830,"Ġconstern":11831,"Ġaruis":11832,"Ġplu":11833,"Ġnecnon":11834,"Ġinteremit":11835,"Ġcommotus":11836,"ienter":11837,"Ġinferos":11838,"Ġfueris":11839,"Ġvitiorum":11840,"Ġconsularibus":11841,"Ġposses":11842,"Ġcaelio":11843,"Ġnouos":11844,"Ġcalefac":11845,"Ġlaudari":11846,"Ġsignificaret":11847,"renti":11848,"Ġ62":11849,"Ġdonatus":11850,"Ġaequitate":11851,"Ġullis":11852,"Ġvoluntates":11853,"Ġtormenta":11854,"Ġreliquerunt":11855,"Ġinsignes":11856,"Ġpossessiones":11857,"Ġictum":11858,"Ġmeminimus":11859,"Ġsubtili":11860,"Ġbelg":11861,"Ġnubila":11862,"Ġpremit":11863,"Ġmessalae":11864,"Ġadulterio":11865,"Ġuictoriam":11866,"Ġgreges":11867,"Ġomnimodo":11868,"60":11869,"aug":11870,"fur":11871,"Ġnarb":11872,"Ġexin":11873,"abula":11874,"itatos":11875,"Ġplant":11876,"ulimus":11877,"Ġsitus":11878,"Ġsuperatus":11879,"Ġminis":11880,"Ġhonori":11881,"Ġubert":11882,"Ġnosque":11883,"rasset":11884,"Ġeffemin":11885,"Ġscribendi":11886,"Ġcongress":11887,"Ġturbam":11888,"Ġproximi":11889,"Ġgestae":11890,"Ġadiecit":11891,"Ġexsecut":11892,"Ġdialis":11893,"Ġpeccatis":11894,"Ġsuasit":11895,"Ġerroribus":11896,"Ġrelata":11897,"Ġreceptum":11898,"Ġdefinit":11899,"Ġpisces":11900,"Ġferias":11901,"Ġmurmure":11902,"Ġcusp":11903,"mentum":11904,"tuti":11905,"xerit":11906,"eritur":11907,"Ġconsed":11908,"Ġperite":11909,"Ġrug":11910,"Ġritus":11911,"Ġfactu":11912,"Ġcomas":11913,"Ġsolemn":11914,"iisse":11915,"Ġflos":11916,"Ġfortassis":11917,"Ġdebebit":11918,"Ġmemores":11919,"Ġtotos":11920,"Ġ47":11921,"Ġiubere":11922,"Ġhorren":11923,"Ġgemina":11924,"Ġuiris":11925,"Ġinportun":11926,"Ġreperiri":11927,"Ġantiquiores":11928,"Ġstatuas":11929,"Ġdefensionem":11930,"Ġoccasu":11931,"Ġsaepissime":11932,"Ġnotaui":11933,"Ġatheniensis":11934,"Ġrudes":11935,"Ġbritannia":11936,"Ġresistere":11937,"Ġsincer":11938,"menon":11939,"Ġeuripides":11940,"Ġmedicina":11941,"Ġeuadere":11942,"Ġuellet":11943,"Ġpericlit":11944,"eatis":11945,"fest":11946,"mum":11947,"ĠÏĥ":11948,"errab":11949,"Ġpelli":11950,"Ġnect":11951,"entii":11952,"ope":11953,"rarent":11954,"Ġrim":11955,"Ġaceto":11956,"Ġsedere":11957,"Ġpraep":11958,"Ġuere":11959,"empli":11960,"Ġinco":11961,"Ġiurec":11962,"Ġdiscessit":11963,"Ġcaesis":11964,"Ġ38":11965,"Ġtransit":11966,"Ġfurorem":11967,"Ġiubebat":11968,"Ġmulieribus":11969,"Ġdiffer":11970,"Ġproteg":11971,"Ġrapta":11972,"Ġsaxis":11973,"Ġprudentiam":11974,"Ġmouetur":11975,"iaci":11976,"Ġpatrie":11977,"Ġsubsidium":11978,"Ġproducta":11979,"Ġpatiuntur":11980,"Ġclementiam":11981,"Ġfrugibus":11982,"Ġpuellam":11983,"Ġcrescere":11984,"Ġaethera":11985,"rebant":11986,"Ġnocturna":11987,"Ġeuasit":11988,"Ġpoematis":11989,"Ġscorp":11990,"rym":11991,"val":11992,"Ġiuri":11993,"Ġce":11994,"Ġhet":11995,"Ġdelin":11996,"opi":11997,"Ġuali":11998,"arie":11999,"Ġhabito":12000,"Ġconturb":12001,"Ġlegitur":12002,"Ġaguntur":12003,"Ġclo":12004,"Ġgrandis":12005,"Ġimpar":12006,"Ġimportun":12007,"ingere":12008,"Ġrectum":12009,"Ġmaximae":12010,"Ġcerti":12011,"Ġtributa":12012,"Ġprobabilius":12013,"Ġiustae":12014,"Ġcollis":12015,"Ġdelata":12016,"Ġpecuniis":12017,"Ġuera":12018,"Ġcelebrata":12019,"Ġvultum":12020,"Ġprudenter":12021,"Ġotia":12022,"Ġuideri":12023,"Ġconuiuia":12024,"Ġsubtil":12025,"Ġseruitute":12026,"Ġimber":12027,"Ġtuber":12028,"Ġtubero":12029,"Ġlamb":12030,"Ġsacrificium":12031,"Ġliberalitate":12032,"Ġcommeatus":12033,"________":12034,"Ġcomplexus":12035,"familias":12036,"eon":12037,"uso":12038,"atiusque":12039,"Ġexempli":12040,"Ġconquis":12041,"oret":12042,"istae":12043,"Ġcomitibus":12044,"uisque":12045,"adis":12046,"Ġcorrepta":12047,"Ġcommin":12048,"Ġtumulo":12049,"Ġductu":12050,"Ġputa":12051,"Ġtransitus":12052,"pleb":12053,"Ġdisert":12054,"Ġfacienda":12055,"Ġultimo":12056,"Ġactionis":12057,"Ġpronep":12058,"Ġcommodius":12059,"Ġlaborat":12060,"Ġfuisti":12061,"Ġpure":12062,"Ġseruitutis":12063,"Ġiucundum":12064,"Ġflammas":12065,"Ġmansit":12066,"Ġsoloecism":12067,"Ġcrescit":12068,"Ġobliuis":12069,"Ġquinctio":12070,"Ġhispani":12071,"Ġhymenae":12072,"Ġstomachum":12073,"Ġceph":12074,"Ġvotum":12075,"ilae":12076,"Ġatra":12077,"Ġangu":12078,"Ġplenam":12079,"iuorum":12080,"Ġlegione":12081,"Ġinconsult":12082,"Ġimpia":12083,"Ġrescrib":12084,"Ġrecessit":12085,"Ġcuiuscumque":12086,"ograph":12087,"Ġmathem":12088,"Ġelabor":12089,"Ġsaeu":12090,"Ġuerb":12091,"Ġpontem":12092,"Ġmerg":12093,"Ġsequatur":12094,"Ġquaesiuit":12095,"Ġaperta":12096,"Ġoner":12097,"Ġefficitur":12098,"Ġgrammaticorum":12099,"Ġaccidens":12100,"Ġhospitio":12101,"Ġomis":12102,"Ġtroiae":12103,"Ġsaeculis":12104,"Ġspart":12105,"Ġapostoli":12106,"Ġsyracusis":12107,"Ġceperunt":12108,"Ġnonnulla":12109,"Ġtutelae":12110,"Ġdemosthenis":12111,"ye":12112,"erx":12113,"onea":12114,"Ġnatis":12115,"Ġlem":12116,"acibus":12117,"Ġutebatur":12118,"Ġcauc":12119,"Ġcarent":12120,"Ġateius":12121,"Ġanan":12122,"Ġorg":12123,"Ġoratoris":12124,"Ġvocationem":12125,"Ġaudax":12126,"ationemque":12127,"Ġpraesentiam":12128,"Ġepi":12129,"Ġredde":12130,"Ġindutus":12131,"Ġelap":12132,"Ġmetaph":12133,"Ġsuscepta":12134,"Ġliberales":12135,"Ġpromou":12136,"Ġcaptae":12137,"Ġaurig":12138,"Ġalexandria":12139,"Ġaduol":12140,"Ġuiros":12141,"Ġantiquo":12142,"Ġxiiii":12143,"Ġprudentiae":12144,"Ġpelopon":12145,"Ġnobilitatis":12146,"Ġpyren":12147,"ÏħÏĢ":12148,"Ġtroia":12149,"Ġvendidit":12150,"conf":12151,"Ġvetustas":12152,"Ġsciendum":12153,"Ġcalamitate":12154,"Ġmagistratuum":12155,"Ġpatricio":12156,"Ġdoctrinae":12157,"Ġpatrimonium":12158,"Ġoffendimus":12159,"Ġstipendia":12160,"Ġpestilentia":12161,"33":12162,"Ġpura":12163,"Ġvendere":12164,"Ġtutus":12165,"iamur":12166,"Ġlique":12167,"andumque":12168,"Ġerrasse":12169,"igere":12170,"Ġvidebat":12171,"Ġlibyc":12172,"Ġpateretur":12173,"Ġsubeunt":12174,"ada":12175,"Ġagr":12176,"esco":12177,"Ġimprud":12178,"Ġmoratus":12179,"Ġcredam":12180,"Ġubicumque":12181,"Ġiussis":12182,"Ġconfer":12183,"Ġpute":12184,"Ġdiuort":12185,"utiarum":12186,"Ġsocius":12187,"ontes":12188,"Ġostia":12189,"Ġcrederet":12190,"Ġcasp":12191,"Ġdimis":12192,"Ġsyph":12193,"Ġfuturam":12194,"Ġaquile":12195,"Ġludorum":12196,"Ġrepertum":12197,"Ġstatua":12198,"Ġconstitui":12199,"Ġfraus":12200,"Ġsuccessionem":12201,"Ġsomnum":12202,"Ġlimen":12203,"agog":12204,"Ġspoliis":12205,"Ġauferre":12206,"primis":12207,"Ġpraeclare":12208,"Ġdomitius":12209,"Ġmesopotam":12210,"Ġpelagi":12211,"Ġincorrupt":12212,"Ġdoctrinarum":12213,"dec":12214,"gl":12215,"ioma":12216,"kei":12217,"reis":12218,"Ġdas":12219,"Ġdabatur":12220,"esus":12221,"ariter":12222,"Ġuterentur":12223,"Ġdicet":12224,"Ġaram":12225,"Ġcomite":12226,"Ġamori":12227,"Ġviderent":12228,"essa":12229,"essum":12230,"Ġlegionem":12231,"Ġunicum":12232,"iane":12233,"Ġpubli":12234,"Ġquisnam":12235,"Ġmord":12236,"Ġfiebat":12237,"Ġcastren":12238,"Ġpraetorum":12239,"Ġimmob":12240,"Ġfortune":12241,"Ġvenientes":12242,"Ġoppidis":12243,"Ġdiscipulus":12244,"Ġtalionem":12245,"Ġversari":12246,"Ġtraduntur":12247,"Ġredderet":12248,"Ġsapientis":12249,"Ġdispend":12250,"Ġhumanitate":12251,"Ġsubstantiae":12252,"Ġmusa":12253,"Ġapparatus":12254,"Ġposcit":12255,"Ġligna":12256,"Ġincendium":12257,"Ġpignora":12258,"Ġreuersi":12259,"Ġnummos":12260,"Ġplauto":12261,"Ġmurmur":12262,"Ġiohannes":12263,"Ġnihili":12264,"koi":12265,"Ġstabat":12266,"Ġderi":12267,"Ġdamus":12268,"Ġfusc":12269,"ulf":12270,"Ġprid":12271,"Ġlati":12272,"Ġexi":12273,"Ġperempt":12274,"Ġratum":12275,"Ġans":12276,"Ġomnipot":12277,"Ġpotum":12278,"Ġenimuero":12279,"Ġdecimum":12280,"Ġgenitum":12281,"Ġmaneat":12282,"Ġmagne":12283,"Ġimpati":12284,"Ġauo":12285,"Ġcarus":12286,"Ġvidear":12287,"Ġhostili":12288,"Ġconclam":12289,"Ġdiuidit":12290,"Ġcastrum":12291,"Ġviso":12292,"Ġhumo":12293,"Ġegere":12294,"Ġabsentem":12295,"Ġsignificationem":12296,"Ġpoma":12297,"Ġprofectum":12298,"Ġadfert":12299,"Ġvigor":12300,"Ġherede":12301,"Ġquaestionum":12302,"Ġtormentis":12303,"Ġnuntiata":12304,"Ġbarbarum":12305,"Ġbarbara":12306,"Ġinteger":12307,"Ġpostulauit":12308,"Ġnutu":12309,"Ġcrudelis":12310,"Ġpestis":12311,"Ġfontibus":12312,"efact":12313,"Ġcomprehend":12314,"Ġrestituere":12315,"Ġexhered":12316,"Ġequestri":12317,"Ġlabeonem":12318,"Ġvestibulum":12319,"Ġpomponius":12320,"65":12321,"Ġcym":12322,"Ġnanc":12323,"Ġmug":12324,"initate":12325,"ibant":12326,"Ġdirexit":12327,"Ġaceru":12328,"Ġcogitur":12329,"Ġdicetur":12330,"Ġcomis":12331,"Ġcomitatu":12332,"Ġromulo":12333,"Ġlegebatur":12334,"Ġcapiat":12335,"Ġtantas":12336,"Ġinfert":12337,"Ġdiscord":12338,"Ġvestimenta":12339,"Ġseruilius":12340,"Ġregnat":12341,"Ġpatroc":12342,"Ġpatrono":12343,"Ġdetulit":12344,"Ġdepren":12345,"Ġsepting":12346,"Ġprofecta":12347,"achi":12348,"Ġcogi":12349,"Ġfluuio":12350,"Ġproximam":12351,"Ġgrauia":12352,"Ġmandatis":12353,"Ġaltitudinem":12354,"Ġpraefin":12355,"Ġuenerunt":12356,"Ġsidus":12357,"Ġtulerit":12358,"Ġcrudeli":12359,"Ġblanda":12360,"Ġexterna":12361,"Ġvendid":12362,"Ġbeatus":12363,"Ġrufus":12364,"Î·Î½":12365,"Ġfebru":12366,"Ġtangit":12367,"Ġeuripidi":12368,"uigil":12369,"iatus":12370,"kon":12371,"leo":12372,"Ġeub":12373,"Ġvili":12374,"Ġtendit":12375,"Ġtaet":12376,"Ġrefic":12377,"ilc":12378,"Ġcoal":12379,"Ġparas":12380,"Ġuas":12381,"Ġhabui":12382,"Ġpostulas":12383,"Ġagente":12384,"Ġageretur":12385,"Ġmodico":12386,"Ġsecretum":12387,"Ġmanlio":12388,"iasque":12389,"Ġinuali":12390,"Ġlucrum":12391,"Ġpetita":12392,"iciat":12393,"Ġreduxit":12394,"Ġmetellum":12395,"ionesque":12396,"ontem":12397,"Ġquinti":12398,"Ġiustinus":12399,"Ġturres":12400,"Ġnotam":12401,"Ġfuturis":12402,"Ġtriumuir":12403,"Ġreliquisse":12404,"Ġscelera":12405,"Ġinimicorum":12406,"Ġtriumphos":12407,"Ġvoluptati":12408,"Ġcondicionis":12409,"Ġimbec":12410,"Ġnepotis":12411,"Ġhebet":12412,"Ġdote":12413,"Ġradiis":12414,"Ġadscripsi":12415,"Ġindocti":12416,"Ġpudicitia":12417,"Ġdiogenes":12418,"Ġligusticum":12419,"mate":12420,"uel":12421,"Ġpio":12422,"att":12423,"osae":12424,"identes":12425,"Ġgelli":12426,"ensae":12427,"Ġsedit":12428,"pti":12429,"Ġparibus":12430,"Ġuag":12431,"Ġaph":12432,"Ġhabuisset":12433,"quamur":12434,"Ġpositam":12435,"Ġsoliti":12436,"Ġsubleu":12437,"Ġtue":12438,"ianam":12439,"Ġvolc":12440,"Ġconstruc":12441,"Ġingentis":12442,"Ġlucri":12443,"Ġdeberi":12444,"Ġreferam":12445,"Ġprodidit":12446,"Ġexistimaui":12447,"rabant":12448,"Ġvoluntati":12449,"Ġodore":12450,"Ġfuturo":12451,"Ġmiracula":12452,"Î±Î½":12453,"Ġreliquerit":12454,"Ġfelici":12455,"Ġmarcelli":12456,"Ġvixisse":12457,"Ġresponderit":12458,"Ġtulisse":12459,"Ġtristes":12460,"Ġnube":12461,"Ġmanifesto":12462,"Ġerudit":12463,"Ġpiscibus":12464,"Ġmoleste":12465,"Ġcladis":12466,"Ġconsiderandum":12467,"Ġhellesp":12468,"Ġsupplem":12469,"Ġanastasius":12470,"Ġreconcili":12471,"Ġpromontorium":12472,"Ġaruspic":12473,"Ġrepraesent":12474,"Ġhellespont":12475,"med":12476,"quar":12477,"Ġav":12478,"isteret":12479,"Ġpunc":12480,"Ġparet":12481,"Ġcibi":12482,"orsus":12483,"aco":12484,"Ġget":12485,"Ġsei":12486,"Ġdicentem":12487,"areque":12488,"ebar":12489,"Ġvidete":12490,"Ġobj":12491,"Ġinsan":12492,"Ġimpun":12493,"Ġviueret":12494,"Ġappellatos":12495,"Ġalterc":12496,"Ġputare":12497,"Ġdiuinum":12498,"Ġcognitio":12499,"Ġseruio":12500,"Ġ54":12501,"Ġnecessariam":12502,"Ġambitus":12503,"Ġkalon":12504,"Ġnegotiat":12505,"Ġplusc":12506,"Ġiunius":12507,"Ġherbis":12508,"Ġpreterea":12509,"Ġpraedictum":12510,"Ġdoctorum":12511,"Ġepiscopis":12512,"Ġsortis":12513,"Ġadhibere":12514,"Ġmonstrum":12515,"Ġobstin":12516,"Ġreceptus":12517,"Ġridic":12518,"Ġperuenerunt":12519,"Ġinstrumenta":12520,"Ġlucretius":12521,"Ġvolumina":12522,"fug":12523,"myr":12524,"Ġpip":12525,"atenus":12526,"Ġtudit":12527,"Ġconcepta":12528,"Ġsir":12529,"Ġscena":12530,"Ġflorem":12531,"Ġvocatum":12532,"Ġappius":12533,"Ġaudiuimus":12534,"Ġoccurrere":12535,"Ġmorae":12536,"Ġfidibus":12537,"Ġelectus":12538,"Ġemic":12539,"Ġfugientes":12540,"Ġliberam":12541,"Ġpatrologia":12542,"Ġpomis":12543,"Ġdubie":12544,"iantes":12545,"Ġingeniis":12546,"Ġcelebrat":12547,"Ġparenti":12548,"Ġquoties":12549,"Ġredditur":12550,"Ġaurelio":12551,"Ġpraesidii":12552,"Ġcustodiri":12553,"Ġvarrone":12554,"Ġrufi":12555,"Ġfruges":12556,"Ġlament":12557,"Ġgothi":12558,"Ġmachin":12559,"Ġincolumi":12560,"Ġcognomento":12561,"Ġachilles":12562,"Ġnolle":12563,"Ġpromunturium":12564,"praepetes":12565,"Ġappropinqu":12566,"ira":12567,"logism":12568,"pec":12569,"ribi":12570,"Ġaia":12571,"itarum":12572,"ligo":12573,"anto":12574,"Ġdeuo":12575,"Ġsella":12576,"Ġacqui":12577,"Ġcoetus":12578,"Ġconstabat":12579,"andisque":12580,"edo":12581,"issimumque":12582,"Ġoratorum":12583,"Ġcontendere":12584,"Ġsuperat":12585,"Ġgramine":12586,"Ġfortissimus":12587,"Ġcara":12588,"Ġconcord":12589,"Ġlongitudinem":12590,"Ġpraecell":12591,"Ġnov":12592,"Ġtimens":12593,"Ġpriuatae":12594,"Ġhoratius":12595,"Ġbreuitate":12596,"Ġolei":12597,"Ġclaro":12598,"ruxit":12599,"Ġaureum":12600,"Ġgalliarum":12601,"Ġnigra":12602,"Ġgallum":12603,"ÎµÏĥ":12604,"Ġcertaminibus":12605,"Ġconueniens":12606,"Ġconditum":12607,"Ġdulci":12608,"Ġconspici":12609,"Ġexspecta":12610,"Ġcuimodi":12611,"Ġsaeculo":12612,"Ġabscond":12613,"Ġcoelum":12614,"Ġlentulus":12615,"Ġpaenitet":12616,"manub":12617,"Ġkyam":12618,"Ġafranius":12619,"Ġtarquinio":12620,"Ġandrocl":12621,"sap":12622,"itantem":12623,"Ġtomus":12624,"Ġfudit":12625,"urii":12626,"Ġparuae":12627,"Ġmodulis":12628,"Ġgenas":12629,"Ġvenet":12630,"Ġveniant":12631,"Ġimpp":12632,"Ġimput":12633,"Ġaudientibus":12634,"Ġoccisi":12635,"Ġfronde":12636,"Ġepulis":12637,"Ġelud":12638,"Ġvestrorum":12639,"Ġamice":12640,"osci":12641,"Ġtestium":12642,"Ġcalce":12643,"Ġordinum":12644,"Ġdoctis":12645,"Ġnotas":12646,"Ġformas":12647,"Ġepistulas":12648,"Ġedita":12649,"Ġseuerum":12650,"Ġhaem":12651,"Ġcandido":12652,"Ġprorog":12653,"Ġmembrorum":12654,"Ġmeliore":12655,"Ġostenderet":12656,"Ġmusae":12657,"Ġmorbis":12658,"Ġgrauiora":12659,"Ġpunico":12660,"Ġinterfectis":12661,"Ġaeterna":12662,"Ġsustinet":12663,"Ġsciebat":12664,"Ġsullae":12665,"Ġadditis":12666,"Ġauaritiam":12667,"Ġueteres":12668,"Ġiuuentutis":12669,"Ġdulcedine":12670,"Ġcallimachus":12671,"Ġgladiator":12672,"'m":12673,"quoniam":12674,"Ġdaretur":12675,"Ġnationibus":12676,"Ġvoto":12677,"Ġhiis":12678,"Ġpru":12679,"licem":12680,"Ġamisso":12681,"Ġobprob":12682,"Ġimperante":12683,"Ġcorr":12684,"tusque":12685,"Ġcuru":12686,"Ġcommisit":12687,"Ġvolat":12688,"Ġvene":12689,"Ġfortissimi":12690,"inter":12691,"Ġrepon":12692,"Ġlatera":12693,"Ġitur":12694,"iteat":12695,"Ġemitt":12696,"Ġequitatus":12697,"Ġpactum":12698,"Ġhomic":12699,"Ġultimam":12700,"Ġtribunali":12701,"ilesque":12702,"Ġpoetas":12703,"Ġiacere":12704,"Ġpauore":12705,"Ġfinitur":12706,"Ġconscend":12707,"Ġrobor":12708,"Ġnudus":12709,"Ġdaturum":12710,"Ġvetustate":12711,"Ġhiems":12712,"Ġphoebus":12713,"Ġmonumentum":12714,"Ġrumor":12715,"Ġsaturnini":12716,"Ġrespondeas":12717,"personae":12718,"mio":12719,"Ġquestus":12720,"Ġdentibus":12721,"Ġnix":12722,"Ġfod":12723,"entura":12724,"Ġgu":12725,"Ġarrog":12726,"ortis":12727,"Ġquousque":12728,"Ġinteriit":12729,"Ġpatiens":12730,"Ġspha":12731,"Ġcuriose":12732,"Ġsuperc":12733,"Ġimpell":12734,"Ġingem":12735,"Ġconcordiam":12736,"Ġpetebat":12737,"oribusque":12738,"uriarum":12739,"Ġvocabatur":12740,"Ġretrah":12741,"Ġaffectu":12742,"Ġaurium":12743,"Ġsolidi":12744,"Ġlapides":12745,"Ġobtulit":12746,"Ġindigna":12747,"Ġclassibus":12748,"Ġcondicionibus":12749,"Ġsingularem":12750,"Ġsentiunt":12751,"Â»,":12752,"Ġparthorum":12753,"Ġimposuit":12754,"-,":12755,"cuius":12756,"luc":12757,"morta":12758,"rys":12759,"sec":12760,"xisse":12761,"isia":12762,"Ġmature":12763,"Ġferit":12764,"Ġferebant":12765,"ardi":12766,"Ġlani":12767,"Ġaduenit":12768,"endoque":12769,"obiscum":12770,"Ġmaus":12771,"Ġatl":12772,"Ġuult":12773,"Ġhabendum":12774,"Ġstimul":12775,"Ġpostmodum":12776,"itaui":12777,"Ġlites":12778,"Ġingreditur":12779,"asses":12780,"Ġgrauitas":12781,"Ġaduersarios":12782,"Ġfurtis":12783,"Ġhier":12784,"Ġpermotus":12785,"Ġarbitram":12786,"Ġvigilia":12787,"Ġpraecipuum":12788,"Ġole":12789,"Ġsapienter":12790,"Ġdiab":12791,"Ġlecti":12792,"Ġcommodo":12793,"Ġonere":12794,"Ġcognoscit":12795,"Ġmittis":12796,"Ġbibere":12797,"Ġmacedones":12798,"Ġearumque":12799,"Ġcantus":12800,"Ġciborum":12801,"Ġdiuitiis":12802,"Ġpaterna":12803,"Ġadsidue":12804,"Ġexhort":12805,"Ġdesignatus":12806,"Ġanxia":12807,"Ġcontigerit":12808,"Ġsaeuitia":12809,"Ġconcupisc":12810,"Ġossibus":12811,"Ġbracchia":12812,"ah":12813,"Ġdaed":12814,"Ġgust":12815,"andrum":12816,"Ġuulg":12817,"Ġlibellos":12818,"Ġhabebis":12819,"Ġobrep":12820,"Ġalf":12821,"Ġcontion":12822,"Ġdecora":12823,"Ġnostrarum":12824,"Ġsuperiores":12825,"Ġthras":12826,"Ġferendum":12827,"Ġferrent":12828,"Ġcaro":12829,"Ġextinc":12830,"Ġexcid":12831,"Ġemerg":12832,"Ġaetatibus":12833,"Ġcredis":12834,"Ġscribas":12835,"Ġiuberet":12836,"Ġpraestanti":12837,"Ġfreta":12838,"Ġreperiuntur":12839,"Ġintellegis":12840,"Ġindiff":12841,"Ġnolite":12842,"Ġfaen":12843,"Ġalleg":12844,"Ġsuccessorem":12845,"Ġgradibus":12846,"Ġaristotelem":12847,"Ġintrom":12848,"Ġdefunctus":12849,"Ġcognoui":12850,"Ġcapillos":12851,"Ġhorrida":12852,"Ġventurum":12853,"Ġmanubiis":12854,"Ġincredibili":12855,"Ġderiu":12856,"quisi":12857,"Ġmentibus":12858,"Ġinplic":12859,"inii":12860,"aeos":12861,"Ġquietis":12862,"Ġveritus":12863,"riis":12864,"Ġverber":12865,"Ġtempta":12866,"Ġserum":12867,"Ġvolentes":12868,"Ġfilias":12869,"Ġvicino":12870,"Ġmagisque":12871,"Ġnominatus":12872,"Ġpetro":12873,"Ġpetentibus":12874,"Ġputatis":12875,"Ġcaesi":12876,"ilisque":12877,"Ġcognatos":12878,"Ġmisisse":12879,"Ġaequis":12880,"Ġarborem":12881,"Ġfaciebant":12882,"Ġcollecta":12883,"Ġ74":12884,"Ġprose":12885,"Ġlinea":12886,"Ġmaximeque":12887,"Ġcontinuis":12888,"Ġopiniones":12889,"Ġcanibus":12890,"Ġoccidentem":12891,"Ġinimica":12892,"Ġfoederis":12893,"Ġaudierat":12894,"Ġepiscopum":12895,"Ġscriptas":12896,"Ġscriptoris":12897,"Ġlapis":12898,"Ġgladios":12899,"iacis":12900,"Ġennio":12901,"Ġmortale":12902,"Ġgeneraliter":12903,"Ġoceanus":12904,"Ġpraeceptor":12905,"Ġpignoris":12906,"Ġacceperunt":12907,"Ġadnot":12908,"Ġrebelli":12909,"Ġsagittas":12910,"Ġherbas":12911,"ĠÏĢÏģ":12912,"Ġvenefic":12913,"fer":12914,"ko":12915,"Ġmeros":12916,"Ġtus":12917,"Ġtax":12918,"seque":12919,"olon":12920,"otem":12921,"Ġacr":12922,"Ġobe":12923,"Ġpoterunt":12924,"Ġcland":12925,"Ġcomprim":12926,"Ġinfitias":12927,"Ġmedias":12928,"Ġvaluit":12929,"Ġconcidit":12930,"Ġ39":12931,"Ġdominam":12932,"Ġequitatum":12933,"Ġpersis":12934,"Ġimmerito":12935,"Ġ65":12936,"Ġcensu":12937,"Ġtimoris":12938,"Ġsinit":12939,"Ġludum":12940,"Ġepistolam":12941,"Ġcelebri":12942,"Ġadulescentium":12943,"Ġrelinque":12944,"Ġdefensores":12945,"Ġinstitutis":12946,"Ġimaginibus":12947,"Ġcapitonis":12948,"Ġmomenta":12949,"Ġlibidinem":12950,"Ġidoneus":12951,"Ġclausa":12952,"Ġhebrae":12953,"Ġsaul":12954,"Ġmenander":12955,"Ġpelagus":12956,"Ġulpianus":12957,"30":12958,"Ġiidem":12959,"Ġdabitur":12960,"Ġtact":12961,"Ġhest":12962,"idens":12963,"llas":12964,"olaus":12965,"Ġperim":12966,"Ġstatione":12967,"Ġproport":12968,"erato":12969,"Ġannona":12970,"Ġsuperis":12971,"Ġpraerog":12972,"Ġquass":12973,"susque":12974,"Ġthuc":12975,"Ġconcinn":12976,"Ġcoloniam":12977,"Ġdonat":12978,"Ġaediles":12979,"Ġfauorem":12980,"Ġiacob":12981,"Ġcelebratus":12982,"Ġbarbam":12983,"Ġinuenio":12984,"Ġconstitutione":12985,"Ġinlud":12986,"Ġouium":12987,"Ġelegit":12988,"Ġsaxum":12989,"Ġmitteret":12990,"Ġfrigid":12991,"Ġfrigida":12992,"Ġmembrum":12993,"Ġaptus":12994,"Ġlaurent":12995,"Ġeruditus":12996,"Ġpyrg":12997,"Ġconuersus":12998,"Ġteneat":12999,"Ġindutias":13000,"Ġeffigies":13001,"Ġthais":13002,"Ġplerasque":13003,"Ġclandest":13004,"tra":13005,"tionibus":13006,"orii":13007,"Ġined":13008,"iniae":13009,"Ġharen":13010,"Ġdeplor":13011,"elo":13012,"Ġcoacti":13013,"Ġvern":13014,"Ġconsen":13015,"Ġparati":13016,"undos":13017,"Ġtroph":13018,"Ġvidendi":13019,"Ġoriens":13020,"Ġserio":13021,"erentis":13022,"Ġfriu":13023,"Ġignota":13024,"Ġinduit":13025,"Ġcorpor":13026,"Ġquantae":13027,"Ġrefrig":13028,"Ġreferuntur":13029,"Ġcalore":13030,"Ġgemini":13031,"Ġuirorum":13032,"Ġnescire":13033,"Ġlectis":13034,"Ġxxxiii":13035,"Ġoblata":13036,"Ġprohibet":13037,"Ġprogeni":13038,"Ġgermanorum":13039,"Ġinterfecti":13040,"Ġfiduciam":13041,"Ġmodestia":13042,"Ġcontemptum":13043,"Ġcalid":13044,"Ġopulent":13045,"Ġprostern":13046,"los":13047,"Ġpinn":13048,"ulatum":13049,"Ġadesset":13050,"erei":13051,"Ġperenn":13052,"Ġfacerem":13053,"Ġparis":13054,"Ġapron":13055,"Ġopim":13056,"Ġviderit":13057,"Ġstant":13058,"Ġquaerebat":13059,"erias":13060,"Ġlegatio":13061,"exerat":13062,"Ġromanas":13063,"Ġvocata":13064,"Ġdiscendi":13065,"Ġpotestis":13066,"Ġnobilibus":13067,"Ġtraiani":13068,"Ġgraecarum":13069,"Ġmatr":13070,"Ġcertiorem":13071,"raetori":13072,"Ġaduersario":13073,"Ġadmis":13074,"Ġciuilium":13075,"Ġturrim":13076,"Ġturmas":13077,"Ġtribunal":13078,"Ġtertiae":13079,"Ġtimorem":13080,"Ġaequitatis":13081,"tamen":13082,"Ġpolli":13083,"Ġreperire":13084,"Ġquaesisse":13085,"Ġcertaminis":13086,"Ġconscius":13087,"Ġiussisset":13088,"Ġgermanos":13089,"Ġmonstr":13090,"Ġpopularis":13091,"Ġduplici":13092,"Ġullius":13093,"Ġcommendat":13094,"Ġradices":13095,"Ġpanem":13096,"Ġetruria":13097,"Ġhibernis":13098,"Ġmoderatione":13099,"Ġnebul":13100,"Ġcarnific":13101,"host":13102,"homo":13103,"tore":13104,"Ġelix":13105,"Ġciui":13106,"Ġqueri":13107,"onen":13108,"Ġfreto":13109,"osin":13110,"Ġlectus":13111,"Ġlusc":13112,"Ġdeis":13113,"Ġgnae":13114,"iouis":13115,"Ġrates":13116,"Ġvident":13117,"Ġobed":13118,"Ġpositi":13119,"Ġspel":13120,"Ġsereno":13121,"Ġdecore":13122,"Ġsuperare":13123,"Ġminimo":13124,"Ġsupell":13125,"Ġvisere":13126,"Ġeuan":13127,"Ġdonum":13128,"Ġpericulorum":13129,"Ġmutu":13130,"Ġmensa":13131,"Ġdimissis":13132,"Ġdimidiam":13133,"atamque":13134,"Ġantonini":13135,"Ġinpud":13136,"Ġaureos":13137,"ressis":13138,"Ġantiquarum":13139,"Ġdispar":13140,"Ġstatuere":13141,"Ġerrores":13142,"Ġabstinere":13143,"Ġobstup":13144,"Ġreuocare":13145,"Ġpossidere":13146,"Ġdiuinarum":13147,"Ġdifferentiam":13148,"Ġsequebatur":13149,"Ġsusceptus":13150,"opolim":13151,"Ġcensorii":13152,"Ġtransmitt":13153,"Ġroscius":13154,"Ġcaedibus":13155,"Ġagrestes":13156,"homines":13157,"Ġeunuch":13158,"38":13159,"ydid":13160,"Ġaen":13161,"Ġedix":13162,"Ġpali":13163,"Ġinanis":13164,"Ġhap":13165,"Ġhyr":13166,"Ġhung":13167,"llae":13168,"Ġgym":13169,"Ġseb":13170,"Ġveram":13171,"andiu":13172,"Ġillarum":13173,"Ġhabeatur":13174,"Ġfleb":13175,"Ġimposs":13176,"Ġferant":13177,"Ġlite":13178,"Ġingressi":13179,"Ġpetimus":13180,"Ġsignorum":13181,"Ġmalit":13182,"Ġcolere":13183,"Ġextrah":13184,"Ġquantitatem":13185,"Ġseruatum":13186,"Ġnaturaliter":13187,"Ġleone":13188,"Ġliberaliter":13189,"Ġpraeterito":13190,"Ġumeris":13191,"Ġretic":13192,"Ġpraestig":13193,"Ġpompeii":13194,"Ġquaestores":13195,"Ġadhort":13196,"Ġparsimonia":13197,"Ġquartus":13198,"Ġinmin":13199,"Ġfluminum":13200,"Ġfundus":13201,"Ġseueritate":13202,"Ġpraesidis":13203,"Ġasperum":13204,"Ġclasses":13205,"Ġcarthagin":13206,"Ġdefensione":13207,"Ġbibit":13208,"ylum":13209,"Ġaptum":13210,"Ġagitare":13211,"Ġnubibus":13212,"Ġpontificem":13213,"Ġfrumento":13214,"Ġimplet":13215,"Ġnuptiarum":13216,"Ġsocietatis":13217,"Ġraptus":13218,"Ġpiscium":13219,"Ġangustiis":13220,"Ġstabant":13221,"Ġconstantinopolit":13222,"Ġchristianis":13223,"Ġvallo":13224,"Ġpropinquus":13225,"Ġdecreti":13226,"Ġrescind":13227,"fex":13228,"ge":13229,"torem":13230,"tura":13231,"err":13232,"Ġiuram":13233,"Ġnid":13234,"Ġfom":13235,"uton":13236,"Ġabrog":13237,"arint":13238,"Ġlibitum":13239,"Ġdeceat":13240,"ians":13241,"Ġcurrit":13242,"Ġvoluisset":13243,"Ġmagnisque":13244,"Ġinfesta":13245,"Ġthym":13246,"Ġpetat":13247,"Ġcaesus":13248,"Ġtransiit":13249,"Ġliberatus":13250,"Ġplacuisse":13251,"Ġrebusque":13252,"Ġeuentum":13253,"Ġfortunis":13254,"Ġprosus":13255,"Ġexistimaret":13256,"Ġpriuatorum":13257,"Ġplebei":13258,"Ġexemplorum":13259,"Ġquaestorem":13260,"Ġimpetr":13261,"Ġdictorum":13262,"Ġgaudeo":13263,"Ġreliquas":13264,"Ġpretia":13265,"Ġgrauissima":13266,"Ġsupplicia":13267,"Ġchristum":13268,"Ġpulchra":13269,"gaius":13270,"Ġoccisum":13271,"Ġomissa":13272,"Ġincommodum":13273,"Ġvehemens":13274,"Ġauspicio":13275,"Ġcesarem":13276,"Ġiunctis":13277,"Ġparthis":13278,"Ġramis":13279,"Ġpernicie":13280,"Ġsenectae":13281,"Ġstrepitu":13282,"Ġpacuuius":13283,"Ġinfrequens":13284,"Ġcarthago":13285,"Ġiureconsult":13286,"iendis":13287,"mei":13288,"oueri":13289,"ven":13290,"Ġ_":13291,"Ġmact":13292,"oron":13293,"emsp":13294,"enius":13295,"sei":13296,"Ġbac":13297,"Ġuox":13298,"Ġorph":13299,"incip":13300,"Ġvirtuti":13301,"Ġcapua":13302,"Ġsumit":13303,"Ġlituo":13304,"Ġlituus":13305,"rici":13306,"Ġnobile":13307,"Ġprincipatus":13308,"Ġabsentis":13309,"Ġiniquo":13310,"Ġhorae":13311,"ractum":13312,"Ġiulium":13313,"Ġnescius":13314,"Ġantonii":13315,"Ġinped":13316,"Ġtacita":13317,"Ġconstituto":13318,"Ġconstitutis":13319,"Ġstatimque":13320,"Ġuideretur":13321,"Ġpeccata":13322,"Ġprouincialibus":13323,"Ġrepetit":13324,"Ġsomnus":13325,"ÏħÏĦ":13326,"Ġchart":13327,"Ġhiemem":13328,"Ġsimplici":13329,"Ġmatrimonii":13330,"Ġredeo":13331,"Ġrustic":13332,"Ġindiget":13333,"Ġcomoediarum":13334,"Ġamplior":13335,"Ġcommeatu":13336,"Ġrepperit":13337,"Ġdorso":13338,"Ġprouerbium":13339,"Ġanchis":13340,"bib":13341,"his":13342,"Ġcx":13343,"Ġdatae":13344,"Ġine":13345,"Ġfud":13346,"Ġfaut":13347,"Ġheri":13348,"Ġrequis":13349,"Ġexub":13350,"Ġgellius":13351,"Ġperuers":13352,"ellaria":13353,"Ġinterempt":13354,"Ġsoleo":13355,"Ġspati":13356,"Ġcorrec":13357,"Ġagis":13358,"age":13359,"agi":13360,"Ġcurio":13361,"Ġinsult":13362,"Ġprimas":13363,"Ġprimoribus":13364,"Ġcommodi":13365,"Ġcomponere":13366,"Ġkath":13367,"Ġingrat":13368,"Ġrepell":13369,"Ġcirco":13370,"Ġcirculum":13371,"Ġputent":13372,"Ġoppressa":13373,"Ġcolonis":13374,"Ġsocer":13375,"Ġarbiter":13376,"Ġspeculum":13377,"Ġcopiarum":13378,"Ġcredendum":13379,"Ġfurius":13380,"Ġtiberi":13381,"Ġpauor":13382,"Ġdigest":13383,"Ġinlep":13384,"Ġaspicit":13385,"Ġdextrum":13386,"umbere":13387,"Ġpersonarum":13388,"Ġconditae":13389,"Ġexternis":13390,"Ġmorbum":13391,"Ġmomentum":13392,"Ġinsolens":13393,"Ġfontis":13394,"Ġvadimonium":13395,"Ġhypothec":13396,"Ġcapitali":13397,"Ġteneatur":13398,"Ġindulgentia":13399,"Ġrepentina":13400,"Ġsatiet":13401,"Ġcorinthum":13402,"Ġmatronae":13403,"Ġaduerbium":13404,"Ġthucydid":13405,"frat":13406,"sid":13407,"Ġeuert":13408,"Ġpred":13409,"Ġinprop":13410,"icias":13411,"anium":13412,"Ġpriui":13413,"Ġexitia":13414,"Ġgil":13415,"Ġscyph":13416,"Ġfacilem":13417,"Ġpleni":13418,"Ġplaud":13419,"Ġerratum":13420,"Ġobuius":13421,"Ġsera":13422,"Ġinsub":13423,"Ġteres":13424,"Ġsenatorum":13425,"Ġremun":13426,"Ġurban":13427,"Ġka":13428,"Ġliteris":13429,"Ġcarnis":13430,"entesimum":13431,"Ġtenues":13432,"itiem":13433,"Ġ48":13434,"Ġaduersarii":13435,"Ġegreditur":13436,"Ġplaceat":13437,"Ġdeposc":13438,"Ġlinqu":13439,"Ġcommuniter":13440,"Ġvigore":13441,"Ġdictas":13442,"Ġampla":13443,"Ġpraetori":13444,"Ġdiacon":13445,"Ġspectacula":13446,"Ġmartio":13447,"Ġornatu":13448,"Ġiugera":13449,"Ġmeritorum":13450,"Ġappareret":13451,"Ġpropinqui":13452,"Ġcesaris":13453,"Ġvestigio":13454,"Ġsublato":13455,"Ġornamentis":13456,"Ġconsequens":13457,"Ġconceptum":13458,"Ġapposui":13459,"Ġnonnullis":13460,"Ġbiduo":13461,"Ġspelunc":13462,"20":13463,"fero":13464,"rere":13465,"turum":13466,"initatem":13467,"Ġfossa":13468,"Ġhen":13469,"Ġhirc":13470,"ĠhÃ¦":13471,"ibo":13472,"Ġlectum":13473,"Ġadeunt":13474,"Ġutiliter":13475,"Ġamaz":13476,"Ġopta":13477,"Ġhabiti":13478,"Ġhabentur":13479,"Ġtuarum":13480,"Ġincensa":13481,"itali":13482,"Ġinsimul":13483,"Ġmanente":13484,"Ġdebil":13485,"Ġvaleret":13486,"Ġconcin":13487,"Ġpraesent":13488,"Ġignaui":13489,"Ġcognitionem":13490,"illae":13491,"Ġnecessitatibus":13492,"Ġpedis":13493,"Ġiniquis":13494,"Ġdissert":13495,"Ġinpati":13496,"Ġlector":13497,"Ġuidebatur":13498,"Ġsabinis":13499,"Ġsollicitudinem":13500,"Ġsympos":13501,"Ġconuiuiis":13502,"Ġmusis":13503,"Ġinterrogatus":13504,"Ġcedo":13505,"Ġfrumenta":13506,"quoad":13507,"Ġapollinarem":13508,"Ġcoronae":13509,"Ġmomento":13510,"Ġaedificia":13511,"Ġpriori":13512,"Ġvidebis":13513,"Ġpiget":13514,"Ġlacedaemonios":13515,"Ġremedia":13516,"Ġrisu":13517,"Ġceperat":13518,"Ġsacramento":13519,"Ġcontemnere":13520,"Ġxxxvi":13521,"Ġderid":13522,"Ġtarentum":13523,"Ġpraesumpt":13524,"Ġarbitrabatur":13525,"Ġdalm":13526,"Ġpriuign":13527,"Ġq":13528,"ĠÏħÏĢ":13529,"Ġpus":13530,"Ġcedit":13531,"ordi":13532,"esa":13533,"initas":13534,"Ġferebatur":13535,"Ġsuet":13536,"Ġutilem":13537,"Ġperisse":13538,"Ġcaute":13539,"teretur":13540,"tertio":13541,"Ġident":13542,"unditur":13543,"Ġpotuerint":13544,"Ġsolutus":13545,"Ġlegationem":13546,"upit":13547,"Ġauia":13548,"Ġlucul":13549,"Ġvideamus":13550,"linum":13551,"Ġalternis":13552,"Ġcoloniae":13553,"Ġlabris":13554,"Ġdeteg":13555,"Ġconstanter":13556,"Ġnimiam":13557,"Ġfuroris":13558,"Ġhosce":13559,"Ġtabell":13560,"Ġquandoquidem":13561,"Ġintrare":13562,"Ġcelebres":13563,"Ġobseruare":13564,"Ġreddat":13565,"Ġiuueni":13566,"Ġcupiditatem":13567,"Ġciceroni":13568,"Ġaspiciens":13569,"Ġtitulis":13570,"Ġlapsus":13571,"Ġmouent":13572,"Ġfacturos":13573,"Ġphilip":13574,"Ġpereunt":13575,"Ġdulces":13576,"Ġictibus":13577,"Ġmortalis":13578,"errime":13579,"Ġobiectum":13580,"Ġcecin":13581,"Ġdidicit":13582,"Ġcibos":13583,"Ġimprobe":13584,"Ġsumps":13585,"Ġprocurator":13586,"Ġsufficere":13587,"Ġandron":13588,"Ġuisum":13589,"Ġaethiop":13590,"Ġsullam":13591,"Ġinlustrium":13592,"Ġparthos":13593,"Ġdomestica":13594,"Ġcunctorum":13595,"Ġcineres":13596,"Ġtrecentis":13597,"Ġpatrimonii":13598,"Ġexhaus":13599,"Ġirasci":13600,"Ġconuictus":13601,"Ġfideicommissum":13602,"Ġlasciu":13603,"Ġlasciui":13604,"Ġagrippa":13605,"Ġstagna":13606,"Ġdelubra":13607,"Ġcypri":13608,"Ġiesu":13609,"Ġcastricius":13610,"Ġceltib":13611,"Ġdetermin":13612,"fuit":13613,"yre":13614,"Ġpeli":13615,"onon":13616,"Ġneri":13617,"Ġmire":13618,"Ġhoti":13619,"Ġadiac":13620,"odorus":13621,"Ġtractum":13622,"Ġapion":13623,"Ġhabuerint":13624,"Ġpotero":13625,"Ġsubiac":13626,"Ġcuratores":13627,"Ġgeniturae":13628,"Ġparthen":13629,"Ġvalente":13630,"Ġappellabatur":13631,"Ġducebat":13632,"Ġconfite":13633,"Ġgraecus":13634,"Ġindum":13635,"Ġstudii":13636,"Ġiustam":13637,"Ġultionem":13638,"Ġsancte":13639,"Ġcupiunt":13640,"Ġnotata":13641,"Ġpuerper":13642,"Ġodii":13643,"Ġreligios":13644,"Ġnuntiis":13645,"Ġherculi":13646,"Ġreperias":13647,"Ġseueri":13648,"Ġpudorem":13649,"Ġdilect":13650,"Ġloquac":13651,"Ġqueunt":13652,"Ġlectione":13653,"Ġdigitos":13654,"Ġequitem":13655,"Ġmeriti":13656,"Ġeffici":13657,"Ġfrequentes":13658,"Ġtulerunt":13659,"Ġumbram":13660,"Ġdidici":13661,"Ġterminum":13662,"Ġimprobus":13663,"Ġpollicitus":13664,"Ġpossidet":13665,"Ġillustres":13666,"Ġsequebantur":13667,"Ġgothis":13668,"Ġcrassum":13669,"Ġauaritiae":13670,"Ġcontractus":13671,"Ġmenandro":13672,"Ġcomitiorum":13673,"Ġsagitta":13674,"Ġtouton":13675,"eug":13676,"ment":13677,"Ġcereb":13678,"reph":13679,"Ġtons":13680,"aeorum":13681,"icinum":13682,"Ġconati":13683,"Ġgam":13684,"olli":13685,"ueras":13686,"Ġintendere":13687,"Ġlibellis":13688,"Ġobici":13689,"Ġalma":13690,"Ġcontenti":13691,"Ġcontenta":13692,"Ġconterm":13693,"Ġpatimur":13694,"Ġposteris":13695,"Ġagimus":13696,"urbes":13697,"Ġsecura":13698,"Ġnuma":13699,"Ġfortibus":13700,"Ġvicisse":13701,"Ġaudet":13702,"Ġtheo":13703,"Ġingentia":13704,"Ġpossemus":13705,"Ġdesi":13706,"Ġconflig":13707,"Ġoppressit":13708,"Ġsacrae":13709,"Ġamicitias":13710,"Ġfugientem":13711,"Ġdetestab":13712,"Ġdubitauit":13713,"Ġfurt":13714,"Ġnotitia":13715,"aneum":13716,"aneis":13717,"Ġretract":13718,"Ġiacent":13719,"Ġquaestu":13720,"Ġversatus":13721,"Ġreliquae":13722,"Ġcomposito":13723,"Ġarbitratus":13724,"Ġrelictus":13725,"Ġtelorum":13726,"Ġrobust":13727,"Ġpyth":13728,"Ġpunica":13729,"Ġeximia":13730,"Ġscaena":13731,"Ġechei":13732,"Ġficta":13733,"Ġplenius":13734,"Ġsardiniam":13735,"Ġinsequitur":13736,"23":13737,"mature":13738,"Ġeip":13739,"usum":13740,"Ġtred":13741,"Ġinund":13742,"Ġfulc":13743,"Ġlatum":13744,"Ġdeam":13745,"Ġgig":13746,"Ġacu":13747,"iiug":13748,"Ġpraepet":13749,"Ġulix":13750,"unculis":13751,"Ġviderunt":13752,"Ġinternec":13753,"Ġpotior":13754,"Ġpatientiam":13755,"Ġipsumque":13756,"Ġinconst":13757,"Ġagas":13758,"Ġmodos":13759,"Ġromane":13760,"Ġterre":13761,"rima":13762,"Ġaccend":13763,"Ġexprom":13764,"Ġconcid":13765,"Ġconflu":13766,"Ġgaz":13767,"Ġproueni":13768,"Ġoppressus":13769,"Ġmilitare":13770,"Ġradix":13771,"Ġcelerius":13772,"Ġrefut":13773,"Ġcalab":13774,"Ġargos":13775,"Ġcopiose":13776,"Ġturribus":13777,"Ġfurtim":13778,"Ġfabium":13779,
[...]
